. 356588
, 294503
▁ 151503
▁மற்றும் 71772
▁இந்த 38046
▁ஒரு 37866
0 37800
▁என்று 35794
2 35437
▁. 34630
- 29154
▁, 28072
; 27316
▁( 22283
▁அவர் 22111
▁பிரதமர் 20707
▁" 20462
) 18834
▁வேண்டும் 16900
▁என்ற 16666
▁மத்திய 16594
▁உள்ள 15747
த் 15584
" 15301
த்தை 15043
▁திரு 14907
ப் 14851
▁இது 14196
: 14026
▁என 12425
▁நான் 12263
1 12121
த்தின் 11786
▁இந்திய 11692
ங்கள் 11687
▁மூலம் 11349
▁என்றும் 11313
▁அமெரிக்க 11153
▁அவர்கள் 10999
ச் 10599
▁புதிய 10578
▁பல 10338
▁இருந்து 10130
▁இந்தியா 10023
க் 9985
00 9789
ம் 9736
▁அது 9716
த்திற்கு 9708
ல் 9295
▁தேசிய 9170
▁கூறினார் 9126
3 8776
▁' 8690
▁அரசியல் 8590
▁வகையில் 8572
▁மேலும் 8571
▁மக்கள் 8522
▁இருக்கும் 8356
▁அரசு 8350
5 8301
ையும் 8165
' 8017
மான 7961
▁அந்த 7930
ுள்ள 7830
▁பாதுகாப்பு 7791
▁அமைச்சகம் 7772
ங்களை 7678
▁கடந்த 7650
▁முதல் 7609
▁நமது 7605
த்தில் 7551
19 7548
▁உள்ளது 7537
மாக 7469
▁நாம் 7461
▁அல்லது 7431
▁ஆனால் 7393
▁என்பது 7380
▁பொருளாதார 7285
▁தெரிவித்தார் 7201
க்கு 6937
▁அதன் 6907
▁இரு 6892
▁கொண்டு 6887
▁அமைச்சர் 6795
▁சர்வதேச 6769
▁சமூக 6743
▁கர்த்த 6709
▁பற்றி 6613
▁இன்று 6577
▁தனது 6518
▁கொண்ட 6433
▁ஆண்டு 6403
ும் 6369
▁என் 6341
▁உலக 6323
▁குறித்து 6271
▁சில 6259
ர் 6226
▁பல்வேறு 6225
ஷ 6149
▁தலைவர் 6062
வும் 6052
18 6018
▁கோ 6002
4 5921
ுள்ளது 5909
▁செய்ய 5903
ப்பட்டுள்ளது 5895
மும் 5892
▁செய்த 5870
▁நிதி 5856
▁அனைத்து 5844
▁இராணுவ 5785
▁கீழ் 5755
ின் 5723
ைக் 5685
▁முக்கிய 5606
▁துறை 5532
▁இரண்டு 5491
ன 5466
க்கும் 5456
▁என்பதை 5325
▁வரும் 5223
▁கோடி 5220
▁பெரிய 5179
ப்பட 5176
ிக் 5141
ச 5105
▁என்றார் 5101
▁போன்ற 5100
▁மோடி 5039
▁கட்சி 5035
▁வருகிறது 5033
த்தையும் 5001
ன் 4999
▁நாட்டின் 4898
▁திட்டம் 4872
6 4861
ப்பட்ட 4846
? 4836
ுக்கு 4831
ேன் 4820
ிருக்கிறது 4811
▁- 4811
▁ரூ 4766
▁நீங்கள் 4760
▁“ 4750
ோம் 4722
ப்படும் 4712
▁கொள்ள 4687
த்த 4660
▁இருந்த 4655
▁மீது 4648
▁தொடர்ந்து 4635
▁தொழில் 4628
தை 4581
வ 4571
▁வரை 4559
ே 4558
க 4557
▁மிக 4546
▁அரசாங்கம் 4526
து 4521
▁எ 4514
ையை 4492
▁இந்தப் 4490
ிறேன் 4478
▁உறுதி 4471
▁மிகவும் 4442
7 4440
▁பின்னர் 4435
▁இந்தியாவின் 4431
தாக 4428
வில்லை 4414
ாத 4400
ால் 4390
▁பி 4358
▁பற்றிய 4357
▁நிலை 4355
▁அவன் 4353
வர்கள் 4351
ப்ப 4349
▁பொது 4349
ான 4341
பி 4292
ிய 4286
▁ஒவ்வொரு 4273
ின 4266
ிற்கு 4249
மா 4239
▁தான் 4237
▁திட்ட 4234
▁தொழில்நுட்ப 4222
ிற 4221
” 4219
விட் 4215
▁'' 4215
ோ 4202
▁மாநில 4199
ிருந்த 4176
▁முடியும் 4168
17 4156
க்க 4153
▁எந்த 4152
▁தங்கள் 4132
▁நரேந்திர 4131
ங்களில் 4118
டி 4118
ங்களின் 4114
▁ஐ 4114
▁அளவில் 4092
▁வந்த 4070
▁ஆகும் 4068
▁போது 4060
த்துக்கு 4036
▁இல்லை 4028
▁எதிராக 4027
▁– 4027
ிக்க 4019
▁நாங்கள் 4018
ார்கள் 4015
ப 4001
▁ஜனநாயக 3988
ிக்கும் 3984
ந்த 3965
▁நீ 3964
15 3948
▁பெரும் 3940
ிலும் 3929
'' 3922
ுள்ளார் 3922
▁முறையில் 3919
8 3918
▁வேலை 3906
வே 3899
▁புஷ் 3894
வை 3885
வி 3884
ப்பு 3858
ங்களுக்கு 3853
▁செய்து 3841
ர்கள் 3830
▁குறிப்பிட்டார் 3827
வது 3823
ாக 3821
டன் 3811
ை 3809
▁அதிக 3785
ைகளை 3779
▁தற்போது 3770
▁என்ன 3755
▁சுகாதார 3754
." 3748
▁எதிரான 3741
ுடன் 3714
▁நடைபெற்ற 3712
போது 3708
ஷ் 3706
▁ஐரோப்பிய 3696
▁ஒப்புதல் 3691
ிறோம் 3682
▁ஆகிய 3675
▁இடையே 3654
▁நிலையில் 3654
ில் 3649
▁மீண்டும் 3649
▁செய்யும் 3642
▁தேதி 3631
▁குடியரசுத் 3622
ிக்கு 3619
த 3614
▁வர்க்க 3613
▁தேவ 3605
▁அரசாங்க 3597
▁சேர்ந்த 3590
▁சோசலிச 3577
ஸ் 3561
▁கூட 3550
▁அவரது 3538
▁நல 3498
ான் 3483
▁இருந்தது 3463
S 3448
ித்த 3448
▁மேற்கொள்ள 3444
ுடைய 3443
▁தன் 3437
படி 3436
▁நாடு 3428
▁கொ 3359
▁குறிப்பிட்ட 3354
▁தெரிவித்த 3342
▁மூன்று 3336
▁ஜன 3324
ிருக்கும் 3307
▁கல்வி 3306
▁தகவல் 3294
▁பெற்ற 3290
▁அமைச்சரவை 3289
▁கால 3285
▁உருவாக்க 3283
▁இதில் 3278
▁பயன்படுத்த 3276
▁அடிப்படையில் 3273
மே 3269
▁முதலாளித்துவ 3259
ிலே 3252
▁உ 3252
ங்க 3247
▁இன்னும் 3245
▁அமைப்பு 3231
சி 3226
ட்ட 3207
ி 3204
9 3203
▁குறித்த 3203
▁உற்பத்தி 3197
▁போ 3195
ரை 3192
▁அதே 3185
ல 3175
▁இந்தியாவில் 3175
▁சொல்ல 3170
▁முன் 3170
▁வழங்க 3170
ுவதற்கு 3166
▁யுத்த 3164
ப்படுத்த 3161
▁இருக்க 3153
▁லட்சம் 3152
▁வளர்ச்சி 3143
▁தொடர்பான 3138
ரின் 3132
ரோ 3126
ிகளை 3124
▁ஆதரவு 3122
▁அப்பொழுது 3114
▁உங்கள் 3109
▁திட்டத்தின் 3101
▁போர் 3099
ுக் 3086
▁இந்தக் 3081
▁வர்த்தக 3076
▁அரசின் 3069
ம 3067
ுக்கும் 3066
▁இந்தத் 3065
▁ஏற்படுத்த 3045
▁அறிவியல் 3031
▁அன்று 3021
▁ஜனாதிபதி 3021
ட 3010
▁இதன் 3004
ிகள் 3003
ுள்ளன 2998
ருக்கு 2995
த்துடன் 2992
▁இருக்கிறது 2992
▁அத 2985
▁நிறுவனங்கள் 2978
ய 2977
ரும் 2976
ியை 2962
ுள்ளனர் 2960
▁அமெரிக்கா 2934
வாத 2933
ாவின் 2933
▁குமார 2931
▁மே 2918
▁ராஜ 2881
தான் 2876
▁அதிகார 2867
▁மக்களின் 2862
▁உள்ளன 2858
▁கூட்ட 2857
▁சிறந்த 2855
ப்பட்டு 2854
▁டாக்டர் 2852
த்தான் 2849
ங்களையும் 2839
த்துறை 2839
▁தலைமை 2835
த்திற்கும் 2833
▁கூடிய 2828
ங்களும் 2827
▁மருத்துவ 2825
▁எதிர்ப்பு 2821
ுகிறேன் 2807
ஆம் 2806
லை 2805
▁ஏ 2799
▁உன் 2791
▁தொழிலாள 2790
▁அவ 2788
த்து 2785
ரி 2783
லின் 2779
▁கொடுத்த 2779
▁மாதம் 2778
▁நடவடிக்கைகள் 2770
M 2766
ஐ 2766
ைகளுக்கு 2765
C 2764
▁தொழிலாளர்கள் 2764
12 2762
னா 2756
ிலிருந்து 2749
▁திறன் 2747
▁மட்டுமே 2746
▁விமான 2745
ுவது 2744
ஜ 2740
▁பேர் 2738
▁நடவடிக்கை 2716
ற்ற 2707
▁சட்ட 2703
▁முறை 2700
16 2699
▁வேண்டிய 2699
போ 2693
▁குழு 2687
ர்களே 2684
ுத் 2684
▁ஒன்று 2677
▁செய்யப்பட்ட 2675
▁அதற்கு 2673
▁மக்களுக்கு 2670
▁ஆகியவை 2669
▁நெருக்க 2665
ப்பட்டது 2663
ீ 2658
▁அலுவலகம் 2655
▁நோக்கி 2647
e 2638
ப்பை 2636
▁தர 2625
ினால் 2624
▁போக்குவரத்து 2620
▁பங்கு 2619
▁மனித 2617
▁அடுத்த 2615
▁அதிகாரிகள் 2615
▁மேம்படுத்த 2613
த்தைக் 2607
▁இணைந்து 2606
▁நிர்வாக 2599
▁ஆய்வு 2593
ர 2590
▁தேர்தல் 2586
ம்ப 2583
▁கூற 2581
ிட 2571
▁நடவடிக்க 2568
▁வரி 2558
▁நாட்டில் 2547
11 2545
▁சென்ற 2545
ைப் 2542
▁சகோதர 2538
▁பயிற்சி 2538
எஸ் 2535
▁விரும்ப 2535
▁க 2533
▁நேரத்தில் 2531
▁ஒத்துழை 2530
ா 2529
ட் 2526
ிருந்தது 2524
▁எனது 2524
▁மாற்ற 2521
ியில் 2519
▁அதை 2517
14 2516
▁முடிவு 2512
▁கேட்ட 2495
த்தைப் 2492
▁மற்ற 2487
▁கே 2485
▁காலத்தில் 2476
A 2475
ிகளின் 2475
▁இத்தகைய 2470
▁குறிப்பாக 2468
ிருக்கிறார் 2465
▁முழுவதும் 2457
▁காரணமாக 2456
▁செயல்படுத்த 2450
ினார் 2448
▁ஒத்துழைப்பு 2448
▁துறையில் 2442
▁தங்களது 2437
▁தொழிற்சங்க 2435
▁இஸ்ர 2433
▁கண்ட 2428
▁கொள்க 2426
▁சி 2425
நா 2423
▁சிறப்பு 2421
ானது 2420
▁ஒப்பந்தம் 2420
▁மீதான 2416
! 2412
▁எனக்கு 2411
ித்து 2409
ரா 2404
▁மில்லியன் 2404
ாய 2389
▁உதவி 2389
▁சேவை 2384
ுகிற 2381
▁மன 2380
ப்போ 2379
▁உணவு 2379
ாமல் 2376
▁ஆம் 2376
னாகிய 2374
ுவதற்கான 2374
ப்படுகிறது 2372
ைகள் 2365
மை 2363
▁குறைந்த 2363
▁நிறுவனம் 2362
▁ஒரே 2357
▁நண்ப 2357
▁குடும்ப 2356
▁மேற்கொண்ட 2352
மேல் 2351
ிருக்கிற 2350
▁விவாத 2348
), 2346
த்திலும் 2346
▁இப்போது 2346
ுகளை 2344
▁தெரிவ 2342
▁வர 2342
▁செய்தி 2340
▁பெற 2336
ினி 2333
▁நீர் 2332
▁நடத்த 2328
வேண்டும் 2325
ைகளின் 2323
▁அல்ல 2323
ர்களுக்கு 2321
னர் 2317
ிருக்க 2316
▁பட 2316
▁ஹ 2314
▁தமது 2308
வர் 2301
ண்ண 2299
▁தன்னுடைய 2299
வன் 2297
ியின் 2290
ார 2289
தும் 2287
ித்துக் 2285
ுகிறது 2283
ந்து 2282
▁தமிழ் 2282
▁கட்ட 2281
▁புரிந்துணர்வு 2280
▁அவை 2271
▁திட்டங்கள் 2268
▁கூட்டத்தில் 2267
வா 2265
▁முக்கியமான 2256
▁தொடங்க 2255
▁அ 2254
▁நல்ல 2254
தாகவும் 2253
தற்கு 2246
க்கள் 2243
▁படம் 2243
▁கட்சியின் 2239
25 2234
ுக்கான 2234
▁ஆ 2233
▁அளிக்க 2229
▁ஏற்கனவே 2228
P 2226
▁தொடர்பு 2219
▁வந்து 2211
ரே 2210
▁விட 2209
ிப்ப 2203
▁ஷ 2201
▁ஈரா 2198
▁ஐக்கிய 2196
▁சார்ந்த 2196
ர்களை 2195
▁கொடுக்க 2194
▁ஆக 2188
▁தொழிலாளர் 2187
▁பிறகு 2186
▁சதவீத 2182
▁‘ 2182
ிகளுக்கு 2180
▁நடவடிக்கைகளை 2176
▁தீவிர 2175
▁பிரதம 2172
▁நடந்த 2170
▁தொடர்பாக 2167
▁துணை 2166
,000 2163
B 2161
ையில் 2160
▁கொள்கை 2159
▁வரு 2158
▁சா 2154
மோ 2139
ைகளையும் 2139
ார் 2137
▁தனியார் 2137
▁வ 2137
தா 2132
▁நாடுகள் 2128
க்கான 2122
ாவில் 2120
ையின் 2115
▁தொடங்கி 2115
▁அறிவ 2110
▁இல்லாத 2103
▁அவர்களுக்கு 2102
▁கூறிய 2100
ந 2098
ோடு 2096
▁மட்டும் 2096
▁நாட்ட 2094
ைய 2091
ாவ 2088
▁பகுதிகளில் 2087
▁கடன் 2085
னை 2082
ாலும் 2081
லா 2080
▁அவருடைய 2070
ள 2068
▁ந 2068
ாகும் 2065
ைகளில் 2065
▁பேசிய 2063
ருடைய 2061
▁நிர்வாகம் 2061
த்திற்கான 2059
’ 2059
தில் 2058
▁ஆண்டுகளில் 2056
▁குறை 2051
▁நிதிய 2049
▁உள்ளிட்ட 2047
னின் 2044
▁ஈராக் 2041
▁ச 2036
▁சுமார் 2032
▁பகுதியில் 2029
▁அடிப்படை 2025
தன் 2022
▁அளித்த 2011
ர்களின் 2008
▁இதற்கு 2005
▁உட்பட 2005
▁பிர 2005
0- 2002
ிட்ட 2002
ாவை 2001
▁இணைய 2001
த்தால் 2000
▁திட்டத்தை 2000
▁முழு 1995
▁சிறு 1991
ுவ 1988
▁தேவை 1986
ண்ட 1982
▁காண 1977
▁சதவீதம் 1970
▁ஜி 1970
▁ர 1968
▁அவர்களின் 1967
▁எண்ணெய் 1967
▁உதவ 1966
▁பயன 1965
▁இயக்க 1964
▁முடியாது 1961
ீர்கள் 1959
▁காட்ட 1959
▁மொத்த 1956
▁பணி 1955
ினர் 1952
▁நாள் 1952
▁உதவும் 1951
வின் 1950
▁அவர்களை 1950
▁முன்னாள் 1947
▁பயங்கரவாத 1945
மானது 1943
▁இதர 1943
த்திலிருந்து 1942
▁போல் 1941
▁விவசாய 1941
▁நம்ப 1936
T 1935
▁த 1933
▁பேச 1933
▁அரச 1929
▁ஏற்பாடு 1929
▁ஜ 1925
▁பண 1917
▁நிறுத்த 1916
▁சட்டம் 1908
▁ஜனநாயகக் 1908
▁செலுத்த 1907
▁நிகழ்ச்சியில் 1904
▁ஏற்பட்ட 1903
த்துவ 1898
ிகளும் 1898
▁ஒப்பந்த 1898
▁கொண்டார் 1898
▁வசதி 1898
ப்பட்டுள்ள 1897
▁ஆராய்ச்சி 1897
▁கட 1896
ுத 1892
▁சிங் 1891
▁ஆகியவற்றை 1887
ியாக 1880
மாய 1877
ோர் 1874
▁கலந்து 1861
ைத் 1859
▁அறிக்கை 1858
13 1855
▁தலைமையில் 1855
▁அனைவரும் 1849
21 1847
▁உள்நாட்டு 1847
ரில் 1846
▁வருகின்றன 1845
ியும் 1838
ுதல் 1838
▁உயர் 1833
▁விரோத 1833
▁கிழக்கு 1829
▁பே 1828
L 1824
▁அளிக்கும் 1823
▁ரயில் 1820
▁தேச 1815
▁இடம் 1813
▁தொழில 1813
டே 1812
▁தேவையான 1812
▁நான்கு 1812
▁ஆண்டில் 1809
▁ரயில்வே 1809
▁ப 1808
▁வெற்றி 1807
▁அரசாங்கத்தின் 1805
லில் 1803
வோ 1802
D 1800
ுகள் 1794
ஜி 1793
லுக்கு 1792
/ 1791
▁பின் 1788
▁அழைப்பு 1787
▁என்னும் 1784
▁நிறுவன 1784
▁திரும்ப 1776
ிடம் 1769
▁மாத 1766
ொ 1764
▁எண்ணிக்கை 1760
▁பரந்த 1760
ருக்கும் 1758
ிக்கப்பட்ட 1755
ுகிறார் 1753
▁முக்கியத்துவம் 1749
ிவ 1748
இ 1747
ிகளையும் 1747
ுக்க 1746
ையாக 1746
▁பதிவு 1745
▁அளவு 1743
▁முக 1741
▁ஜேர்ம 1739
▁ஆதரவ 1735
▁ஸ் 1735
o 1724
▁கொண்டுள்ளது 1723
▁யோ 1723
▁பில்லியன் 1722
▁மேம்பாட்டு 1721
▁மனு 1718
▁செல்ல 1710
▁துணைத் 1704
▁சீ 1703
த்திலே 1701
.0 1700
22 1699
▁வாழ்த்த 1696
கா 1689
▁இட 1688
▁எப்படி 1687
▁வாய்ப்பு 1687
000 1684
▁எனவே 1683
ிக 1678
▁பிராந்திய 1677
ஆர் 1676
R 1675
▁முன்ன 1674
▁அதில் 1673
▁மார்ச் 1672
▁மின் 1671
▁வங்கி 1668
▁நம்பிக்கை 1666
▁இப்பொழுது 1665
ர்களும் 1663
▁கொடு 1662
னும் 1661
ரிய 1661
▁இயக்கம் 1658
▁முன்பு 1658
க்களை 1657
ப்பட்டுள்ளன 1657
▁நவீன 1656
பா 1654
▁மிகப் 1652
▁பிற 1650
▁ஆளும் 1649
எம் 1648
ப்பதற்கு 1647
▁தற்போதைய 1646
▁மந்திரி 1644
▁சுதந்திர 1642
▁நாடாளுமன்ற 1641
▁தலை 1639
தே 1636
ச்ச 1635
▁வேறு 1634
▁நாடுகளின் 1632
▁கேட்டுக் 1628
தி 1627
மாய் 1625
▁இவை 1625
▁நம் 1623
மி 1621
▁உறுதிய 1620
▁எதிர் 1618
F 1616
▁ஒருவர் 1614
விட 1612
▁ஐந்து 1612
ந்திர 1611
ுவதில் 1611
▁நியாய 1611
▁சொந்த 1608
▁மேற்பட்ட 1607
▁எடுக்க 1603
ிடத்தில் 1599
▁இ 1598
▁செ 1598
▁படத்தில் 1598
ியுள்ளது 1594
▁பயணம் 1587
▁தக 1586
ங்கள 1585
தோடு 1585
ற 1584
▁இணை 1583
▁பிரிவு 1583
24 1582
ன்று 1582
▁இலங்கை 1582
▁தீ 1581
ட்டு 1580
வில் 1580
▁முயற்ச 1578
ரம் 1577
்தான் 1577
▁தாக்குதல் 1576
▁பொ 1575
ையா 1572
▁உலகம் 1571
▁கை 1571
▁வேளாண் 1568
ட்டும் 1567
▁சமத்துவ 1567
லாம் 1565
▁என்றான் 1564
▁வலது 1564
▁ஆயுத 1562
ாளர்கள் 1559
▁மறு 1559
ஏ 1558
▁விடுதலைப் 1558
▁அங்கு 1557
டு 1556
மையை 1555
▁கடுமையான 1555
மு 1550
ுக 1550
மாகும் 1549
▁பிரச்சார 1549
▁சோ 1548
ண 1547
▁சிறிய 1546
▁ஏப்ரல் 1545
▁பெரு 1542
▁சீர்திருத்த 1540
▁விலை 1538
வர்களுக்கு 1536
▁இதுவரை 1534
▁அமெரிக்காவின் 1531
▁மாணவர்கள் 1531
ுவதற்காக 1530
▁அளவிற்கு 1530
▁நீண்ட 1525
சே 1521
H 1520
▁கவனம் 1519
▁துரு 1519
த்துக்கும் 1516
▁தொழில்நுட்பம் 1514
▁அவர்களது 1513
G 1512
அ 1511
ப்படுத்தும் 1511
ள் 1510
▁மூல 1510
▁வி 1507
ிகள 1502
▁இல்லாமல் 1499
▁மிகுந்த 1499
▁அதாவது 1496
▁திட்டங்களை 1496
▁பகுதி 1496
▁அத்தகைய 1492
ாளர்களுக்கு 1491
▁ஒன்றை 1491
▁சுய 1491
▁நாட்டு 1491
ாக்க 1490
▁எரிசக்தி 1488
னிய 1485
▁வள 1485
s 1483
▁கொண்டிருக்க 1479
▁மேம்பாடு 1478
▁புது 1476
▁வழங்கும் 1476
▁கட்ச 1475
▁கூட்டு 1475
ரு 1474
▁அமைச்ச 1474
▁பாராட்ட 1473
▁முடியாத 1472
▁விவசாயிகள் 1472
ெ 1471
ாள 1470
க்குப் 1469
▁மணி 1469
ாவும் 1468
▁அளவிலான 1468
▁ஊடக 1467
▁அனைவருக்கும் 1464
▁டி 1464
▁அதிகமான 1461
▁கட்டமைப்பு 1458
ுகளில் 1455
▁உள்துறை 1455
▁பார்க்க 1453
▁எதிர்பார்க்க 1452
க்கில் 1450
ிருப்பது 1446
▁முன்னணி 1446
▁ஜூன் 1445
▁டிஜிட்டல் 1443
▁நிறைவேற்ற 1442
வதற்கு 1441
▁எம் 1441
=" 1439
▁எடுத்த 1438
▁போல 1438
டை 1436
▁இன் 1436
▁இதை 1435
▁கிராம 1435
ங்களைப் 1432
▁தலைமையிலான 1430
▁சந்த 1427
n 1424
▁கிடைக்கும் 1423
▁அச்சுறுத்த 1420
▁பிரெஞ்சு 1420
▁குறிப்பிடத்தக்க 1418
▁பொருட்கள் 1418
▁சுகாதாரம் 1416
▁நாடுகளில் 1416
▁ஒட்டுமொத்த 1415
ப்பது 1414
▁எரிவாயு 1411
▁ஆகியவற்றின் 1408
▁சென்று 1408
▁பேச்சுவார்த்த 1407
தாகும் 1406
▁கா 1405
▁அதிபர் 1402
பட 1398
ிக்கப்பட்டது 1397
▁ம 1397
▁இருதர 1395
0,000 1393
▁உலகின் 1393
▁ஓர் 1393
▁தவிர 1393
▁முடிவ 1391
▁சரி 1389
னுக்கு 1386
I 1385
ு 1384
▁சென்னை 1383
▁கட்டுப்படுத்த 1382
▁அமைப்பின் 1381
▁சங்க 1381
ும 1379
▁கொண்டுள்ள 1378
▁சமுதாய 1377
ஸ 1376
ிருக்கின்றன 1375
லி 1374
▁அவருக்கு 1374
▁மக்களை 1374
ங்களுக்கும் 1372
▁இந்தியாவ 1372
ில 1370
▁ஓ 1368
▁பாத 1364
க்கப்பட்ட 1363
▁பாதிக்கப்பட்ட 1363
▁வெளிப்படுத்த 1360
▁வலியுறுத்தினார் 1358
க்கூடிய 1357
ாவுக்கு 1356
ல்கள் 1355
▁லட்ச 1352
▁தள்ள 1351
▁காரணம் 1350
ாகவும் 1349
▁வைக்க 1349
சா 1348
▁அவசியம் 1348
▁எல்லா 1347
▁பு 1344
▁தே 1342
▁இயற்கை 1340
▁பல்கலைக்கழக 1340
னுடைய 1339
ுக்காக 1338
ங்களிலும் 1335
▁விநியோக 1335
வு 1333
ைகள 1333
ால 1332
▁தலைவர்கள் 1332
▁தடை 1331
ப்பதற்கான 1330
▁இவர் 1330
ையே 1327
▁எஸ் 1327
▁ஏற்படும் 1325
ுக்கள் 1324
▁அனுமதி 1322
▁இதே 1321
ூ 1320
ைகளும் 1319
▁பாராளுமன்ற 1319
▁ஜே 1318
ையையும் 1317
N 1316
லும் 1315
யா 1314
▁கூடுதல் 1314
▁வேல 1312
▁இயக்குனர் 1311
▁ஏகாதிபத்திய 1310
▁உரிய 1309
▁குற்ற 1304
▁முயற்சி 1304
த்தக்க 1303
ிற்கும் 1303
in 1301
▁பிரதான 1300
ுவதாக 1299
▁முற்றிலும் 1299
▁வலியுறுத்த 1299
▁விரைவில் 1299
▁கருத்து 1298
▁சுட்டிக்காட்ட 1297
▁பெ 1296
▁என்னை 1292
வன 1291
▁செயல் 1289
▁வெளிநாட்டு 1289
a 1288
▁மின்சார 1287
▁உறுதிப்படுத்த 1286
▁பொறுப்பு 1285
▁இடையேயான 1284
▁உயர்த்த 1283
மற்ற 1281
▁இருந்தாலும் 1281
▁எடுத்துக் 1281
▁இராஜ 1280
▁வகை 1280
பே 1279
▁ஏற்ப 1279
▁செய்வது 1279
▁தள 1279
ிறார் 1278
▁அமைச்சகத்தின் 1278
▁ஜனவரி 1277
▁உண்மையான 1274
▁மோ 1273
ேய 1272
▁வைத்த 1270
▁இங்கு 1268
ட்சி 1267
ப்பதில் 1267
▁பங்க 1267
▁இடையிலான 1266
▁பிரதமரின் 1265
▁மிகப்பெரிய 1265
ங்களைக் 1264
▁பட்ட 1264
▁முதலீடு 1264
ப்பின் 1262
▁முயற்சிகள் 1262
▁வார 1261
▁செப்டம்பர் 1259
ிரு 1258
▁படத்தை 1257
ிறார்கள் 1255
▁உறுப்பினர்கள் 1255
▁துறைகளில் 1255
▁நா 1252
▁கன 1250
▁தொகை 1249
▁பணிகள் 1249
▁பெறும் 1249
▁சீன 1248
ிருக்கிறார்கள் 1247
ையான 1247
்க 1247
▁பிரச்சின 1247
▁முன்னர் 1247
ப்படுகின்றன 1246
▁தன்மை 1244
▁அவர்களுடைய 1242
▁பதில 1240
ாவது 1238
தற்காக 1237
▁கையெழுத்த 1237
ாது 1236
▁உள்ளூர் 1236
▁படை 1233
▁சதவிகித 1232
ியது 1231
▁பிறந்த 1230
த்தைத் 1229
▁புத்திர 1228
வர்கள 1227
▁ஜூலை 1227
▁திருமதி 1226
▁நடத்திய 1224
▁புற 1223
▁சந்தை 1222
ப்பில் 1221
▁பயன்படுத்தி 1221
▁அவரை 1220
▁நடந்து 1220
ெல்லாம் 1219
▁ஆண்டுகளுக்கு 1219
▁ஊக்க 1218
▁பெண்கள் 1217
▁குறித்தும் 1216
▁கூட்டம் 1215
▁சக்த 1210
▁தின 1210
▁எதிர்கால 1208
▁ஊதிய 1207
▁சகல 1207
டும் 1206
▁பார்த்த 1206
ிருந்தார் 1204
▁: 1204
▁இராணுவம் 1204
ாலே 1201
ந்துள்ள 1200
ுகளுக்கு 1199
▁பாரம்பரிய 1199
▁மேற்கு 1199
▁இந்தியாவை 1198
▁தலைய 1198
ங்களுக்கான 1197
▁மூத்த 1195
ப்படவில்லை 1194
ிலான 1194
▁ரூபாய் 1193
31 1192
ிகளில் 1192
▁இரண்டாவது 1192
▁மத 1192
▁ஆகியோர் 1189
▁எங்கள் 1189
ுகளையும் 1188
▁0 1188
▁தூய்மை 1185
▁மற்றொரு 1185
▁வாழ்க்கை 1183
▁கொண்டனர் 1182
▁மைய 1182
▁வலு 1182
ிகளுடன் 1181
▁மேல் 1181
▁அக்டோபர் 1180
▁அதிகமாக 1180
▁எடுத்து 1179
▁ஒ 1179
▁கூடுதலான 1178
▁ஊழிய 1177
▁ல 1177
என் 1176
ளை 1176
▁உரிமைகள் 1176
▁கொண்டது 1176
▁இடங்களில் 1175
▁முந்தைய 1175
▁விடுத்த 1175
ராக 1174
ுகின்ற 1174
▁நலன் 1172
வேல் 1171
▁ஆர்ப்பாட்ட 1171
▁நிலைய 1171
▁ஆர் 1170
▁கிராமப்புற 1170
▁தேர்தலில் 1169
ின்ற 1168
▁கூறியுள்ளார் 1167
< 1166
ஆ 1166
ியா 1164
ாம் 1163
▁செயலாளர் 1162
▁மாற்றம் 1162
▁அனுப்ப 1161
▁அளவுக்கு 1160
▁நில 1159
வர்களின் 1158
▁நி 1158
▁வந்தது 1158
▁நவம்பர் 1157
▁முன்னேற்ற 1156
▁ஆறு 1155
▁போக 1155
▁கேட்க 1154
▁பிரதேச 1154
▁ஏற்ற 1153
▁சொன்ன 1153
▁நேரடி 1153
▁உம்ம 1152
▁படத்தின் 1152
ல்களை 1151
ஸ்த 1151
▁கலாச்சார 1151
an 1150
ிறது 1150
னில் 1149
▁உங்கள 1149
h 1148
வரை 1146
▁சக்தி 1145
▁பங்களிப்பு 1145
▁வாய்ந்த 1144
▁சுற்றுலா 1141
ய் 1139
ஸ்ட 1139
ுவதை 1138
்த 1137
▁அக 1137
▁என்றால் 1137
▁நிறைந்த 1136
▁ஆட்சி 1135
டிய 1134
▁சூரிய 1134
▁சமாதான 1133
▁மாநாட்டில் 1133
ற்று 1132
▁உள்ளனர் 1132
▁திற 1132
தால் 1131
▁நோக்க 1131
வர்களை 1130
▁இதனால் 1130
▁செல்லும் 1129
▁பேர 1128
▁நிலையை 1127
▁பயண 1126
▁ரஷ்ய 1126
ல்ல 1123
▁தாக்குத 1123
▁மக்கள 1123
ரான 1122
ுக்களை 1122
▁வைத்து 1122
மாகவும் 1120
▁அடுத்து 1120
▁இவர்கள் 1119
▁எண்ண 1117
▁தீர்வு 1117
மாறு 1116
▁பர 1116
▁வெளியிட்ட 1115
னி 1112
▁கிட்டத்தட்ட 1112
▁வாங்க 1112
நிலை 1111
ீர் 1111
▁இடையில் 1110
▁குழுவின் 1110
▁பற்றியும் 1110
ாம 1109
▁இளைஞர்கள் 1109
▁கூ 1109
ங் 1108
▁அறிவித்த 1108
▁தேர்வு 1108
▁வழி 1108
▁பகிர்ந்து 1107
ாய் 1105
ஹ 1104
▁நகர 1103
▁நோய் 1100
▁மாறாக 1100
▁குடியரசு 1097
▁மா 1095
▁ஆலோசனை 1094
▁விரிவான 1094
ிக்கொண்ட 1092
▁கொள்ளும் 1091
▁நிறுவனத்தின் 1091
▁உங்களுக்கு 1090
▁சேர்ந்து 1090
▁சேவைகள் 1090
▁நடைபெறும் 1090
ினார்கள் 1087
▁அடை 1085
▁காலம் 1085
▁கொடுக்கும் 1085
ாவிற்கு 1084
▁இளைஞ 1084
▁இடது 1081
▁ஓய்வூதிய 1081
▁மேலாண்மை 1081
ிகளுக்கும் 1080
ுகளின் 1080
▁உரிமை 1080
ந்துள்ளது 1079
ப்பட்டன 1079
▁வா 1079
ரவ 1078
▁உயர்ந்த 1077
▁சு 1076
▁உடன்ப 1074
▁உச்சி 1072
▁மேலாக 1071
% 1070
ிக்கான 1070
▁செய்தது 1070
▁விழாவில் 1070
▁குழந்தைகள் 1069
▁நட 1069
ம்தான் 1068
ிருந்து 1068
▁சிகிச்சை 1066
▁அதிகரிக்க 1065
▁பெயர் 1065
▁ஒருங்கிணைந்த 1064
▁கப்பல் 1060
▁நெருக்கடி 1060
23 1059
▁உண்டு 1059
▁வாஷிங்டன் 1059
▁ஆண்டுகளாக 1058
▁இந்தச் 1058
▁மையம் 1056
▁விட்ட 1056
▁இன 1055
ஸ்க 1054
▁வருக 1054
▁இன்றைய 1053
க்கட 1050
▁கி 1050
▁தயாராக 1050
▁தொடக்க 1050
▁பெண் 1050
ங்களாக 1049
▁கொண்டிருந்த 1049
▁ட 1049
ிருப்பதாக 1048
▁உடனடியாக 1048
i 1047
▁கிடைத்த 1046
▁மதிப்ப 1046
E 1045
ோபாய 1044
▁குற்றம் 1044
▁வணிக 1044
▁நடைபெற 1043
▁முதலாவது 1043
▁ஆரம்ப 1042
ரையும் 1041
சாரி 1040
▁ஏராளமான 1040
▁வலுவான 1040
▁வெட்ட 1040
-- 1039
▁வைத்தார் 1038
ப்புகள் 1037
▁வர்த்தகம் 1037
▁வாஷி 1036
▁நடிக்க 1035
▁பிரான்ஸ் 1034
ின்றனர் 1032
▁எனக் 1030
> 1028
ாகிய 1028
பின் 1027
ைகளைக் 1027
▁அமைக்க 1027
▁ராணுவ 1027
்கள் 1026
▁கலந்துர 1026
▁பணம் 1024
▁முன்பாக 1024
▁வேலைநிறுத்த 1022
▁ஸ்ரீ 1022
26 1020
மைய 1020
ித 1019
▁போராட்ட 1018
▁ஆகியவற்றில் 1017
▁மாநிலங்கள் 1017
▁வங்க 1017
ைக்கு 1016
▁ஆக்க 1015
க்காக 1013
ற்போ 1013
▁ஆசிய 1013
▁கூட்டணி 1013
▁அர்ப்பண 1010
▁மகிழ்ச்சி 1010
▁வாத 1010
▁திட்டமிட்ட 1009
▁பதிலாக 1009
▁வசதிகள் 1009
▁பூ 1007
▁செய்தார் 1006
▁மின்னணு 1006
▁ஆகஸ்ட் 1005
பக் 1004
▁அறிவித்தார் 1004
▁ஆண்ட 1004
▁நினைவு 1004
▁உண்மையில் 1003
ஜன 1002
▁இத 1002
▁ஏற்படுத்தும் 1001
▁செய்வதற்கு 1000
▁தொழில்துறை 999
▁வாரம் 999
▁துறையின் 997
▁பழைய 997
J 996
▁இணைப்பு 996
ங்களுடன் 994
மாகக் 994
▁மாற 994
க்கார 993
▁பெரும்பாலான 993
▁வை 993
▁ஆப்கானிஸ்த 992
மீ 991
ப்பும் 990
▁ஆக்கிரமி 990
் 989
ப்படாத 988
▁ஏனைய 988
▁மாநிலங்களில் 987
த்தைச் 986
▁ஆணைய 984
▁யூனியன் 984
விட்ட 983
▁என்பதில் 983
▁போலீஸ் 983
▁விட்டு 982
▁மு 981
▁மேம்பாட்ட 981
▁அமைச்சக 980
▁கொண்டிருக்கும் 980
▁செயல்பட 980
பு 979
▁பொருளாதாரம் 979
▁சிறப்பான 978
▁நிர்ணய 978
▁பார 978
▁மூலமாக 978
▁விளையாட்டு 978
▁என்னவென்றால் 977
ிர 976
▁ஈராக்கிய 976
டியை 975
▁புல 974
▁டாலர் 973
ுதான் 972
▁முன்னேற்றம் 971
▁அடையாளம் 970
▁வேலைவாய்ப்பு 970
▁இரண்டாம் 969
▁உருவாக்கிய 969
▁தெற்கு 969
▁அதிகரி 968
▁ஆண்டுகள் 967
▁ஆயு 966
▁தொற்று 966
▁விவகார 966
▁சுற்றுச்சூழல் 965
O 964
▁மாநாடு 964
▁இதோ 963
ப்பிர 962
▁யோகா 962
ிருப்ப 961
▁அளித்துள்ளது 961
▁நிலைமை 961
ிற்கான 960
▁இஸ்ரேல் 960
▁கணக்க 960
▁நேரம் 960
▁போய் 960
l 959
▁டிசம்பர் 959
▁பீ 959
▁நன்றி 958
▁வாக்க 958
மில்லை 957
▁ஆணையம் 957
▁மதிப்பு 957
▁நீடித்த 956
▁எதுவும் 955
ருடன் 954
▁கிடைக்க 954
▁நகர்ப்புற 954
▁மாநிலம் 954
ைக்க 953
▁மாவட்ட 953
ஞ்ச 952
▁இர 952
▁உருவாக்கும் 952
▁மொத்தம் 952
▁அந்தப் 951
▁ஊக்குவ 951
▁ஜம்மு 951
ூட 950
▁இருப்பதாக 950
▁நேரடியாக 950
W 949
▁ஊரக 949
▁கொண்டுவர 949
▁சம 949
▁சாதாரண 948
▁விசாரணை 948
▁அப்போது 947
▁இதனை 947
▁வெளியே 947
லோ 946
ினை 946
▁என்றாலும் 946
▁யூத 946
▁விருது 945
▁கேள்வி 944
▁மூ 944
னே 943
ஷன் 943
▁அங்கே 943
▁நடுத்தர 943
▁நேர 943
K 942
னோ 942
ித் 940
▁கைது 940
ர்களுக்கும் 939
▁ல் 939
ப்படு 938
▁சரியான 938
▁வடக்கு 938
ஒரு 937
▁விளக்க 937
▁அள 936
▁கலை 936
▁நிறுவனங்களின் 936
▁வித 936
த்திற்காக 935
வீ 935
▁இஸ்ரே 935
▁வாச 935
கே 934
▁எதிர்ப்ப 934
▁நேற்று 934
▁உழைக்கும் 933
ar 932
னம் 932
ர்த 932
ாவாக 932
▁அமைச்சரவ 932
▁செய்துள்ளது 932
▁புதுதில்லியில் 932
▁கதை 931
▁சிர 931
ட்ச 930
பிர 930
▁நாளை 930
▁வயது 930
▁கண்டு 929
▁தீவிரவாத 929
லாக 928
▁ஸ்திர 928
28 927
▁நடைமுற 927
▁போதிலும் 927
▁உணர்வ 926
ங்களால் 925
ுடனான 925
▁இடத்தில் 925
▁செயல்படும் 925
▁ட் 925
▁பணியாற்ற 925
▁இஸ்ரேலிய 924
▁நிறைவு 924
▁விற்பனை 924
▁அதனை 923
▁எந்தவொரு 923
▁பின்பற்ற 922
ங்ட 921
▁கொண்டிருக்கிறது 921
▁பரிசுத்த 921
ண்டு 920
சார 919
சார் 918
▁அமைப்புகள் 918
▁படைகள் 918
க்கள 917
▁அடிப்படையிலான 917
▁பின்பு 917
ென்று 916
▁அணு 916
▁பட் 915
▁முன்னோ 915
ன்கள் 914
▁எழுதிய 914
▁அகற்ற 913
▁தொடங்கிய 913
த்துக்கான 912
▁முன்னிட்டு 912
▁சாத்திய 911
▁பரிசோதனை 911
▁உரை 910
ைகளைப் 909
▁குறைக்க 909
▁தீர்மான 909
▁நமக்கு 909
▁மத்தியில் 909
த்துக் 908
ழ 908
▁ஆதரவை 908
▁சாலை 908
▁பகுதியாக 908
க்கூடும் 907
▁உரையா 907
▁சே 906
▁நடைமுறை 906
▁பத 906
த்திய 905
▁ஏற்றுமதி 905
▁தடுப்பு 905
▁தண்ணீர் 905
▁நோக்கம் 905
ரால 904
▁அக்க 904
▁காங்கிரஸ் 904
▁நிர்வாகத்தின் 904
▁பொதுமக்கள் 904
ங்களைத் 903
▁இருப்பது 903
▁கைய 901
க்கம் 900
▁அளிப்ப 900
▁ஆயிரம் 900
த்திட்ட 899
த்தின 899
▁அச்ச 899
▁ஏனெனில் 899
▁துற 899
▁வெளியிட 899
▁ஏன் 898
▁சந்தேக 898
▁சோச 897
▁அவர்கள 896
▁குஜராத் 896
▁செய்யப்படும் 896
27 895
▁நடித்த 895
▁மண்டல 895
▁அதிகம் 894
▁சம்பந்தப்பட்ட 894
▁செலவு 894
▁விஷய 894
`` 893
ர்க் 893
▁பிரிவ 893
▁உடைய 890
த்திர 889
▁அவசர 889
75 888
ித்தார் 888
▁இருக்கிற 888
▁வேலைவாய் 887
கு 886
▁பெரிதும் 886
வரும் 885
▁எவ்வாறு 885
▁காட்சி 885
▁பொருள் 883
▁வழங்கப்படும் 882
▁போருக்கு 881
er 880
ிலேயே 879
▁ஒன்றாக 879
▁போலீ 878
▁தா 876
▁அம 875
▁அலுவலக 875
▁அமை 874
ரொ 873
▁முயற்சிகளை 872
▁நீதி 871
▁நாட்கள் 870
▁பாவ 870
▁கவலை 868
▁ஆதார 867
▁கம்யூனிஸ்ட் 867
▁செல 867
▁வலுப்படுத்த 867
▁மோச 866
▁வருமான 866
முள்ள 865
▁கவன 865
ையுடன் 864
▁முறையை 864
ர்க்கோ 863
ைச் 863
▁அனைத்தும் 863
▁கருத்தில் 863
யில் 862
▁அமையும் 862
▁இறுதியில் 862
▁கட்சிய 861
▁படி 861
▁கூடாது 859
▁வரலாற்று 859
▁பேச்ச 858
29 857
எ 857
▁நலத்துறை 857
▁அடைய 856
▁இப்படி 856
▁சதவிகிதம் 856
▁நிலக்கரி 856
மைச்சர் 855
▁அடி 855
▁ய 855
▁வடகிழக்கு 855
ப்பா 854
▁பா 854
▁அதிகாரம் 853
படுத்த 852
▁ஜேர்மன் 852
▁நாடுகளுக்கு 852
▁பார் 851
எல் 850
▁காந்தி 850
க்த 849
▁விடுதலை 848
▁ஏற்பட்டுள்ள 847
▁குறு 847
▁தங்களின் 847
▁விளைவாக 847
0. 846
▁யார் 846
y 845
வான 845
ாளர் 845
▁-- 845
▁இயக்கத்தின் 845
▁எடுத்துக்காட்ட 845
ிவிட 843
▁இறுதி 842
க்கி 841
சோ 841
▁அதிகரித்து 841
▁மிக்க 841
சை 840
▁உறுதியாக 840
▁பிரதிநிதிகள் 840
ுகளும் 838
▁அதிகாரி 838
▁உலகப் 838
▁தனிப்பட்ட 838
▁பாலஸ்த 838
▁பெற்று 838
ைக்கான 837
ப்படுத்தி 836
▁நன்கு 836
▁தெரிவித்தனர் 835
▁பிரிட்டிஷ் 835
தியை 834
ிக்கொள்ள 834
▁அவனை 834
▁பரவ 834
ியான 832
▁ஒன்றிய 832
▁தகவல்கள் 832
ங்களைச் 831
ரக 831
ீனிய 831
▁நிகழ்ச்சி 831
ாள் 830
ைகளுக்கும் 830
▁அமெரிக்காவில் 830
மாக்க 829
ிகளே 828
ப்பதற்காக 827
ிருந்தனர் 827
▁முதலில் 826
▁கு 825
▁இலக்கு 824
▁தாக்கல் 824
▁பண்ண 824
▁உலகளாவிய 823
▁அண்மையில் 822
▁ஒப்புக் 822
▁திட்டத்தில் 822
▁பய 822
பய 821
ித்தது 821
▁அப்ப 820
▁நடக்க 820
▁முழுமையாக 819
▁விமானப் 819
மிக்க 818
வார்கள் 818
▁முதலீட்ட 818
ப்பான 817
▁எதிர்க்க 817
... 816
தாவது 816
▁சோதனை 816
▁விண்ணப்ப 816
▁அமைதி 814
▁கூடுதலாக 814
▁சமீபத்தில் 814
▁அறிந்த 813
▁மக 813
ுக்குக் 812
▁அமைக்கப்பட்ட 812
▁அவற்றை 812
▁தயாரிப்பு 812
▁உருவாக்கப்பட்ட 811
▁கடற்படை 811
▁வெற்றிகரமாக 811
மான் 810
ஷா 810
▁பணிகளை 810
ிகா 809
ிவிட்டது 809
▁வில 809
ரித்த 807
▁திறந்து 807
▁அனுமதிக்க 806
▁கடல் 806
▁வெ 806
தற்கான 805
ிக்கப்பட்டுள்ளது 805
▁அந்நிய 804
▁தூ 804
றும் 803
▁கொலை 803
ஓ 802
▁உறுப்பினர் 802
ினாலும் 801
▁அந்தக் 801
▁பால 801
▁வீட்டு 801
▁நாட்டை 800
▁உலகில் 799
▁தன்னை 799
▁தவிர்க்க 799
ட்டில் 798
ையொட்டி 798
▁அறிமுகப்படுத்த 798
▁ஆகையால் 798
▁உண்மை 798
▁எனவும் 798
▁தொடர்புடைய 798
▁ஈடுபட்ட 797
.) 796
▁கோட 796
▁தேர்ந்தெடு 796
▁பத்திரிகை 796
▁ரோ 796
▁ஒதுக்க 795
▁மெ 795
லே 794
▁உன்ன 794
▁தலைவர்களும் 794
▁வருகின்றனர் 794
ங்களது 793
▁போட்ட 793
க்கூடாது 792
வாக 792
▁பயன்படுத்திக் 792
ர்களாக 791
▁தங்க 791
▁பொருட்களை 791
▁வெளியுறவு 791
ற்றிய 790
▁அடையாள 790
▁வலைத் 790
ிலுள்ள 789
▁ஏழை 789
ுகின்றன 788
▁அவனுக்கு 788
▁வட 788
▁வர்க்கம் 788
▁விருப்ப 788
▁போட்டி 787
மையான 786
ுங்கள் 786
▁வாழ்த்து 785
▁கல 784
ிக்கப்படும் 783
▁அல் 783
▁இதுபோன்ற 783
▁செலவின 783
சு 782
டைய 782
தோ 782
▁அடிக்கல் 782
▁தயாரிப்ப 782
▁தெளிவாக 782
▁தொழிலாளர்கள 782
▁விரிவுபடுத்த 781
▁உறுப்பின 779
▁வருவதாக 779
ுக்குத் 778
▁அனுபவ 778
▁ஒப்ப 778
ப்பதை 777
யம் 777
▁கள 777
த்தி 776
ிப்பது 776
ையிலும் 776
▁இனி 776
▁எதிர்கொள்ள 776
▁கொடுத்து 776
▁பென் 776
▁எட்ட 775
▁சோவியத் 775
▁மீ 775
▁முறையாக 775
▁கணிசமான 774
p 773
ளித்த 773
▁தனி 773
▁தூண்ட 773
▁விழா 773
க்கை 772
வர்களும் 772
▁இருக்கின்றன 772
▁சிலர் 772
▁தயார் 772
▁முன்னதாக 772
▁வழ 772
▁எமது 771
▁டால 771
▁பலர் 771
▁மையங்கள் 770
ானில் 768
▁ஏழு 768
▁தொடர்ப 768
35 767
ாகக் 767
ுகிறோம் 767
▁புரிந்து 767
▁மகத்தான 767
ாமலும் 766
▁சீனா 766
▁உயிர 765
▁செயல்பட்டு 765
▁சார்பில் 764
மாகிய 763
முறை 763
▁அகில 763
▁அவற்றின் 763
▁இலக்க 763
▁உடல் 763
ள்ள 762
ாட்ட 761
▁நாட்களில் 761
ிவிட்ட 759
▁லே 759
ாதம் 758
▁உமது 758
▁குரு 758
▁செய்கிறது 758
▁செலுத்துவ 758
ையைப் 757
▁பாரத் 757
▁மருந்து 757
▁மேற்கொண்டு 757
ப்படுவது 756
▁of 756
▁அத்துடன் 756
பூ 755
▁அரசுகள் 755
', 754
டா 754
வுள்ள 754
த்தினால் 753
ையைக் 753
▁உதவிய 752
▁நடைபெற்றது 752
▁மிகப்பெரும் 752
▁புலிகள் 751
▁பாக்கி 750
இந்த 749
ுள்ளதாக 749
▁ஏழ 749
▁புலிகளின் 749
ராகிய 748
▁உடன்படிக்க 748
▁சிறப்பாக 748
▁தாக்க 748
▁பால் 748
▁வளர்ந்து 748
▁தாங்கள் 747
▁பத்து 747
▁முதலீட்டு 747
▁வேண்டியது 747
▁ஏற்றுக் 746
▁முக்கியத்துவ 746
▁முழுவதிலும் 746
வதாகவும் 745
▁சவால 745
▁ஜோ 745
▁தரு 745
▁தாம் 745
▁வருகை 745
▁வீட்ட 745
ட்டிய 744
தையும் 744
ப்பத 744
▁உணர்வு 744
▁மிகக் 744
டியின் 743
ின்படி 743
▁தரும் 743
▁முழுமையான 743
▁ரா 743
▁அதிகரித்த 742
ிருப்பத 741
▁இசை 741
▁இளம் 741
▁பதில் 741
▁பாதுகா 741
▁பார்த்து 741
க்கணக்கான 740
▁அதிகரிக்கும் 740
▁உயர 740
▁சட்டத்தின் 740
▁செல் 740
▁தொலை 740
▁பிரதிநித 740
▁ஈரான் 739
▁விவகாரங்கள் 739
▁விடு 738
▁இழ 737
▁என்பதால் 737
▁வரையிலான 737
▁வாகன 737
டுத்த 736
▁இந்தியப் 736
▁ஒன்றும் 736
▁சப 736
▁என்பதையும் 735
▁குண 735
▁தேவன் 735
▁போலவே 735
▁விசாரண 735
art 734
னையும் 734
ப்பாட்டை 734
ாக் 734
ுடனும் 734
▁தீர்க்க 734
▁வழங்கிய 734
டிக்கு 733
வோம் 733
ாவுடன் 733
▁காட்டிய 733
▁தெரிவிக்க 733
ஈ 732
▁கிள 732
▁நன்ற 732
ண்ட் 731
▁உர 731
▁எடு 731
ுவதற்கும் 729
▁வசதிகளை 729
நாத் 728
▁கருத்த 728
▁ஜப்பான் 727
▁தினம் 727
▁பசு 727
க்குச் 726
ிக்கவும் 726
▁சத 726
▁நே 726
ஜே 725
▁பங்கேற்ப 725
▁வெள்ள 725
மின் 724
▁நெடுஞ்சாலை 724
ுக்குப் 723
▁இல் 723
த்தம் 722
த்துவம் 721
ப்படுவதை 721
▁தில்லி 721
▁நிராக 721
ின்றன 720
▁கிலோ 719
▁அப 718
▁நாள 718
▁பதவி 718
▁வாய்ப்புகள் 718
ட்டி 716
▁பிடித்த 716
▁யூரோ 716
▁விண்வெளி 716
f 715
ப்படுத்தப்பட்ட 715
▁டைம்ஸ் 715
▁தசாப்த 715
▁மகாத்மா 715
▁ராஜா 715
க்குள் 714
▁அப்படியே 714
▁வே 714
▁சமீபத்திய 713
▁அடைந்த 712
▁கிடையாது 712
▁வாக்கு 712
▁இருப்பு 711
▁ஏற்க 711
▁காட்டுகிறது 711
ும்ப 710
▁& 710
கம் 709
▁காவல் 709
▁செய்யப்பட்டது 709
▁விவசாயிகளின் 709
மைக் 708
▁ஆழ்ந்த 708
▁உச்ச 708
▁நலன்களை 708
▁பாரத 708
▁சம்பவ 707
▁பணியில் 707
▁ஆண்டின் 706
▁ஆயிரக்கணக்கான 706
▁தொழிலாளர்களை 706
ருக்க 705
▁அதிகரித்துள்ளது 705
ுற 704
▁விவசாயிகளுக்கு 704
டுவதற்கு 703
மீது 703
▁எடுக்கப்பட்ட 703
▁குழுக்கள் 703
▁சேவ 703
▁தொழிலாளர்களின் 703
▁பூகோள 703
டுக்க 702
ையோ 702
▁உங்களது 702
▁வளர்ச்சியை 702
பல 701
ற்ச 701
▁நீதிமன்ற 701
யின் 700
ிகளால் 700
ிவரும் 700
▁கடந்து 700
▁பங்களிப்பை 700
▁மாநிலத்தில் 700
▁மேம்ப 700
▁ஹோ 700
▁குறுகிய 699
▁நிலவ 699
▁முற 699
கோ 698
ஜ் 698
மையாக 698
ுக்கொண்டார் 698
▁அர 698
▁கவ 698
▁பெருந்த 698
▁ஆய 697
▁ஈ 697
▁கட்சிகள் 697
▁து 697
▁தொற்ற 697
▁முடிந்த 697
வதற்கான 696
▁கெ 696
▁மதிப்பீடு 696
ரியா 695
▁தடுக்க 694
▁திர 694
▁தொடர் 694
ட்டின் 693
வதில் 693
▁சொல்லி 693
ப்புக்கள் 692
ைக 692
▁டன் 692
ர்களுடன் 691
ர்க்க 691
ேச 691
▁முதல 691
க்கிய 690
▁அளிக்கிறது 690
▁குறிப்பிட 690
தன 689
▁செய்தல் 689
▁தொ 689
▁வேட்ப 689
( 688
வுடன் 688
▁கட்டண 688
▁திட்டத்திற்கு 688
▁நடத்தி 688
▁நாட 688
▁நிகழ்ச்ச 688
▁மகளிர் 688
படிய 687
▁ஆரோக்கிய 687
▁வாய்ப்ப 687
திய 686
▁மோசமான 686
மன் 685
ுக்கொண்ட 685
▁அறிந்து 685
▁கரு 685
▁நம்பிக்க 685
பவர்கள் 684
ிருக்கிறேன் 684
▁அதி 684
▁எல் 684
▁கட்டளைய 684
▁பகிரங்க 684
ரிக்க 683
ர்கள 683
▁இலாப 683
▁எப்போதும் 683
▁தந்த 683
▁தய 683
▁புதிதாக 683
விய 682
▁அரசாங்கத்தை 682
▁அளித்து 682
▁பாதுகாப்புத் 682
▁போரை 682
▁ஒன்றில் 681
▁முடிவுகள் 681
உ 680
▁அணி 680
▁தடு 680
▁வந்துள்ளது 680
▁செலுத்தும் 679
▁தாய் 679
க்குக் 678
று 678
▁உடன் 678
▁கட்டுப்பாட்ட 678
▁தட 678
▁நாணய 678
▁போக்க 678
▁விகிதம் 678
ித்தல் 677
▁அறிக்கையில் 677
▁காண்ப 677
▁நடக்கும் 677
ப்புகளை 676
▁க்கு 676
▁நிறுவ 676
▁ஸ்த 676
ுகிறார்கள் 675
ின்றது 674
▁உள்ளடக்கிய 674
▁ஹீரோ 674
▁எச்ச 673
▁குவ 673
▁முன்னுரிமை 673
▁வங்கிகள் 673
ிப் 672
▁பிரச்சினை 672
ந்தர 671
▁இருவரும் 671
▁இஸ்லாமிய 671
▁பேசினார் 671
▁போன 671
▁வீடுகள் 671
ஸ்ப 670
▁இருந்தன 670
▁எல்லை 670
▁கண்காணிப்பு 670
▁தீர்வ 670
லையும் 669
ிவிடும் 669
▁எரிச 669
ப்புத் 668
ுவரும் 668
▁பொதுவான 668
▁ஒபாமா 667
▁உருவாக்கி 666
▁கூடும் 666
en 665
▁விழ 665
ுகின்றனர் 664
ுவார்கள் 664
▁எச்சரிக்க 664
▁நடந்தது 664
▁போதுமான 664
▁போராட்டம் 664
▁வருகிறார் 664
பிய 663
லிஸ்ட் 663
ிக்கொண்டு 663
▁இருந்தார் 663
ண்ணி 662
ஸ்கி 662
ிருந்தன 662
▁அவர்களே 662
▁திறனை 662
▁விவர 662
▁கட்டாய 661
▁செய்வதற்கான 661
▁பாதுகாக்க 661
படியே 660
▁மீட்டர் 660
ங்கு 659
ுவேன் 659
▁பட்டண 659
▁பார்வ 659
ந்துள்ளனர் 658
ராஜ் 658
▁அனைவரையும் 658
▁உட்படுத்த 658
▁உயிர் 658
▁வெளிப்படையாக 658
ாளிகள் 657
▁சதவீதமாக 657
▁சேர்க்க 657
▁தகவல்களை 657
▁தாராள 657
▁படப்பிடிப்பு 657
▁மேலாதிக்க 657
ெடு 656
▁கட்டுப்பாட்டு 656
▁சரக்கு 656
▁செயலகம் 656
▁விரைவாக 656
ரிடம் 655
ிகளுக்கான 654
▁இதற்காக 654
▁கொள்கையை 654
▁பகுதிகள் 654
▁பங்கேற்க 654
▁கலந்துரையாட 653
▁கிடை 653
▁பெருமை 653
ப்பிற்கு 652
்களை 652
▁சக 652
வான் 651
ித்துவ 651
▁உறவுகளை 651
▁வார்த்த 651
▁வீர 651
ராஜ 650
▁உட்பட்ட 650
▁காலை 650
▁குறைவான 649
ித்தனர் 648
▁ஊ 648
▁பாதுகாப்புப் 648
▁போரில் 648
▁வீரர்கள் 648
▁வெளி 648
ாரத்தில் 647
▁எதிர்த்து 647
▁மசோதா 647
▁வாழும் 647
பர் 646
▁அல 646
▁ஆற்றிய 646
▁நாடாக 646
▁மூலதன 646
▁வந்துள்ள 646
ந்தார் 645
▁அங்க 645
▁வகையிலும் 645
ங்கம் 644
போல 644
▁கிர 644
▁நம்முடைய 644
▁உறவுகள் 643
▁வெள்ளை 643
்ச 641
▁நகரில் 641
▁ஈரான 640
▁தொழிற்க 640
▁வெறும் 640
ட்டை 639
▁ஆனாலும் 638
▁தட்ட 638
▁புதுப்பிக்க 638
u 637
த்திற்குள் 637
ிப்போ 637
▁தக்க 637
▁நிறுவனங்களுக்கு 637
r 636
ங்கி 636
ைகளுக்கான 636
ையைத் 636
▁கொள்கைகள் 636
▁திருத்த 636
▁பூர்த்தி 636
▁விதத்தில் 636
▁அளிக்கப்பட்டது 635
▁அவள் 635
▁இந்தியாவுக்கு 635
▁உணவுப் 635
▁கணக்கான 635
▁தன்மையை 635
▁போரா 635
▁ஆலோசன 634
▁இந்தியாவும் 634
▁மோத 634
ப்புக்கு 633
ையானது 633
▁பாதிப்பு 633
த்தோடு 632
ப்போம் 632
▁வெளிப்பட 632
ுவதன் 631
▁கொள்முதல் 631
▁சுங்க 631
▁நடிகர் 631
▁மாற்றத்தை 631
▁ஹெ 631
ளவில் 630
▁பாராட்டினார் 630
▁பொறுப்ப 630
▁வரையில் 630
▁அச 629
▁அடங்கும் 629
▁ஊழியர்கள் 629
ந்தது 628
விட்டது 628
▁நெருக்கமான 628
▁மரண 627
▁வரவு 627
திக்கு 626
ிகளாக 626
தில்லை 625
வேன் 625
▁எதிர்கொண்ட 625
▁குற்றச்சாட்ட 625
▁செய்தனர் 625
▁நிறைய 625
45 624
க்கின் 624
ஜீ 624
லாத 624
்களுக்கு 624
▁அமல்படுத்த 624
▁தேர்த 624
▁பணியாளர் 624
த்திற்குப் 623
ுவிட்ட 623
▁உத்தரவ 623
▁திரைப்பட 622
▁நீண்டகால 622
ுவார் 621
▁அமைந்த 621
▁பிரதேசம் 621
▁மட்டுமின்றி 621
வதை 620
விற்கு 620
ுகள 620
▁அதனால் 620
▁விஞ்ஞான 620
▁விட்டது 620
ர்களையும் 619
ாளர்களும் 619
ாளர்களை 619
▁அழுத்த 619
▁தீர் 619
▁மின்சாரம் 619
▁வீடு 619
," 618
வர 618
ாகப் 618
▁அனை 618
▁இலக்கை 618
▁கடைசி 618
▁ஜெனரல் 618
t 617
டுவது 617
▁என்பதற்கு 617
▁கடுமையாக 617
▁குடிமக்கள் 617
▁நிற்க 617
▁மாதத்தில் 617
▁வருவாய் 617
▁வாக்கள 617
டிக்க 616
▁வாய்ப்புகளை 616
னு 615
வ் 615
▁குடிநீர் 615
▁பெருநிறுவன 615
▁வைரஸ் 615
ேந்திர 614
▁கால் 614
▁சமூகப் 614
▁நடத்தப்பட்ட 614
ைகளைத் 613
▁சும 613
ஷ்ட 612
▁ஆஸ்திரேலிய 612
▁உற்பத்திய 612
▁கார் 612
▁தோ 612
▁நடவடிக்கைகளில் 612
▁மால 612
▁யூ 612
ில்தான் 611
▁இராணுவத் 611
▁செயல்ப 611
▁டெ 611
▁தனக்கு 611
▁நாடுகளும் 611
ுகையில் 610
▁மேற்கொள் 610
▁இயக்கத்தை 609
▁பிரச்சாரம் 609
பொ 608
▁பரஸ்பர 608
ைகளிலும் 607
▁அனைத்தையும் 607
▁சிங்கள 607
▁வெளிப்படையான 607
துடன் 606
வேண்டிய 606
்த் 606
▁அவனுடைய 606
▁இதுதான் 606
▁எதிர்ப்பை 606
ோட 605
▁ஆற்றல் 605
▁செயல 605
▁நுகர்வோர் 605
▁வலியுறுத்திய 605
தாகக் 604
தின் 604
▁நாடுகளுக்கும் 604
▁சால 603
▁சூழல் 603
▁பெயரில் 603
▁மகிழ்ச்ச 603
வர்களில் 602
ிப்பதற்கு 602
்த்த 602
▁உண்ட 602
▁உள்ளார் 602
▁குண்டு 602
▁கூட்டமைப்பு 602
ரால் 601
ும்போது 601
▁பட்டியலில் 601
▁யின் 601
லைப் 600
▁எங்களுக்கு 600
▁கொள்கைகளை 600
▁வழிகாட்ட 600
▁ஸ்ட 600
▁இளைஞர் 599
▁உடை 599
▁திட்டங்களுக்கு 599
▁நினைக்க 599
தம் 598
▁அரசாங்கத்திற்கு 598
▁இந்து 598
▁சிக்க 598
▁பாராட்டு 598
▁மந்த 598
வதற்காக 597
▁சம்பள 597
▁தெ 597
பீ 596
ஸின் 596
▁இருப்ப 596
▁மாற்று 596
மையில் 595
▁ஒப்பு 595
▁சபை 595
▁செல்வந்த 595
▁தடுத்து 595
▁துறைமுக 595
▁மறை 595
ுகளைப் 594
▁ஆசாரிய 594
▁உறுதியான 594
▁குடியரசுக் 594
▁கோரிக்க 594
▁திவ 594
", 593
ருக்கான 593
வர்களாக 593
ஸ்தான 593
ிற்காக 593
▁இங்கே 593
▁தாக்குதலை 593
▁தொலைபேசி 593
ப்புக் 592
ப்போல 592
▁கண்டன 592
▁பேரில் 592
யூ 591
ராம் 591
ிருந்தால் 591
▁பிரச்சன 591
▁மாபெரும் 591
▁வைக்கப்பட்ட 591
▁அறிவுறுத்த 590
▁ஒதுக்கீடு 590
▁கூறி 590
▁பேச்சு 590
ல்களுக்கு 589
ிட்டது 589
▁இருந்தால் 589
▁ஓய்வு 589
▁ஜீ 589
▁நோ 589
▁விசார 589
▁விஷயம் 589
ிடையே 588
▁அழுத்தம் 588
த்தின்கீழ் 587
▁தரம் 587
ிக்கப்படுகிறது 586
ைத்த 586
▁ஆக்கிரமிப்பு 586
▁ஆத 586
▁உன்னை 586
▁குடி 586
▁மிகச் 586
ுத்த 585
▁அன்ப 585
▁உங்களை 585
▁நினை 584
▁ரீ 584
on 583
ண் 583
ிடும் 583
▁உடன்படிக்கை 583
▁தேவைப்படும் 583
▁முன்ப 583
செ 582
ப்படுவதற்கு 582
ையிலிருந்து 582
▁கழகம் 582
▁மூன்றாவது 582
ers 581
▁உறவ 581
▁எவ்வித 581
▁முட 581
▁மேற்க 581
ட்சிய 580
ஸில் 580
ாகவே 580
ையாகும் 580
▁தி 580
▁நாயுடு 580
சன 579
தைப் 579
▁வேளாண்மை 579
▁அமைப்ப 578
▁இயக்குநர் 578
▁ஒருங்கிணை 578
▁சுதந்திரம் 578
▁செய்யவும் 578
▁நடைபெற்று 578
த்தினர் 577
ினான் 577
▁அணுசக்தி 577
▁சாட்ட 577
▁பெருக 577
▁ஹூ 577
▁உற்பத்தியில் 576
▁சாதனை 576
▁தமிழ்நாடு 576
▁தொகுப்பு 576
▁மருத்துவமன 576
▁மாதங்களில் 576
ிருப்பதை 575
▁கண 575
▁பிராந்தியத்தில் 575
▁பொதுத்துறை 575
ad 573
டுகிற 573
ளிப்ப 573
▁அறிவு 573
▁தெளிவான 573
▁நிதியா 573
தலை 572
ுவிட 572
▁எல்ல 572
▁ஏதும் 572
▁தீவிரமாக 572
▁பதிவ 572
▁ரீதியான 572
▁விரிவாக்க 572
ப்பிரதேசம் 571
ிடமிருந்து 571
▁இணைந்த 571
▁உட 571
▁சிந்த 571
▁தவ 571
▁மருத்துவக் 571
▁முயற்சியில் 571
▁ரொ 571
▁அறிய 570
▁சுற்று 570
▁தயாரிக்க 570
V 569
ரீ 569
▁இல்ல 569
▁பாடு 569
0, 568
▁அத்தியாவசிய 568
▁அறிக்கையை 568
▁ஆவண 568
▁நாம 568
▁மேற்கொள்ளப்பட்ட 568
மய 567
ீட்டை 567
▁இதற்கான 567
▁கத 567
▁கோப 567
▁சவு 567
▁ஜாத 567
▁பிரச்சினைகள் 567
▁வருவது 567
லிய 566
▁அம்சங்கள் 566
▁ஆத்திர 566
▁போராட்டத்தில் 566
தற்கும் 565
▁பங்கேற்ற 565
▁வகுப்பு 565
ருவ 564
லான 564
ாரி 564
▁கவுன்சில் 564
▁மாதிரி 564
ஃப் 563
▁ஒட்டி 563
▁தரமான 563
▁தொழில்முனை 563
▁நிறை 563
▁பெறுவதற்கு 563
▁மகா 563
▁ராம் 563
om 562
▁அருகில் 562
▁எல்லாம் 562
டைந்த 561
ாட்டை 561
ித்துள்ளது 561
▁இருந்தும் 561
▁தொலைக்காட்சி 561
▁போன்று 561
மர் 560
▁ஆய்வ 560
▁எச்சரிக்கை 560
▁குண்ட 560
▁திட்டமிட 560
▁மெட்ரோ 560
et 559
ென 559
▁உரிமைகளை 559
▁நகரங்களில் 559
▁நடத்துவ 559
▁மீதும் 559
▁மேம்பாட்டுத் 559
சிய 558
▁உடன்பாடு 558
▁நாட்டுக்கு 558
▁வளர்ச்சிக்கு 558
▁வீ 558
ியே 557
▁அப்படி 557
▁கொள் 557
▁பாதிப்ப 557
மள 556
▁இருப்பதை 556
▁சொல் 556
▁தலைவரான 556
▁பேச்சுவார்த்தை 556
ந் 555
▁இத்த 555
▁கருத்தை 555
▁பட்டய 555
▁மருந்துகள் 555
▁மானிய 555
ப்படி 554
மையின் 554
ரவாத 554
ேக 554
▁தூய் 554
▁மும்பை 554
▁ஆசிரியர் 553
▁ஆயுதங்கள் 553
▁எண் 553
▁எழுத்து 553
▁தாக்குதல்கள் 553
▁பயணிகள் 553
▁பிரிவுகள் 553
னால் 552
ன்ம 552
ிப்பதற்கான 552
ையெல்லாம் 552
ிகளைப் 551
▁அறிக்க 551
▁காரிய 551
▁சவால்களை 551
▁பின்ன 551
▁லா 551
னாக 550
லைத் 550
▁என்பதே 550
▁தங்களை 550
▁தொடர 550
▁நாடுகள 550
▁நிலையங்கள் 550
▁மாநிலத்தின் 550
▁மேற்கொள்ளும் 550
ிக்கிறது 549
▁ஏற்றுக்கொள்ள 549
▁செலவில் 549
▁திருப்பி 549
▁யா 549
திர 548
ிட்டு 548
ியாய 548
▁திரட்ட 548
▁வாழ்க்கையை 548
்ட 547
▁பாரிய 547
ணம் 546
ல்க 545
▁அனுப்பி 545
▁ஒருவன் 545
▁கணக்கில் 545
ிகளைக் 544
ைகளால் 544
▁ஊர 544
▁ஊழல் 544
▁எவ்வளவு 544
▁வளர்ச்சிக்கான 544
▁நிவாரண 543
▁போதும் 543
ந்த் 542
மையையும் 542
லைக் 542
▁சட்டத்தை 542
▁அறிவிக்கப்பட்ட 541
▁உத்தியோகபூர்வ 541
▁திட்டங்களின் 541
▁பிணை 541
▁புதுப்ப 541
ஸ்ட் 540
ாளர்களின் 540
ுக்குள் 540
▁அனைத்துலக 540
▁இந்தியக் 540
▁காலத்திற்கு 540
▁செயல்பாடுகள் 540
▁போட 540
ணி 539
ர்களில் 539
விட்டு 539
ிம 539
▁ஆப 539
▁நிதியமைச்ச 539
ிப்பதற்காக 538
ுகளைக் 538
▁எரிபொருள் 538
▁குறைந்தபட்ச 538
▁குறைந்து 538
▁சேமிப்பு 538
▁தெளிவ 538
▁நிலையான 538
▁நீக்க 538
▁வழியாக 538
▁சூழ்நிலையில் 537
▁பருவநிலை 537
ன்க 536
மாகப் 536
மாறும் 536
ழு 536
வச 536
▁அறிவிப்பு 535
▁ஆப்கானிஸ்தான் 535
▁கொண்டுவ 535
இல் 534
ஜா 534
ந்துள்ளன 534
ப்படுத்துதல் 534
▁எளி 534
▁காத்த 534
▁பணியாளர்கள் 534
ர்வ 533
▁அமெரிக்கப் 533
▁எட்டு 533
▁காப்பாற்ற 533
▁கிழக்கில் 533
▁சந்திர 533
▁நின்று 533
▁பிரிவில் 533
த்தன்மை 532
நாள் 532
▁அமைச்சர்கள் 532
▁அவன 532
▁உள்பட 532
▁காஷ்மீர் 532
▁பெருமளவில் 532
ிற்குள் 531
▁அளித்தது 531
▁வெகுஜன 531
சன் 530
ிருக்கின்றனர் 530
▁அமைந்துள்ளது 530
▁ஆகியவற்றுக்கு 530
▁பிப்ரவரி 530
▁அணுக 529
▁தலைவராக 529
த்தா 528
த்தார் 528
▁ஒன்றியம் 528
▁குரல் 528
▁தங்களுடைய 528
▁வழங்கி 528
▁ஷா 528
ப்புப் 527
மைப் 527
ிற்க 527
▁வகையிலான 527
▁வட்ட 527
ண்டில் 526
வுள்ளது 526
▁தூய்மையான 526
▁நடவடிக்கையை 526
▁விஜய் 526
ுவோம் 525
▁இன்னொரு 525
▁வேகமாக 525
▁சுயாதீன 524
▁தினத்தை 524
▁யுத்தம் 524
▁வல்ல 524
▁அடங்கிய 523
▁தொட 523
▁வான 523
டோ 522
னைய 522
ுமாறு 522
▁உரையாற்றினார் 522
▁கணக்கு 522
▁தில்லியில் 522
▁பிந்தைய 522
▁மாணவர் 522
▁அளிக்கப்பட்ட 521
▁செயலர் 521
▁சேர் 521
▁நாளில் 521
es 520
▁அதைப் 520
▁நிரூப 520
▁வாய்ப்பை 520
செய்ய 519
ித்தன 519
▁பத்திரிக 519
முய 518
ளிக்கும் 518
▁உனக்கு 518
▁கூறுகிறது 518
▁மாலை 518
டக 517
ப்பி 517
மைக்கு 517
▁அழை 517
▁உன 517
▁உயிரி 517
▁சாதன 517
▁தளபதி 517
▁தொடர்ச்சியான 517
மேலும் 516
றி 516
வுக்கு 516
▁கோரிக்கை 516
▁சாவ 516
▁சுட்டிக் 516
▁தேசத்தின் 516
னார்கள் 515
ப்பின 515
ிப்பை 515
▁விரைவு 515
it 514
▁உத்தர 514
▁சுத 514
▁நடத்தும் 514
▁முன்வை 514
க்கிற்கு 513
டியில் 513
முடியாத 513
▁அதிகாரத்துவ 513
▁கருத்துக்கள் 513
▁கொள்ளலாம் 513
▁சலுக 513
▁தொடக்கத்தில் 513
▁போன்றவை 513
தைத் 512
▁கடும் 512
▁சமாள 512
ால்தான் 511
▁ஆல 511
▁மட்டுமல்ல 511
கால 510
▁உள் 510
▁உள்கட்டமைப்பு 510
▁என்பதுதான் 510
▁வேலைகள் 510
ப்பட்டனர் 509
ாங்க 509
ாவே 509
▁பணியை 509
▁பிரிவின 509
மைகள் 508
ர்க 508
▁ஒழுங்கு 508
▁கூறியுள்ளது 508
▁சத்த 508
▁சேவைகளை 508
▁மெட்ரிக் 508
த்தல் 507
வார் 507
▁இயக்கத்தில் 507
▁ஜெ 507
▁தேவைகளை 507
▁பங்களிப்ப 507
▁பொறுத்தவரை 507
▁ரி 507
வுத் 506
▁அமைப்பை 506
▁பற்றிக் 506
▁முனை 506
ர்தான் 505
ஷம் 505
ாகி 505
▁அபிவிருத்தி 505
▁சொ 505
▁தமிழீழ 505
▁வாழ்க்கையில் 505
த்துக்காக 504
த்தோ 504
ஷின் 504
▁இவ்வாறு 504
▁கண்டனம் 504
▁கருத்துக்களை 504
▁சந்தர்ப்ப 504
▁மனதில் 504
▁உரிம 503
▁குறைவாக 503
▁ஞான 503
▁தொழில்நுட்பத் 503
▁வரவேற்க 503
▁வழியில் 503
த்திடம் 502
வதாக 502
▁அடிப்படையாகக் 502
▁கர 502
▁குமாரதுங்க 502
▁வன 502
▁விஷயங்கள் 502
கி 501
ுவிட்டது 501
ொரு 501
▁உத் 501
▁எதிர்கொள்ளும் 501
▁நான்காம் 501
தியில் 500
லு 500
ுவதும் 500
▁கருத்துக்க 500
▁வாயிலாக 500
னான 499
▁எனப்படும் 499
▁காரண 499
▁வங்கியின் 499
ரமான 498
ாலா 498
ுதலை 498
▁இருதய 498
▁டாலர்கள் 498
▁முஷ 498
▁வணிகம் 498
▁வன்முறை 498
▁விடுக்க 498
ப்பதாக 497
மன 497
ாச 497
ுகளைத் 497
▁$ 497
▁ஒன்றுக்கு 497
▁தெரிய 497
▁வகையான 497
ல்லா 496
▁உறவு 496
▁நிபுண 496
▁நூற்றுக்கணக்கான 496
▁படுகொலை 496
▁சிற 495
▁மந்திர 495
▁வேளையில் 495
வெ 494
▁தாவீது 494
▁பிரிக்ஸ் 494
▁மாற்றி 494
al 493
ப்படுத்திய 493
▁நிலைக்கு 493
▁பாரதம் 493
▁புறப்பட்டு 493
▁போய 493
▁வருங்கால 493
▁” 493
ஜெட் 492
▁உளவு 492
▁எது 492
▁கூறியது 492
▁சங்கம் 492
எஸ்டி 491
வாதிகள் 491
▁இயேசு 491
▁இருக்கிறார் 491
▁தளம் 491
▁ராஜ் 491
▁ஏற்படுத்தி 490
el 489
ப்பதன் 489
▁எதையும் 489
▁தாக்குதலுக்கு 489
▁வழக்கு 489
தொரு 488
போதும் 488
ியையும் 488
▁அடல் 488
▁அழ 488
▁பள்ளி 488
▁விவரங்கள் 488
த்தது 487
மானால் 487
ொள்க 487
▁ஆர்வம் 487
▁கொண்டாட்ட 487
▁பணியாற்றி 487
▁வரலாறு 487
▁வருட 487
▁விழிப்புணர்வு 487
▁அக்கறை 486
▁ஆரம்பத்தில் 486
▁உரையாற்ற 486
▁குறைந்தது 486
▁சட்டவிரோத 486
▁சீர 486
▁சென்னையில் 486
தியான 485
ரைப் 485
வர்களுக்கும் 485
ிருந்தாலும் 485
▁தயாரிக்கும் 485
▁நட்பு 485
▁பராமரிப்பு 485
▁ரீதியாக 485
.... 484
ன்ப 484
▁இனவாத 484
▁சிவ 484
▁பொதுவாக 484
▁மேம்படுத்தும் 484
▁வருகிறார்கள் 484
or 483
ஜெ 483
தான 483
மிகு 483
மையும் 483
ரத் 483
ாவோ 483
ேயும் 483
▁இதுவே 483
▁இரவு 483
▁இறக்குமதி 483
▁தவறான 483
▁வறுமை 483
▁வைக்கும் 483
மட்டும் 482
ிருப்பதாகவும் 482
▁பேருக்கு 482
நல 481
ரமாக 481
▁பன்முக 481
▁பாகிஸ்தான் 481
▁விசுவாச 481
இது 480
ன்ஸ் 480
▁தீர்ப்பு 480
▁தொடங்கியது 480
▁மரியாதை 480
U 479
ப்படவேண்டும் 479
மின்றி 479
வனும் 479
வாதம் 479
▁இவற்றில் 479
▁நிலைமையை 479
▁பொருளாதாரத்தை 479
▁மாவட்டங்களில் 479
at 478
b 478
ங்கிய 478
த்தலைவர் 478
ாரம் 478
ுவத 478
▁ஆணையத்தின் 478
▁குமார் 478
▁புனித 478
▁முடிந்தது 478
▁ஹர் 478
ப்படலாம் 477
வித 477
▁அம்பல 477
▁அற 477
▁இன்னமும் 477
▁இரகசிய 477
▁நடைமுறைகள் 477
▁பேரிடர் 477
▁முயற்சிய 477
▁வாழ்க்கைத் 477
). 476
க்குவ 476
றிவ 476
ாரும் 476
ிக்கப்பட 476
▁உத 475
▁பாதுகாப்ப 475
▁பாதுகாப்பை 475
சின் 474
▁ஏற்பட்டது 474
▁நோய்த் 474
▁மூடி 474
▁வாழ் 474
த்தின்படி 473
▁அடைக 473
▁ஆட்சிக்கு 473
▁ஒன்றியத்தின் 473
▁காய 473
▁செய 473
65 472
பெ 472
ாவையும் 472
▁என்னுடைய 472
▁செயல்பட்ட 472
▁புத்த 472
▁மாநிலங்களுக்கு 472
க்களின் 471
ையால் 471
▁இணையதள 471
▁செய்துள்ள 471
▁நாட்களுக்கு 471
▁பற்றாக்குறை 471
ing 470
ட்டர் 470
▁இரா 470
▁சந்தோ 470
▁மூன்றாம் 470
நோக்கு 469
ாண 469
ாவிற்கும் 469
ூட்ட 469
▁அறிவிக்க 469
▁ஆசிரியர்கள் 469
▁தெரியும் 469
▁பங்கை 469
▁பத்திர 469
▁பிரச்சனை 469
▁முகாம 469
c 468
த்துக்க 468
யோ 468
▁ஒன்ற 468
▁நடிக்கிறார் 468
▁பெற்றுள்ளது 468
▁ரச 468
ாயிர 467
▁அம்ச 467
▁அரசாங்கங்கள் 467
▁எளிதாக 467
▁சமர்ப்ப 467
▁சூ 467
▁தொடர்ச்சியாக 467
▁படங்கள் 467
▁வழக்க 467
sp 466
திரு 466
த்துப் 466
ுகளுக்கான 466
▁குழாய் 466
▁நப 466
▁நிறுவனங்களில் 466
▁நிலைநாட்ட 466
பை 465
▁எதிர்பார் 465
▁கட்டுப்பாட்டில் 465
▁கூட்டுறவு 465
▁புக 465
னுக்கும் 464
ப்பதற்கும் 464
▁அருகே 464
▁கற்ப 464
▁குழந்தை 464
▁திறந்த 464
▁பாடல் 464
▁பிரச்ச 464
▁பை 464
▁வருகிற 464
னான் 463
ைகளுடன் 463
்கள 463
▁ஆகியன 463
▁ஏற்படுத்திய 463
▁கொண்டிருந்தது 463
▁தென் 463
▁பரிந்துரை 463
▁பாதுகாப்பான 463
▁பொன் 463
▁மட்ட 463
▁ரஜ 463
▁விளக்கம் 463
z 462
ோன் 462
▁அடிக்கடி 462
▁அடிய 462
▁கட்டாயம் 462
▁செய்யப்பட்டு 462
▁தலைவர்கள 462
▁பெய 462
பாத் 461
▁ஆலய 461
▁இப்ப 461
▁இலங்கையில் 461
▁ஏழைகள் 461
▁சுக 461
▁தண்டனை 461
▁தனிமை 461
▁ரஷ்யா 461
ிருந்தார்கள் 460
▁ஆள 460
▁இவ 460
▁உற்பத்தித் 460
▁எனினும் 460
▁கொல்லப்பட்ட 460
▁சந்திக்க 460
▁வேண்டுகோள் 460
ப்படை 459
ோருக்கு 459
▁ஆட்ட 459
▁ஆழமான 459
▁உகந்த 459
▁கொள்வது 459
▁முறைய 459
199 458
மைக்க 458
ுறை 458
▁எனும் 458
▁சிவில் 458
▁செலுத்தி 458
▁பூச 458
▁முன்னெடுத்துச் 458
க்கோ 457
▁உயர்மட்ட 457
▁நாட்டிற்கு 457
▁பேரழிவ 457
▁மக்களிடையே 457
▁விளக்கினார் 457
▁வெளியேற்ற 457
வள 456
ிக்கப்பட்டு 456
▁அளிக்கப்படும் 456
▁ஆட்சியை 456
▁ஊடகங்கள் 456
▁ஒப்பந்தத்தில் 456
▁காலகட்டத்தில் 456
▁குறைப்பு 456
▁சாலைகள் 456
▁தொழிற்சாலை 456
▁தொழில்கள் 456
▁நிலையம் 456
▁பெற்றது 456
ஒ 455
தைக் 455
பட்ட 455
ிவை 455
▁இருக்கிறார்கள் 455
▁உழை 455
▁குடியரச 455
▁சமையல் 455
▁சுற்ற 455
▁ஜோன் 455
▁பொதுத் 455
க்களில் 454
மெ 454
வேகம் 454
ாதி 454
ுகளுக்கும் 454
▁கையில் 454
▁சற்று 454
▁புலனாய்வு 454
▁வெறு 454
போல் 453
ெய 453
▁தூர 453
▁பழங்குடியினர் 453
▁ரூபாய 453
▁வருமாறு 453
டியாக 452
நே 452
ப்போல் 452
▁கட்சியை 452
▁மடங்கு 452
▁ரெயில் 452
▁ஏற்பட்டுள்ளது 451
▁ஐரோப்பா 451
▁சந்தித்த 451
▁தலைப்பில் 451
ளிக்க 450
வத 450
▁கீ 450
▁பசுமை 450
▁பழங்குடியின 450
▁மூட 450
▁வேண்டாம் 450
ளவு 449
▁அஞ்சல் 449
▁ஒற்றுமை 449
▁நானும் 449
▁பாலஸ்தீன 449
▁பிரகடனம் 449
▁பொருள்கள் 449
▁அனைத்துப் 448
▁உட்க 448
▁எகிப்த 448
▁தெரிந்து 448
▁யோக 448
▁ஷ் 448
ஸ்திர 447
▁? 447
▁எந்தவிதமான 447
▁சின்ன 447
▁தயார 447
▁பக 447
00,000 446
டினார் 446
▁அதற்கான 446
▁ஏதாவது 446
▁குடிய 446
▁தகுதி 446
▁மக்களுக்கும் 446
▁விமானங்கள் 446
▁இளைய 445
▁காட்டும் 445
▁கொடுக்கப்பட்ட 445
▁நொ 445
டித்த 444
▁சாலைப் 444
▁முழுக்க 444
▁வங்கிக் 444
▁வழங்கியுள்ளது 444
▁வேட்பாளர் 444
சம் 443
ற்கு 443
வராக 443
▁ஆண்டுக்கு 443
▁கட்டுமான 443
▁நின்ற 443
▁மீற 443
சக்த 442
னியின் 442
மில்லாத 442
மூ 442
▁சந்தித்து 442
▁சுரங்க 442
▁தற்போதுள்ள 442
▁தேசியவாத 442
▁புலம்பெயர்ந்த 442
▁முடக்க 442
▁மையமாக 442
▁விஞ்ஞானிகள் 442
ருமான 441
லுக்கான 441
ோக் 441
▁அரசுக்கு 441
▁செய்யப்பட 441
▁பிள 441
▁வருமானம் 441
ia 440
▁ஆதரவாக 440
▁கொண்டுள்ளன 440
▁நகரங்கள் 440
▁புரி 440
qu 439
re 439
▁இந்தியத் 439
▁சேன 439
▁நடைமுறைப்படுத்த 439
▁நேட்டோ 439
▁பணிய 439
▁முடிவுகளை 439
▁விநியோகம் 439
▁ஆன்லைன் 438
▁இந்தியாவிற்கு 438
▁எதிர்த்த 438
▁ஒழ 438
▁திருப்ப 438
▁நிரந்தர 438
▁பாதையில் 438
▁மாற்றிய 438
▁வழங்கப்பட்ட 438
▁உறுப்பு 437
▁என்பதாகும் 437
▁கல்லூரி 437
▁வெளியிட்டுள்ள 437
▁அரபு 436
▁கருவிகள் 436
▁மாகாண 436
▁வெளியிட்டார் 436
ர்களிடம் 435
▁எடுத்துரை 435
▁கடை 435
▁கீழே 435
▁மொழி 435
▁விதி 435
சியின் 434
லால் 434
ளின் 434
ானா 434
▁அமெரிக்கத் 434
▁இழப்பு 434
▁தூதரக 434
▁பிரிட்டன் 434
▁மிருக 434
திகள் 433
ுக்கொள்ள 433
▁இராணுவத்தின் 433
▁வரவேற்பு 433
▁ஹெல 433
ச்சு 432
்வ 432
▁அர்த்த 432
▁அவர்களில் 432
▁கட்டுரை 432
▁சார் 432
▁தங்களுக்கு 432
▁வழங்கினார் 432
கர் 431
ங்களுக்காக 431
▁ஆகியவற்ற 431
▁கட்டி 431
▁செய்வதில் 431
▁பிரபல 431
▁மருந்த 431
▁முடி 431
ஆவது 430
டைந்து 430
த்தில 430
▁இணைக்க 430
▁உற்சாக 430
▁செல்வ 430
▁தெரிந்த 430
▁போட்டியில் 430
▁முடியாமல் 430
▁விடுத்தார் 430
பன் 429
ரச 429
ின்றி 429
▁கூட்டாக 429
▁கொண்டாட 429
▁பயன்படுத்தும் 429
▁மருத்துவமனை 429
ாராம் 428
ையைச் 428
▁அனுப்பு 428
▁கும்ப 428
▁கெர் 428
▁நெ 428
▁பெற்றுள்ள 428
▁மோசே 428
▁வளம் 428
nd 427
முதல் 427
▁இளைஞர்களுக்கு 427
▁ஏனென்றால் 427
▁கட்டு 427
▁பாட 427
▁பிரிவினை 427
▁பொருத்த 427
▁பொறு 427
▁வங்கிய 427
▁வழிவக 427
ew 426
க்கொ 426
ட்டுக் 426
ியல் 426
▁இலவச 426
▁கையாள 426
▁சூழலை 426
▁தொகையை 426
▁பார்வை 426
▁மாற்றங்கள் 426
▁ரே 426
ிழ 425
▁அறிமுகம் 425
▁இருப்பினும் 425
▁இழந்து 425
▁உம 425
▁கங்கை 425
▁தரத்தை 425
▁துவக்கி 425
▁நல் 425
▁நோக்கமாகக் 425
▁பிளேயர் 425
▁முடியவில்லை 425
▁முத 425
வாய் 424
▁அளிப்பது 424
▁கூர் 424
▁சாக 424
▁வெளியிடப்பட்ட 424
32 423
லுடன் 423
ியைத் 423
▁* 423
▁அச்சுறுத்தல் 423
▁எல்லாரும் 423
▁நியூ 423
▁நிலவும் 423
▁நிலையத்தில் 423
▁பாதிக்க 423
▁மொ 423
ont 422
த்துற 422
மைப்ப 422
லிக்க 422
▁ஆழ 422
▁கூறு 422
▁பேரழிவு 422
▁மி 422
▁ரீதியில் 422
] 421
த்திற்க 421
ினேன் 421
▁ஆயத்த 421
▁இருப்பதால் 421
▁கருத 421
▁கொழும்பு 421
▁நடைமுறையில் 421
▁பிரதிநிதி 421
▁பெட்ரோலியம் 421
னியில் 420
▁ஆபத்து 420
▁கட்டுப்பாடு 420
▁கவுரவ 420
▁கொல்ல 420
▁வீத 420
ங்கும் 419
த்தைய 419
▁குட 419
▁சராசரி 419
▁செயலி 419
▁ஜேர்மனி 419
▁டு 419
▁நெருங்கிய 419
▁பயன் 419
▁போக்கு 419
▁மணிக்கு 419
▁மல 419
▁லி 419
ri 418
மைகளை 418
ுகொண்ட 418
▁அவரின் 418
▁ஊக்கம் 418
▁எடுத்துச் 418
▁தெலுங்கு 418
▁பெண்களுக்கு 418
▁போராட்டத்தை 418
▁விதிகள் 418
த்திலுள்ள 417
மடை 417
ம்பு 417
லிஸ் 417
வேல 417
▁எளிதில் 417
▁ஓடி 417
▁கண்காண 417
▁பொறுத்தவரையில் 417
▁வெகு 417
▁வென்ற 417
மயமாக்க 416
லுக்கும் 416
ினரின் 416
▁அணுகுமுறை 416
▁அப் 416
▁இன்ன 416
▁சத்து 416
▁தடைய 416
▁பொலி 416
33 415
ம்ச 415
ம்ம 415
ோடும் 415
▁அழைக்க 415
▁இப்பட 415
▁நடிக்கும் 415
▁நோக்கமாகும் 415
▁பணத்தை 415
▁வக 415
▁வரவேற்ற 415
ro 414
சிக்க 414
தார 414
ல்களின் 414
ஹா 414
▁அதிகாரத்தை 414
▁இருக்கலாம் 414
▁உரையில் 414
▁கார 414
▁செய்வதை 414
▁தரப்பு 414
▁தவற 414
▁பிரான்சின் 414
▁புறக்கண 414
த்தன 413
த்தான 413
ப்பாட்ட 413
ரிக்கப்பட்ட 413
ரித்து 413
ரோன் 413
ீட்ட 413
▁கலாச்சாரம் 413
▁கிலோமீட்டர் 413
▁தற்காலிக 413
▁நீதிமன்றம் 413
▁பாக்கிஸ்தான் 413
▁and 412
▁நடத்தப்படும் 412
▁நீட்ட 412
▁மறுக்க 412
▁மாதங்களுக்கு 412
▁வெளியில் 412
ுவதுடன் 411
▁அமைப்பில் 411
▁சூழலில் 411
▁திட்டங்களில் 411
▁தியாக 411
▁படங்களில் 411
▁பொருளாதாரத்தின் 411
▁மனிதவள 411
▁முதன்மை 411
க்கூட 410
ங்களுக்குச் 410
▁அங்கீக 410
▁இயங்கும் 410
▁இறப்பு 410
▁என்கிற 410
▁நிகழ்ச்சிகள் 410
▁பெருகிய 410
▁பெரும 410
▁பொதுமக்கள 410
க்களும் 409
தல்ல 409
பூர் 409
▁கொல 409
▁சமயம் 409
▁பாதை 409
▁பிரதேசத்தில் 409
▁முறையான 409
▁ராஜஸ்தான் 409
▁வறு 409
m 408
பான் 408
ப்பன் 408
றுப்பு 408
▁அறிவித்தது 408
▁உயர்வ 408
▁குடிமக்கள 408
▁தொக 408
▁மாநாட்டின் 408
▁மூன்ற 408
▁வளர்ச்சித் 408
சார்பு 407
டுத்து 407
ியுள்ள 407
▁அலுவல 407
▁ஆயினும் 407
▁கட்சியும் 407
▁சபையின் 407
▁நிறுவனங்களை 407
▁பக்கம் 407
▁வீட்டுவசதி 407
முற 406
ற்கும் 406
ீஸ் 406
ுவை 406
▁அலுவலர்கள் 406
▁என்பதும் 406
▁சேர 406
▁பிரதிபல 406
பூர்வமான 405
வுகளை 405
ாஸ் 405
ிருக்கின்றது 405
▁உற்பத்தியை 405
▁ஒளி 405
▁சமுதாயத்தின் 405
▁சாத 405
▁பரிமாற்ற 405
▁பிரிவின் 405
▁முடிவை 405
முடியும் 404
▁அரசியலில் 404
▁ஈராக்கின் 404
▁சந்தையில் 404
▁தேர்தல்களில் 404
▁வேலையில் 404
▁ஸ்தா 404
ங்களே 403
சக்தி 403
சித்த 403
ிருந்தான் 403
ையிலே 403
▁ஆண 403
▁நிறுத்தி 403
▁பணிக்கு 403
▁முடிக்க 403
▁வம்ச 403
ch 402
வுக் 402
ிகளைத் 402
▁அமைப்புக்கள் 402
▁இரத்த 402
▁ஏர் 402
▁குற 402
▁தெரிகிறது 402
▁தேசம் 402
▁நம்மை 402
▁புள்ளி 402
▁மாநாட்ட 402
▁ம் 402
▁வழிவகுக்கும் 402
▁விலக 402
Z 401
டியான 401
மென்று 401
▁அமைய 401
▁கொண்டதாக 401
▁பாஸ் 401
▁பெரும்பாலும் 401
▁விரும்பும் 401
கங்கள் 400
ல்களில் 400
வரு 400
▁அரசியலமைப்பு 400
▁கட்டமைப்பை 400
▁காலமாக 400
▁பிரச்சினைகளை 400
▁புரட்சிகர 400
ங்கா 399
ந்துகொண்ட 399
ிலோ 399
▁அழைத்து 399
▁எழுப்ப 399
▁திண 399
▁நம்பிக்கையை 399
▁மாணவர்களுக்கு 399
▁முடித்த 399
▁வன்முற 399
▁வெளிநாட்ட 399
த்தும் 398
ப்படாமல் 398
ப்புடன் 398
ளித்தார் 398
▁அடக்க 398
▁நக 398
125 397
பத 397
ராம 397
ற்க 397
ஷ்மீ 397
ினதும் 397
▁அதிப 397
▁ஆற்ற 397
▁உயர்வு 397
▁செயல்பாடு 397
▁செய்வதற்காக 397
▁தயாரித்த 397
▁தாக்குதல்களை 397
▁விருப்பம் 397
55 396
க்களுக்கு 396
க்குத் 396
க்குற 396
ப்பே 396
ளையும் 396
ிட் 396
▁ஆண்டுக்கான 396
▁சமூகத்தின் 396
▁நடைமுறைகளை 396
37 395
டியும் 395
ட்டா 395
வார 395
ிவைக்க 395
ைகளைச் 395
▁அந்தத் 395
▁உக்கிர 395
▁ஒருமுறை 395
▁கேட்டு 395
▁நிதியுதவி 395
▁பொதுக் 395
▁வட்டி 395
க்கப்பட்டு 394
ப்பார் 394
ரன் 394
ரூ 394
ற் 394
லர் 394
▁அஞ்ச 394
▁ஆரோ 394
▁இடம்பெற்ற 394
▁இத்திட்டம் 394
▁ஊதியம் 394
▁எத்தனை 394
▁குழுவில் 394
▁தகவ 394
▁பங்கேற்றனர் 394
▁முக்கியமாக 394
கத்தில் 393
▁உற்பத்திப் 393
▁என்பத 393
▁ஐரோப்ப 393
▁நடிக 393
ுகளால் 392
▁இருப்பதாகவும் 392
▁நடு 392
▁நிறுவனமான 392
▁பயங்க 392
is 391
ாண்ட 391
▁அன 391
▁எடுக்கும் 391
▁சினிமா 391
▁திகதி 391
▁திகழ்கிறது 391
▁புகழ் 391
▁விளைவு 391
ிக்காக 390
▁சேர்த்து 390
▁திரும்பி 390
▁பிரப 390
▁பொருளாதாரத்தில் 390
▁வரலாற்றில் 390
ங்களுக்குப் 389
த்தினை 389
ுறு 389
▁கப்ப 389
▁சிறை 389
▁தனிநபர் 389
த்திலேயே 388
ர்ம 388
ளில் 388
ாளரான 388
▁அட 388
▁எவரும் 388
▁சுற்றி 388
▁புரட்சி 388
▁வட்டார 388
42 387
ானிய 387
ியன் 387
ையாடல் 387
▁இறுதியாக 387
▁உப 387
▁தயாரிப்பாளர் 387
▁தலைமைய 387
▁பிரவே 387
▁வல 387
நான் 386
்க்க 386
▁உதாரணமாக 386
▁ஊக்குவிக்கும் 386
▁கழக 386
▁தம்முடைய 386
▁நியாயமான 386
▁மாவட்டத்தில் 386
▁வலி 386
தாய 385
்களின் 385
▁ஒது 385
▁ஒத்த 385
▁கண்டறிய 385
▁சவால் 385
▁வந்தார் 385
▁வளரும் 385
▁வார்த்தை 385
த்துக்குப் 384
ரிட 384
ுகளுடன் 384
▁அமெரிக்காவிற்கு 384
▁ஆச 384
▁கடல்சார் 384
▁தாவ 384
▁பரிசீ 384
அமெரிக்க 383
ப்படுவதாக 383
ாரர்கள் 383
ிகளிடம் 383
▁அதைக் 383
▁ஒப்புக்கொண்ட 383
▁படைத்த 383
▁பயன்பாடு 383
நாயகம் 382
ன்களுக்கு 382
ர்களுக்கான 382
்தன் 382
▁பொறியியல் 382
▁மய 382
மாகவே 381
▁சூழ்நிலை 381
▁தொடங்கப்பட்ட 381
▁பகுதியை 381
▁மக்களவையில் 381
▁ரயில 381
▁வருவதை 381
றை 380
▁அவற்றில் 380
▁இறங்க 380
▁உள்நாட்ட 380
▁கழிப்ப 380
▁செயற்கை 380
▁தாக்கத்தை 380
▁துறைகள் 380
▁தெளிவுபடுத்த 380
▁தேசியக் 380
▁பரிமாற்றம் 380
▁பல்கலைக் 380
▁பிரான் 380
▁வளர்த்த 380
▁வழங்கியது 380
பார 379
றிய 379
▁உயிரிழ 379
▁கட்டத்தில் 379
▁கால்நடை 379
▁கிழ 379
▁பெட்ட 379
▁முறைகள் 379
▁விளங்க 379
னைப் 378
ப்பட்டார் 378
▁அழிவ 378
▁தண்ட 378
▁பகுதிகளிலும் 378
▁மதிப்பிட 378
ப்படுகிற 377
மாகத் 377
▁உருவாக்குவது 377
▁டோ 377
▁நோக்கிய 377
▁படுத்த 377
▁பாக 377
▁வழிவகை 377
ாவிலும் 376
▁ஈடுபட 376
▁கோர 376
▁சமரச 376
▁சென 376
▁தளத்தில் 376
▁திசை 376
▁வளர்ச்ச 376
க்குழு 375
த்துள்ளது 375
ொண்டு 375
▁அடித்த 375
▁அரசுகளின் 375
▁ஆதரி 375
▁இஸ் 375
▁எவ்வாற 375
▁கருதுக 375
▁காட்டினார் 375
▁தாக்கம் 375
▁துன்ப 375
▁பண்டிக 375
▁முதலாள 375
im 374
ங்களிலிருந்து 374
சம 374
ன்ன 374
மிய 374
ற்ப 374
வையாக 374
வோர் 374
▁இலக்குகளை 374
▁உற்பத்த 374
▁ஏற்றும 374
▁கூறும் 374
▁சீனாவின் 374
▁தொடர்ந்த 374
▁நூற்றாண்டு 374
▁வாரிய 374
▁விஜய 374
48 373
நாடு 373
நில 373
ருக்குப் 373
விடும் 373
ிகளான 373
்க் 373
▁அவ்வாறு 373
▁ஓய்வூதியம் 373
▁நம்ம 373
▁மாறி 373
▁முடிய 373
▁ரெ 373
▁வல்லரச 373
ol 372
ொண்ட 372
▁இடங்கள் 372
▁கட்சிக்கு 372
▁ஜோர்ஜிய 372
▁பதவியில் 372
▁பொதுச் 372
▁வசிக்கும் 372
▁வரம்ப 372
.. 371
டுகிறது 371
ம்ஸ் 371
ராய 371
▁உருவாக 371
▁ஐரோப்பாவில் 371
▁குழந்தைகளுக்கு 371
▁சேமி 371
▁பிரபு 371
▁மக்களும் 371
ைத்தான் 370
▁இருந்தனர் 370
▁கட்டமைப்ப 370
▁சர்வ 370
▁பிரிய 370
டுதல் 369
பேர் 369
ென் 369
▁குறைக்கும் 369
▁செய்திகள் 369
▁ஜோர்ஜ் 369
▁நினைவ 369
▁பின்னணி 369
▁பிறப்ப 369
▁வர்ண 369
▁வழங்குவது 369
ed 368
செய்த 368
டுவதை 368
வருக்கும் 368
ிக்குப் 368
ுக்கே 368
▁கிராமங்களில் 368
▁கொடூரமான 368
▁சம்பந்த 368
▁சுவ 368
▁திராட்ச 368
▁விடைய 368
▁விமானப்படை 368
நி 367
▁ஆயுதங்களை 367
▁எதிர 367
▁நிதியம் 367
▁பிரமுக 367
▁பொறுப்பை 367
▁மன்ற 367
▁விர 367
நோ 366
▁ஊட்டச்சத்து 366
▁நன்மை 366
▁பாரு 366
▁வீட்டில் 366
ங்கை 365
ன்கள 365
ஷி 365
ியாய் 365
ேற்ற 365
▁ஆபிரிக்க 365
▁இந்தியர்கள் 365
▁தல 365
▁தலி 365
▁முக்கியமானது 365
▁மூலமும் 365
▁மேலான 365
▁ரசிக 365
▁லீ 365
செல 364
நாள 364
பட்டு 364
ஷர் 364
ார்ட் 364
ியால் 364
▁உரங்கள் 364
▁குறிப்பு 364
▁தமிழில் 364
▁துவக்க 364
▁நன 364
▁நிகழ்வு 364
▁புவி 364
▁போரின் 364
யல் 363
▁அண்டை 363
▁இவற்றின் 363
▁கிளர்ச்ச 363
▁ஜனாதிபத 363
▁தொடங்கும் 363
▁மட்டுமல்லாமல் 363
த்தீ 362
பால 362
ப்படுத்தவும் 362
ருங்கள் 362
ொட்டி 362
▁அதேவேளை 362
▁ஊக்குவிக்க 362
▁குழுவ 362
▁தன 362
▁தன்ன 362
▁படையின 362
▁பராமரி 362
▁மகன் 362
▁மையத்தில் 362
▁ராம 362
▁வெளியேற 362
கிற 361
டிகள் 361
ப்பிய 361
▁அஞ்சலி 361
▁அமலாக்க 361
▁உதவியுடன் 361
▁ஒற்று 361
▁கடன 361
▁நடத்தியது 361
▁பணியாற்றிய 361
▁பேசும் 361
▁வழங்கப்பட்டது 361
தூ 360
ப்ட 360
ருக 360
ிக்குமாறு 360
ுவதிலும் 360
ூற 360
▁அட்ட 360
▁குறைந்தபட்சம் 360
▁தொழிற்சால 360
▁நம்பிய 360
▁முக்கியப் 360
▁ரயில்கள் 360
டிவ 359
ப்படுவார்கள் 359
ற்றும் 359
ாரண 359
ிரி 359
ீடுகளை 359
▁ஆசியான் 359
▁ஆவார் 359
▁இந்தி 359
▁எந்தப் 359
▁கூறப்படுகிறது 359
▁செய்திய 359
▁த் 359
▁பயில 359
▁பல் 359
▁வாரண 359
வுகள் 358
ாகத் 358
்களையும் 358
▁ஒருங்கிணைப்பு 358
▁கடின 358
▁கண்டுபிடிப்பு 358
▁தீர்மானம் 358
▁படையினர் 358
▁வருகின்ற 358
▁விய 358
d 357
திகளை 357
நாட்ட 357
பர 357
ப்பையும் 357
விக 357
▁இவன் 357
▁ஈடுபடுத்த 357
▁செய்தித் 357
▁நியூயோ 357
▁பெருக்க 357
▁விமானம் 357
ுகளாக 356
ூர் 356
ையு 356
▁இயக்குன 356
▁எண்ணிக்கையை 356
▁எழுந்த 356
▁சந்திப்பு 356
▁சமீப 356
▁ப் 356
▁மறுத்த 356
▁வீடுகளில் 356
▁வேண்ட 356
கொ 355
த்தனமான 355
ாவிட்டால் 355
்க்கு 355
▁www 355
▁ஆசிரிய 355
▁ஆன 355
▁கிடைத்தது 355
▁சிந்தனை 355
▁தீர்க்கதரிச 355
▁நிலம் 355
▁பிரான்சில் 355
▁மத்தியப் 355
▁வாழ 355
▁ஷெ 355
தேசிய 354
ப்படுத்துவது 354
ஸ்தான் 354
ிக்கை 354
ிப்பு 354
ுவதாகவும் 354
ைகளாக 354
▁அதற்குப் 354
▁அனுபவம் 354
▁ஆப்பிரிக்க 354
▁காக்க 354
▁காட்டி 354
▁சிரம 354
▁நடுத்த 354
▁பருவ 354
▁விதிமுற 354
வதன் 353
ானின் 353
ாவிலிருந்து 353
▁அதிகாரிகளுக்கு 353
▁அரை 353
▁உண்மையிலேயே 353
▁குடும்பத்தின 353
▁கூறுகையில் 353
டர் 352
ந்தி 352
ன்த 352
வரி 352
ாட 352
▁அளவை 352
▁இடை 352
▁இல 352
▁காணும் 352
▁கிரு 352
▁படைகளை 352
▁புதுமை 352
▁முழ 352
▁லோ 352
▁வருகின்றது 352
▁வாரியம் 352
▁விளைவுகளை 352
ியாகவும் 351
▁அறி 351
▁இராணுவப் 351
▁உதவியாக 351
▁கடிதம் 351
▁காச 351
▁சேர்த்த 351
▁போதிய 351
▁முயற்சிகளுக்கு 351
▁வருவதற்கு 351
▁வாய் 351
▁விமர்சன 351
198 350
னது 350
வேண்டு 350
ிகளிலும் 350
▁அங்கீகாரம் 350
▁நெருக்கமாக 350
▁பிரகாஷ் 350
▁பேராசிரியர் 350
▁முயன்ற 350
▁விகித 350
▁விளைவுகள் 350
▁வைக்கிறார் 350
▁ஹை 350
". 349
ப்பன 349
ெல்ல 349
ோரின் 349
்ச் 349
▁எதிர்கொள் 349
▁என்பதற்காக 349
▁கடினமான 349
▁கட்சிகளும் 349
▁கைப்பற்ற 349
▁தாமத 349
▁நீர்வ 349
தாம் 348
ராமன் 348
ிக்கப்பட்டுள்ளன 348
ிலிருந்தும் 348
்களும் 348
▁அவைகள் 348
▁உதவித் 348
▁ஏதோ 348
▁கொண்டுள்ளனர் 348
▁கோத்திர 348
▁கோரிய 348
▁திருமணம் 348
▁நிற்கும் 348
▁மண் 348
▁மோட்டார் 348
▁வெங்க 348
1999 347
டுகளுக்கு 347
ளி 347
ியோ 347
ுவதோடு 347
▁அளவ 347
▁உணர்வை 347
▁ஒப்பந்தத்தை 347
▁காட்டிக் 347
▁பிரத 347
▁விளைவ 347
▁விஷயத்தில் 347
he 346
தீ 346
ன்மை 346
வருக்கு 346
ுக்குள்ளே 346
▁இன்றி 346
▁கொடுத்தது 346
▁தங்கள 346
▁தேதியன்று 346
▁புரட்ச 346
▁மாநிலங்களின் 346
▁முடிவுக்கு 346
▁ஸ்பெயின் 346
w 345
ிவி 345
ெடுக்க 345
▁அரசாங்கத்தில் 345
▁உரிமையை 345
▁எதிர்காலத்தில் 345
▁ஒவ்வொருவரும் 345
▁கட்சியினர் 345
▁கிட 345
▁கோவிந்த் 345
▁முதலமைச்சர் 345
36 344
ட்டத்தில் 344
▁அதேபோல் 344
▁அனுப்பிய 344
▁அரசாங்கமும் 344
▁ஆச்சரிய 344
▁கண்காட்சி 344
▁கண்டுபிடிப்ப 344
▁செல்வாக்கு 344
▁நகரம் 344
▁நசுக்க 344
▁நபர் 344
▁நிபுணர்கள் 344
▁நீதிபதி 344
▁பொருத்தமான 344
▁முறையின் 344
▁வறிய 344
▁வலிமை 344
▁விடும் 344
▁விவசாயம் 344
களில் 343
மையுடன் 343
ஷிய 343
ுகின்றது 343
ுக்கொண்டு 343
▁கூடார 343
▁கொள்கையின் 343
▁சொந்தமான 343
▁தயாரிப்பாளர்கள் 343
▁தேர்வ 343
▁தொடரும் 343
▁மனதின் 343
போய் 342
ய்வு 342
வரின் 342
▁ஆதரவாளர்கள் 342
▁ஆவ 342
▁செலவ 342
▁திக 342
▁பஞ்சாப் 342
▁வெளிநாடுகளில் 342
கார 341
க்காரர்கள் 341
திப்ப 341
தியும் 341
மதிப்ப 341
ரான் 341
ிருக்கலாம் 341
ைகளுக்காக 341
ையின 341
▁அவசிய 341
▁எந்தவித 341
▁காண்க 341
▁கொன்று 341
▁நேபாள 341
▁புத 341
▁வியாபார 341
வாய 340
ையற்ற 340
▁காப்பீட்டு 340
▁கையெழுத்திட்ட 340
▁சம்மந்த 340
▁தங்கிய 340
சுவ 339
நாட்டில் 339
மைக்கும் 339
▁அக்கற 339
▁இடதுசாரி 339
▁இடைக்கால 339
▁காதல் 339
▁தொழிற் 339
▁பணிகளில் 339
ணக்கான 338
பன 338
மல்ல 338
வாறு 338
வேண்டாம் 338
ஸி 338
ுவா 338
▁ஆதரிக்க 338
▁இடத்தை 338
▁ஊடகம் 338
▁கண்காணிப்ப 338
▁தோட்ட 338
▁பரி 338
Y 337
தினால் 337
ற்றை 337
ிடப்பட்ட 337
ுப்பு 337
▁அமைந்துள்ள 337
▁உடனடி 337
▁ஏற்கெனவே 337
▁ஒருங்கிணைந்து 337
▁கவுன்சில 337
▁சக்திகள் 337
▁செயல்பாட்ட 337
▁தலைமுறை 337
▁பின்னால் 337
▁மருத்துவப் 337
▁முன்னேற 337
▁வயதான 337
▁வானிலை 337
ித்துறை 336
▁அதிகாரிகளும் 336
▁இயக்கிய 336
▁இழந்த 336
▁ஏற்று 336
▁கொண்டே 336
▁ஜெய 336
▁திருத்தம் 336
▁தொழில்நுட்பத்தை 336
▁நடை 336
▁யெ 336
▁விளை 336
▁வேற 336
34 335
ie 335
ir 335
ப்பண 335
மார் 335
ுதிய 335
ெடுப்ப 335
▁இரங்கல் 335
▁உருவாக்குதல் 335
▁நடப்பு 335
▁பின்பற்றி 335
▁புலிகளுக்கு 335
▁முன்கூட்டியே 335
▁வைத்துக் 335
as 334
வற்றை 334
ிலா 334
▁ஆத்து 334
▁எல்லைப் 334
▁செயல்பாடுகளை 334
▁பழ 334
▁போக்குவர 334
ணை 333
மித் 333
ழுவ 333
ையின்மை 333
▁இத்திட்டத்தின் 333
▁இயக்கும் 333
▁சர்தார் 333
▁சான்ற 333
▁சேவையை 333
▁பற்றாக்குற 333
▁அமு 332
▁இத்திட்ட 332
▁ஈடுபட்டுள்ள 332
▁உணர்ந்த 332
▁எடுத்துரைத்தார் 332
▁குர்த 332
▁சார 332
▁ன் 332
▁மழை 332
▁யாரும் 332
▁விருதுகள் 332
▁வெளிவ 332
த்ரா 331
ம்க 331
ாதே 331
ிருக்கு 331
▁உத்தரப்பிரதேச 331
▁உத்தியோக 331
▁சுரண்ட 331
▁தோல் 331
▁பக்க 331
▁பிரகடன 331
▁முயற்சியை 331
▁ராஜ்ய 331
▁வழங்குதல் 331
முக 330
யை 330
ாவுக்கும் 330
▁இவற்றை 330
▁கமல் 330
▁செயல்திட்ட 330
▁தாக்குதலில் 330
▁நாடுகளுடன் 330
▁மதிப்புள்ள 330
▁மன்ன 330
▁வளாக 330
▁வாக்குகளை 330
▁விழிப்புணர்வை 330
▁வைத்திருக்க 330
,0 329
எஃப் 329
னைக் 329
போக 329
ீடு 329
்சி 329
▁ஆசீர்வ 329
▁ஈரானிய 329
▁துர 329
▁துறைக்கு 329
▁தேவையை 329
▁நடவடிக்கையில் 329
▁பரிசோதன 329
▁பற 329
த்தே 328
பக 328
ளிப்பு 328
ழ்த்த 328
ிருந்தும் 328
ோட்ட 328
▁அடிப்படையாக 328
▁ஆதிக்க 328
▁எண்ணிக்கையில் 328
▁கொள்ளவும் 328
▁தானிய 328
▁நம 328
▁நித்த 328
▁நூறு 328
▁முடிகிறது 328
திப்பு 327
பான 327
ப்படுகின்றனர் 327
முடியாது 327
ியுள்ளன 327
▁அடைந்து 327
▁உறுத 327
▁எழு 327
▁கவச 327
▁குழுவினர் 327
▁சட்டபூர்வ 327
▁சாதகமான 327
▁மனைவி 327
▁வசதியை 327
▁வலியுறுத்தி 327
மயமாக்கல் 326
வருமான 326
ித்தான் 326
▁அப்பால் 326
▁இரண்ட 326
▁க் 326
▁தொலைநோ 326
▁பின்னணியில் 326
▁பிரிவுகளில் 326
ரத்தில் 325
ர்களான 325
▁குறிப்ப 325
▁தெரிவி 325
▁பதவிக்கு 325
▁வழக்கமான 325
▁வழிய 325
அரச 324
ளா 324
ிக்கொள் 324
ும்கூட 324
▁அணிவகு 324
▁ஆட்ச 324
▁உயர்ந்துள்ளது 324
▁ஏக 324
▁ஒழுங்குமுறை 324
▁திருப்த 324
▁தெரிவித்துள்ளது 324
▁நூற்றாண்டின் 324
k 323
மத 323
ினம் 323
ையாளர்கள் 323
▁அடையும் 323
▁ஆராய 323
▁எதிர்பார்த்த 323
▁எரிவாய 323
▁கோரி 323
▁சந்திப்ப 323
▁நினைவுகூர் 323
▁பாதுகாப்புக் 323
▁பிள்ள 323
▁பூமியின் 323
▁முடிந்து 323
▁விலையில் 323
▁வில் 323
LCR 322
ந்தன 322
ப்பாக 322
ரீதியான 322
ல்ப 322
விடு 322
ாளர்கள 322
ிக்கொ 322
▁அல்லாத 322
▁இப்படிப்பட்ட 322
▁காலனித்துவ 322
▁கூட்டாட்சி 322
▁கொரிய 322
▁சேர்ந்தவர்கள் 322
▁படங்களை 322
▁பலன் 322
▁பிட 322
▁வாங்கிய 322
▁விதிமுறைகள் 322
▁வெற்றிய 322
▁வெளியிட்டது 322
▁வோல் 322
த்துறையில் 321
ப்பூர்வமான 321
ர்களைப் 321
வையும் 321
ிக்கப்பட்டுள்ள 321
▁அதிகரிப்பு 321
▁அரேபிய 321
▁உருவாகும் 321
▁ஊழ 321
▁சக்தியை 321
▁சர் 321
▁முன்பே 321
ில்லை 320
▁அதுவும் 320
▁ஆட்சிய 320
▁ஆண்டுக்குள் 320
▁இரண்டும் 320
▁ஈடுபட்டு 320
▁ஏற 320
▁கண்டுபிடி 320
▁கல்விக் 320
▁சர்வாதிகார 320
▁ஜல் 320
▁தலைமுற 320
▁போட்டிய 320
▁மீன் 320
படியால் 319
ிவிட்டு 319
▁குடியரசின் 319
▁சம்ப 319
▁நிறுவனங்களும் 319
▁பயன்படுத்துவது 319
▁வெற்ற 319
▁வெளியுற 319
., 318
த்துக்கொண்ட 318
பின்பு 318
ப்பார்க்க 318
ரைக் 318
ுடனே 318
▁அறிவிப்ப 318
▁இருக்காது 318
▁எதிர்க 318
▁குடும்பங்கள் 318
▁சவுதி 318
▁திட 318
▁நவ 318
▁நிருப 318
ur 317
பாக 317
ளுக்கு 317
▁உத்தரவு 317
▁கட்டணம் 317
▁சட்டங்கள் 317
▁தீவிரமான 317
▁பிடித்து 317
▁மண 317
00- 316
CIA 316
வழ 316
ிக்குள் 316
ிப்பொ 316
▁அய 316
▁ஆவர் 316
▁உத்த 316
▁எஃகு 316
▁கொடிய 316
▁சிந்தன 316
▁தடுக்கும் 316
▁திங்கள 316
▁பல்கலைக்கழகம் 316
▁பெறு 316
▁ரத்து 316
▁வச 316
▁வாக்குற 316
38 315
ப்பேன் 315
▁ஒடிசா 315
▁ஒப்பந்தங்கள் 315
▁குறிக்கும் 315
▁பிரிட்டனின் 315
▁மாளிகை 315
▁முன்னால் 315
▁வளர் 315
மாட்ட 314
மையன்று 314
யும் 314
வதற்கும் 314
விர 314
ாப் 314
ுவின் 314
்தா 314
’’ 314
▁அளித்தார் 314
▁அவசியத்தை 314
▁கட்சிகளின் 314
▁குறைவு 314
▁சுதந்திரமான 314
▁பணியாற்றும் 314
▁வாகனங்கள் 314
ந்திய 313
ழி 313
வகையில் 313
ிட்டார் 313
ுவிடும் 313
▁அவசரகால 313
▁உம் 313
▁எனக்குத் 313
▁எய் 313
▁எழுச்ச 313
▁ஏறத்தாழ 313
▁பல்லாயிர 313
டங்கு 312
பண்ண 312
ரிடத்தில் 312
ிருக்கவில்லை 312
▁அர்ப்பணிப்பு 312
▁அறிவித்துள்ளது 312
▁ஆசியா 312
▁கீழ 312
▁சூர்யா 312
▁தகவலை 312
▁வின 312
ல்களையும் 311
ழைக்க 311
▁அதைத் 311
▁ஒழுங்க 311
▁கட்டமை 311
▁கிறிஸ்தவ 311
▁கேட்டுக்கொண்ட 311
▁கொந்த 311
▁திறமை 311
▁நடத்தப்பட்டது 311
▁பலிபீட 311
▁பிரெ 311
▁மாண்பு 311
▁முடிவில் 311
▁மூன்றில் 311
▁வாய 311
▁விரும்பவில்லை 311
ist 310
முன் 310
▁அமைத்த 310
▁ஒன்றாகும் 310
▁தமிழக 310
▁நிகழ்ந்த 310
▁பின்வருமாறு 310
▁பெற்றுக் 310
▁வழங்கப்படுகிறது 310
▁வழிமுற 310
▁விவரங்களை 310
▁வீதம் 310
[ 309
ஜன் 309
ஹ் 309
ித்துப் 309
ுமே 309
▁அட்டை 309
▁அரசும் 309
▁இங்கிலாந்து 309
▁குறைத்து 309
▁கூறினர் 309
▁கோடிக்க 309
▁தந்திர 309
▁பரிசீல 309
▁பரிசு 309
▁வரவிருக்கும் 309
▁வரவே 309
▁வளர்ச்சியில் 309
க்கே 308
ருகிறது 308
வாச 308
ிவைத்தார் 308
▁ஃப 308
▁அரங்க 308
▁இருந்தபோதிலும் 308
▁உரிமைய 308
▁சீதா 308
▁செலுத்திய 308
▁பாதுகாக்கும் 308
▁பெயரை 308
▁மேம்படுத்தவும் 308
▁விதமாக 308
ent 307
id 307
சீ 307
டுகிறார் 307
த்துக்குள் 307
ப்பற்றி 307
▁இலங்கையின் 307
▁உடனே 307
▁குறிப்பி 307
▁சுட்ட 307
▁மரியாத 307
▁மருத்துவர்கள் 307
▁முன்னே 307
▁வின் 307
ஃ 306
னுடன் 306
மடைந்த 306
ரெ 306
ியுடன் 306
ெல் 306
▁இரட்டை 306
▁எழ 306
▁காப்பீடு 306
▁சண்ட 306
▁படத்துக்கு 306
▁முனைய 306
▁வசத 306
▁விவாதம் 306
us 305
ர்த்த 305
▁அனைத்துத் 305
▁உறவை 305
▁ஒருபோதும் 305
▁கிளின் 305
▁சரிவு 305
▁நினைவில் 305
▁பொய 305
▁வேண்டுமென்று 305
le 304
மக்களை 304
ரித்தார் 304
ானி 304
▁இதன்மூலம் 304
▁என்பதற்கான 304
▁என்பதைக் 304
▁ஓட்ட 304
▁தெரிவித்தது 304
▁தோல்வி 304
▁நாடுகளிலும் 304
▁பழங்குடி 304
▁பேசி 304
▁முன்னரே 304
▁வெளியான 304
CGT 303
SPD 303
ப்படுவத 303
ர்களா 303
விருக்கும் 303
▁அதைச் 303
▁அளவிலும் 303
▁இவரது 303
▁உயர்ந்து 303
▁செயல்பாட்டு 303
▁பாபா 303
▁மாளிகையில் 303
▁முஸ்லிம் 303
▁வாழ்ந்து 303
▁வைப்பு 303
0% 302
g 302
ig 302
ந்தா 302
பாய் 302
ப்பினை 302
மையைக் 302
ஸ்ட்ட 302
ொட 302
▁அத்த 302
▁அமைக்கப்படும் 302
▁உம்மை 302
▁ஒப்பிடுகையில் 302
▁சூழ 302
▁நடி 302
▁நான்காவது 302
▁பாரம்பரியம் 302
▁பேரின 302
▁மோதல் 302
▁யோசன 302
▁வடகிழக்குப் 302
▁வய 302
ation 301
துக 301
ுட 301
▁lang 301
▁எதிர்காலம் 301
▁ஒடுக்கு 301
▁கழிவ 301
▁குழுக்கள 301
▁சரியாக 301
▁சூழ்நில 301
▁பிரத்யேக 301
▁புதுதில்லி 301
▁புய 301
▁மாற்றுத் 301
▁வாக்குகள் 301
▁விரிவாக்கம் 301
ard 300
க்குமாறு 300
ழை 300
ிரம 300
▁அப்படிய 300
▁எழுந்து 300
▁ஒப்பந்தத்தின் 300
▁சீர்திருத்தம் 300
▁சுத்திகரிப்பு 300
▁செய்வ 300
▁தொடர்வ 300
▁நோயாளிகள் 300
▁பங்கள 300
▁புதுமையான 300
▁போராட 300
▁முயன்று 300
▁வாழ்வாதார 300
PIB 299
க்கல் 299
தாகத் 299
த்துக்கொள்ள 299
போர்ட் 299
ப்பார்கள் 299
ரப் 299
ர்களால் 299
ாளிகளுக்கு 299
ெட் 299
▁எட்டிய 299
▁கடித 299
▁கருத்தரங்க 299
▁கோரிக்கையை 299
▁சமாளிக்க 299
▁துருக்கி 299
▁தோன்றிய 299
▁நம்மால் 299
▁நேர் 299
▁பெரும்பான்மை 299
▁போராள 299
▁வடிவமைப்பு 299
த்துடனும் 298
பாத 298
வல் 298
ிகரமாக 298
ியம் 298
▁அவைகளின் 298
▁ஆட்சியின் 298
▁உள்ளே 298
▁எழுத 298
▁குறைக 298
▁கூறப்பட்ட 298
▁கொண்டுவரு 298
▁செய்க 298
▁நிலைத்த 298
▁பிளவு 298
▁போலி 298
தியாக 297
வாங்க 297
ாட்டு 297
▁அரங்கில் 297
▁திரும்பப் 297
▁துண்ட 297
▁துரித 297
▁தேவைப்படுகிறது 297
▁நிதியை 297
▁படுகொல 297
▁மாநாட்டை 297
ங்களுக்குள் 296
தெல்லாம் 296
த்திட்டம் 296
த்திரம் 296
ைக்கும் 296
ையிட்டு 296
▁அமைக்கும் 296
▁இடைவெளி 296
▁உந்த 296
▁உறுதிமொழ 296
▁கம்பென 296
▁குடும்பம் 296
▁சந்தித்தார் 296
▁சித்த 296
▁தப்ப 296
▁தலையீடு 296
▁தாங்க 296
▁பொறுத்த 296
▁மட்டு 296
▁வியட்நாம் 296
க்கப்பட்டது 295
க்குவது 295
டிக் 295
தியின் 295
மடைந்து 295
ாட் 295
்கா 295
▁ஆதாரங்கள் 295
▁உபகரணங்கள் 295
▁கடமை 295
▁கேரள 295
▁சொத்து 295
▁நோக்கத்தை 295
▁நோயாள 295
▁பிழை 295
▁போகும் 295
▁போஸ்ட் 295
▁மக்க 295
▁மறைமுக 295
▁வரவேற்ப 295
▁வாழ்வில் 295
▁விஷயங்களில் 295
---- 294
91 294
il 294
te 294
சரி 294
ய்வ 294
ளவ 294
▁அசாம் 294
▁அளித்தல் 294
▁உறுப்பினராக 294
▁கட்டிய 294
▁சமூகம் 294
▁சுற்றுச்சூழ 294
▁ஜெய் 294
▁நிலைப்பாட்ட 294
▁பொருட்களின் 294
▁மருத்துவமனைகள் 294
85 293
மித 293
யிற்று 293
வரையும் 293
▁ஆக் 293
▁உத்தேச 293
▁தேர்ந்தெடுக்க 293
▁மேலதிக 293
▁விரிவாக 293
▁விரைந்து 293
▁வெளியிட்டுள்ளது 293
க்கியுள்ளது 292
டல் 292
த்தனர் 292
ராவும் 292
ிப்பாக 292
▁அதன்படி 292
▁ஆண்டவர் 292
▁வழங்குகிறது 292
ib 291
ov 291
லன் 291
்த்து 291
▁ஆசியாவில் 291
▁ஆந்திர 291
▁காற்று 291
▁சவ 291
▁துப்பாக்கி 291
▁பதவ 291
▁பாபிலோ 291
▁பிரதிய 291
▁பீகார் 291
▁மகி 291
▁முதல்வர் 291
▁வெட்க 291
பாம 290
ினுடைய 290
ிப்பதாக 290
ிரை 290
▁செய் 290
▁செய்கிற 290
▁திறன 290
▁முக்கியம் 290
▁வெளியி 290
95 289
நான 289
ராவ 289
ஸ்ஸ 289
ாட்டில் 289
ேயின் 289
▁அதிகபட்ச 289
▁அம்மா 289
▁இந்நிகழ்ச்ச 289
▁எனத் 289
▁எல்லாவற்ற 289
▁கூட்டத்தை 289
▁சின 289
▁தள்ளுபடி 289
▁மர 289
▁மாற்றங்களை 289
▁ரிசர்வ் 289
▁வீடுகள 289
ம்பே 288
லைய 288
வந்த 288
▁அடித்தள 288
▁ஆதரவுடன் 288
▁கொடுத்தார் 288
▁கொல்லப்பட்டனர் 288
▁டைம் 288
▁தேதிய 288
▁நிச்சயமாக 288
▁நிற்ப 288
▁பகுதிகளை 288
▁பார்க்கும் 288
▁வந்தன 288
தொ 287
நாம் 287
லாமல் 287
ொள்ள 287
▁அதிநவீன 287
▁இய 287
▁காலத்தை 287
▁சிறப்புமிக்க 287
▁சிறிது 287
▁தணிக்கை 287
▁தளத்தை 287
▁நகரத்தில் 287
▁நபர்கள் 287
▁பங்குதார 287
▁பாதையை 287
▁வருமானத்தை 287
▁விலக்க 287
டையும் 286
மாத 286
ிருப்பதால் 286
ுவதே 286
ேர் 286
▁எழுச்சி 286
▁கற்பனை 286
▁கேள்விக்கு 286
▁பின்தங்கிய 286
▁பூமி 286
▁பூமிய 286
▁மக்களிடம் 286
▁மீட்பு 286
▁விரைவான 286
▁வேறொரு 286
WSWS 285
தல் 285
ரண 285
ுகளிலும் 285
ுக்கி 285
ெட்ட 285
▁அனுப்பின 285
▁ஆரோக்கியமான 285
▁கழகத்தின் 285
▁குடியேற்ற 285
▁மாநிலங்களவையில் 285
▁மிகத் 285
▁விப 285
x 284
டுகளும் 284
லம் 284
ாளி 284
▁இருக்கு 284
▁உபகரண 284
▁என்பதுடன் 284
▁ஒலிபரப்பு 284
▁கடலோர 284
▁தொடர்ந்தும் 284
▁நடவடிக்கைகளின் 284
▁மாறிய 284
▁மாற்றும் 284
▁முடிவிற்கு 284
▁முன்னேறி 284
ut 283
கத்தின் 283
டுக 283
பற்றி 283
ிலிருந்த 283
்டர் 283
▁இணைக்கும் 283
▁எப்பொழுதும் 283
▁எருசலேம 283
▁குற்றஞ்சாட்ட 283
▁கூட்டாள 283
▁பயன்படுத்திய 283
▁மாணவர்களின் 283
▁மேத 283
▁யு 283
ah 282
களின் 282
முத 282
றிக்கை 282
ீட்டு 282
▁இருந்தே 282
▁உணர 282
▁உத்தரவாத 282
▁எகிப்து 282
▁கொழும்பில் 282
▁செயல்பாடுகள 282
▁நலனுக்காக 282
▁படைகளின் 282
▁மக்களில் 282
ul 281
சும் 281
டுத்தப்பட்ட 281
த்தாலும் 281
நெ 281
னைத் 281
ப்படுத்தல் 281
ுவோர் 281
▁அநேக 281
▁உண்மைய 281
▁கட்சித் 281
▁கூறுவது 281
▁தொழிற்சாலைகள் 281
▁தோன்ற 281
சால 280
யிர 280
ிக்கலாம் 280
▁அடிப்பட 280
▁அம்ம 280
▁ஆலோசனைகள் 280
▁இருபது 280
▁கடத்த 280
▁கட்டுப்பாட்டை 280
▁குழ 280
▁சாரா 280
▁சேத 280
▁ஜப்பானிய 280
▁நிராகரிக்க 280
▁பேட்டி 280
▁மகாராஷ்டிரா 280
▁முரண் 280
▁வகுப்ப 280
▁வளர்ச்சிப் 280
ay 279
வைப் 279
ெடுத்து 279
▁ஆதிக்கம் 279
▁இறக்கு 279
▁ஏற்பாடுகள் 279
▁ஏல 279
▁ஒன்பது 279
▁சூப்பர் 279
▁தொடங்கியுள்ளது 279
▁நியமிக்கப்பட்ட 279
▁நிரு 279
▁மீட்ட 279
▁வலுவ 279
▁வேறுபாடுகள் 279
எப் 278
ங்களோடு 278
ங்கின் 278
மதி 278
வேலை 278
ுவிட்டன 278
▁உத்திர 278
▁எடுக்கப்படும் 278
▁சமுத்திர 278
▁செய்வத 278
▁டே 278
▁திருப்தி 278
▁தேடி 278
▁நிகழ்ச்சியின் 278
▁படையின் 278
▁பறிமுதல் 278
▁பாராட்டிய 278
▁பொய் 278
▁பொருள்களை 278
▁லு 278
▁வசன 278
▁வளங்களை 278
த்துறையின் 277
ப்பாய 277
்கு 277
▁ஆண்டும் 277
▁ஒடுக்க 277
▁கற்றுக் 277
▁கொள்கையில் 277
▁சமயத்தில் 277
▁தெரி 277
▁நிர 277
▁பாள 277
▁முறைக்கு 277
இந்திய 276
தின 276
யி 276
ஸை 276
▁அமைப்புகளின் 276
▁கம்பெனி 276
▁செயலாள 276
▁செய்யவில்லை 276
▁நிறுவனத்தில் 276
▁பள்ளிகள் 276
▁புர 276
▁முயற்சியாக 276
▁வலைதள 276
▁வழிமுறைகள் 276
தரு 275
ப்போக 275
ிக்கின்றனர் 275
▁ஆராய்ச்ச 275
▁ஐய 275
▁கடன்கள் 275
▁சிக்கன 275
▁தோற்றுவ 275
▁நிகழ்வுகள் 275
▁பலரும் 275
▁பிரதிநிதித்துவ 275
▁பெறுவது 275
▁வீழ்ச்சிய 275
த்தன்மையை 274
லக 274
லிச 274
ைக்காக 274
▁அந்தமான் 274
▁உருவ 274
▁காட்டு 274
▁காவ 274
▁கூறுகிறார் 274
▁கைவிட 274
▁கொண்டிருப்ப 274
▁சட்டத்தில் 274
▁சிறுபான்மையினர் 274
▁தயாரிக்கப்பட்ட 274
▁தெரிவிக்கும் 274
▁தேர்தல்கள் 274
▁நடத்துவதற்கு 274
▁நிர்மலா 274
▁மாறுபட்ட 274
▁விவரம் 274
▁வேலைகளை 274
▁ஸ்தாப 274
நோக்கிய 273
ரக் 273
ரிக்கும் 273
விழ 273
ுக்காகவும் 273
ுக்கோ 273
▁அடிப்படைக் 273
▁அறிக்கைகள் 273
▁இரட்ட 273
▁சந்தைகள் 273
▁தலைவரும் 273
▁நாடும் 273
▁நீடிக்க 273
▁பற்றிப் 273
▁மொபைல் 273
▁வந்தனர் 273
▁வலை 273
▁வாக்களித்த 273
▁விற்க 273
வழி 272
வாக்க 272
ியுள்ளார் 272
▁அதிகாரிகளின் 272
▁அதிருப்த 272
▁அவர்களைப் 272
▁இடைய 272
▁இப்போ 272
▁க்கும் 272
▁தேதிகளில் 272
▁நிலையங்களில் 272
▁பொருள 272
▁ரத்த 272
▁லிமிடெட் 272
▁வீடுகளை 272
44 271
சூ 271
ாந்த 271
ூரில் 271
ையினர் 271
்களில் 271
▁ஆட்சியில் 271
▁இக்க 271
▁உண்மையை 271
▁உருவாக்கவும் 271
▁சமமான 271
▁ஜோடியாக 271
▁தெரிவித்து 271
▁தேசத்தில் 271
▁நாடுகளை 271
▁பட்டியல் 271
▁பிரதி 271
▁புகார் 271
▁ரூபா 271
▁வளர்ச்சிய 271
▁விளங்குகிறது 271
▁வீரர்களின் 271
'. 270
செய்யும் 270
ண்டா 270
னல் 270
ேல் 270
▁உருவாக்கப்படும் 270
▁என்ப 270
▁சமூகத்தில் 270
▁சாய 270
▁தொடங்கப்பட்டது 270
▁ரசிகர்கள் 270
.'' 269
é 269
எதிர் 269
ங்களான 269
ல்களும் 269
வனை 269
ிற்குப் 269
▁அகதிகள் 269
▁கண்காட்ச 269
▁குண்டுவீ 269
▁சம்பளம் 269
▁நாயக 269
▁நிபந்தன 269
▁நீதித்துறை 269
▁பிளேய 269
▁மீறி 269
▁ரு 269
▁வெடித்த 269
▁வேக 269
▁வேத 269
1998 268
க்கூ 268
செய்து 268
னார் 268
போதிலும் 268
மில்லாமல் 268
ிருத்த 268
ுக்களின் 268
▁அதற்காக 268
▁ஆபத்தான 268
▁இதய 268
▁உருவாக்குவதில் 268
▁கலக 268
▁குழப்ப 268
▁கொண்டுள்ளார் 268
▁சம்பவங்கள் 268
▁தொலைத்தொடர்பு 268
▁பரவலாக 268
▁ற 268
▁வளங்கள் 268
▁வேளை 268
மாய்க் 267
ரியின் 267
ுக்கள 267
▁the 267
▁ஆலை 267
▁இருக்கவேண்டும் 267
▁இவ்வித 267
▁எதிர்த்துப் 267
▁ஒடுக்கப்பட்ட 267
▁சாட்சிய 267
▁சிறையில் 267
▁நகர் 267
▁பயணத்தின் 267
▁விளங்கும் 267
திக்க 266
ரைத் 266
▁ஆர்வ 266
▁இருக்கிறேன் 266
▁இற 266
▁ஒத்து 266
▁காந்தியின் 266
▁சபையில் 266
▁சினிம 266
▁செய்தியை 266
▁தன்மைய 266
▁நடத்தினர் 266
▁பாதிக்கும் 266
▁பிரிட்ட 266
▁முதலீட்டாளர்கள் 266
▁முழுவதையும் 266
▁யாக்கோ 266
▁வேண்டியுள்ளது 266
▁ஸ்க 266
ச்சி 265
டுகள 265
டுவதற்கான 265
வியை 265
ார்த்த 265
ொழ 265
▁அரசியல்வாத 265
▁கூற்ற 265
▁கைதிகள் 265
▁சீற்ற 265
▁தானே 265
▁பலன்கள் 265
▁வளமான 265
ட்க 264
ல்கள 264
வல்ல 264
ிப்பில் 264
ியு 264
▁அறக்கட்டளை 264
▁உற 264
▁ஊக 264
▁எங்கே 264
▁கண்ண 264
▁குவி 264
▁தடுத்த 264
▁நய 264
▁நிறுத்தம் 264
▁பெண்களின் 264
em 263
os 263
டுகள் 263
தந்திர 263
நாயக 263
ன்ட் 263
ொல 263
▁இடத்திற்கு 263
▁கட்சியில் 263
▁கண்க 263
▁குழுவின 263
▁சலுகை 263
▁தொகையில் 263
▁நிலைமைகள் 263
▁நோய 263
▁பங்காள 263
▁பின்வரும் 263
▁பெட்ரோலிய 263
▁விடுவ 263
▁ஸ்மார்ட் 263
நீ 262
னைகள் 262
ரல் 262
ானால் 262
ார்ந்த 262
ுவதையும் 262
▁அறிமுக 262
▁ஆகியவற்றுடன் 262
▁ஈடுப 262
▁ஏற்பட 262
▁கதையை 262
▁கலைஞர்கள் 262
▁காட்டுகின்றன 262
▁கொண்டுவந்து 262
▁நாத் 262
க்களையும் 261
டான 261
ாரின் 261
▁அவசியமாகும் 261
▁ஆற 261
▁உணர் 261
▁உதவுகிறது 261
▁காலங்களில் 261
▁செய்யலாம் 261
▁தங்கம் 261
▁தூத 261
▁பயிற்சிய 261
▁மசோ 261
▁மாதங்கள் 261
▁வருடம் 261
43 260
கைய 260
த்தள 260
ன்ச 260
பொழுது 260
ளம் 260
ாவி 260
▁அமைப்பான 260
▁அவைகளை 260
▁ஒட்டு 260
▁கர்நாடகா 260
▁கவனத்தை 260
▁டிரில்லியன் 260
▁நதி 260
▁பயணத்தை 260
▁பிரிவினர் 260
▁பெறுவதற்கான 260
▁போன்றவற்றை 260
▁மகிழ்ச்சிய 260
▁மறுபடியும் 260
▁முன்னணியில் 260
▁மையத்தின் 260
▁வானொலி 260
▁வீடியோ 260
▁ஹே 260
கை 259
ங்கில் 259
நாட்டு 259
ன்களை 259
ளும் 259
ாளர்களில் 259
ிடு 259
▁ஆசார 259
▁ஆர்ப்பாட்டம் 259
▁உண்டாக்க 259
▁கச 259
▁சுவாமி 259
▁செய்யவேண்டும் 259
▁பலவீன 259
▁மார்க 259
▁லெபனான 259
▁வழிவகு 259
▁வீண 259
64 258
உலக 258
டுகளின் 258
ப்பட்டிருந்தது 258
வைக் 258
ுள்ளே 258
ென்ற 258
▁இடங்களிலும் 258
▁உள்ளதாக 258
▁ஊழியர் 258
▁ஒருங்கிணைக்க 258
▁கட்டள 258
▁கட்டிட 258
▁கனவு 258
▁கலைஞ 258
▁செய்யப்பட்டுள்ள 258
▁டொ 258
▁நான்க 258
▁நிர்ப 258
▁நிலைப்பாடு 258
▁நோக்கில் 258
▁பிடிக்க 258
▁பெற்றார் 258
▁வது 258
▁வாரங்களில் 258
▁வெளிவந்த 258
.' 257
தைய 257
ப்பதும் 257
மிர 257
ர்ட் 257
லிருந்து 257
ொடு 257
▁அப்பா 257
▁ஆகியவற்றிற்கு 257
▁உலகத் 257
▁ஏதேனும் 257
▁ஏவுகணை 257
▁கொள்வதற்கு 257
▁திருமண 257
▁வந்தபோது 257
▁வரிகள் 257
197 256
ப்போடு 256
ழ் 256
▁ஆயிர 256
▁ஆரம்பித்த 256
▁இரயில் 256
▁உலகிலேயே 256
▁என்னிடம் 256
▁காணப்படும் 256
▁சக்தியாக 256
▁சொல்லிய 256
▁மாணவர்கள 256
▁முறைகளை 256
▁வரிவி 256
▁விஷயங்களை 256
▁வைத்திய 256
51 255
டம் 255
மது 255
▁அஸ்த 255
▁ஒதுக்கப்பட்ட 255
▁குர 255
▁குழந்தைகளின் 255
▁கொண்டிருந்தார் 255
▁தெரிவு 255
▁தேவையில்லை 255
▁நிலைம 255
▁நேச 255
▁பெற்றோ 255
▁போத 255
▁மறுசீர 255
▁முன்னேறிய 255
த்துச் 254
ன்களைப் 254
ையாள 254
▁கிரேக்க 254
▁கூட்டமைப்பின் 254
▁கேரளா 254
▁செல்வாக்கை 254
▁திரும்பிய 254
▁தேவைகள் 254
▁நட்சத்திர 254
▁நிர்வாகத்தில் 254
▁பாலியல் 254
▁பொருளாதாரத் 254
▁முன்மொழ 254
▁வாக்களிக்க 254
▁வாங்கும் 254
▁வாழ்க்கையின் 254
▁விதமான 254
▁ஹரியானா 254
49 253
ப்பதுடன் 253
வர்களையும் 253
ாலோ 253
ிகு 253
▁for 253
▁அதேபோல 253
▁அவ்வ 253
▁இத்தனை 253
▁இயங்க 253
▁உடன்பாட்ட 253
▁உத்வேக 253
▁உள்நாட்டில் 253
▁என்றே 253
▁கொண்டுவந்த 253
▁கொண்டுவரும் 253
▁செலவிட 253
▁சொன்னார் 253
▁திட்டமிட்டு 253
▁தியாகம் 253
▁துறையை 253
▁தூதர் 253
▁தெரிவிக்கிறது 253
▁பின்னும் 253
▁பேண 253
▁மருத்துவமனையில் 253
▁வெற்றியை 253
தர 252
ப்பிலும் 252
வரே 252
▁அஜித் 252
▁ஆவது 252
▁இப்போதும் 252
▁குடியிருப்பு 252
▁குழுவை 252
▁கூட்டுற 252
▁சனிக்கிழமை 252
▁டேவிட் 252
▁நூற்றாண்டில் 252
▁பகிர்ந்த 252
▁பின்னரும் 252
இந்தியா 251
க்கால 251
சல் 251
ீட் 251
▁அணுகுமுற 251
▁அம்பேத்கர் 251
▁இடம்பெற 251
▁குஷ் 251
▁சீனாவில் 251
▁தானியங்கள் 251
▁புயல் 251
▁மதிப்பீட்ட 251
▁ரஜின 251
▁வாழ்க்க 251
▁விளையாட்ட 251
ic 250
க்கக் 250
தாவ 250
பார் 250
ப்பதோடு 250
ிஸ்த 250
்ட்ட 250
▁0. 250
▁அலை 250
▁உருவாக்குவதற்கு 250
▁எதிர்க் 250
▁கல்வித் 250
▁கூறப்பட்டது 250
▁தடைகள் 250
▁தரை 250
▁நேரில் 250
▁பயிர 250
▁பற்ற 250
▁பலத்த 250
▁பாசிச 250
▁போட்டு 250
▁மாசு 250
▁முகாம் 250
▁முன்னோடி 250
▁முற்ப 250
▁மேற்கொண்டார் 250
▁யூதா 250
▁வாஜ் 250
▁வாரத்தில் 250
டிப்பு 249
டுகளை 249
போன்ற 249
ல்லாத 249
ிட்டனர் 249
▁அமல் 249
▁அரசை 249
▁எதிர்க்கும் 249
▁கிராமங்கள் 249
▁கோரிக்கைகளை 249
▁சிரிய 249
▁தொடர்புகள் 249
▁நிலுவையில் 249
▁பங்கெடுத்த 249
▁பட்டுள்ளது 249
▁பாரிஸ் 249
▁பிரே 249
▁மறுசீரமைப்பு 249
▁மியான்மர் 249
▁மேல 249
▁வளாகத்தில் 249
▁வாக்காளர்கள் 249
52 248
ev 248
டுத 248
லனை 248
ிக்கப்பட்டன 248
ீக 248
ீடுகள் 248
ுக்குச் 248
ெய்த 248
▁அனுமத 248
▁ஆதலால் 248
▁என்னைப் 248
▁சங்கில 248
▁சமுதாயம் 248
▁சிங்கப்பூர் 248
▁தனிமைப்படுத்த 248
▁பெறப்பட்ட 248
▁முன்வைக்க 248
▁முழுவத 248
▁மையங்களில் 248
▁வந்துள்ளன 248
▁விஜயம் 248
▁விலையை 248
41 247
47 247
க்கத்தை 247
சில் 247
செய் 247
பில் 247
புதிய 247
ிப்பதில் 247
▁இணைப்பை 247
▁இரக்க 247
▁கருதி 247
▁குறைந்துள்ளது 247
▁சுமத்த 247
▁செல்வதற்கு 247
▁டய 247
▁நீதிமன்றத்தில் 247
▁போராட்டத்தின் 247
▁மனிதாபிமான 247
▁மாளிக 247
▁மீட்க 247
▁ரசாயன 247
▁வரலாற்றுச் 247
ணிய 246
நாட்டின் 246
ரிடையே 246
ாளராக 246
▁அரசால் 246
▁இந்நிலையில் 246
▁சாதனைகள் 246
▁ஜப்பான 246
▁தலா 246
▁தாண்டி 246
▁நாக 246
▁நிலையிலும் 246
▁பொழுது 246
▁மண்டலத்தில் 246
▁வைத்திருக்கும் 246
▁ஹு 246
கன் 245
க்கா 245
ாலம் 245
ிராத 245
ுறையில் 245
▁ஆளுநர் 245
▁கிருமி 245
▁கைவிட்ட 245
▁சங்கத்தின் 245
▁நகரத்தின் 245
▁பகுதிகளுக்கு 245
▁படித்த 245
▁பிரதிபலிக்கிறது 245
▁பொன்ன 245
▁வகுக்க 245
▁வீழ்ச்சி 245
இன் 244
ப்பாடு 244
மாவ 244
ிவிட்டார் 244
▁கருத்துக் 244
▁காலத்தின் 244
▁சம்பவம் 244
▁செல்வாக்க 244
▁ஜார்க்கண்ட் 244
▁தலைமைச் 244
▁திடீர் 244
▁தெரியாது 244
▁தேர்தலுக்கு 244
▁பயனுள்ள 244
▁மிர 244
▁முயற்சிகளில் 244
▁மேம்பட்ட 244
▁விக்ரம் 244
▁வெள 244
க்குரிய 243
ங்களுடைய 243
பால் 243
மாகி 243
யில 243
ற்றுப் 243
வர்களுடன் 243
ிவு 243
▁அங்கீகரிக்க 243
▁இச்ச 243
▁எத்தகைய 243
▁கர் 243
▁கல்ல 243
▁கோட்ட 243
▁பேட்டியில் 243
▁போக்கை 243
▁முன்னெடுக்க 243
▁வங்காள 243
▁விண்வெள 243
▁வெளியுறவுத்துறை 243
பட்ச 242
ில்ல 242
ையினால் 242
ொலி 242
▁உடன 242
▁கட்சியான 242
▁குறிப்பிட்டது 242
▁சீர்குலை 242
▁பதப்படுத்துதல் 242
▁பரப்பு 242
▁பாதிப்பை 242
▁மண்ட 242
ag 241
gov 241
ian 241
ராகவும் 241
ர்ந்து 241
ையோடு 241
▁அந்தந்த 241
▁காட்டியது 241
▁சுபாஷ் 241
▁செலுத்தினார் 241
▁தளர்த்த 241
▁நேரங்களில் 241
▁பதவியை 241
▁பரிச 241
▁பள்ள 241
மூட்ட 240
ாசியில் 240
ாயிற்று 240
ினும் 240
ெடுக்கும் 240
ென்றும் 240
▁) 240
▁அணுவாயுத 240
▁இவருடைய 240
▁எதிராகவும் 240
▁ஒருவரும் 240
▁குற்றங்கள் 240
▁சித்திரவதை 240
▁தலைவரின் 240
▁பலம் 240
▁புகழ 240
▁பெருமளவு 240
▁மாவ 240
▁முகம் 240
▁வகித்த 240
▁வான் 240
▁வாயு 240
1991 239
SEP 239
த்தோடும் 239
நிலையில் 239
ந்தர் 239
போன 239
ர்களைக் 239
றைகள் 239
வதோடு 239
▁உதவிகள் 239
▁கருவி 239
▁சாத்தியமான 239
▁சான்றிதழ் 239
▁சுத்த 239
▁செனட் 239
▁ஜன் 239
▁தன்னாட்சி 239
▁தொடர்புகளை 239
▁நடிகை 239
▁நடைமுறைக்கு 239
▁நட்புற 239
▁நோக்கமாக 239
▁பெரும்பான் 239
▁பொலிவ 239
▁விற்ப 239
▁வெவ்வேறு 239
46 238
63 238
ace 238
சிங் 238
பெற்ற 238
மைப்படுத்த 238
ானை 238
ாயனம் 238
▁இட்டு 238
▁இயக்குனர்கள் 238
▁இருப்பதுடன் 238
▁உதவியை 238
▁என்கிறார் 238
▁எளிய 238
▁ஏற்பட்டு 238
▁கிராமத்தில் 238
▁கெட்ட 238
▁கைவினை 238
▁தடைகளை 238
▁நடத்துவது 238
▁நாச 238
▁பராமரிக்க 238
▁மையத்தை 238
56 237
இடது 237
ஜோ 237
ப்பட்டிருக்கும் 237
முழ 237
ளவிற்கு 237
ெக் 237
▁இதைத் 237
▁உலகெங்கிலும் 237
▁கிரிய 237
▁கிழமை 237
▁கோரும் 237
▁தயாரித்து 237
▁தர் 237
▁நடாத்த 237
▁பயன்கள் 237
▁முத்த 237
▁வளர்ப்பு 237
▁விளம்பர 237
ணர்வு 236
ர்களிடையே 236
வைத் 236
ாட்டின் 236
ுமா 236
▁உயிரிழந்த 236
▁களில் 236
▁சட்டங்களை 236
▁படிக்க 236
▁பரப்ப 236
▁பில்லிய 236
▁மணிப்பூர் 236
▁மோகன் 236
▁ரவி 236
▁வளர்ச்சியின் 236
39 235
ab 235
சியா 235
வைகள் 235
ாலி 235
்கூட 235
▁அந்தச் 235
▁அனும 235
▁காட்சிகள் 235
▁சூழ்நிலையை 235
▁தாக்கிய 235
▁நெடுஞ்சாலைகள் 235
▁படிப்படியாக 235
▁பெர் 235
▁பொதுமக்களின் 235
▁மாவட்டங்கள் 235
▁மேம்படுத்துதல் 235
ra 234
க்காரர் 234
ந்தை 234
முறையின் 234
ரும 234
ிக்கார 234
ினது 234
ின்றார்கள் 234
ிருப்பார்கள் 234
▁அமெரிக்காவும் 234
▁ஆகியோரும் 234
▁இதன்படி 234
▁இயலாத 234
▁எந்தக் 234
▁செயற்ப 234
▁தொழில்நுட்பக் 234
▁நடிப்ப 234
▁பார்த்தால் 234
▁புகழ்பெற்ற 234
▁புரிந்த 234
▁மாநிலங்கள 234
▁மாறும் 234
▁வடகொ 234
ill 233
கத்தை 233
ப்பட்டிருக்கிறது 233
ராத 233
ர்ப 233
ிதான் 233
ெனினும் 233
▁அடிக்க 233
▁அற்ற 233
▁அளிப்பதாக 233
▁கர்நாடக 233
▁கூடி 233
▁கொள்கைக்கு 233
▁சுற்றுலாத் 233
▁தேசத்தை 233
▁தேசியப் 233
▁பகுதியின் 233
▁பயிற்ச 233
▁விதை 233
▁விமர்ச 233
and 232
ine 232
பாய 232
ப்படுகிறார்கள் 232
ரைச் 232
லியை 232
ாட்டி 232
▁அறிவுசார் 232
▁அவர்களும் 232
▁ஆகியோரின் 232
▁இதைப் 232
▁உள்நாட்டுப் 232
▁ஒட்ட 232
▁கணிப்பு 232
▁கண்டது 232
▁கழிவு 232
▁காவலில் 232
▁சம்பாத 232
▁செய்வோம் 232
▁செலவழ 232
▁ஜூ 232
▁டை 232
▁பரிமாறிக் 232
▁மகள 232
▁மாட்ட 232
▁முதலீடுகள் 232
ங்கோ 231
சில 231
த்தில்தான் 231
நாங்கள் 231
ஸ்தானின் 231
ிக்கொள்ளும் 231
ுதே 231
ையாகவும் 231
▁அதிகமாகும் 231
▁ஏற்றுக்கொண்ட 231
▁ஒருவரை 231
▁சமய 231
▁சிங்க 231
▁தருணத்தில் 231
▁திட்டவட்ட 231
▁திறமையான 231
▁தொழிற்துறை 231
▁தோல்விய 231
▁நடவடிக்கையாக 231
▁நிர்வாகத்தை 231
▁பட்டம் 231
▁பயிர் 231
▁பாசன 231
▁பொதுப் 231
▁முஸ்லீம் 231
▁மோதல்கள் 231
▁வண்ணம் 231
▁விலைகள் 231
nic 230
டுகிறார்கள் 230
ட்டல் 230
த்திற்குத் 230
த்தையே 230
பெய 230
மித்த 230
விட்டன 230
ிருக்கின்ற 230
▁அனைத்துக் 230
▁அமைத்து 230
▁ஆலோசகர் 230
▁ஈடு 230
▁ஈரானின் 230
▁கொள்கைகளுக்கு 230
▁தமிழ்நாட்டில் 230
▁தரப்பின 230
▁தற்கொலை 230
▁நடத்தினார் 230
▁நிச்சய 230
▁நீதிய 230
▁பங்கேற்பு 230
▁பிரச்சனைகள் 230
▁முடியுமா 230
▁மும்பையில் 230
▁யார 230
▁வகிக்கும் 230
▁வருத்த 230
▁விவாதங்கள் 230
▁வீரர் 230
od 229
un 229
ன்ற 229
மைப்பை 229
▁ஆழமாக 229
▁எதிராகப் 229
▁ஏற்படுத்திக் 229
▁கடு 229
▁கணினி 229
▁கப்பல்கள் 229
▁சுற்றுச் 229
▁தொடர்பை 229
▁பசிபிக் 229
▁பதவிய 229
▁விண்ண 229
▁வெற்றிகரமான 229
▁வெளிநாடு 229
▁வேகம் 229
டுகின்ற 228
த்துக்கொண்டு 228
ஸ்கோ 228
ினின் 228
ிவைத்த 228
ேயாகும் 228
▁ஆணை 228
▁ஆதரித்த 228
▁என்னால் 228
▁கஷ்ட 228
▁காணாமல் 228
▁காணொளி 228
▁கான 228
▁கொன்ற 228
▁சக்திவாய்ந்த 228
▁சுர 228
▁செய்யப்படுகிறது 228
▁தொழில்துற 228
▁நிறுத்துவ 228
▁போவதில்லை 228
▁மேலே 228
▁மோசமாக 228
ran 227
அரசியல் 227
க்கியது 227
சிவாஜி 227
ட்டம் 227
மாண 227
மையைப் 227
வின 227
▁அடக்கு 227
▁உண்டான 227
▁எழுதி 227
▁கண் 227
▁செயற்கைக்கோள் 227
▁டிர 227
▁திட்டமி 227
▁தொடு 227
▁நுட்ப 227
▁படத்திற்கு 227
▁பட்ச 227
▁பிற்ப 227
▁புத்தி 227
▁புற்றுநோய் 227
▁மாண 227
▁வாங்கி 227
ot 226
டுகளையும் 226
தைச் 226
னியா 226
ரங்க 226
ரீதியாக 226
லங்க 226
லீ 226
ளு 226
ிக்கப் 226
ீய 226
▁அல்லாமல் 226
▁ஆவிய 226
▁இணையதளம் 226
▁கச்சா 226
▁காணப்பட்ட 226
▁குற்றவாள 226
▁சமுதாயத்தில் 226
▁சரிய 226
▁நிறுவனத்தை 226
▁லண்டன் 226
▁வெப்ப 226
72 225
am 225
ond 225
மேக் 225
ினருக்கு 225
ின்கீழ் 225
ுவதால் 225
▁f 225
▁அதுதான் 225
▁அபி 225
▁அரிசி 225
▁உறுப்பினர்களை 225
▁உள்ளாட்சி 225
▁கண்டுபிட 225
▁கூறப்படும் 225
▁கொள்ளுங்கள் 225
▁கோரிக்கைகள் 225
▁சார்பு 225
▁செய்வதன் 225
▁ஜவுளி 225
▁தலைமையின் 225
▁நடுவே 225
▁நிகழ்ச்சியை 225
▁பல்ல 225
▁முதலீ 225
59 224
டுகளில் 224
மிட 224
முறையில் 224
ரேட் 224
▁(0 224
▁அதிகரிக்கவும் 224
▁இவருக்கு 224
▁ஏமாற்ற 224
▁குறிப்பிட்டு 224
▁தாய 224
▁தொலைத் 224
▁நிதிநிலை 224
▁பஞ்ச 224
▁படிப்பின 224
▁போலந்து 224
▁வெளிய 224
▁ஸ்வ 224
ன்களின் 223
ப்பகுதி 223
ற்றம் 223
ல்படுத்த 223
வனுக்கு 223
ுறையின் 223
ையிட்ட 223
▁அழைத்த 223
▁இயக்கமாக 223
▁ஈட்ட 223
▁கனடா 223
▁காணொள 223
▁சந்திக்கும் 223
▁செயல்படுத்தி 223
▁தகுதிய 223
▁தண்ணீ 223
▁தினசரி 223
▁தோன்றுகிறது 223
▁தோற்ற 223
▁நுழை 223
▁பாக்தா 223
▁பிரக 223
▁பில 223
▁போருக்குப் 223
ட்டுகள் 222
ப்படுகின்ற 222
மர 222
மிடம் 222
ற்றி 222
வில்ல 222
ஷ்வ 222
ுக்களில் 222
▁அமர்த்த 222
▁உழைப்பு 222
▁ஒழிப்பு 222
▁கடன்களை 222
▁கட்சியுடன் 222
▁கையெழு 222
▁சுற்றிலும் 222
▁பகுதிகள 222
▁வளர்ந்த 222
▁வார்த்தைகள் 222
▁வெடி 222
ந்தனர் 221
மாக்கும் 221
முன்ன 221
ிருக்கையில் 221
▁அழைத்துச் 221
▁ஆகியோ 221
▁இதைச் 221
▁என்பதோடு 221
▁ஏழைகளுக்கு 221
▁கடைசியில் 221
▁கவனத்தில் 221
▁தொலைபேச 221
▁நோக்கத்துடன் 221
▁பில் 221
▁பொருட்டு 221
▁முன்னேற்றத்தை 221
▁மேன்மை 221
▁ரக 221
சர் 220
நகர் 220
நிதி 220
மளிப்பு 220
ய்ய 220
ர்வு 220
ேஷ் 220
▁அன்றைய 220
▁அமைதியான 220
▁அமைந்தது 220
▁அரசாங்கத்தால் 220
▁அரசிய 220
▁எப்பட 220
▁கம்ப 220
▁கேட்டார் 220
▁சர்க்கரை 220
▁சுதந்திரப் 220
▁சென்றது 220
▁செய்துள்ளனர் 220
▁தளத்தின் 220
▁நடிகர்கள் 220
▁நன்றாக 220
▁புருஷ 220
▁பொய்ய 220
▁மானியம் 220
▁விடய 220
0) 219
54 219
ணர்வ 219
ணியில் 219
மார்க்க 219
ளத்தில் 219
ியாகிய 219
ிரா 219
ுறுத்திய 219
▁அதிகாரிகளை 219
▁அனைவரின் 219
▁அன்பு 219
▁அபாய 219
▁இவ்வ 219
▁உள்கட்ட 219
▁ஊடாக 219
▁ஒப்படைக்க 219
▁சமுக 219
▁தள்ளி 219
▁பரிவர்த்த 219
▁பின்னே 219
▁மறைக்க 219
▁வெளிச்ச 219
மயமா 218
மளிக்க 218
முனை 218
ஸ்தானிய 218
ுதலுக்கு 218
்டோ 218
‌ 218
▁ஆகியோருக்கு 218
▁இருப்பத 218
▁எடுத்துக்கொள்ள 218
▁காப்பீட்டுத் 218
▁சண்டை 218
▁சொத்துக்கள் 218
▁தீர்மானத்தை 218
▁தெரியவில்லை 218
▁நலம் 218
▁படையெடுப்ப 218
▁மீள 218
▁முன 218
▁வழங்கல் 218
▁வாரணாசி 218
▁வெடிப்பு 218
ட்ஸ் 217
தர் 217
த்தினாலும் 217
த்திற்குக் 217
நூ 217
பவர்களுக்கு 217
ப்படுகின்றது 217
மைக்கப்பட்ட 217
ரிக்கு 217
ல்ட் 217
ளான 217
வில 217
ிகளைச் 217
ுதல்கள் 217
ெர் 217
▁அஜ 217
▁அதிவேக 217
▁அன்றாட 217
▁அரசுகளுக்கு 217
▁கண்ணோட்ட 217
▁குடிமக 217
▁செலுத்து 217
▁தப்பு 217
▁துறையினர் 217
▁பரவல் 217
▁மறந்து 217
▁மிச்ச 217
▁வழியை 217
62 216
op 216
டனும் 216
போன்று 216
ப்பான் 216
மானிய 216
வணிக 216
ாடு 216
ோக 216
▁அழைக்கப்படும் 216
▁ஆயுதப் 216
▁இரங்க 216
▁இலட்சம் 216
▁உரையை 216
▁ஜீவன் 216
▁தாக 216
▁தீவு 216
▁மனோ 216
▁மலையாள 216
▁முதன்முறையாக 216
▁வலிமையான 216
▁வைர 216
CDU 215
um 215
டுகின்றனர் 215
ட்டுப் 215
த்துள்ள 215
ருவது 215
லைவர் 215
ஸ்ரீ 215
ாவிடம் 215
ைக்கப்பட்ட 215
ையின்படி 215
▁அவர்களைக் 215
▁உயிரியல் 215
▁உரு 215
▁உறு 215
▁உள 215
▁எங்க 215
▁எங்கும் 215
▁குழுக்களின் 215
▁பிரதேசங்களில் 215
▁முகாமில் 215
▁வீடுகளுக்கு 215
▁வீழ்ச்ச 215
▁வேறுவ 215
கூ 214
த்தீவு 214
்துறை 214
▁அருவ 214
▁ஆகியவற்றால் 214
▁ஆசை 214
▁இதுவும் 214
▁கருதப்படும் 214
▁கலந்த 214
▁கிடைத்துள்ளது 214
▁சாதனங்கள் 214
▁சிறப்புப் 214
▁செல்வது 214
▁தற்ச 214
▁தீப 214
▁துறைகளிலும் 214
▁பாதுகாப்புச் 214
▁ரூப 214
▁விட்டன 214
▁வேகத்தில் 214
சாமி 213
லுக்குப் 213
ியர் 213
▁அமெரிக்காவ 213
▁குற்றவியல் 213
▁சட்டமன்ற 213
▁சை 213
▁தப்பி 213
▁தம 213
▁தம்மை 213
▁தயாரிப்பில் 213
▁நடத்தப்பட 213
▁நியமி 213
▁பஞ்சாய 213
▁பன்னாட்டு 213
▁பிரசாத் 213
▁போக்குவரத்துத் 213
▁மனிதகுல 213
ட்சியின் 212
த்தின்போது 212
பொது 212
மக்கள் 212
ுவந்த 212
▁அவனைக் 212
▁இன்ற 212
▁இறுத 212
▁உருவான 212
▁என்றுதான் 212
▁கட்டளை 212
▁காத 212
▁காயமடைந்த 212
▁கொள்ளவில்லை 212
▁சதி 212
▁சர 212
▁செயல்படு 212
▁தீவின் 212
▁துண 212
▁தூக்கி 212
▁தேர்தலை 212
▁பரிவர்த்தனை 212
▁போட்டிகள் 212
▁முன்னெடுத்த 212
▁வரைவு 212
▁விருதுகளை 212
சத 211
சமூக 211
த்திற்குரிய 211
மளிக்கும் 211
முட 211
ருக்காக 211
ளைப் 211
விழா 211
ாரை 211
ிக்கிறார் 211
ியாகும் 211
ியைச் 211
்து 211
▁அமெரிக்காவை 211
▁அமைப்பது 211
▁ஆண்டை 211
▁இணைத்துக் 211
▁கீழ்கண்ட 211
▁கையாள் 211
▁கொண்டாடும் 211
▁சந்தைகளில் 211
▁சாட்ச 211
▁சினிமாவில் 211
▁சொல்லும் 211
▁திரையிட 211
▁நடுவில் 211
▁நண்பர்கள் 211
▁பிராண 211
▁பேச்சாளர் 211
▁மனம் 211
▁முன்னெச்ச 211
▁மூழ்க 211
193 210
க்கிறது 210
டுவதில் 210
த்தாக்க 210
பாட்ட 210
ப்பட்டிருந்த 210
ாத் 210
ினா 210
ுத்துறை 210
ென்றால் 210
▁அரசியல 210
▁ஆப் 210
▁ஆல் 210
▁இடங்களை 210
▁இத்தாலி 210
▁இவற்ற 210
▁எங்கு 210
▁எப்போது 210
▁கட்டுரையில் 210
▁சிக்கலான 210
▁ஜாக் 210
▁தலைமைப் 210
▁தலைவர்களின் 210
▁நீக்கம் 210
▁நோயாளிகளுக்கு 210
▁நோய்கள் 210
▁பொருந்தும் 210
▁முற்பட்ட 210
58 209
73 209
கட்ட 209
த்துக்குத் 209
மாகச் 209
ல்ஸ் 209
ுவதில்லை 209
▁அங்குள்ள 209
▁ஆகியவற்றுக்கான 209
▁ஆயுதம் 209
▁இயலாது 209
▁இழப்ப 209
▁என்பதைப் 209
▁ஒருமை 209
▁கருதப்படுகிறது 209
▁காட்டிலும் 209
▁சுற்றுப்புற 209
▁சென்றார் 209
▁செவ்வாய 209
▁டெல்லி 209
▁தலைவர்களை 209
▁தேர்ந்தெடுத்த 209
▁தொகுப்ப 209
▁நிகழ்வில் 209
▁நீங்க 209
▁புறப்பட்ட 209
▁புலி 209
▁முறையே 209
▁மெகாவாட் 209
▁வழக்கில் 209
▁விக்கிர 209
end 208
ங்களோ 208
டெ 208
த்தியம் 208
னாய 208
மைக்காக 208
ீர 208
ீர்ப்பு 208
ுக்களையும் 208
ையாவது 208
ோரை 208
▁அஞ்சலக 208
▁அடிக்கோ 208
▁அண 208
▁இறந்து 208
▁இவர்களில் 208
▁உலகத்தின் 208
▁ஐம்பது 208
▁கான் 208
▁குடியரசுத்த 208
▁கூட்டணியில் 208
▁கொஞ்சம் 208
▁செல்வம் 208
▁டிசம்பரில் 208
▁பகுதிக்கு 208
▁பயன்படும் 208
▁பள்ளிகளில் 208
▁பாதுகாப்பாக 208
▁பாத்திர 208
▁பான 208
▁மூலமான 208
▁வருடாந்திர 208
▁வெளிப்ப 208
j 207
ப்பகுதியில் 207
ாண்டு 207
ாதிப 207
ையிட்டார் 207
▁அடைவதற்கு 207
▁அருண் 207
▁ஆள் 207
▁ஆஸ்திரேலியா 207
▁இதனைத் 207
▁எளிதாக்க 207
▁கொடூர 207
▁சாசன 207
▁சாதகமாக 207
▁சிகிச்ச 207
▁துருக்கிய 207
▁பூட்டோ 207
▁மருத்துவம் 207
▁வழங்குவதற்கு 207
▁வாடிக்க 207
97 206
அது 206
எச் 206
த்திலான 206
ந்தும் 206
மையாக்க 206
யாக 206
ல்த 206
ஸ்தல 206
ாவைப் 206
ீம் 206
்களுக்கான 206
▁அனு 206
▁அழிக்க 206
▁ஆராய்ச்சிக் 206
▁இளைஞர்களை 206
▁எதிரொல 206
▁கல்விய 206
▁கிறிஸ்துவ 206
▁கூறுகின்றனர் 206
▁சரக்குப் 206
▁தூண 206
▁தொழிலில் 206
▁நடித்து 206
▁நடைபெறுகிறது 206
▁பகுதிய 206
▁புத்தாக்க 206
▁மாஸ்கோ 206
▁முன்னிலையில் 206
▁வந்தார்கள் 206
▁வாயில 206
0.0 205
இந்தியாவில் 205
சிவ 205
பாடுகள 205
ம்த 205
ரியில் 205
ஹி 205
ிகை 205
ிவா 205
▁அதிர்ச்ச 205
▁ஆய்வுக் 205
▁இருந்தார்கள் 205
▁இலக்காக 205
▁சட 205
▁சத்திய 205
▁சந்நித 205
▁சமத்துவம் 205
▁செயல்படுத்தும் 205
▁சேரும் 205
▁ஞாயிற 205
▁தற்காலிகமாக 205
▁தவறாக 205
▁திரை 205
▁நிக்கோ 205
▁மனைவிய 205
▁மார்க்க 205
▁வசதிய 205
▁விசாரணைக்கு 205
▁விதிமுறைகளை 205
61 204
ap 204
ங்கர் 204
ங்களுக்குத் 204
தாய் 204
த்தொகை 204
ம்போ 204
ள்களை 204
ிட்டுள்ளது 204
ிலீ 204
ிலும 204
▁இன்றைக்கு 204
▁ஒட்டுமொத்தமாக 204
▁சத்ய 204
▁தனியாக 204
▁நியமன 204
▁நிவாரணம் 204
▁பரவலான 204
▁மரணம் 204
▁மறுத்துவ 204
▁முதன் 204
▁மொழிகளில் 204
▁ரம் 204
▁வசனம் 204
▁விளக்கிய 204
▁வேறுபட்ட 204
57 203
அனை 203
கள் 203
சொ 203
ச்சல் 203
திலிருந்து 203
திலும் 203
நட 203
நிலையை 203
வால் 203
ாரர் 203
ேற்ப 203
▁அவர்களால் 203
▁இருக்கின்றனர் 203
▁உதவிகளை 203
▁எஞ்சிய 203
▁எப்போதுமே 203
▁கடற்படையின் 203
▁கொழும்ப 203
▁டா 203
▁துண்டு 203
▁துயர 203
▁நுண்ணறிவு 203
▁பங்கேற்று 203
▁பிரான்ச 203
▁புத்தக 203
▁மாற்றியமை 203
▁வணக்கம் 203
▁வணங்க 203
▁வளைகுடா 203
ங்கொ 202
ஞ 202
தேச 202
ரிக 202
விக் 202
ானுக்கு 202
ைகளின்படி 202
▁ஆலோச 202
▁ஊடகங்களில் 202
▁எழும்ப 202
▁காலக்க 202
▁கூட்டுத்தாபன 202
▁சௌ 202
▁தடவையாக 202
▁தமக்கு 202
▁துப்புரவு 202
▁நாட்களாக 202
▁பயன்பாட்ட 202
▁பிராந்தியம் 202
▁பெய்ஜிங் 202
▁போராடி 202
▁போர்க்கு 202
▁முன்னுரி 202
▁மேற்கோள் 202
▁வழிமுறைகளை 202
▁விண்வெளித் 202
▁விதிகளை 202
▁விலக்கு 202
▁விழுந்து 202
▁ஹெக்டேர் 202
ational 201
க்கப்பட்டுள்ளன 201
பொருளாதார 201
ரங்கு 201
ர்த் 201
ர்ந்த 201
ிப்புகள் 201
்குமார் 201
▁அடிப்படையான 201
▁ஆகவே 201
▁இந்தியர்களின் 201
▁இயந்திர 201
▁இயற்ற 201
▁உதாரண 201
▁எச் 201
▁காரணங்கள் 201
▁சன் 201
▁திசையில் 201
▁துறையின 201
▁நிகழ்வ 201
▁நிறுவனத்திற்கு 201
▁பட்சம் 201
▁பத்திரிகையாளர் 201
▁மோசடி 201
▁யில் 201
▁யோசனை 201
▁வர்த்த 201
▁வழங்குவதற்கான 201
க்கப் 200
க்குள்ள 200
தென்று 200
ன்களையும் 200
ருக்குக் 200
வியா 200
ாளர்களிடம் 200
ிக்கக் 200
ினிய 200
▁அரி 200
▁அழைப்ப 200
▁இறந்த 200
▁இலக்குகள் 200
▁இலாபம் 200
▁இவ்வளவு 200
▁உணர்வுகளை 200
▁எண்ணெய 200
▁ஓராண்ட 200
▁காக்கும் 200
▁கிட்ட 200
▁சலுகைகள் 200
▁சியோ 200
▁செய்யப்பட்டன 200
▁நாடுகளைச் 200
▁நிதியுத 200
▁நியமிக்க 200
▁நிலைநிறுத்த 200
▁படு 200
▁பலிய 200
▁பிரதிபலிக்க 200
▁வரம்பு 200
▁வேண்டி 200
?" 199
சார்ந்த 199
டிப்ப 199
னால்தான் 199
முயற்சி 199
மையானது 199
யு 199
வதையும் 199
ாயா 199
▁அங்கமாக 199
▁அனுபவங்களை 199
▁எந்திர 199
▁எழுப்பிய 199
▁ஒருவ 199
▁காங்கிர 199
▁குழந்தைகளை 199
▁குழுக்களை 199
▁சுத்திக 199
▁திறன்களை 199
▁தென்கிழக்கு 199
▁தெஹ் 199
▁நிரப்ப 199
▁நீர்வள 199
▁பகை 199
▁பருப்பு 199
▁பழமைவாத 199
▁பிரச்சினையை 199
▁பிரித்தானிய 199
▁பிளாஸ்டிக் 199
▁பெற்றுக்கொள்ள 199
▁போராளிகள் 199
▁மாற்றிக் 199
▁மாற்றுத்திறன 199
▁விஷ 199
1997 198
ங்டனில் 198
ஜாத 198
தாம 198
புற 198
ப்படுத்திக் 198
ப்பட்டால் 198
மானம் 198
லாக்கம் 198
ிவான 198
ிவிட்டன 198
ெடுத்த 198
▁உணர்ந்து 198
▁எல்லையில் 198
▁ஏதுவாக 198
▁ஒலி 198
▁கட்டுப்பாடுகள் 198
▁கட்டும் 198
▁கிளர்ச்சி 198
▁சிரியா 198
▁செய்தியாளர் 198
▁தனிநப 198
▁நடைபெற்றன 198
▁பணக்கார 198
▁பந்த 198
▁பாதி 198
▁மின்சக்தி 198
▁வந்திருந்த 198
▁விக்கிரமசிங்க 198
▁விலகி 198
▁விவரித்தார் 198
▁வேண்டுமென 198
53 197
all 197
ங்களின்படி 197
பதி 197
ப்படுத்துகிறது 197
ப்பர் 197
வோருக்கு 197
ுள்ளதாகவும் 197
▁அவசியமான 197
▁ஒருவேளை 197
▁குல 197
▁குளிர் 197
▁தவறு 197
▁துரோ 197
▁பஞ்சாயத்து 197
▁பவு 197
▁மட்டத்தில் 197
▁முடிவெடுத்த 197
▁ரீதியிலான 197
▁வழிகாட்டுத 197
▁வார்த்தைகளை 197
▁வீச 197
1995 196
imes 196
சான் 196
பவர் 196
ப்பால் 196
ிப்பதை 196
▁அங்கீகார 196
▁ஆலோசக 196
▁இள 196
▁உரையாட 196
▁எதிர்கொண்டு 196
▁எருசலே 196
▁ஒப்புக்கொள்ள 196
▁காலக்கட்டத்தில் 196
▁குறைபாடு 196
▁திட்டமான 196
▁துக்க 196
▁தொழிற்ச 196
▁நாளைக்கு 196
▁நிறைவேற்றும் 196
▁பங்கேற்கும் 196
▁பிரிந்து 196
▁பெற்றுள்ளனர் 196
▁மேம்படுத்தி 196
▁விருந்தின 196
▁வீரர்களுக்கு 196
UMP 195
org 195
thers 195
ச்சார் 195
மானதாக 195
ர்ட 195
ுவில் 195
▁உயர்த்தி 195
▁காந்த 195
▁கொல்கத்தா 195
▁கொள்ளப்பட்ட 195
▁சிலி 195
▁ஜப்பானின் 195
▁தலைநகர் 195
▁தொலைவில் 195
▁நிகழ்ச்சிகளை 195
▁பணியாளர்கள 195
▁பழக்க 195
▁பாடல்கள் 195
▁புரிய 195
▁மடி 195
▁மறக்க 195
▁முப்பது 195
▁வரவில்லை 195
▁வருவாயை 195
▁வழங்கு 195
▁வாக்கெடுப்பு 195
1989 194
68 194
இஸ் 194
ஞ் 194
டிக்கும் 194
த்தினதும் 194
னைச் 194
ப்படுவர் 194
யின 194
லோக 194
ாமின் 194
▁ஆதாய 194
▁இணைப்புகள் 194
▁இருந்தபோது 194
▁இரும்பு 194
▁உத்தரப் 194
▁காஷ்மீரில் 194
▁கேள்வ 194
▁வந்திருக்கிறது 194
▁வெளிநா 194
▁வேறுபாடு 194
▁ஸ்பெய 194
ணிக்கு 193
த்தலை 193
ரோடு 193
லிலும் 193
வர்களே 193
ுமான 193
ுவதாகும் 193
ுவிட்டு 193
ெயின் 193
▁அவ்வப்போது 193
▁ஆகவும் 193
▁எதிர்ப்புக் 193
▁கருவ 193
▁குறிக்கோ 193
▁கூட்டத்தின் 193
▁சகா 193
▁சுரேஷ் 193
▁திறக்க 193
▁நாளும் 193
▁பத்ம 193
▁மட்டுமன்றி 193
▁மையங்களை 193
▁யதார்த்த 193
▁வங்கிகளின் 193
▁வரும்போது 193
▁விசா 193
▁வெளிப்படுத்தும் 193
ac 192
ட்டன் 192
பாடுகளை 192
ப்பணி 192
ாளர்களால் 192
ூல 192
ையிட 192
▁s 192
▁அன்றி 192
▁அம்சங்களை 192
▁அழைப்பை 192
▁ஆன் 192
▁இணைக்கப்பட்ட 192
▁இதற்கிடையில் 192
▁உள்ளவர்கள் 192
▁எல்லாவற்றையும் 192
▁கற்ற 192
▁குஜராத்தில் 192
▁செயல்படுகிறது 192
▁தஞ்சம் 192
▁தீர்த்த 192
▁தொண்டு 192
▁நிச்சயம் 192
▁மாறியுள்ளது 192
▁மெய்ய 192
▁வியாழ 192
▁விளையாட்டுப் 192
க்கியா 191
நமது 191
ப்படுக 191
மிடையே 191
முயற்சிய 191
லைகள் 191
ஸா 191
ியைப் 191
ிஸ் 191
ுக்களுக்கு 191
▁அமைப்புக்கள 191
▁ஆய்வுகள் 191
▁உண 191
▁உணவ 191
▁உரையின் 191
▁கருவியாக 191
▁காணிக்க 191
▁குடிமக்களின் 191
▁ஜென 191
▁தெரியாத 191
▁தெற்காசிய 191
▁தெளிவு 191
▁நடக்கிறது 191
▁நிகழ் 191
▁பங்குகள் 191
▁பணிகளுக்கு 191
▁புகைப்பட 191
▁மீன 191
▁முறிய 191
▁மேட 191
▁லாப 191
▁வசதியாக 191
▁விசேட 191
▁விபத்தில் 191
▁விழாவை 191
▁விழுந்த 191
ஊ 190
ப்பெ 190
ஷ்க 190
ாமி 190
ாரோ 190
ின்றோம் 190
▁அல்க 190
▁அழைக்கப்பட்ட 190
▁ஆதாரம் 190
▁உயர்கல்வி 190
▁கார்ப்ப 190
▁குறையும் 190
▁கேட்ப 190
▁கோவா 190
▁செய்வதாக 190
▁தேர் 190
▁நல்லிண 190
▁நிகழ்த்த 190
▁நிர்வாகக் 190
▁நிலவர 190
▁பெற்றுள்ளன 190
▁மின 190
▁மீட்ப 190
▁முறையும் 190
▁வேண்டுமென்றே 190
de 189
ow 189
v 189
ஃப 189
ஆக 189
சங்க 189
மைத் 189
லைக்க 189
ிப்பா 189
ியைக் 189
ூர 189
▁அவரிடம் 189
▁இந்தியாவிற்கும் 189
▁இல்லையா 189
▁கங்க 189
▁கண்டிப்பாக 189
▁கவனமாக 189
▁கிடைக்கிறது 189
▁குடியிருப்ப 189
▁கொடுக்கப்படும் 189
▁செய்துள்ளன 189
▁தென்னாப்பிரிக்க 189
▁நிலவரப்படி 189
▁படகு 189
▁பார்த்துக் 189
▁மொத்தமாக 189
▁வரவேண்டும் 189
▁வரிசையில் 189
▁விருப்பத்தை 189
▁ஷேக் 189
▁ஸ 189
196 188
ட்டிங் 188
ண்டி 188
ந்துகொண்டு 188
ப்படுவதுடன் 188
ழிவ 188
ிரம் 188
்களைக் 188
▁அதிகாரப்பூர்வ 188
▁ஆணையர் 188
▁இணைப்ப 188
▁இயலும் 188
▁ஊட்ட 188
▁ஊழியர்களின் 188
▁ஒருமித்த 188
▁கணக்குகள் 188
▁கண்டுபிடிக்க 188
▁களின் 188
▁கவல 188
▁கிராம் 188
▁கீழ்க்கண்ட 188
▁சிவாஜி 188
▁சுற்றியுள்ள 188
▁சுற்றுலாப் 188
▁செய்வதற்கும் 188
▁தலைமைத் 188
▁நடவடிக்கைகளும் 188
▁நுகர்வ 188
▁பகுதியிலும் 188
▁பயணத்தில் 188
▁பழமையான 188
▁பார்க்கவும் 188
▁பொறுப்பான 188
▁மாவட்டம் 188
▁வகைகள் 188
▁வங்கதேச 188
▁வருவாய 188
▁விமானத்தில் 188
▁வைத்திருந்த 188
▁வைத்துள்ளது 188
66 187
67 187
74 187
ach 187
ச்சல 187
ஜேபி 187
டுவதாக 187
தவிர 187
பவ 187
ப்பதிலும் 187
வியின் 187
ானே 187
ின்றார் 187
ிப்பத 187
ிருப்பதற்கு 187
ுக்குள்ள 187
▁ஆதரவையும் 187
▁ஆந்திரப் 187
▁இந்தியன் 187
▁இரசாயன 187
▁இருக்கின்றது 187
▁ஏப்பிரல் 187
▁கடைசியாக 187
▁கலந்துகொண்டனர் 187
▁கல்வியை 187
▁கொண்டன 187
▁சிம்ப 187
▁செய்தார்கள் 187
▁செய்தால் 187
▁தத்துவ 187
▁தருகிறது 187
▁துறைமுகம் 187
▁தென்கொ 187
▁நாடுக 187
▁படைய 187
▁பத்த 187
▁பலன 187
▁பெய்ஜி 187
▁பொருளாதாரக் 187
▁மலை 187
▁மாய 187
▁முத்திரை 187
▁வழக்குகள் 187
▁விருந்த 187
டைக 186
லாள 186
ிக்கத் 186
ிட்டம் 186
‘ 186
▁அநே 186
▁அமீ 186
▁அறை 186
▁அவர்களிடம் 186
▁ஆஃப் 186
▁ஆகியவற்றைக் 186
▁உறுதிமொழி 186
▁உலகை 186
▁என்பவர் 186
▁எப்படிய 186
▁கருவிகளை 186
▁கிழக்குப் 186
▁கொரியா 186
▁சிதை 186
▁செலவை 186
▁தொட்ட 186
▁நித்திய 186
▁பெற்றனர் 186
▁பேரை 186
▁மார் 186
▁மொத்தத்தில் 186
▁வெறுப்பு 186
▁வேலைக்கார 186
92 185
அரசு 185
தாஸ் 185
ந்திரா 185
னையில் 185
பம் 185
மடைய 185
ரஸ் 185
வேண்டியது 185
ூட்டும் 185
▁align 185
▁அமைத்தல் 185
▁அவருடன் 185
▁இலக்காகக் 185
▁ஏறக்குறைய 185
▁கடவுள் 185
▁கணிசமாக 185
▁காசா 185
▁சட்டத்திற்கு 185
▁சென் 185
▁தகவல 185
▁தபால் 185
▁தாவீதின் 185
▁நிதிச் 185
▁பியூ 185
▁பிராந்தியத்தின் 185
▁பிரிவை 185
▁மது 185
▁மூலமாகவும் 185
ion 184
ட்ப 184
ணுவ 184
பாடு 184
மூட்டும் 184
ராக் 184
ரியாவின் 184
ளவிலான 184
வர்த்த 184
வியல் 184
ஷீ 184
ீப் 184
▁அமைப்பதற்கு 184
▁ஏகாதிப 184
▁ஒதுக்கி 184
▁கிராமப் 184
▁குறைப்பது 184
▁கொண்டிருப்பது 184
▁செய்யு 184
▁தடுப்பூசி 184
▁தீர்க்கத 184
▁தேவைகளுக்கு 184
▁நினைத்த 184
▁புறநகர் 184
▁மிரட்ட 184
▁மீனவர்கள் 184
▁வாக்கில் 184
▁வாக்குப்பதிவு 184
▁வித்தியாசமான 184
▁விரிவு 184
▁விவகாரம் 184
▁வைத்துள்ள 184
st 183
க்குழுவ 183
ன்றி 183
ருக்குச் 183
ருக்குத் 183
ழிந்த 183
ுக்கொள் 183
▁அண்மை 183
▁அதிகரிப்பது 183
▁அபிவிருத்த 183
▁அரசியல்வாதிகள் 183
▁அவர்களைத் 183
▁அவளை 183
▁ஆகியவையும் 183
▁ஆசன 183
▁உயரும் 183
▁எளிதான 183
▁ஒன்றியத்தில் 183
▁கணிப்ப 183
▁கர்ப்ப 183
▁குடிமக்களுக்கு 183
▁செயல்கள் 183
▁செய்திகளை 183
▁டாலர்களை 183
▁தமிழ 183
▁துறைகளின் 183
▁நன் 183
▁நிலத்தை 183
▁பூண்ட 183
▁பெருங்கடல் 183
▁முன்னணியின் 183
▁யாவரும் 183
▁ரஷ்யாவின் 183
▁வசூல் 183
▁வழிகளில் 183
▁விரும்பிய 183
ht 182
ங 182
ப்படுவதால் 182
ப்புச் 182
விலே 182
ாட்டுக் 182
ுவதற்க 182
ுவி 182
▁அணை 182
▁அவரவர் 182
▁ஆண்டுதோறும் 182
▁ஆராய்ச்சிய 182
▁இயல்பான 182
▁இருக்கக் 182
▁ஏலம் 182
▁கற்றல் 182
▁கழ 182
▁காணலாம் 182
▁கொண்டவை 182
▁சமுதாயத்தை 182
▁சுன்னி 182
▁செல்கிறது 182
▁சொத்துக்களை 182
▁தந்தை 182
▁நூற 182
▁மறைந்த 182
▁மஹி 182
▁முயற்சியின் 182
▁மேக் 182
▁வழங்கப்பட 182
▁விரிவ 182
▁வெளிப்படுத்திய 182
82 181
ak 181
ud 181
க்கிர 181
டுகளுக்கும் 181
ணியை 181
நிறுத்த 181
மாற்ற 181
வரான 181
வெளி 181
ாரில் 181
ாவால் 181
ிகளுக்காக 181
▁அப்பாஸ் 181
▁இப்பிர 181
▁எவ்வ 181
▁கொள்ளப்படும் 181
▁கொள்ளை 181
▁சராசரியாக 181
▁சேவையில் 181
▁ஜோடி 181
▁தாழ் 181
▁நெரு 181
▁புள்ளியியல் 181
▁பொருளாதாரப் 181
▁முடிவடைந்த 181
▁முதலாவதாக 181
▁மேற்பார்வ 181
▁லெ 181
▁வந்தால் 181
▁ஹரி 181
BJP 180
www 180
குற 180
டுகிறோம் 180
ண்டர் 180
தாகவே 180
ப்பதில்லை 180
மூலம் 180
வதாகக் 180
ாளர்களுக்கும் 180
ுகோ 180
ைகளான 180
ையிலான 180
▁அறிக்கைகளை 180
▁அலுவலகத்தில் 180
▁இத்தாலிய 180
▁இரத்தம் 180
▁உறுப்பினர்களின் 180
▁கட்டுமானப் 180
▁கல் 180
▁கூட்டணியின் 180
▁சிந்திக்க 180
▁தற்பொழுது 180
▁திறன்கள் 180
▁துன் 180
▁நேரமும் 180
▁பார்க்கும்போது 180
▁பிடி 180
▁பிரேசில் 180
▁பெப்ரவரி 180
▁போக்குவரத்தை 180
▁போட்டிகளில் 180
▁மன்னர் 180
▁மற 180
▁மாணவ 180
▁முதலமைச்ச 180
▁முனைவோர் 180
▁மெய்நிகர் 180
▁வளை 180
▁ஸ்ரீலங்கா 180
காசம் 179
ப்பல் 179
மனித 179
ரேய 179
ற்றின் 179
ல்தான் 179
ுக்கென 179
ைக்குற 179
▁அந் 179
▁அறிக்கையின் 179
▁அறுவடை 179
▁அலுவலகங்கள் 179
▁இடம்பெறும் 179
▁இயக்குனராக 179
▁என்கிறார்கள் 179
▁ஒடி 179
▁ஜெப 179
▁திரிபுரா 179
▁துறைமுகங்கள் 179
▁தூரம் 179
▁நானோ 179
▁நூற்றாண்ட 179
▁பாரம்பரியத்தை 179
▁புரட்சியின் 179
▁மாணவர்களை 179
▁முத்திர 179
▁முறைகே 179
▁வரையறை 179
▁வாய்ப்பாக 179
▁விசாரிக்க 179
up 178
ந்தம் 178
ஹே 178
ாலான 178
ிவருகிறது 178
ிவ் 178
ைகளுக்குத் 178
▁h 178
▁அடித்து 178
▁அப்துல் 178
▁ஈர்க்க 178
▁உருவாக்கம் 178
▁உள்ளடக்க 178
▁எழுதினார் 178
▁ஏற்படுத்தியது 178
▁கடலில் 178
▁கொடுக்கிறது 178
▁கோடிய 178
▁சமூகத் 178
▁சார்பாக 178
▁நடவடிக்கையின் 178
▁நவம்பரில் 178
▁பகுத 178
▁பத்திரிகையாள 178
▁மாநிலங்களிலும் 178
▁மோவா 178
▁வருவதால் 178
▁வலிமையை 178
▁விவரி 178
▁வெள்ளிய 178
▁வேட்பாளராக 178
▁வைக்கப்பட்டுள்ள 178
98 177
ment 177
க்கப்பட்டன 177
டைந்துள்ளது 177
ண்ணும் 177
த்திற்குள்ள 177
ப்பிற்கான 177
மோன் 177
ர்தன் 177
ழிய 177
ஷ்ட் 177
ார்பு 177
ிப்பதற்கும் 177
ிருப்பு 177
ேத 177
▁அனுப்பப்பட்ட 177
▁இருந்ததை 177
▁எந்தத் 177
▁எரி 177
▁காலகட்ட 177
▁செயலாற்ற 177
▁சேரு 177
▁தலைப்ப 177
▁தெலுங்கில் 177
▁தொடங்குவதற்கு 177
▁நிபந்த 177
▁பயங்கர 177
▁பிரமாண்டமான 177
▁முந்திய 177
▁வாரங்களுக்கு 177
▁வாழ்வை 177
தீவிர 176
ன்பே 176
ப்படுவதில்லை 176
மறை 176
மாட்டேன் 176
ற்றது 176
ாவைச் 176
ிப்போக 176
ுட் 176
ூக 176
ேயா 176
ைகளிலிருந்து 176
▁! 176
▁அச்சம் 176
▁அன்ன 176
▁இலவசமாக 176
▁உலகளவில் 176
▁கவனிக்க 176
▁கொஞ்ச 176
▁கொண்டால் 176
▁சிறுபான்மை 176
▁செய்யாத 176
▁செய்யுமாறு 176
▁திரைப்படம் 176
▁தீர்வை 176
▁நீண்டகாலமாக 176
▁மூலதனம் 176
▁மேற்கொள்வது 176
▁வாழ்ந்த 176
▁வெளியிட்டு 176
ich 175
டிக்கொண்ட 175
டுக்கு 175
ணிகள் 175
த்தினரின் 175
பாதுகாப்பு 175
ாட்சி 175
ில்லாத 175
ிவிடு 175
ைக்குத் 175
▁அடைந்தது 175
▁அறிகுற 175
▁ஆண் 175
▁உருவாகிய 175
▁உருவாக்கப்பட்டு 175
▁எதிர்ப்புத் 175
▁ஒன்றையும் 175
▁கன்ன 175
▁கையாளும் 175
▁சாய் 175
▁சிம் 175
▁சேர்த்துக் 175
▁ஜனாதிபதியின் 175
▁தமிழர் 175
▁தினமும் 175
▁நாயகன் 175
▁பப் 175
▁பெல 175
▁மை 175
▁வசூல 175
▁வடிவமை 175
▁விழிப்பு 175
▁வேட்பாளர்கள் 175
▁வைத்தது 175
LTTE 174
க்கட்ட 174
டுகின்றன 174
ணா 174
நாளை 174
ப்படைகள் 174
ர்களோ 174
ர்தல் 174
ற்கான 174
வளம் 174
ஸ்பெ 174
ோபா 174
▁அமைப்புகளை 174
▁இப்படத்தின் 174
▁இஸ்லா 174
▁கட்டுமானம் 174
▁கண்டறியும் 174
▁குறிக்கோள 174
▁குறியீடு 174
▁சிவப்பு 174
▁செய்துள்ளார் 174
▁துணி 174
▁பக்கத்தில் 174
▁பெருமளவிலான 174
▁போராடும் 174
▁மக்களையும் 174
▁மற்றம் 174
▁மிகச்சிறந்த 174
▁முற்றுப்புள்ளி 174
▁வடிவ 174
ter 173
டுவதற்காக 173
திகார 173
ப்போவதாக 173
மணி 173
மிட்ட 173
ிரியான 173
ுவருக 173
ைகளே 173
▁அவர்களுடன் 173
▁ஆலைகள் 173
▁இன்றும் 173
▁இருக்கின்ற 173
▁ஈடுபடும் 173
▁எடுத்துக்கொண்டு 173
▁கிடைக்கவில்லை 173
▁சின் 173
▁செய்கிறார் 173
▁சோசலிசக் 173
▁தனுஷ் 173
▁திடீரென 173
▁தொடர்பில் 173
▁நாலு 173
▁நிதித் 173
▁பங்காற்ற 173
▁பதக்கம் 173
▁பிரச்சனைகளை 173
▁புதுச்சேரி 173
▁மன்றம் 173
▁மழ 173
▁யோர்க் 173
▁விரு 173
▁வெளியிடப்பட்டது 173
▁வேலையை 173
க்கொண்டு 172
டான் 172
த்தன் 172
ந்துகொள் 172
ப்பகுதிகளில் 172
லிசம் 172
வையாகும் 172
ஸ்தானில் 172
ாகம் 172
ிற்குக் 172
“ 172
▁அமர்ந்த 172
▁அமைப்பாக 172
▁அற்புத 172
▁இராணுவத்தினர் 172
▁எண்ணிக்கையிலான 172
▁கற்பன 172
▁கலாசார 172
▁சந்தேகம் 172
▁செய்துகொண்ட 172
▁தோழ 172
▁நிர்வக 172
▁பரிசோதனைகள் 172
▁பாகிஸ்தான 172
▁பிரிவுகளை 172
▁பெற்றான் 172
▁போதை 172
▁முறையிலான 172
77 171
க்கீ 171
த்துத் 171
பிட 171
ப்டர் 171
ப்பாய் 171
ர்ச்ச 171
லானது 171
வதற்க 171
ஷ்ய 171
ாரே 171
ித்திர 171
ிலிய 171
ுதா 171
▁அணுகுமுறையை 171
▁ஆதாரங்களை 171
▁ஆய்வகங்கள் 171
▁இணைத்து 171
▁இரயில்வே 171
▁இற்கு 171
▁உய 171
▁உலகத்தில் 171
▁உலகெங்கும் 171
▁எழுதப்பட்ட 171
▁கட்டப்பட்ட 171
▁கோபம் 171
▁தீவுகள் 171
▁துய 171
▁தைரிய 171
▁நல்லது 171
▁நிக 171
▁நியமனம் 171
▁நேரத்தை 171
▁பட்டியல 171
▁பின்வாங்க 171
▁மதிப்பை 171
▁முன்க 171
▁வேடத்தில் 171
man 170
ung 170
சாரா 170
திக 170
நிலைய 170
ப்படுத்தியது 170
மிக 170
வதும் 170
ினரை 170
ுக்குரிய 170
ேயே 170
▁அற்புதமான 170
▁ஆரோக்கியம் 170
▁இருப்பவர்கள் 170
▁எஜ 170
▁ஒன்றுதான் 170
▁கம 170
▁கூறியுள்ளனர் 170
▁கொள்வதற்கான 170
▁கோல் 170
▁சிலை 170
▁தகுத 170
▁தகுந்த 170
▁தடுப்பதற்கு 170
▁தரவு 170
▁திருத்தங்கள் 170
▁தீய 170
▁துரத்த 170
▁மண்ண 170
▁முற்றிலுமாக 170
▁வரையிலும் 170
▁வளர்க்க 170
▁வளர்ச்சிக்கும் 170
EN 169
GB 169
ate 169
சர்வதேச 169
ப்பட்டவர்கள் 169
மாட்டார்கள் 169
மைப்பு 169
ைத்தவிர 169
▁அவனைப் 169
▁எண்ணிக்க 169
▁கட்டமைக்க 169
▁கரீ 169
▁காட்ச 169
▁கூட்டங்கள் 169
▁கூட்டணியை 169
▁கைகளில் 169
▁சுனாமி 169
▁தீர்வுகள் 169
▁தோட்டத் 169
▁பயன்களை 169
▁பயன்படுத்துதல் 169
▁பாதித்த 169
▁பார்வையை 169
▁பெற்றவர்கள் 169
▁மாதிரியான 169
▁வாடிக்கையாள 169
▁விவக 169
71 168
ou 168
கடந்த 168
செய்யப்பட்ட 168
டாக 168
றுக்க 168
ியர்கள் 168
ுடா 168
”, 168
▁அவர்களுக்குப் 168
▁ஆயுர்வேத 168
▁இப்பகுதியில் 168
▁இருக்கவில்லை 168
▁இறக்க 168
▁இறங்கிய 168
▁ஏக்கர் 168
▁கட்டட 168
▁கட்டம் 168
▁கலந்துகொண்ட 168
▁கேந்திர 168
▁சதுர 168
▁சற்றே 168
▁டிரை 168
▁தனித்த 168
▁தலைசிறந்த 168
▁தேவர 168
▁நிறுவப்பட்ட 168
▁பூர் 168
▁போர்க் 168
▁லக்னோ 168
▁லடாக் 168
▁வகிக்கிறது 168
▁வாலி 168
▁வில்ல 168
▁வெளியேறும் 168
▁வேலைக்கு 168
ize 167
சித்து 167
திகளின் 167
படுத்தும் 167
ரிக்கை 167
ழிவு 167
ாண்டுகளில் 167
ிக்கும்போது 167
ிரிய 167
▁அரசுத் 167
▁அவரைப் 167
▁உருவாகி 167
▁உலகச் 167
▁ஐநா 167
▁குடிநீ 167
▁சந்ததிய 167
▁செயற்கைக் 167
▁செயல்பாட்டில் 167
▁செயல்முறை 167
▁செள 167
▁துருவ 167
▁நிறைவேற 167
▁படைகளுக்கு 167
▁பத்தாண்ட 167
▁பாச 167
▁பாதைகள் 167
▁பிரிட்டனில் 167
▁பிறகும் 167
▁போட்டியிடும் 167
▁மாதங்களாக 167
▁மீறிய 167
▁யாத 167
▁லண்டனில் 167
▁வரலாற்றை 167
ங்களாகும் 166
சமான 166
ப்பைக் 166
மிதா 166
முறையை 166
ரவு 166
லையை 166
வசம் 166
வாமல் 166
ொள்கை 166
▁அந்தஸ்து 166
▁இராணுவத்தில் 166
▁இழக்க 166
▁எண்ணம் 166
▁காணப்பட்டது 166
▁கிற 166
▁கிளை 166
▁கூட்டுப் 166
▁சங்கங்கள் 166
▁சரக்குகள் 166
▁சாம 166
▁செயல்திறன் 166
▁ஜல 166
▁நிகழ்த்திய 166
▁நிறுவனமும் 166
▁நிலையத்தின் 166
▁நோக்கு 166
▁பணியிட 166
▁பலமுறை 166
▁பெறுகிறது 166
▁மாநாட்டு 166
▁மாற்றுவதற்கு 166
▁மூடப்பட்ட 166
▁லூ 166
▁ஸ்ரீகாந்த் 166
)- 165
டியே 165
ட்சியம் 165
த்தக்கது 165
ப்பவர்கள் 165
மாஸ் 165
லாகும் 165
ீட 165
ுள்ளார்கள் 165
ுவிடு 165
ேட் 165
▁அம்சம் 165
▁அழகு 165
▁ஆலோசனைக் 165
▁இயக்கத்திற்கு 165
▁உறுப்பினர்களும் 165
▁எடுத்துக்கொண்ட 165
▁கட்டுப்பா 165
▁கண்டறிந்து 165
▁கருணை 165
▁குரலில் 165
▁குழந்த 165
▁கொண்டாடு 165
▁சந்தையை 165
▁சமாதானம் 165
▁ஜா 165
▁ஜுன் 165
▁தாய்லாந்து 165
▁திரும 165
▁தொலைக்காட்ச 165
▁நிற 165
▁படேல் 165
▁பெயர்ந்த 165
▁மாட்டார்கள் 165
▁முன்னைய 165
▁மேய 165
▁வாழ்க 165
▁விஜ 165
▁விண்ணில் 165
▁ஹி 165
▁• 165
.- 164
.” 164
க்கத்தில் 164
புத்திர 164
ப்போவதில்லை 164
மாக்கப்பட்ட 164
லாய 164
▁அப்போ 164
▁அரசுக்கும் 164
▁அவரும் 164
▁ஆட்சே 164
▁இத் 164
▁இயக்குந 164
▁இவ் 164
▁ஒருவன 164
▁சிந்தனைகள் 164
▁செயல்களை 164
▁தூக்க 164
▁தெருக்களில் 164
▁பகிர்வு 164
▁பலன்களை 164
▁பிரதிபலிக்கும் 164
▁பீட்டர் 164
▁புத்து 164
▁மறுத்து 164
▁மேற்கொண்டது 164
▁ரமேஷ் 164
▁லாபம் 164
▁வருடங்களாக 164
▁வளர்ச்சிக்காக 164
▁விட்டார் 164
▁வைக்கப்பட்டது 164
ஐடி 163
தொடர் 163
ப்படுதல் 163
மற 163
ராது 163
வாலை 163
வாழ் 163
விலான 163
ாரா 163
ியாவின் 163
ுக்களும் 163
்கோ 163
▁+ 163
▁இடமாக 163
▁உந்துதல் 163
▁கருத்துத் 163
▁கரை 163
▁காமெ 163
▁காவல்துறை 163
▁குட்டி 163
▁கேள் 163
▁சிதற 163
▁சூர்ய 163
▁செம்ம 163
▁துடிப்பு 163
▁துவங்க 163
▁தொடர்பாகவும் 163
▁நிர்வாகிகள் 163
▁நிலவிய 163
▁பதப்படுத்தும் 163
▁பாழ 163
▁பிரிக்க 163
▁புள்ளிவிவர 163
▁பெரும்பான்மையான 163
▁வழங்குவதில் 163
▁வழியே 163
▁வாசக 163
76 162
ங்கால 162
தாலும் 162
ன்களில் 162
புர 162
ப்படுத்தினார் 162
ம்கூட 162
ாடுகள 162
ாண்டில் 162
ாதது 162
ாரையும் 162
ிருக்கக் 162
ிருக்கிறான் 162
ீச 162
▁அந்தஸ்த 162
▁அவர்களுக்குக் 162
▁ஆற்றலை 162
▁ஒருவரான 162
▁கற்க 162
▁காசி 162
▁காஷ்மீ 162
▁கூறவில்லை 162
▁கையை 162
▁கொள்ளுதல் 162
▁சிங்கா 162
▁ஜனவரியில் 162
▁தந்து 162
▁தளமாக 162
▁தியேட்ட 162
▁பின 162
▁பொருட்கள 162
▁போகிறது 162
▁மாதிரிகள் 162
▁முகா 162
▁மெகா 162
▁வகுத்த 162
▁விமானத் 162
sw 161
க்கத்தின் 161
சட்ட 161
சேன் 161
த்துக்கள் 161
னிச 161
பவர்கள 161
பவர்களின் 161
மிரு 161
லாக்க 161
வர்ட் 161
ாட்சியில் 161
ுதலில் 161
▁அடையாளமாக 161
▁அறியாத 161
▁இயன்ற 161
▁இருப்பதற்கு 161
▁என்பதைத் 161
▁கருணா 161
▁குற்றங்களை 161
▁கொண்டா 161
▁சஞ்சய் 161
▁சம்பந்தமான 161
▁செய்கின்றன 161
▁டீ 161
▁தந்துள்ள 161
▁தவறிய 161
▁நெற 161
▁பகுப்பாய்வு 161
▁படங்களுக்கு 161
▁பதிலளிக்க 161
▁பயன்பாட்டை 161
▁போர்ட் 161
▁மக்களுடன் 161
▁மருந்துகளை 161
▁வெட்டி 161
ork 160
ref 160
கூட 160
க்ஷ 160
சின 160
டிகளை 160
ப்படும்போது 160
மில்லா 160
ல்லி 160
ஷே 160
ாதா 160
ிப்பார் 160
ிருப்பார் 160
ிவந்த 160
ையாகக் 160
ோத 160
▁d 160
▁அங்கிருந்து 160
▁அதிலும் 160
▁அமர்வ 160
▁அமீர் 160
▁ஆராய்ந்து 160
▁இன்னுமொரு 160
▁எப் 160
▁ஏற்பாடுகளை 160
▁ஒளிபரப்பு 160
▁ஒழுங்குபடுத்த 160
▁கல்யாண் 160
▁கழிவுநீர் 160
▁தன்னார்வ 160
▁தாய்மா 160
▁நட்ப 160
▁நான 160
▁பங்குச் 160
▁போட்டியை 160
▁மாற்றுவது 160
▁முகமது 160
▁முடுக்க 160
▁முதலாம் 160
▁மேற்கோ 160
ட்களை 159
நூறு 159
னிடம் 159
ப்பினால் 159
ரள 159
ர்கோ 159
ழும் 159
வக 159
ாக்கள் 159
ில்லா 159
ுவான் 159
ூன் 159
ையம் 159
▁அடக்குமுறை 159
▁அண்மைய 159
▁அனுமதிக்கப்பட்ட 159
▁ஆளுமை 159
▁இடங்களுக்கு 159
▁இந் 159
▁கலாச்சாரத்தை 159
▁குறுக்க 159
▁கேள்விகள் 159
▁கொடுப்பது 159
▁சுதந்திரக் 159
▁சுவாச 159
▁தவறிவ 159
▁நானே 159
▁நிலையத்தை 159
▁நீதிமன்றத்தின் 159
▁நேரு 159
▁பங்கினை 159
▁படையெடுப்பு 159
▁போன்றவற்றில் 159
▁போராட்டங்கள் 159
▁மரப 159
▁மாகாணத்தில் 159
▁யாழ்ப்பாண 159
▁விசாரணையில் 159
▁விபத்து 159
ang 158
மத்திய 158
மையுள்ள 158
ரியை 158
ற்பு 158
லர்கள் 158
ஷியா 158
ாலத்தில் 158
ிறான் 158
▁in 158
▁அசீ 158
▁அடுக்க 158
▁அரிய 158
▁அரேபியா 158
▁ஆதரவைப் 158
▁ஆனது 158
▁உயர்நிலை 158
▁ஒளிப்பதிவு 158
▁குடும்பத்தினர் 158
▁கூட்டமைப்ப 158
▁சகாப்த 158
▁சர்மா 158
▁தலைப்பு 158
▁தவிர் 158
▁தவிர்த்த 158
▁தாக்கும் 158
▁தேக்க 158
▁தேட 158
▁தொடங்குகிறது 158
▁பரிமாண 158
▁பர் 158
▁பிரிவுகளின் 158
▁மதிப்பீட்டில் 158
▁மதிப்பீட்டு 158
▁மறைத்து 158
▁மாற்றியமைக்க 158
▁முழக்க 158
▁ராக 158
▁ராணுவம் 158
▁வடிவமைப்ப 158
▁’ 158
:- 157
az 157
ep 157
த்தொட 157
யான் 157
ரியம் 157
வாடி 157
ஷ்டம் 157
ிகளுக்குப் 157
ீல் 157
ெடுக்கப்பட்ட 157
▁ஆராய் 157
▁இதேபோன்ற 157
▁உற்ச 157
▁ஒருபுறம் 157
▁கடத்தல் 157
▁கண்காணிக்க 157
▁கண்டறிவ 157
▁காலனி 157
▁கைக 157
▁கைக்க 157
▁சிறுபான்மைய 157
▁திகழ் 157
▁தீர்வுகளை 157
▁தெரிவிக்கின்றன 157
▁நட்புறவு 157
▁நண்பர் 157
▁நிரம்பிய 157
▁நீர்த்தேக்க 157
▁பகுதியான 157
▁பிரதமராக 157
▁புவியியல் 157
▁மதுரை 157
▁முன்வ 157
▁முன்வந்து 157
▁மூங்கில் 157
▁மொழியில் 157
▁வரிசை 157
▁விஜயகாந்த் 157
87 156
com 156
ee 156
ஜூ 156
டுகையில் 156
ண்டன் 156
தொழில 156
ன்னா 156
ன்றும் 156
முடைய 156
லங்கள் 156
லாந்து 156
ல்லை 156
ள்க 156
ிக்ஸ் 156
▁அதிகாரபூர்வமான 156
▁அனுமதிய 156
▁அமைந்து 156
▁அலி 156
▁அழக 156
▁அவரால் 156
▁இணங்க 156
▁இரத்து 156
▁உயர்ந்தது 156
▁எழுதியுள்ளார் 156
▁ஒன்றான 156
▁ஒருவருக்கு 156
▁ஒழுக்க 156
▁கைபேசி 156
▁சிறிதும் 156
▁சென்றனர் 156
▁திருச்சி 156
▁திரைக்கதை 156
▁நாடக 156
▁பத்திரிகையில் 156
▁பாதுகாத்து 156
▁பிரித்த 156
▁பேட்ட 156
▁மற்றவர்கள் 156
▁ரைஸ் 156
▁லங்கா 156
▁வடக்கில் 156
▁வல்லமை 156
▁விளையாட்டுத் 156
& 155
83 155
ணவ 155
ந்தோ 155
ப்பிரதேச 155
லெ 155
ாதான் 155
ிக்கப்பட்டார் 155
ினரும் 155
ிற்குரிய 155
ெங்கிலும் 155
ொள் 155
▁அலுவலர் 155
▁ஆகியோருடன் 155
▁ஆதி 155
▁இணையாக 155
▁இவர்களுக்கு 155
▁உந்து 155
▁உபயோக 155
▁எண்ணற்ற 155
▁கடிதத்தில் 155
▁காரியம் 155
▁குப்ப 155
▁குரோ 155
▁குற்றம்சாட்ட 155
▁சாதனைகளை 155
▁செயல்பாடுகளில் 155
▁சேகரி 155
▁தத்த 155
▁தளவாட 155
▁திருவிழா 155
▁நஷ்ட 155
▁நிலவுகிறது 155
▁பலமான 155
▁பின்தொட 155
▁பெருகி 155
▁மாதத்திற்கு 155
▁மிகப்பெ 155
▁மீன்வள 155
▁வழங்கவும் 155
▁வாழ்வின் 155
1996 154
81 154
கரு 154
ங்களிடம் 154
ந்தான் 154
ராய் 154
ர்களைத் 154
ல்களைத் 154
வண 154
ிகளோடு 154
ீன் 154
”. 154
▁அட்டைகள் 154
▁அதிகாரங்களை 154
▁அமெரிக்கர்கள் 154
▁அமைகிறது 154
▁அவ்வளவு 154
▁இந்தியாவிலும் 154
▁இருப்பார்கள் 154
▁உடல்நல 154
▁உணவுத் 154
▁உதாரணம் 154
▁கருதிய 154
▁கவு 154
▁சுருக்க 154
▁செய்யப்பட்டனர் 154
▁செல்வதற்கான 154
▁தவிர்த்து 154
▁தொடக்கம் 154
▁தொடங்கினார் 154
▁நிர்மாண 154
▁நிற்கிறது 154
▁பாட்ட 154
▁முன்னதாகவே 154
▁வளர்ந்துவரும் 154
PSG 153
ணத்தில் 153
திருத்த 153
நீதி 153
னப் 153
ப்படுவதாகவும் 153
மியோபதி 153
ரியல் 153
ரியும் 153
வர்களால் 153
வாசி 153
ிடமும் 153
▁அடித்தளமாக 153
▁அனுப்பும் 153
▁அரசுத்த 153
▁அளிக்கப்பட 153
▁ஆபத்தை 153
▁ஆய்வில் 153
▁இடைவெளியை 153
▁இப்படம் 153
▁எனப் 153
▁காட்சியை 153
▁குறைக்கவும் 153
▁செயற்கைக்கோ 153
▁செவ்வாய் 153
▁தட்டு 153
▁தருவதாக 153
▁நியம 153
▁நெறிமுற 153
▁நேதாஜி 153
▁படிப்ப 153
▁பண்ட 153
▁பண்டிகை 153
▁பிரபலமான 153
▁புள்ளிகள் 153
▁மக்களால் 153
▁மண்டலம் 153
▁முறைப்படி 153
▁வேண்டுமெ 153
78 152
Q 152
ant 152
கிர 152
டுவதன் 152
ட்டோ 152
ண்டின் 152
போன் 152
ப்பதாகவும் 152
ப்போன 152
மாநில 152
வற்ற 152
வாகும் 152
ஹூ 152
ாதிபத 152
ெடுப்பு 152
▁அமைக்கப்பட 152
▁அமைச்சராக 152
▁அமைப்புகளுக்கு 152
▁அமைப்புகளும் 152
▁ஆட 152
▁இடைவெளிய 152
▁இருப்பதாகக் 152
▁ஏறி 152
▁ஏற்படுகிறது 152
▁கண்கள் 152
▁கருது 152
▁கறுப்பு 152
▁கெடு 152
▁கைச்சாத்த 152
▁சக்கர 152
▁சாட்சி 152
▁சீரிய 152
▁செய்யத் 152
▁சொத்துக்க 152
▁தாக்கி 152
▁திகழும் 152
▁நியாயம் 152
▁நிர்ப்ப 152
▁படுக்கைகள் 152
▁பணிபுரியும் 152
▁பயன்ப 152
▁பாரா 152
▁பெற்றிருந்த 152
▁பொருட்படுத்த 152
▁மதிப்பீ 152
▁மலிவான 152
▁முட்ட 152
▁வருடங்களுக்கு 152
▁வழக்கை 152
▁வினியோக 152
▁வெடிப்ப 152
▁வெளியீட்டு 152
PS 151
tr 151
uv 151
ண்ப 151
தனி 151
நாளில் 151
பணி 151
ரைய 151
லாவ 151
வித்த 151
ிலி 151
▁அகமதாபாத் 151
▁அகல 151
▁அட்டவணை 151
▁அம் 151
▁அறியும் 151
▁அறு 151
▁அவச 151
▁ஆய்வக 151
▁ஆர்வத்துடன் 151
▁ஆவணங்கள் 151
▁இராணுவக் 151
▁எரே 151
▁ஏற்படுத்துதல் 151
▁ஒன்றிணை 151
▁கஜ 151
▁கட்டமாக 151
▁கண்காணித்து 151
▁கைத 151
▁சமூகத்தை 151
▁சான்று 151
▁திருந 151
▁தீபாவளி 151
▁நகரின் 151
▁நலத்திட்ட 151
▁நாட்டிலுள்ள 151
▁நிறுத்திய 151
▁பங்கேற்றார் 151
▁பாக்தாத் 151
▁பாலம் 151
▁புரு 151
▁போராட்டத்திற்கு 151
▁மதம் 151
▁மனிதர் 151
▁மரபு 151
▁முன்னெடுத்து 151
▁மொரீ 151
▁வயதில் 151
99 150
our 150
காவ 150
ச்சே 150
ஞ்சி 150
ண்டை 150
தற்க 150
பிக்க 150
ப்பாட்டு 150
ப்பெற 150
ராமல் 150
ளைத் 150
விச 150
ாராக 150
ீட்டின் 150
▁அன்ற 150
▁அப்படிப்பட்ட 150
▁இக்கூ 150
▁இசைய 150
▁இந்தோனேசிய 150
▁இயங்கி 150
▁உதய 150
▁காணப்படுகிறது 150
▁கார்த்த 150
▁குள 150
▁கொண்டிருந்தனர் 150
▁கோதுமை 150
▁சேது 150
▁ஜீவ 150
▁டொல 150
▁தங்கி 150
▁திட்டமும் 150
▁தினத்தன்று 150
▁திருப்பு 150
▁திறனாள 150
▁தொழிலை 150
▁நேர்மையான 150
▁பழுது 150
▁பிடிக்கும் 150
▁புலனா 150
▁பொதுமக்களுக்கு 150
▁போட்டியி 150
▁போனது 150
▁மதிப்பில் 150
▁முயல்க 150
▁வலுவாக 150
▁வாக்காளர் 150
▁வார்த்தைகளில் 150
▁வெளியீடு 150
195 149
86 149
articles 149
è 149
தெ 149
த்துக்குக் 149
நாட்டை 149
பாக் 149
ப்படுவார் 149
ப்பதையும் 149
மாக்கி 149
மானவை 149
ரிலிருந்து 149
றியது 149
விடாமல் 149
ியூ 149
ெழ 149
▁அதிகரித்துக் 149
▁அமைக்கப்பட்டு 149
▁அமைப்புகளில் 149
▁அம்ப 149
▁ஆப்கானிய 149
▁இப்படிச் 149
▁இயக்கி 149
▁இல்லைய 149
▁எடை 149
▁எதிர்பார்ப்பு 149
▁கண்டறிதல் 149
▁குடும்பத்தின் 149
▁கொண்டதாகும் 149
▁கொண்டவர்கள் 149
▁கொள்கிறது 149
▁சகோதரர் 149
▁செயலாக்க 149
▁திரண்ட 149
▁நம்பக 149
▁நாற்பது 149
▁பெட்ரோ 149
▁பெறப்படும் 149
▁மனிதன் 149
▁முறையிலும் 149
▁முற்போக்கான 149
▁யூனிய 149
▁ரொக்க 149
▁லட்சத்து 149
▁வர்த்தகத்தை 149
▁விகிதத்தில் 149
▁ஸ்ட்ரீட் 149
-0 148
eb 148
ort 148
ternational 148
ஆய 148
சுக 148
ச்சார 148
ரவை 148
ர்ஸ் 148
லத்தில் 148
லின 148
வதால் 148
வல 148
வீன 148
ஸ்க் 148
ாட்டம் 148
ாளர்களாக 148
ிவிட்டனர் 148
ூட்டி 148
▁அதிகப்படுத்த 148
▁அமைக்கப்பட்டது 148
▁அமைதிய 148
▁அமைப்பும் 148
▁இந்தியாவுடன் 148
▁இப்படத்தில் 148
▁இறங்கி 148
▁கடற்கரை 148
▁கண்களுக்கு 148
▁கண்ணிய 148
▁கலா 148
▁கொடி 148
▁சிறப்ப 148
▁சுத்தமான 148
▁ஜவ 148
▁டூ 148
▁தரப்பில் 148
▁துவ 148
▁நடிகைகள் 148
▁நடுவர் 148
▁நாயகி 148
▁நினைவுச் 148
▁நெறிமுறைகள் 148
▁படுக்க 148
▁பெறுவதற்காக 148
▁மஹ 148
▁வயத 148
▁வற்புறுத்த 148
▁வழிக 148
▁வாழ்வு 148
▁விதிக்க 148
▁விவாக 148
est 147
க்கலை 147
க்தி 147
சுவா 147
டியா 147
ண்மை 147
த்துடனான 147
ந்துள்ளார் 147
ப்பிரிவு 147
மின்மை 147
ரிங் 147
ர்த்து 147
ளைய 147
வதில்லை 147
ித்துக்கொண்ட 147
ினோ 147
ுகளைச் 147
ுக்காகப் 147
ுவோ 147
▁ஆவணம் 147
▁இக 147
▁இடைவிட 147
▁இந்தியில் 147
▁உயரிய 147
▁உஸ்பெ 147
▁எழுதியது 147
▁ஒன்றரை 147
▁கட்டிடம் 147
▁கமிஷன் 147
▁கார்பன் 147
▁கிளி 147
▁குறைத்தல் 147
▁கூறுகின்றன 147
▁சஞ்ச 147
▁சிக்கிம் 147
▁சுதந்திரமாக 147
▁டோனி 147
▁தணிக்க 147
▁தமிழர்கள் 147
▁தர்க்க 147
▁தளங்கள் 147
▁தொடர்கிறது 147
▁நாடான 147
▁நினைத்து 147
▁பச 147
▁பயந்து 147
▁பேசுவ 147
▁பொருட்களுக்கு 147
▁மறுநாள் 147
▁மாவோயி 147
▁முரண்பாடுகள் 147
▁யாவ 147
▁வறுமையில் 147
▁வலியுறு 147
▁வாய்ந்தது 147
▁விடை 147
சுதந்திர 146
பூர்வ 146
மைத்த 146
யர் 146
ரையில் 146
றிக்க 146
ற்காக 146
ளவும் 146
ாலின் 146
ாவ் 146
ுதி 146
ுவருகிறது 146
ொழுத 146
்களைப் 146
▁அடைந்துள்ளது 146
▁அரசியலமைப்புச் 146
▁அற்ப 146
▁இரகசியமாக 146
▁எடுக்கப்பட்டு 146
▁என்பதன் 146
▁எல்லாப் 146
▁ஐந்தாண்ட 146
▁கடலோரப் 146
▁கட்டுப்பாடுகளை 146
▁கணக்கெடுப்பு 146
▁கண்டுள்ளது 146
▁கழுத 146
▁கார்ட 146
▁காவல்ப 146
▁கெளரவ 146
▁கேட் 146
▁கொண்டாடி 146
▁திருத்தப்பட்ட 146
▁நடத்துகிறது 146
▁நிலைகளில் 146
▁பள்ளிக் 146
▁பாலின 146
▁பெறுதல் 146
▁போஸ் 146
▁மதிக்க 146
▁மாண்ட 146
▁முடிந்ததும் 146
▁முடிவாக 146
▁மென்பொருள் 146
▁வெளிப்பாடு 146
NPA 145
ne 145
ost 145
ச்செ 145
மளித்த 145
ராக்க 145
வனாக 145
வேலர் 145
ாக்களை 145
ிக்கின்றது 145
ிரே 145
ுகை 145
ைகளுக்குப் 145
ொன்று 145
▁---- 145
▁அதிகளவில் 145
▁அந 145
▁அனைத்துமே 145
▁ஆதரிக்கும் 145
▁ஆய்வாளர்கள் 145
▁இழிவு 145
▁உடன்படிக்கையின் 145
▁கடனை 145
▁காரணமாகும் 145
▁கிர்க 145
▁கூறப்பட்டுள்ளது 145
▁கொண்டிருப்பதாக 145
▁கொண்டும் 145
▁கொள்ளவேண்டும் 145
▁சீரமைப்பு 145
▁செயலக 145
▁செலுத்தப்படும் 145
▁தொழிலாளி 145
▁நாட்டிலும் 145
▁நிதிக்க 145
▁புலம் 145
▁மனா 145
▁மார்க் 145
▁மியான் 145
▁மிஸ் 145
▁மீத 145
▁முன்னேற்றங்கள் 145
▁யும் 145
▁வழங்கப்பட்டன 145
▁வெள்ளி 145
1947 144
UPA 144
har 144
ity 144
டின 144
ண்க 144
ந்துக 144
ப்த 144
ப்பட்டபோது 144
ப்பாட்டில் 144
ப்புற 144
மாற 144
ஸார் 144
்களுக்கும் 144
▁அடித்தளத்தை 144
▁அணிவகுப்பு 144
▁அதிகாரபூர்வ 144
▁அமைந்துள்ளன 144
▁இரண்டாவதாக 144
▁ஒன்றின் 144
▁ஒன்றுபட்ட 144
▁கையாண்ட 144
▁கொய 144
▁சம்மேள 144
▁சித்திர 144
▁சோதனைகள் 144
▁தகர்க்க 144
▁தரப்பினரும் 144
▁தினத்தில் 144
▁தீட்ட 144
▁நல்வாழ் 144
▁நாட்களுக்குள் 144
▁பலக 144
▁பிரதேசத்தின் 144
▁பிரி 144
▁பிள்ளைகள் 144
▁புறம் 144
▁பேருந்து 144
▁மற்றைய 144
▁மித 144
▁வகிக்க 144
▁வழக்கமாக 144
▁வழங்கப்பட்டு 144
▁விக 144
84 143
96 143
இரு 143
உத 143
கிழக்கு 143
டித்து 143
தாக்க 143
தைவிட 143
நக 143
பார்க்க 143
முறையும் 143
ர்ப்பு 143
வட 143
ஷ்டவச 143
ாயிரம் 143
ினல் 143
ீட்டில் 143
ுதலும் 143
ெய் 143
▁அதிர் 143
▁அபிவிரு 143
▁அறிக்கையின்படி 143
▁இயேசுவ 143
▁எளிமையான 143
▁ஓராண்டு 143
▁கடைப்பிட 143
▁கண்டேன் 143
▁காப்ப 143
▁சான் 143
▁திட்டங்களும் 143
▁தேடுதல் 143
▁நகரமான 143
▁நிறுவனங்கள 143
▁பகவான் 143
▁படமாக்க 143
▁பயனுள்ளதாக 143
▁பஸ் 143
▁புரட்சியை 143
▁மின்னஞ்சல் 143
▁ராய் 143
▁ரை 143
▁வந்தாலும் 143
னெ 142
பவர்களை 142
போம் 142
ப்படக் 142
ப்பெற்ற 142
லாளர்கள் 142
ளோ 142
ழ்ச்ச 142
வனோ 142
ஸும் 142
ாமல 142
ாவிலுள்ள 142
ித்தும் 142
ுதல 142
ுவே 142
▁அதற்கும் 142
▁அதிகரிக்கச் 142
▁அவரைக் 142
▁அவள 142
▁ஆகியவற்றைப் 142
▁ஊக்குவித்து 142
▁கிரிம 142
▁குறிக்கிறது 142
▁கூடியது 142
▁சரிந்து 142
▁செய்தன 142
▁தருவது 142
▁தாங்கிய 142
▁தென்னிந்திய 142
▁தேவாலய 142
▁தொடங்கின 142
▁நம்பகத்தன்மை 142
▁புனே 142
▁மனிதநேய 142
▁முற்ற 142
▁மெல்லிய 142
▁லெபனான் 142
▁விவரிக்க 142
▁வெள்ளிக்கிழமை 142
''. 141
க்குகள் 141
த்திற்குச் 141
ன்ட 141
ன்னை 141
போதே 141
மயமாக்கப்பட்ட 141
ர்க்கும் 141
வூ 141
்கர் 141
▁அபு 141
▁அஸ் 141
▁ஆதரித்து 141
▁இடைவெள 141
▁இருப்பார் 141
▁உழைக்க 141
▁ஒன்றிற்கு 141
▁கடினமாக 141
▁கைகளை 141
▁கொண்டிருந்தன 141
▁கொள்ளப்பட்டது 141
▁சவாலாக 141
▁செலவுகள் 141
▁தீவில் 141
▁நுழைந்த 141
▁நூற்ற 141
▁நேரத்திற்கு 141
▁படைப்பிரிவ 141
▁பத்திரிகையின் 141
▁பாசா 141
▁பாதுகாக்கவும் 141
▁பார்வையில் 141
▁மாற்றாக 141
▁மைக்கேல் 141
▁வாரியத்தின் 141
▁விச 141
▁வீட்டை 141
▁ஷங்கர் 141
அவர்கள் 140
சாட் 140
ஜித் 140
ணிப்பு 140
ன்புரி 140
ழிந்து 140
வினை 140
ாகியுள்ளது 140
ித்தார்கள் 140
ுகிறான் 140
ுவர் 140
்ச்ச 140
▁அதிகாரியாக 140
▁அனுமதிக்கும் 140
▁இதுவரையில் 140
▁இந்நாள் 140
▁இருக்கும்போது 140
▁இவர்கள 140
▁உதவிக்கு 140
▁ஊற்ற 140
▁எஃப் 140
▁ஏழ் 140
▁ஐரோப்பாவின் 140
▁ஒருநாள் 140
▁ஒற்றை 140
▁ஒலிம்பிக் 140
▁கட்டுரைகள் 140
▁கலந்தாலோ 140
▁குறிப்பிட்டனர் 140
▁சிறப்புக் 140
▁செக் 140
▁சொன்னால் 140
▁திறமையை 140
▁தை 140
▁தொலைதூர 140
▁நெடுஞ்சால 140
▁படுக 140
▁பயன்பாட்டு 140
▁பயிற்சிகள் 140
▁புகா 140
▁புகை 140
▁பெட்டிகள் 140
▁வெற்றிக்கு 140
1994 139
ans 139
ry 139
und 139
என்ன 139
ச்சொ 139
ளித்து 139
ாண்டுகளுக்கு 139
ாவிட்டாலும் 139
ிகார 139
ிங் 139
▁அடித்தளம் 139
▁அடிப்படையிலும் 139
▁அழுத்தத்தை 139
▁ஆகியவற்றையும் 139
▁ஆகியோரை 139
▁இணையான 139
▁இதற்குப் 139
▁இயல்ப 139
▁ஈடுபடு 139
▁உதவியது 139
▁உறுதிப்பாடு 139
▁எல்லோரும் 139
▁ஓரளவு 139
▁கல்லூரிகள் 139
▁குணம் 139
▁குறிப்பிட்டுள்ள 139
▁குழுவிற்கு 139
▁கொள்வதற்காக 139
▁சார்ப 139
▁செய்தித்தாள் 139
▁தெரு 139
▁நிகழ்ச்சிக்கு 139
▁நிதிப் 139
▁நிறைவேற்றப்பட்ட 139
▁நிறைவேற்றி 139
▁நோக்கங்களை 139
▁பணியாளர்களின் 139
▁பதவியிலிருந்து 139
▁பரிசோ 139
▁பிரசு 139
▁பூஜ 139
▁பொறுப்பேற்ற 139
▁முயல 139
▁மேடையில் 139
▁ரவ 139
▁வங்கம் 139
▁வண்ண 139
▁வனம் 139
▁வர்த்தகத்தில் 139
▁வழங்குவதை 139
▁விரோ 139
▁வீர் 139
ram 138
ust 138
க்குழுவின் 138
த்தக்கதாக 138
நித 138
னிலும் 138
னீ 138
மாற்றம் 138
ரித்தது 138
ரிலும் 138
ர்டி 138
ழிப் 138
வதுடன் 138
வுள்ளன 138
ாதார 138
ிக்குத் 138
ிவருக 138
ெற 138
▁அக்கால 138
▁அட் 138
▁அணிய 138
▁அதற்க 138
▁அதிருப்தி 138
▁அனுபவங்கள் 138
▁அறிவார்ந்த 138
▁அலங்கார 138
▁அல்லவா 138
▁இழை 138
▁உள்ளார்ந்த 138
▁எக்க 138
▁ஏற்றுமதிய 138
▁கட்டுமானத் 138
▁கலவர 138
▁குற்றச்ச 138
▁சத்யராஜ் 138
▁சமரசம் 138
▁சான்றுகள் 138
▁சுனாம 138
▁துறையிலும் 138
▁தொகுப்பை 138
▁தோன்றியது 138
▁தோன்றும் 138
▁நகரங்களிலும் 138
▁நடத்தப்பட்டு 138
▁நிலையங்களை 138
▁பண்ப 138
▁பயங்கரமான 138
▁பாடசாலை 138
▁பாலா 138
▁பெறுவதை 138
▁பெற்றிருக்க 138
▁மறுவாழ்வு 138
▁மாற்றத்திற்கான 138
▁முகாம்களில் 138
▁ராஜீவ் 138
▁ரீதியாகவும் 138
▁வகுப்பின 138
▁வித்தியாச 138
▁வீரர்களை 138
ain 137
io 137
டுதான் 137
டுப்பு 137
நேர 137
ப்பதற்க 137
ப்பதால் 137
ப்புறம் 137
ப்பூர்வ 137
மாயிற்று 137
ற்றார் 137
வில்லைய 137
வீர 137
ாட்ச 137
ுறிப்பு 137
ுல் 137
ையாய் 137
▁அச்சு 137
▁அனுபவத்தை 137
▁அறிவுரை 137
▁ஆசியாவின் 137
▁ஆண்டுகால 137
▁இணையவழி 137
▁இப்போதைய 137
▁இரட்ச 137
▁உன்னத 137
▁உறவின 137
▁ஊர் 137
▁எருசலேமின் 137
▁ஒப்பிடும்போது 137
▁கண்டுபிடித்த 137
▁கமா 137
▁கருதுகிறது 137
▁கழுவ 137
▁காரணத்தால் 137
▁கிழக்க 137
▁கைத்தறி 137
▁சிக 137
▁செய்தான் 137
▁செல்வத்தை 137
▁தற்கால 137
▁தாக்குதலின் 137
▁தாம 137
▁திட்டமிடல் 137
▁தீவுகளில் 137
▁துணைக் 137
▁நாய 137
▁நிபுணர் 137
▁நிறைவ 137
▁நெடு 137
▁படுகிறது 137
▁பணவீக்கம் 137
▁பாத்திரம் 137
▁பிரித்து 137
▁புத்தகம் 137
▁பெண்கள 137
▁பெறலாம் 137
▁மக்களே 137
▁மட 137
▁மரிய 137
▁மஹா 137
▁மில்லிய 137
▁வளத்தை 137
▁விசேஷ 137
▁விட்டுக்கொ 137
▁விருந்து 137
▁வெளிப்படுத்தி 137
GM 136
அந்த 136
கமும் 136
ண்டும் 136
த்ய 136
நோக்க 136
ந்தேதி 136
பூர்வமாக 136
மாம் 136
மால 136
லினில் 136
ாரணம் 136
ிடப்பட்டது 136
ெய்ய 136
▁அயல் 136
▁அவர்களைச் 136
▁இதனையடுத்து 136
▁இம் 136
▁உரையாடல் 136
▁உலகிற்கு 136
▁ஏற்பட்டால் 136
▁கட்டுர 136
▁குழாய 136
▁கேட்கும் 136
▁கொண்டார்கள் 136
▁சிறப்புத் 136
▁செலவுத் 136
▁செழு 136
▁டன்ன 136
▁தளபத 136
▁திறம்பட 136
▁தீர்த்து 136
▁தோற்றுவித்த 136
▁பகுதிகளின் 136
▁படிவ 136
▁பரிமாற 136
▁மறைந்து 136
▁முடியாதது 136
▁மேன 136
▁யாக்கோபு 136
▁லொ 136
▁விவசாயத் 136
▁வெளியிடப்படும் 136
69 135
tp 135
க்கர் 135
பரி 135
பிடித்த 135
ப்பதே 135
ாளரும் 135
ியாகக் 135
ுக்காட்ட 135
ுடையது 135
ெதிரான 135
▁அன்னை 135
▁அமைதியை 135
▁அரசியலை 135
▁அருங்காட்சியகம் 135
▁அறுவை 135
▁ஆக்கிர 135
▁ஆதாரமாக 135
▁இடர் 135
▁இணையதளத்தில் 135
▁இப்படத்தை 135
▁உருவெடுத்த 135
▁ஊக்குவிப்பு 135
▁எக்ஸ்பிரஸ் 135
▁ஓய்வ 135
▁காயமுற்ற 135
▁கிரி 135
▁சுதந்திரத்தை 135
▁தடையை 135
▁தாக்குதல்களில் 135
▁தானியங்கி 135
▁தென்ப 135
▁நாட்கள 135
▁நிறைவேற்றிய 135
▁பகுதியாகும் 135
▁பத்திரங்கள் 135
▁பாகமாக 135
▁போற்ற 135
▁முகத்தை 135
▁முதிய 135
▁முன்மாதிர 135
▁மேடை 135
▁மேய் 135
▁மொழிகள் 135
▁வடிவில் 135
▁வழிகாட்டி 135
▁வெற்றிபெற்ற 135
▁ஸ்டுடியோ 135
_ 134
au 134
டிப்பை 134
திவ 134
போர் 134
மிடத்தில் 134
ரியான 134
லாத் 134
ளித்தது 134
விகள் 134
விக்க 134
ாவள 134
ிதமான 134
ெரி 134
▁அதிர்ச்சி 134
▁அமைதியின் 134
▁அர்ஜ 134
▁அறிவித்து 134
▁அழித்து 134
▁அவனைத் 134
▁எகிப்திய 134
▁என்பவர்கள் 134
▁ஐந்த 134
▁கட்சியாக 134
▁கவர் 134
▁கொள்கைகளின் 134
▁கோயில் 134
▁செயற்பட்ட 134
▁தன்மையில் 134
▁துணிச்ச 134
▁படக 134
▁பரிந்துரைகளை 134
▁பரிந்துரைகள் 134
▁பாதுகாப்பது 134
▁பூர்வ 134
▁பெரும்பான்மைய 134
▁பெளத்த 134
▁மாச 134
▁மாண்ப 134
▁முன்னிலை 134
▁யூரியா 134
▁வகு 134
▁வனத்துறை 134
▁வருங்காலத்தில் 134
▁விட்டனர் 134
▁விழாவ 134
▁வீட்டுக்கு 134
ute 133
என்எஸ் 133
தாது 133
த்துவது 133
ப்பொ 133
லாகாது 133
வெங்க 133
ிகளாலும் 133
ையுள்ள 133
’, 133
▁அப்புற 133
▁இம்மாதம் 133
▁உணர்த்த 133
▁எட்டும் 133
▁எத 133
▁ஐயோ 133
▁கனரக 133
▁கன்சர் 133
▁கலந்துகொண்டு 133
▁கவிழ் 133
▁குடும்பத்தில் 133
▁குற்றச்சாட்டு 133
▁கொடுத்துள்ளார் 133
▁கொள்கிறார்கள் 133
▁கொள்ளைய 133
▁செயல்பாட்டை 133
▁சோதன 133
▁டாங்க 133
▁தருவ 133
▁துல்லியமாக 133
▁தெளிவாகத் 133
▁தொண்ட 133
▁நடத்து 133
▁நடன 133
▁நிலத்தில் 133
▁பங்களாதேஷ் 133
▁படிப்பு 133
▁பயணிகளுக்கு 133
▁பயன்படுத்தப்பட 133
▁பிய 133
▁போட்டியிட 133
▁மசூ 133
▁முன்வைத்த 133
▁வலைத்தள 133
இரா 132
கர 132
ஞ்ச் 132
ன்களைக் 132
முறைகள் 132
முற்ற 132
ளன 132
ையிடம் 132
▁அதனுடைய 132
▁அமைதியாக 132
▁அவரே 132
▁ஆகாய 132
▁ஆன்மிக 132
▁இம்மா 132
▁உடனான 132
▁எகிப்தின் 132
▁ஒப்புக்க 132
▁ஒளிபரப்ப 132
▁களத்தில் 132
▁காட்சிகளை 132
▁காமெடி 132
▁குறி 132
▁சணல் 132
▁சேர்வ 132
▁ஜீவா 132
▁டீசல் 132
▁திடீரென்று 132
▁திரவ 132
▁நிகர 132
▁நிறுத்து 132
▁நிறுவனங்களுடன் 132
▁நீதிபதிகள் 132
▁பக்த 132
▁பட்டேல் 132
▁பன்னிரண்டு 132
▁பராக்கிரம 132
▁பார்வைக்கு 132
▁போன்றே 132
▁மத்தியதர 132
▁மந்திரியாக 132
▁முந்த 132
▁மெள 132
▁வராத 132
▁வாடகை 132
▁வேதனை 132
1993 131
ber 131
ob 131
கவ 131
ட்டார் 131
தற்காகவும் 131
நிதிய 131
னத்தின் 131
மையா 131
ராஜா 131
வதே 131
வர்களாகவும் 131
ுதலின் 131
ும்பி 131
ேலின் 131
ையிலுள்ள 131
▁de 131
▁அடுக்கு 131
▁அதிகாரத்தில் 131
▁அரசுப் 131
▁அறைகூ 131
▁அலுவலகத்தின் 131
▁ஆளு 131
▁இசையமைப்பாளர் 131
▁இடைப்பட்ட 131
▁இதைக் 131
▁உண் 131
▁எழுதுக 131
▁ஏஜென் 131
▁கருத்துகளை 131
▁காமன்வெல்த் 131
▁காலத்துக்கு 131
▁கிரிக்கெட் 131
▁குறிப்பிடுகிறது 131
▁கைப்பற்றிய 131
▁கோடை 131
▁சூழ்ச்ச 131
▁சேர்க்கும் 131
▁சேவையா 131
▁சோதனைய 131
▁தடுப்பது 131
▁தீர்ப்பை 131
▁நிகழ்ச்சிகளில் 131
▁நிஜ 131
▁நிதிக் 131
▁நிமிட 131
▁நிர்ணயம் 131
▁நீடித்து 131
▁நீள 131
▁நூ 131
▁நோயால் 131
▁பயணிகளின் 131
▁பருவத்தில் 131
▁பள்ளத்தாக்க 131
▁பிரதேசங்கள் 131
▁புரிந்துகொள்ள 131
▁பெரி 131
▁பெல் 131
▁போதைப் 131
▁வகைப்படுத்த 131
▁வடிவமைக்கப்பட்ட 131
▁வரவ 131
▁விமானங்களை 131
▁விலகிய 131
▁வெட்டு 131
94 130
th 130
ஐபி 130
குமார 130
சீன 130
சேக 130
ட்கள 130
ண்டோ 130
நாடுகளின் 130
நிறை 130
ப்பொருட்கள் 130
மளிப்ப 130
மையாகவும் 130
ற்றியது 130
வம் 130
வுக்கும் 130
ாக்கில் 130
ாவர் 130
ிலை 130
ுவதைத் 130
ுவிட்டார் 130
ைகு 130
▁அங்கத்த 130
▁அதிலிருந்து 130
▁அம்பேத்க 130
▁அழிந்து 130
▁இன்றியமையாத 130
▁உயிரை 130
▁கதாபாத்திர 130
▁கருதுகின்றனர் 130
▁குண்டுகள் 130
▁கொச்சி 130
▁சர்வாத 130
▁செய்யப் 130
▁செல்கிறார் 130
▁செல்வா 130
▁ஜோர்ஜியா 130
▁தடுக்கவும் 130
▁தண்ணீரை 130
▁தாங்கி 130
▁தார் 130
▁திட்டமிடப்பட்ட 130
▁தேர்தலின் 130
▁நடத்தப்பட்டன 130
▁நிர் 130
▁நிலைத்தன்மை 130
▁பாத்திரத்தை 130
▁பாரதிய 130
▁பாராட்டி 130
▁புலன் 130
▁பெப்ருவரி 130
▁பேரணி 130
▁பேரும் 130
▁முகமை 130
▁ரயில்வேயின் 130
▁லால் 130
▁லை 130
▁விவேகானந்தர் 130
▁வெளியிடும் 130
88 129
89 129
cial 129
ணைய 129
த்தர 129
பர்கள் 129
ப்பூர் 129
மில் 129
மைச் 129
யே 129
ராள 129
ரிட்ட 129
ரியால் 129
ர்ஜ 129
வைகளை 129
ஸ்வ 129
ியிலும் 129
ுவதற்காகவும் 129
ொழுதும் 129
▁அவளுடைய 129
▁ஆங்கில 129
▁ஆண்டுகளுக்கும் 129
▁இந்திர 129
▁இயக்கப்படும் 129
▁உச்சநீதிமன்ற 129
▁உத்தராக 129
▁உருவாகியுள்ளது 129
▁உருவாக்கியது 129
▁உறுப்பினரான 129
▁உல 129
▁ஏற்றி 129
▁கல்லூர 129
▁கூடவே 129
▁கொடுக்கப்பட 129
▁கொள்வதில் 129
▁சத்தீஸ்கர் 129
▁சுவி 129
▁செறிவ 129
▁சொத்த 129
▁சொன்னது 129
▁தோல்வியை 129
▁நதிகள் 129
▁நாடெங்கும் 129
▁நிரந்தரமாக 129
▁நிறைவே 129
▁படங்களின் 129
▁பதாக 129
▁பயன்பெ 129
▁பரபர 129
▁பரிந்துர 129
▁பின்னடை 129
▁பெறவும் 129
▁போவதாக 129
▁மன்னிப்பு 129
▁மருத்துவத் 129
▁மைல் 129
▁வடிவம் 129
▁வழித்தட 129
▁வாதம் 129
▁விகிதத்தை 129
▁விதிக்கப்பட்ட 129
▁விரை 129
▁வெறுமனே 129
▁ஹார் 129
ai 128
கரமான 128
ச்செய்த 128
ஜியின் 128
னிட 128
படியும் 128
மூல 128
ம்பர் 128
வருடன் 128
விக்கு 128
விட்டனர் 128
ஸ்வர 128
ிப்படுத்த 128
ூட்டல் 128
ொடுக்க 128
்டா 128
▁அதிகரித்தது 128
▁அறிகுறிகள் 128
▁ஆலயத்தின் 128
▁இணையக் 128
▁இணையம் 128
▁இதையடுத்து 128
▁உரி 128
▁என்னவெனில் 128
▁எழுது 128
▁ஐந்தாவது 128
▁கவி 128
▁காள 128
▁கிடைப்பது 128
▁கொட 128
▁கோரு 128
▁சாதக 128
▁சுரங்கங்கள் 128
▁செயல்படுவது 128
▁செய்யப்பட்டார் 128
▁செல்வதை 128
▁ஜனதா 128
▁ஜவு 128
▁ஜெர்மனி 128
▁டாக்ட 128
▁தகவல்களின் 128
▁தாயின் 128
▁தேவ் 128
▁நம்பிக்கையுடன் 128
▁நோய்க்கு 128
▁பட்டியலை 128
▁பாரி 128
▁பார்வையாள 128
▁புதன் 128
▁புளோரிடா 128
▁பூம 128
▁பூரி 128
▁பெட்ரோல் 128
▁மனிதர்கள் 128
▁மாநிலத்திற்கு 128
▁முகாம்கள் 128
▁மூடிய 128
▁மேற்கத்திய 128
▁மேற்பார்வை 128
▁லியோ 128
▁வசதிகளும் 128
▁வழங்குவதற்காக 128
▁வாரங்கள் 128
▁வாழ்நாள் 128
stit 127
utsch 127
ஐரோப்பிய 127
சல 127
ஜர் 127
தயா 127
த்ரி 127
நகரில் 127
பின 127
பெரும் 127
பெறும் 127
ப்போதும் 127
மியா 127
ஸீ 127
ஸ்டர் 127
ாசிய 127
ிக்கின்றன 127
ிருப்பதாகக் 127
ுவதைக் 127
ையார் 127
ையுமே 127
▁அனைவருமே 127
▁அளிக்கப்பட்டு 127
▁அழித்துவ 127
▁அவருக்குப் 127
▁இங்குள்ள 127
▁இருப்பதோடு 127
▁இல்லாததால் 127
▁உறுப்பினர்களாக 127
▁எதிர்பாராத 127
▁எலி 127
▁ஒள 127
▁கடிதங்கள் 127
▁கதாநாயக 127
▁கலங்க 127
▁காணாத 127
▁கீழ்க்காணும் 127
▁குறித்துப் 127
▁கேரளாவில் 127
▁சட்டபூர்வமான 127
▁சந்தையின் 127
▁சிக்கல் 127
▁செய்கிறார்கள் 127
▁செலவுகளை 127
▁சேகரிப்பு 127
▁ஜொ 127
▁திரைப்படங்கள் 127
▁திரையரங்க 127
▁தீர 127
▁நல்லுற 127
▁பண்ணை 127
▁பயிற்சியை 127
▁மகள் 127
▁மதிப்பீடுகள் 127
▁மன்றத்தின் 127
▁மரபணு 127
▁மறுசுழற்சி 127
▁மேஜர் 127
▁மையமாகக் 127
▁யோசேப்பு 127
▁வரியை 127
▁விடுமுறை 127
DE 126
ue 126
இற 126
ங்கே 126
தாவின் 126
துகள் 126
பிடி 126
ப்பாத 126
மட்ட 126
ாளர்களுடன் 126
ிருந்தபோது 126
▁அமலுக்கு 126
▁ஏற்படுத்தப்பட்ட 126
▁கரும்பு 126
▁கள்ள 126
▁காட்சிய 126
▁குழுக்களுக்கு 126
▁குழுவும் 126
▁கூடங்கள் 126
▁சகோதரிகள் 126
▁சரத்குமார் 126
▁ஜய 126
▁தளங்களை 126
▁தாங்களே 126
▁திருத்திய 126
▁தூரத்தில் 126
▁தேர்வுகள் 126
▁நிலக்க 126
▁நோயாளிகளின் 126
▁படமும் 126
▁படையினரின் 126
▁பட்டுள்ளன 126
▁பணவீக்க 126
▁பாரசீக 126
▁பெற்றோர் 126
▁மகிமை 126
▁மாணவர்களும் 126
▁மாற்றீடு 126
▁மீள் 126
▁யோசே 126
▁வடி 126
▁வந்துவிட்டது 126
▁வரலாற்றின் 126
▁விற்று 126
▁வெண்கல 126
▁வெளியேறிய 126
ட்சியான 125
திக்கும் 125
த்தாக 125
னுக்குப் 125
ப்பட்டாலும் 125
மார்கள் 125
முக்கு 125
மேம்ப 125
மையால் 125
யுத்த 125
ரிப்பு 125
லாக் 125
லுக்காக 125
ாரிய 125
ிகளிடையே 125
ுகால 125
ுக்கட்ட 125
ுக்கிடையே 125
ையாக்க 125
▁அசுத்த 125
▁அடிப்படையை 125
▁அந்நாட்டு 125
▁அபராத 125
▁அப்பட 125
▁அர்த்தம் 125
▁இயற்க 125
▁இயல்பு 125
▁இரண்டுமே 125
▁இருப 125
▁ஈடுபட்டனர் 125
▁ஈடுபாடு 125
▁எசே 125
▁கலந்துகொள்ள 125
▁காகித 125
▁கிருஷ்ண 125
▁கிரே 125
▁குஜராத்தின் 125
▁கூடியதாக 125
▁கைவிட்டு 125
▁சந்தித்தனர் 125
▁செப்டம்பரில் 125
▁தீவ 125
▁தொலைக்க 125
▁நிர்ம 125
▁நீட்டிக்க 125
▁நூல் 125
▁நேரிடும் 125
▁படிக்கும் 125
▁பற்றித் 125
▁பாக்கிய 125
▁பாதுகாப்பில் 125
▁பிரார்த்த 125
▁பென்ன 125
▁மான 125
▁மோசம 125
▁வாக்கெடுப்ப 125
▁வெளியேறு 125
▁வேட 125
▁வைப்பது 125
▁ஹஜ் 125
CPM 124
IMF 124
ank 124
ce 124
ier 124
ight 124
ஜென் 124
டுவத 124
த்துக்களை 124
நம்பிக்க 124
பேச 124
பொரு 124
ப்படல் 124
மென் 124
ம்மு 124
ர்கு 124
வருடைய 124
ாகச் 124
ாயின் 124
ுக்கொ 124
ுள்ளும் 124
ையினரின் 124
ையிலேயே 124
▁அக் 124
▁அக்டோபரில் 124
▁அடிமை 124
▁அதனுடன் 124
▁அத்தோடு 124
▁அமைப்புக்களின் 124
▁ஆண்கள் 124
▁ஆளுநர்கள் 124
▁இதற்குக் 124
▁இழு 124
▁ஈசா 124
▁உணர்க 124
▁உத்தி 124
▁உறை 124
▁ஏற்படுத்துகிறது 124
▁ஒன்றிணைந்து 124
▁கட்டாயமாக 124
▁கருண 124
▁காற்ற 124
▁கிராமம் 124
▁கூறினால் 124
▁கூறியதாக 124
▁செல்லு 124
▁திரும்பும் 124
▁தூது 124
▁தேதியில் 124
▁நாடாளுமன்றம் 124
▁படைப்பு 124
▁பதவியேற்ற 124
▁பலவித 124
▁பாரிசில் 124
▁பிலிப்பைன்ஸ் 124
▁புத்தாண்டு 124
▁பேரா 124
▁மறுக 124
▁மிஷன் 124
▁யோச 124
▁வற 124
▁வழிநடத்த 124
▁விஞ்ஞ 124
▁வேடம் 124
▁வேள 124
ast 123
ement 123
ik 123
எந்த 123
ஒவ்வொரு 123
ங்களுக்குக் 123
சாலை 123
ச்செய 123
த்தொ 123
நாத 123
நோக்கி 123
னிலிருந்து 123
ப்பட்டதாக 123
ப்பற்ற 123
மாண்ட 123
மையே 123
ரது 123
ளிக்கப்பட்ட 123
வற்றில் 123
ஷியஸ் 123
ிகே 123
ித்தால் 123
ிறன் 123
ீன 123
ுகளிலிருந்து 123
ேயான 123
ோல் 123
▁அகற்றும் 123
▁அருங்காட்சிய 123
▁இனம் 123
▁உட்பட்டு 123
▁உரிமம் 123
▁என்பவை 123
▁ஏற்படக்கூடிய 123
▁கல்விக்கான 123
▁காட்டினர் 123
▁குறிக்கோள் 123
▁கேள்விகளுக்கு 123
▁கோடியில் 123
▁தரப்பட்ட 123
▁தேவையாக 123
▁நகருக்கு 123
▁நீதிபத 123
▁நீரிழிவு 123
▁பத்திரிகைகள் 123
▁பாராளுமன்றம் 123
▁பிறகே 123
▁புனிதமான 123
▁புரியும் 123
▁போக்கில் 123
▁மக்களவை 123
▁மடங்காக 123
▁மேன் 123
▁மைல்க 123
▁வழிமுறை 123
▁வார் 123
▁வெடித்து 123
▁வெற்றிக 123
IAEA 122
ட்சியை 122
த்ச 122
த்துவத்தை 122
பெரிய 122
பேர 122
ப்பினர் 122
மலை 122
மைப்புத் 122
யிலிருந்து 122
ரங்கம் 122
ரத்தை 122
ரம்ப 122
ற்த 122
ற்றில் 122
வர்களுக்கான 122
வேட்ட 122
ானவர் 122
ிர் 122
ிறீ 122
ுமோ 122
ுள் 122
ெனில் 122
ொள்கிறார் 122
▁அக்கினி 122
▁அடங்குவர் 122
▁அதிகரித்தல் 122
▁அதுவே 122
▁அருங்காட்சியக 122
▁ஆடு 122
▁இடு 122
▁இண்ட 122
▁இந்தோனே 122
▁உழைத்து 122
▁ஊர்க 122
▁ஒருங்கிணைத்து 122
▁கருதும் 122
▁கிருஷ்ணா 122
▁கூட்டங்களில் 122
▁கையெழுத்து 122
▁கொட்ட 122
▁சாதாரணமாக 122
▁சுட 122
▁சுந்தர் 122
▁சூரியன் 122
▁தடையாக 122
▁தன்மையையும் 122
▁நகரங்களுக்கு 122
▁நகர்ந்து 122
▁நம்பி 122
▁நியமித்த 122
▁நிறுவனமாக 122
▁நீர்ப்பாசன 122
▁பகுதியினர் 122
▁பாரதீய 122
▁முயற்சிக்க 122
▁வடிவமைக்க 122
▁வழிகள் 122
▁வெகுவாக 122
▁வைத்தனர் 122
ice 121
se 121
சர 121
டுகளைக் 121
நாம 121
பாடுகள் 121
புள் 121
பூரில் 121
ப்படம் 121
ப்படையின் 121
ப்பிரிவ 121
மனைய 121
றிந்து 121
லான் 121
லைகளை 121
ளவுக்கு 121
வாய்ந்த 121
வாரம் 121
ஷை 121
ஸ்டில் 121
ிடவும் 121
ுகளுக்காக 121
ொள்ளும் 121
▁அப்படியான 121
▁அறியப்பட்ட 121
▁அறிவை 121
▁அவ்விட 121
▁ஆகா 121
▁ஆப்கான் 121
▁ஆவணங்களை 121
▁இடம்பெற்றுள்ள 121
▁இடையூற 121
▁உறவுகளின் 121
▁கணவர் 121
▁கழகத்தில் 121
▁குறைய 121
▁சம்பிரதாய 121
▁சூழ்நிலைய 121
▁ஜுலை 121
▁தப்பிய 121
▁தொழில்களை 121
▁நீடிக்கும் 121
▁படப்பிடி 121
▁பருவமழை 121
▁பெறாத 121
▁மரி 121
▁மாற்றத்திற்கு 121
▁முறைகளில் 121
▁வக்க 121
▁வடிவத்தில் 121
▁வயதுக்கு 121
▁வளாகம் 121
▁வாழ்க்கைத்த 121
▁வைக்கப்படும் 121
1992 120
av 120
சிங்க 120
ணங்கள் 120
த்துக்கொள் 120
னுக்கான 120
ப்போகும் 120
மாட்டாது 120
மீன் 120
யன் 120
வரைய 120
வர்த 120
வெள 120
வைக்க 120
ாலேயே 120
ிருக்கவேண்டும் 120
ேட்ட 120
▁அம்சமாக 120
▁ஆன்மீக 120
▁இயக்கங்கள் 120
▁இயந்திரங்கள் 120
▁உணர்வுகள் 120
▁கண்டித்து 120
▁காலத்திலும் 120
▁குழந்தைகள 120
▁கூட்டுக் 120
▁கூறியுள்ள 120
▁கூலி 120
▁கேமரா 120
▁சமசமாஜக் 120
▁சென்றடையும் 120
▁செலுத்தப்பட்ட 120
▁சேமிக்க 120
▁ஜூலையில் 120
▁ஜெயம் 120
▁தனிய 120
▁தன்மையைக் 120
▁தரி 120
▁திட்டமாகும் 120
▁திறந்தவெளி 120
▁தெரிந்துகொள்ள 120
▁பது 120
▁பொதுநல 120
▁முற்போக்கு 120
▁மேயர் 120
▁மைக்ரோ 120
▁வரையறுக்கப்பட்ட 120
▁வலியுறுத்தும் 120
▁வாகனம் 120
▁விட்டுப் 120
▁வெளியுறவுத் 120
.00 119
1971 119
79 119
PCF 119
han 119
html 119
ஆனால் 119
கையில் 119
க்குவரத்து 119
த்திறன் 119
ப்படுவதையும் 119
ப்பொழுது 119
ரசு 119
ரிசிய 119
ஹோ 119
ினராக 119
ியிலிருந்து 119
ைட் 119
ோவின் 119
▁அசாதாரண 119
▁அதற்குக் 119
▁அதிகாரியான 119
▁அமைப்புக்கு 119
▁இதற்க 119
▁இவற்றிற்கு 119
▁ஈடுபட்டுள்ளது 119
▁ஈர்க்கும் 119
▁உண்ம 119
▁உத்தரவிட்ட 119
▁உள்ளிட்டோர் 119
▁எம 119
▁ஏற்றுக்கொள் 119
▁கனிம 119
▁காட்சியில் 119
▁சட்டரீதியான 119
▁சத்தீ 119
▁சரண 119
▁சிப்பாய 119
▁சூறாவளி 119
▁ஜோஸ் 119
▁டெல்லியில் 119
▁டொலர் 119
▁தம் 119
▁தார 119
▁துறையும் 119
▁தேசியத் 119
▁தேவையற்ற 119
▁தொழில்நுட்பப் 119
▁நாளுக்கு 119
▁நிறுவிய 119
▁நீல 119
▁பிஎஸ் 119
▁பிரதானமாக 119
▁பெயர 119
▁பெறவில்லை 119
▁முதன்மையான 119
▁முழுவது 119
▁மேற்கோள 119
▁வசதியான 119
▁வசூ 119
▁வடிவேலு 119
▁வருமானவரி 119
▁வல்லுந 119
▁வழக்கறிஞர் 119
▁வழிகாட்டுதல் 119
▁வெறுக்க 119
▁ஷியா 119
175 118
1983 118
ங்கத்தில் 118
சியல் 118
தென்ன 118
த்துக்குச் 118
படும் 118
மார 118
மேல 118
மொ 118
ரிஷ 118
ர்களோடு 118
லாவை 118
ளாக 118
ழ்க்க 118
ாரப் 118
ார்களோ 118
ிருப்பினும் 118
ிற்குத் 118
ுகொண்டு 118
ுகொள்ள 118
ேசன் 118
ொருவர் 118
▁அரசுகளும் 118
▁அழித்த 118
▁அவதூ 118
▁ஆட்க 118
▁ஆயுள் 118
▁ஆவே 118
▁இடதுசார 118
▁இட்டுச் 118
▁இதேபோல் 118
▁ஈரானில் 118
▁உட் 118
▁என்றழைக்க 118
▁எல்லைகளை 118
▁எழுச்சிய 118
▁ஏற்கும் 118
▁ஏவ 118
▁ஒப்பிடும் 118
▁ஒழிய 118
▁கண்காட்சியில் 118
▁கமிஷ 118
▁களை 118
▁கொழு 118
▁சப் 118
▁சாகுபடி 118
▁செய்துகொள்ள 118
▁தன்னல 118
▁தருண 118
▁தர்ம 118
▁தாண்டிய 118
▁துடி 118
▁தோற்றம் 118
▁பட்டு 118
▁பண்டாரநாயக்க 118
▁பரவும் 118
▁பள்ளிக்கூட 118
▁பூஜை 118
▁பெங்களூரு 118
▁பெற்றுக்கொண்ட 118
▁போர 118
▁மாக 118
▁முதுநிலை 118
▁முன்னோடியாக 118
▁மூர்க்க 118
▁ரவீ 118
▁வழிகளை 118
▁வாங்குவதற்கு 118
▁விட்டுக் 118
▁வெற்று 118
▁வெளிச்சம் 118
▁வெளிவரும் 118
▁ஹிட் 118
1948 117
II 117
ge 117
iv 117
கமான 117
சலோ 117
சாக 117
ச்சியில் 117
நிறுவன 117
ன்தாரா 117
ப்படுவதில் 117
ப்பரி 117
ப்போக்கு 117
ப்போர் 117
மக 117
ழுவின் 117
ழ்ச்சி 117
வர்க்க 117
ஸ்தா 117
ஹார் 117
ிக்கொண்டது 117
ிஸ்தான் 117
ுதவி 117
ுள்ளேயே 117
ைக்கார 117
ையின்போது 117
▁அதிகாரங்கள் 117
▁அமெரிக்காவிலும் 117
▁அரசுடன் 117
▁ஆலையில் 117
▁ஆளுகை 117
▁இடம்பெற்றுள்ளன 117
▁இரவில் 117
▁எடுக்கப்பட்டது 117
▁கருத்துகள் 117
▁கல்வியில் 117
▁கவனித்து 117
▁காப்பு 117
▁குறைப்பதற்கு 117
▁கௌரவ 117
▁சக்திகளை 117
▁சென்றடைய 117
▁செய்யக் 117
▁செலுத்துவது 117
▁தகர்த்த 117
▁தடய 117
▁தந்தது 117
▁நிலத்தடி 117
▁நேபாளம் 117
▁நோக்கிக் 117
▁பாக் 117
▁பீம் 117
▁பெண்ண 117
▁பெருகும் 117
▁பேதுரு 117
▁போனால் 117
▁போய்வ 117
▁மட்டும்தான் 117
▁மன்றத்தில் 117
▁மலேசிய 117
▁மார்ஷல் 117
▁மேற்பட்டோர் 117
▁வந்துள்ளனர் 117
ff 116
செய 116
ட்சிகள் 116
ட்டியின் 116
த்தினுள் 116
த்தியது 116
பெற 116
ப்படுவதன் 116
ர்களுக்காக 116
ளிக்கிறது 116
வர்களிடம் 116
விடக் 116
வெறி 116
ாததால் 116
ினுள் 116
ியலின் 116
ுகா 116
ையில்தான் 116
▁அகற்றி 116
▁அமைத்துக் 116
▁எடையுள்ள 116
▁என்பதாக 116
▁எல 116
▁ஒருவரின் 116
▁கங்கா 116
▁கடைபிட 116
▁கழித்து 116
▁கூறியிருந்தார் 116
▁சாதி 116
▁சீட்டு 116
▁செயல்படுகின்றன 116
▁செய்தித்தாள 116
▁செய்யாமல் 116
▁செலுத்துகிறது 116
▁தயாரித்தல் 116
▁தவி 116
▁தீங்கு 116
▁துத 116
▁தேவி 116
▁நோக்கங்கள் 116
▁பங்குகளை 116
▁பணியின் 116
▁பதி 116
▁பாடத்திட்ட 116
▁புத்துயிர் 116
▁பெண்களை 116
▁போன்றவற்றின் 116
▁மாநிலமான 116
▁மாறிவிட்டது 116
▁மும் 116
▁லண்ட 116
▁விடுகிறது 116
▁விற்ற 116
ub 115
காச 115
க்ட 115
ங்காய் 115
நீர் 115
னாய் 115
பஸ் 115
பாதுகா 115
மென 115
யாண 115
வள் 115
வெளிய 115
ிகோ 115
ிழமை 115
ுகளான 115
▁to 115
▁அதிகாரப் 115
▁அதேசமயம் 115
▁அதோடு 115
▁அரசியலமைப்ப 115
▁அழிவு 115
▁இணக்க 115
▁உணவுக் 115
▁ஐஸ்வர்யா 115
▁கதவ 115
▁கார்கில் 115
▁கூடுத 115
▁கூட்டண 115
▁கூட்டணிய 115
▁கொண்டிருப்பத 115
▁சமூகத்தின 115
▁சிறுவ 115
▁சில்லறை 115
▁சுற்றில் 115
▁சூழலுக்கு 115
▁ஜோதி 115
▁டன்கள் 115
▁தனித்துவமான 115
▁தன்னார்வல 115
▁தழுவிய 115
▁தாழ்த்த 115
▁தொகுதி 115
▁நல்வாழ்வு 115
▁நாடி 115
▁நுழைய 115
▁பங்கா 115
▁பறந்து 115
▁பாடல்களை 115
▁பிரகாச 115
▁பிலிம் 115
▁பொக்கி 115
▁போரி 115
▁மாதிர 115
▁மாநிலங்களும் 115
▁மாற்றத்தின் 115
▁முன்பதிவு 115
▁யாராவது 115
▁ரகசிய 115
▁வருவதற்கான 115
▁வல்லுன 115
▁வழக்குகளில் 115
▁விடிய 115
▁வீடுகளின் 115
▁வெளிக்காட்ட 115
") 114
aw 114
க்கொண்ட 114
ங்கொண்ட 114
சியை 114
ச்சா 114
தார்த்த 114
திட்ட 114
நாடுகள் 114
ரிடமிருந்து 114
ரையை 114
லத்தின் 114
ஸுக்கு 114
ாக்களின் 114
ாதை 114
ாரஸ் 114
ாளரின் 114
ாளரை 114
ுண்ட 114
ுய 114
ுவதற்குத் 114
▁அரசிற்கு 114
▁ஆதரவான 114
▁ஆபிரகாம 114
▁இருந்தான் 114
▁ஊட்டச்ச 114
▁என்பதையே 114
▁என்பவ 114
▁எலியா 114
▁எல்லையை 114
▁எழுப்பு 114
▁கடி 114
▁கம்யூனிச 114
▁கல்லூரியில் 114
▁காயம் 114
▁குறைவாகவே 114
▁கோவில் 114
▁சட்டப்படி 114
▁சரத் 114
▁தக்கவை 114
▁தம்ப 114
▁தயாரிக்கப்படும் 114
▁திரும்பவும் 114
▁நல்லெண்ண 114
▁நாடுகளையும் 114
▁நிபந்தனை 114
▁நிலைகள் 114
▁நோர்வே 114
▁பட்சத்தில் 114
▁பாணியில் 114
▁பெறுவதில் 114
▁பெற்றோர்கள் 114
▁பேசும்போது 114
▁மதிப்புக் 114
▁மதிப்புமிக்க 114
▁மவு 114
▁மாதவன் 114
▁முறியடிக்க 114
▁ரெட்டி 114
▁வணக்க 114
▁வருத்தம் 114
▁விமர்சனம் 114
▁வெற்றிபெற 114
ash 113
ors 113
அதிக 113
க்ஸ் 113
சந்த 113
ச்சர் 113
த்திற்காகவும் 113
த்தோட்ட 113
நாட 113
பொன் 113
வாதி 113
விட்டார் 113
வுப் 113
ஹாரி 113
ாதிபதி 113
ீடாக 113
ுள்ளதால் 113
ெதிராக 113
▁அட்மிரல் 113
▁அமைந்திருந்தது 113
▁ஆரம்பித்து 113
▁ஆவி 113
▁ஈர் 113
▁எடுத்தது 113
▁எண்ணங்கள் 113
▁ஏழாம் 113
▁கடற்படைய 113
▁கடைபிடிக்க 113
▁காண்பது 113
▁குழந்தைகளும் 113
▁கூறுவத 113
▁கொள்வார்கள் 113
▁சதவீதமும் 113
▁சமூகக் 113
▁செழ 113
▁சோதனைக் 113
▁டிக்க 113
▁தாண்ட 113
▁தொடுக்க 113
▁படப்பி 113
▁பன 113
▁பல்ப 113
▁பாடலை 113
▁புதியதொரு 113
▁பொரு 113
▁பொறுப்பாக 113
▁மகேஷ் 113
▁மரு 113
▁மீண்டு 113
▁முன்வர 113
▁முறி 113
▁முற்றுக 113
▁மேல்முறைய 113
▁யூதர்கள் 113
▁வசந்த 113
▁வாகனங்களை 113
▁விலைக்கு 113
▁வீச்ச 113
▁வெளியாக 113
▁வெள்ளம் 113
▁வேறுபாடுகளை 113
ism 112
க்காரன் 112
சைன் 112
டித்தான் 112
டிப் 112
ட்லி 112
திற்கு 112
னியாவில் 112
பேர்ட் 112
ப்பதாகும் 112
யத்தில் 112
யான 112
ராலும் 112
லாமா 112
வர்களைக் 112
வைய 112
ாடுகள் 112
ாவான 112
ிக்கப்பட்டனர் 112
ிடங்கள் 112
ிவரை 112
▁அங்கீகரித்த 112
▁அத் 112
▁அனல் 112
▁அமைத்துள்ளது 112
▁இண 112
▁இருந்ததால் 112
▁இருமட 112
▁ஈடுக 112
▁உண்டாகும் 112
▁உயர்நீதிமன்ற 112
▁உரைக்க 112
▁எடுப்பதற்கு 112
▁என்பன 112
▁கட்ச் 112
▁கவுத 112
▁காரணமான 112
▁குழப்பம் 112
▁சாத்தியம் 112
▁சிறந்து 112
▁சில்ல 112
▁சூடான் 112
▁செட்ட 112
▁செவில 112
▁சேகரிக்க 112
▁தரிசன 112
▁தலைமுறையின 112
▁தான 112
▁நகரங்களை 112
▁நாடுகளிலிருந்து 112
▁நேரத்திலும் 112
▁பகுப்பாய்வ 112
▁மக் 112
▁மணித்தியால 112
▁மத்தியிலும் 112
▁மருத்துவமனைக்கு 112
▁மருந்துப் 112
▁மாதத்தின் 112
▁முன்னோக்கி 112
▁ரியல் 112
▁விழாவின் 112
▁விவேக் 112
▁வேகத்தை 112
▁ஸ்வீடன் 112
..... 111
ass 111
ell 111
ens 111
ip 111
அமெரிக்கா 111
கல் 111
ஜின் 111
தார் 111
த்தொக 111
புக 111
ப்படாது 111
ருளும் 111
லையில் 111
ாக்கின் 111
ிட்டுக் 111
ுகூட 111
ுப்புற 111
ும்பு 111
ுவீ 111
ைகளோடு 111
ொடுத்த 111
▁அமெரிக்கக் 111
▁அரசாங்கப் 111
▁அஹ 111
▁ஆந்திரா 111
▁ஆராதனை 111
▁இடத்தைப் 111
▁ஈர்த்த 111
▁ஊடகத்தின் 111
▁ஊடகத்தில் 111
▁எதுவுமில்லை 111
▁எதை 111
▁ஏப்ரலில் 111
▁ஓட 111
▁கண்ணீர் 111
▁கற்பித்த 111
▁குத 111
▁குதிர 111
▁குறிப்பிடப்பட்ட 111
▁கைப்ப 111
▁கொடுக்கப்பட்டது 111
▁சரண் 111
▁சிப்பாய்கள் 111
▁சீரான 111
▁செஞ்சிலுவைச் 111
▁ஜோசப் 111
▁தரவரிசை 111
▁தெரியவ 111
▁நலன 111
▁நிதான 111
▁நின்றது 111
▁நிறுவனத்துடன் 111
▁புல் 111
▁பெரும்ப 111
▁பொருளாதாரச் 111
▁பொறுப்பில் 111
▁மகாராஷ்டிர 111
▁முடித்து 111
▁முன்த 111
▁யை 111
▁வரலாற்றுப் 111
▁வல்லுநர்கள் 111
▁வெளிநாட்டில் 111
▁ஷோ 111
!" 110
la 110
அதாவது 110
உள்ள 110
கம்ப 110
க்குழ 110
சாவ 110
சியில் 110
ணியும் 110
த்ர 110
ந்துள்ளதாக 110
ப்பிங் 110
ப்பூர்வமாக 110
மக்கள 110
மாவது 110
ரிக் 110
வடையும் 110
ாசி 110
ாவைக் 110
ிக்கொண்டார் 110
ில்லியன் 110
ுகொள் 110
ூக்க 110
ேகா 110
்களைத் 110
▁அதிர 110
▁அபிஷேக 110
▁அளிப்பு 110
▁ஆண்டிற்கு 110
▁ஆதரவும் 110
▁ஆரம்பிக்க 110
▁இந்தோ 110
▁இவைய 110
▁எடுப்பது 110
▁எவர் 110
▁கடலோ 110
▁கன்னட 110
▁கிரெ 110
▁கெல்ல 110
▁கேள 110
▁சனிக்கிழ 110
▁சாம்ப 110
▁தலைநகரான 110
▁தாலி 110
▁தென்மேற்கு 110
▁தேவைக்கு 110
▁தொகுப்பில் 110
▁தொடுத்த 110
▁நம்பிக்கையில் 110
▁நுக 110
▁பகிர் 110
▁பங்காற்றிய 110
▁பயணிகளை 110
▁பாய் 110
▁பெறுகின்றனர் 110
▁பொற 110
▁மதிய 110
▁மலர் 110
▁மேற்பட்டவர்கள் 110
▁யாத்திரை 110
▁வஞ்ச 110
▁வராமல் 110
▁வரையற 110
▁வலைப்பின்ன 110
▁வழிநட 110
▁விடுவி 110
▁விரட்ட 110
▁விழு 110
▁வேண்டுமா 110
ங்குகள் 109
ட்கள் 109
த்தவர் 109
ந்தைய 109
னுக்குக் 109
பாண 109
பாரி 109
பாலான 109
புரி 109
ரைன் 109
ர்க்கில் 109
ர்ப்ப 109
வரிடம் 109
ிலிருந்தே 109
ிலில் 109
ெழுத்துக்க 109
ையில 109
▁அடைவதற்கான 109
▁அனைத்திலும் 109
▁ஆக்கிரம 109
▁ஆப்பிரிக்கா 109
▁இருக்கையில் 109
▁இருபதாம் 109
▁இவர்களின் 109
▁உன்னதமான 109
▁எப்பொழுது 109
▁ஐசி 109
▁ஒலிவ 109
▁ஓட்டு 109
▁கடமைகளை 109
▁கடலின் 109
▁கல்வியின் 109
▁காணவும் 109
▁காத்திருக்க 109
▁காந்திய 109
▁கீழான 109
▁குடித்த 109
▁குழுக்களும் 109
▁சன 109
▁சமநிலை 109
▁சிதைந்து 109
▁செய்திக் 109
▁செலாவணி 109
▁தகரா 109
▁தடுப்பதற்காக 109
▁தனிமனித 109
▁தற்கா 109
▁திறனையும் 109
▁தூண்டும் 109
▁தேவைகளைப் 109
▁தோல்வ 109
▁நவ் 109
▁நிகழ்வுகளை 109
▁நூற்றாண்டுகளாக 109
▁படுகொலைகள் 109
▁பயன்படுத்துவதை 109
▁பாகு 109
▁பிண 109
▁பிறந்தநாள் 109
▁பிள்ளை 109
▁போட்டுக் 109
▁மடங்க 109
▁மண்டலங்களில் 109
▁மின்சாரத்தை 109
▁ராவ் 109
▁விடுவிக்க 109
▁விளையாடு 109
▁ஹா 109
▁ஹீ 109
▁ஹைட்ரோ 109
UAW 108
ana 108
ert 108
சீனா 108
ச்சென்ற 108
ஜிய 108
ட்ரோ 108
ணு 108
தாக்கும் 108
நீக்கம் 108
பிசி 108
ம்பி 108
ராட்ட 108
வரது 108
வியும் 108
வுகளில் 108
ாவதாக 108
ிருப்பவர்கள் 108
ைகளினால் 108
்கார 108
▁அகத 108
▁அசாதாரணமான 108
▁அந்நாள 108
▁அரண 108
▁அறிந்துகொள்ள 108
▁அவரைத் 108
▁உலகக் 108
▁ஊக்குவித்தல் 108
▁எழுதியுள்ள 108
▁எழுத்தாளர் 108
▁காணவில்லை 108
▁குறைபாடுகள் 108
▁கொள்ளாமல் 108
▁சம்ம 108
▁சுரங்கத் 108
▁செயல்படத் 108
▁தீவிரவாதிகள் 108
▁துணைப் 108
▁நடிப்பு 108
▁நிபந்தனைகள் 108
▁நை 108
▁படையை 108
▁பணப் 108
▁பத்திரிக்க 108
▁பேர்கள் 108
▁மனிதனின் 108
▁மாஸ்டர் 108
▁முதலாளி 108
▁முனையம் 108
▁யுக 108
▁வாதி 108
▁விள 108
▁விவசாயி 108
EU 107
அவர் 107
படு 107
ப்படுகிறார் 107
ப்பதிவ 107
மனை 107
மொன்றை 107
ம்பெ 107
ர்ட்ட 107
வார்ட் 107
ஸ்ச 107
ான்ஸ் 107
ாளர்களையும் 107
ினையும் 107
ின்போது 107
ியுள்ளனர் 107
ூடாக 107
ையி 107
்களாக 107
▁அண்ண 107
▁அளித்தனர் 107
▁அவற்ற 107
▁ஆனந்த 107
▁ஆயிரத்து 107
▁ஆர்வத்தை 107
▁உணர்ச்ச 107
▁உத்தரவிட்டார் 107
▁உள்ளதாகவும் 107
▁எரிக 107
▁ஒருவருக்கொருவர் 107
▁கனி 107
▁கருவிய 107
▁காலையில் 107
▁காவலர் 107
▁குடியுரிமை 107
▁குடும்பமும் 107
▁கொண்டுவரப்பட்ட 107
▁கொள்வதை 107
▁சத்தம் 107
▁சந்தாதார 107
▁சல் 107
▁செலுத்துதல் 107
▁சேரன் 107
▁டாலருக்கு 107
▁டோக்கியோ 107
▁தரவ 107
▁தலையிட 107
▁திண்ட 107
▁தீர்மானித்த 107
▁தொடரில் 107
▁நகர்வு 107
▁நாயகனாக 107
▁நினைவிட 107
▁நீதிமன்றங்கள் 107
▁நீரின் 107
▁நோயை 107
▁பகுதிகளுக்கும் 107
▁பலனை 107
▁பார்வையிட 107
▁பிரம்மாண்டமான 107
▁பூங்கா 107
▁பேசினர் 107
▁மக்களைக் 107
▁முதல்முறையாக 107
▁முரண்ப 107
▁மேலை 107
▁ராக்கெட் 107
▁விடுத 107
▁விருதை 107
▁வேண்டுமென்ற 107
▁வேலைக்க 107
▁ஸ்டார் 107
eg 106
ha 106
இலங்கை 106
உற 106
ங்களாலும் 106
சினி 106
ச்சுவ 106
த்தொழில் 106
பின்னர் 106
மற்றது 106
மல 106
முறைக்கு 106
ரப்பு 106
லினால் 106
ாவுடனான 106
ிக்குச் 106
ிப்பதோடு 106
ிவே 106
ெஸ் 106
ோரும் 106
▁அடைத்து 106
▁அவர்களுக்குத் 106
▁ஆய்வுக்கூட 106
▁இத்துறையில் 106
▁இந்திரா 106
▁இருவர் 106
▁உயிர்த்த 106
▁உறவினர்கள் 106
▁எல்லாக் 106
▁எளிமை 106
▁கதாநாயகனாக 106
▁காந்தியடிகள் 106
▁கிறிஸ்து 106
▁குதிரை 106
▁குறைத்த 106
▁கோட்டை 106
▁சான்றிதழ்க 106
▁சாலையில் 106
▁சிந்தனைகளை 106
▁செய்வார்கள் 106
▁தயாரிக்கிறது 106
▁தலையை 106
▁தெளிவாகக் 106
▁தேர்ச்சி 106
▁நன்ம 106
▁நர்மதா 106
▁நாமம் 106
▁நிக்கோபார் 106
▁படமாக 106
▁பண்டிட் 106
▁பயணத்தின்போது 106
▁பறக்க 106
▁பள்ளியில் 106
▁பாடுபட்ட 106
▁பார்வையாளர்கள் 106
▁பெரும்பகுதி 106
▁பெள 106
▁போராட்டங்களை 106
▁மதி 106
▁மலிவு 106
▁முகாமை 106
▁மேகாலயா 106
▁மோதலில் 106
▁வரையறுக்க 106
▁வல்லுனர்கள் 106
▁வழக்கம் 106
▁வீட்டிற்கு 106
▁ஹெக்ட 106
டுவதற்கும் 105
ணர்வை 105
த்தியில் 105
த்துவிடும் 105
ந்தின் 105
னிக் 105
ப்படுவதற்கான 105
ப்பாது 105
மதிப்பு 105
ர்த்தி 105
வலை 105
ார்கள 105
ாவா 105
ூம் 105
ையாளர் 105
ொண்டார் 105
்தி 105
▁அடையாளத்தை 105
▁அன் 105
▁அவரோ 105
▁ஆண்டுகளுக்குப் 105
▁இவர்களை 105
▁உட்கட்டமைப்பு 105
▁உயர்த 105
▁உருவாக்கிக் 105
▁ஒட்டிய 105
▁கடைப்பிடிக்க 105
▁கட்டத்தை 105
▁கந்த 105
▁கருத்துப் 105
▁கருவூல 105
▁காரணமாகவே 105
▁கிடைக்கின்றன 105
▁கொடுத்தனர் 105
▁சேர்க்கப்பட்ட 105
▁ஜார்கண்ட் 105
▁ஞானம் 105
▁தகுதியான 105
▁தடையின்றி 105
▁தலைவி 105
▁தொகைக்கு 105
▁தொடர்புபடுத்த 105
▁நடத்தை 105
▁நல்க 105
▁நியூஸ் 105
▁நுகர்வு 105
▁படைக்க 105
▁பர்வத 105
▁பஹ் 105
▁பிரமாண 105
▁பெண்களும் 105
▁பெயரிட 105
▁பெற்றன 105
▁போலிய 105
▁மில்லியனுக்கும் 105
▁முன்கூட்ட 105
▁மூலமே 105
▁வளர்த்துக் 105
▁வாசல் 105
▁வாஜ்பாய் 105
▁விசாரித்த 105
▁விஷால் 105
கமாக 104
ங்கல் 104
டைந்தது 104
தற்குப் 104
தேவ் 104
னமான 104
பாட 104
ப்க 104
ப்போக்க 104
மென்ற 104
மொழி 104
ழிப்பு 104
வீத 104
ஸ்டன் 104
ாதிபதிய 104
ாளருக்கு 104
ிக்கோ 104
ுக்கிடையில் 104
ொட்ட 104
▁அதிரடி 104
▁அதேநேரத்தில் 104
▁அமைப்புக்களை 104
▁அம்சங்களில் 104
▁ஆயின 104
▁ஆயிற்று 104
▁உணவை 104
▁உரம் 104
▁உலகத்தை 104
▁எதிர்வ 104
▁கட்டியெழுப்ப 104
▁கண்காணிக்கும் 104
▁கண்ணோட்டம் 104
▁கதைகள் 104
▁கருத்துப்படி 104
▁கவிஞர் 104
▁காட்டுகின்றது 104
▁செங்கோ 104
▁ஞாபக 104
▁தருகின்ற 104
▁திரும்பத் 104
▁துல்லியமான 104
▁தொங்க 104
▁தொழிற்ப 104
▁தோல்வியடைந்த 104
▁நிபுணத்துவம் 104
▁நிரப்பு 104
▁நுழைவு 104
▁பச்ச 104
▁பதன 104
▁பயிர்கள் 104
▁பிசா 104
▁பிற்பகல் 104
▁புள்ளிவிவரங்கள் 104
▁போக்குகள் 104
▁போயிற்று 104
▁மட்டுமல்லாது 104
▁மண்ணில் 104
▁மனநிறை 104
▁மறைவுக்கு 104
▁முக்கியத் 104
▁வகித்தார் 104
▁வரலாற்ற 104
▁வரிகளை 104
▁வளர 104
▁விமர்சித்த 104
▁விருத்த 104
▁வைரச 104
ong 103
குரு 103
ஞர்கள் 103
டுத்தார் 103
துக்க 103
பிரதேச 103
லைச் 103
வனே 103
வாண 103
விலும் 103
ஸ்தர் 103
ிகளுடனும் 103
ிகாரி 103
ினில் 103
ூரின் 103
ையிழ 103
▁அப்போதுதான் 103
▁அமர் 103
▁அரங்கு 103
▁அலங்க 103
▁அவசியமாகிறது 103
▁இணைப்புகளை 103
▁இம்முறை 103
▁இலட்ச 103
▁உதவியும் 103
▁உறுதிபடுத்த 103
▁உளவியல் 103
▁எடுத்துக்க 103
▁எதிர்க்கட்சி 103
▁ஒர் 103
▁கட்டாயப்படுத்த 103
▁கட்டுவதற்கு 103
▁கப்பலில் 103
▁காக 103
▁கிடைக்காத 103
▁கேச 103
▁கைக்கொள்ள 103
▁கொண்டவர் 103
▁சகோத 103
▁சாதனையை 103
▁ஜேம்ஸ் 103
▁தங்கும் 103
▁தொற்றுநோய 103
▁நடத்தின 103
▁நமக்குத் 103
▁நல்லிணக்க 103
▁நிறுத்தும் 103
▁பகிர 103
▁படைப்ப 103
▁பண்டைய 103
▁பன்முகத் 103
▁பிரசார 103
▁பிரயோக 103
▁வந்தவர்கள் 103
▁வரக்கூடிய 103
▁விரும்பினால் 103
▁வெளியாகும் 103
▁ஹாலிவுட் 103
1968 102
1979 102
93 102
BBC 102
bert 102
mun 102
ric 102
ze 102
காப்பு 102
க்குறை 102
சுய 102
டிக 102
டீ 102
டெக் 102
தானது 102
த்திலிருந்த 102
த்ம 102
ந்தன் 102
படை 102
மாணம் 102
முட்ட 102
முழுவதும் 102
யாக் 102
ரியன் 102
ல்களுக்கும் 102
ல்களைக் 102
வாதக் 102
விதமான 102
ாடும் 102
ானோ 102
ிக்கா 102
ியலில் 102
ெடுப்பது 102
்கிறது 102
▁அபாயம் 102
▁அழகான 102
▁ஆடை 102
▁ஆப்கானிஸ்தானின் 102
▁ஆழ்த்த 102
▁இத்திட்டத்தை 102
▁இருந்ததாக 102
▁இருந்தவர் 102
▁இல்லாதது 102
▁இவரை 102
▁உபதேச 102
▁உரிமையாளர்கள் 102
▁உற்பத்தியின் 102
▁எண்ணை 102
▁கட்டமைப்புகளை 102
▁கட்டுப்பாட்டின் 102
▁காப்புரிமை 102
▁காலி 102
▁கொண்டதாகவும் 102
▁கொல் 102
▁சட்டத்தின்படி 102
▁சட்டப் 102
▁சாதிக்க 102
▁சில் 102
▁சுமை 102
▁சென்ன 102
▁செய்வேன் 102
▁செல்ப 102
▁சேவைகளின் 102
▁சைப் 102
▁ஜோர்டான் 102
▁தன்மையும் 102
▁தெள 102
▁நிலையிலிருந்து 102
▁நெதர்லாந்து 102
▁பரவி 102
▁பரிமாற்றங்கள் 102
▁பலவீனமான 102
▁பழைமை 102
▁பிணைய 102
▁பிரசுரிக்க 102
▁பொறிய 102
▁போதன 102
▁போய்விட்டது 102
▁மக்களுக்கான 102
▁மாற்றப்பட்ட 102
▁யோகி 102
▁ரஷ்யாவில் 102
▁வகுக்கும் 102
▁வசதிகளையும் 102
▁விண்ணப்பம் 102
▁விவசாயப் 102
▁ஹைதராபாத் 102
0000 101
JUSTIFY 101
க்கிலும் 101
ங்களிலேயே 101
ச்சை 101
திர் 101
நாதன் 101
நோய 101
பியா 101
போகும் 101
யார 101
லாவில் 101
ல்டு 101
வயது 101
விஸ் 101
ாடி 101
ாடுகளை 101
ாதிக்க 101
ியாக்க 101
ெங்கும் 101
ெழு 101
ொற்ற 101
்க்கும் 101
▁(" 101
▁அடிப்படையிலேயே 101
▁அத்தனை 101
▁ஆங்கிலம் 101
▁இடி 101
▁இழப்பீடு 101
▁உண்மையாக 101
▁உதவித்தொகை 101
▁உறுப்பினரும் 101
▁எத்தனால் 101
▁எல்லைகள் 101
▁ஏற்படுத்தக் 101
▁ஏற்றத்தாழ் 101
▁ஒற்றுமையை 101
▁ஒவ்வொன்றும் 101
▁கர்னல் 101
▁கவர்னர் 101
▁காசோ 101
▁குத்த 101
▁குழும 101
▁கூட்டுத் 101
▁கையே 101
▁கொடுத்தான் 101
▁சக்தியின் 101
▁சிட்டி 101
▁சுழற்சி 101
▁செயற்பாடுகள் 101
▁செய்கின்ற 101
▁செய்யப்படவில்லை 101
▁ஜான் 101
▁தரக்கூடிய 101
▁தளத்திற்கு 101
▁திருச்ச 101
▁துறைகளுக்கு 101
▁துறைமுகத்தில் 101
▁நபர்களுக்கு 101
▁நீரை 101
▁நெச 101
▁நெரிச 101
▁பண்பாட்டு 101
▁பயன்படுத்தலாம் 101
▁பவன 101
▁பெயர்கள் 101
▁பொருள்களின் 101
▁போர்வ 101
▁மாட்டாது 101
▁முடிவுக்குக் 101
▁மேக 101
▁மேற்குக் 101
▁ரஹ்மான் 101
▁லிருந்து 101
▁லெப 101
▁வதந்த 101
▁வர்த்தகப் 101
▁வலய 101
▁வளர்க்கும் 101
▁வழங்குவதாக 101
▁வழிவகுத்தது 101
▁வித்யாலயா 101
▁விலங்குகள் 101
▁வேண்டியதில்லை 101
ec 100
ern 100
erv 100
og 100
ச்சின 100
ஜியா 100
ஞ்சீ 100
ட்சம் 100
தளம் 100
திகா 100
த்தட்ட 100
த்தனமாக 100
த்தூ 100
த்தைவிட 100
நெட் 100
னியும் 100
பண 100
பாடும் 100
பிஎஸ் 100
மிட்டு 100
ம்பர 100
ரியாக 100
ர்களுக்குப் 100
ர்வ் 100
றிந்த 100
வாயு 100
வாள 100
ாட்சிய 100
ார்ட 100
ிவர 100
்கீழ் 100
▁அந்நாட்டின் 100
▁அனைத்திற்கும் 100
▁அழிக்கப்பட்ட 100
▁ஆர்ட 100
▁இமாச்சல 100
▁உடைத்து 100
▁உருவாக்கு 100
▁கலைக்க 100
▁குற்றவாளிகள் 100
▁கைவினைப் 100
▁கோர் 100
▁சாட்டினார் 100
▁சிபிஐ 100
▁சேமிப்புக் 100
▁டிரம் 100
▁தமிழ்நாட்டின் 100
▁தலைவரை 100
▁நீக்கப்பட்ட 100
▁நேரடியான 100
▁பச்சை 100
▁பிலிம்ஸ் 100
▁பெட்டி 100
▁பெருந்தோட்ட 100
▁மறைவு 100
▁ராய 100
▁ராவ 100
▁லோக் 100
▁விளக்கு 100
▁வீரம் 100
▁வேளைகளில் 100
காதல் 99
குத 99
க்கப்பட்டார் 99
சக 99
டங்க 99
தக 99
நீக்க 99
பங்க 99
பிள 99
ப்போட்ட 99
மண 99
ரகம் 99
ருக்குள் 99
ர்களுடைய 99
ல்களால் 99
வியர் 99
ிருக்கும்போது 99
ீத 99
ுடனேயே 99
ெள 99
▁அதிசய 99
▁அப்பகுதியில் 99
▁அப்பாற்பட்ட 99
▁அவமான 99
▁ஆயுர்வே 99
▁ஆஷா 99
▁இம்ம 99
▁இயை 99
▁இருப்பதையும் 99
▁உடன்படிக்கையில் 99
▁எல்லாவ 99
▁எழுதுகிறார் 99
▁கருதப்பட்ட 99
▁கருப்புப் 99
▁கான்ப 99
▁குஜரா 99
▁குடா 99
▁குடியே 99
▁குடியேறிய 99
▁சம்மதி 99
▁சவுத் 99
▁சிங்களப் 99
▁சீர்த்த 99
▁ஜு 99
▁ஞாயிறு 99
▁டொனால்ட் 99
▁துரிதமாக 99
▁தெரிவித்தன 99
▁தேடு 99
▁நிர்ணயிக்க 99
▁நிலையத்திற்கு 99
▁நேய 99
▁பயனற்ற 99
▁பயிலும் 99
▁பருத்தி 99
▁பற்றியது 99
▁பிரமி 99
▁பென 99
▁போடு 99
▁மருத்துவச் 99
▁மீளா 99
▁ரீதிய 99
▁லோக 99
▁வங்கியில் 99
▁வந்தான் 99
▁வாக்குகளைப் 99
▁விளையாட்டுகள் 99
▁வேண்டுமானால் 99
▁ஸ்கொட் 99
ax 98
co 98
q 98
அமை 98
கப் 98
க்களால் 98
க்காகவும் 98
ங்க் 98
னால 98
படுத்தி 98
பவர்களாக 98
பிஐ 98
பென் 98
ளிய 98
வாரா 98
விமான 98
விரோத 98
ஸ்கர் 98
ிகளிடமிருந்து 98
ித்துள்ளார் 98
ிப்பதன் 98
ுட்படுத்த 98
▁அருணாச்சலப் 98
▁அருமையான 98
▁ஆறாவது 98
▁உச்சநீதிமன்றம் 98
▁உடனடிய 98
▁உயரமான 98
▁ஊனமுற்ற 98
▁எவருக்கும் 98
▁ஏய் 98
▁ஒருவராக 98
▁கதா 98
▁கன் 98
▁காசநோய் 98
▁காண்பதற்கு 98
▁காயமடைந்தனர் 98
▁சின்னம் 98
▁சீர் 98
▁சுற்றுப் 98
▁செய்கின்றது 98
▁டார் 98
▁டென்மார்க் 98
▁தாமதம் 98
▁தாரா 98
▁திட்டமாக 98
▁நடா 98
▁நன்கொடை 98
▁நாடுகளான 98
▁நாவ 98
▁நெல் 98
▁பகுதியைச் 98
▁பலியான 98
▁பிரா 98
▁மனத 98
▁மீரா 98
▁முக்த 98
▁வண்ட 98
▁வந்தே 98
▁வரவழை 98
▁வலிய 98
▁விதம் 98
▁வேண்டு 98
▁வைத்திருப்பத 98
1967 97
CIO 97
ish 97
எனது 97
கன 97
ங்களாகவே 97
சந்திர 97
டியால் 97
துரு 97
ந்துகொள்ளும் 97
புல 97
ப்பைத் 97
மீக 97
ருவதாக 97
ழுத்த 97
ஸிற்கு 97
ாக்கள 97
ாட்டுத் 97
ேகன் 97
ொன்றை 97
ொள்கிறது 97
்தாம் 97
▁அநேகமாக 97
▁ஆட்சிக் 97
▁இணைத்த 97
▁உயர்த்திக் 97
▁உற்பத்தியாளர் 97
▁எல்லைப்புற 97
▁ஏவி 97
▁ஒப்படை 97
▁ஓய்வுபெற்ற 97
▁கணக்கிட 97
▁காங்கிரசின் 97
▁காட்டவில்லை 97
▁காரணங்களால் 97
▁காரணங்களுக்காக 97
▁கொள்கின்றனர் 97
▁சாராத 97
▁சிகிச்சைப் 97
▁சூட்ட 97
▁சூறையா 97
▁செய்வதும் 97
▁தண 97
▁தாகூர் 97
▁திரைப்படத் 97
▁திரையுலக 97
▁துவங்கிய 97
▁நடத்தப்படுகிறது 97
▁நுழைந்து 97
▁நேர்மறையான 97
▁பிரமாண்ட 97
▁பூரண 97
▁பெய்ய 97
▁பெற்றிருக்கும் 97
▁மக்களுக்காக 97
▁மணிநேர 97
▁மனது 97
▁மன்மோகன் 97
▁மரக்க 97
▁மலேசியா 97
▁மைதானத்தில் 97
▁வங்கிகளில் 97
▁வாய்வ 97
▁விட்டால் 97
▁வியத்தகு 97
▁வியாபாரம் 97
▁விலக்கிக் 97
▁வேண்டுமானாலும் 97
%) 96
1956 96
tamil 96
க்கப்படும் 96
டிகளில் 96
ட்களில் 96
த்தினருக்கு 96
ந்தீ 96
பாத்தில் 96
பார்த்த 96
ப்பட்டதை 96
ப்பார்த்த 96
ப்பைப் 96
ம்பிய 96
ய்யா 96
ிகொண்ட 96
ிக்குரிய 96
ிப்பான 96
ிற்கே 96
ிலின் 96
▁அறிவிக்கும் 96
▁அவற்றிற்கு 96
▁ஆண்டிற்கான 96
▁ஆந்திரப்பிரதேச 96
▁ஆர்வமாக 96
▁ஆளுந 96
▁இசைவு 96
▁இல்லாம 96
▁உத்திய 96
▁எஸ்டேட் 96
▁ஏற்பாட்ட 96
▁கட்டமைப்பில் 96
▁கண்ணாடி 96
▁கல்த 96
▁கிழக்கிலும் 96
▁குண்டுவெ 96
▁குறிப்பில் 96
▁குறியீட்டு 96
▁குறைக்கப்பட்ட 96
▁கூற்றை 96
▁கேள்விகளை 96
▁கையாண்டு 96
▁கொழ 96
▁சாந்த 96
▁சுமையை 96
▁செய்கின்றனர் 96
▁செய்வதற்க 96
▁சேவைகளில் 96
▁சொற்கள் 96
▁சொற்றொட 96
▁சொல்வத 96
▁தகவல்களைப் 96
▁தமிழகம் 96
▁தளபதிகள் 96
▁தழுவ 96
▁தொழில்களில் 96
▁நெறிமுறை 96
▁பண்பாடு 96
▁பயணிக்க 96
▁பயிற்சியில் 96
▁பயிற்றுவ 96
▁பலருக்கு 96
▁போராடிய 96
▁மணியளவில் 96
▁மன் 96
▁முகவரி 96
▁முதலீட்டில் 96
▁வகுப்புகள் 96
▁வணிகப் 96
▁வரிச 96
▁வழக்குகளை 96
▁வாட் 96
▁விஜே 96
▁வினா 96
▁விளங்கிய 96
▁விளைபொரு 96
▁விழை 96
▁வீட்டின் 96
CPI 95
IV 95
ail 95
ence 95
eric 95
so 95
கெ 95
க்கும்போது 95
சப 95
சேஷ 95
ட்டர்கள் 95
தனை 95
தில 95
த்திரி 95
த்திரு 95
நம்பிக்கை 95
னையை 95
பசு 95
பவை 95
பும் 95
ப்ட் 95
ப்படுத்தப்பட்டது 95
ப்பட்டதுடன் 95
ப்பாளர் 95
ப்பிட்ட 95
மதிய 95
மேன் 95
மைத்து 95
மையற்ற 95
யிலில் 95
ற்றுவ 95
லைன் 95
ள்ளது 95
வைக்கும் 95
ஷ்கர் 95
ஸாக 95
ாக்கும் 95
ிகளிலிருந்து 95
ென்ன 95
்களிலும் 95
▁அடைக்கப்பட்ட 95
▁அதிகாலை 95
▁அன்னிய 95
▁அபராதம் 95
▁அறிவாற்றல் 95
▁அலைவரிச 95
▁ஆடி 95
▁ஆதரவளிக்க 95
▁ஆதிக்கத்தை 95
▁இவர்களுடைய 95
▁எண்ணி 95
▁எமிரே 95
▁ஏழ்மை 95
▁கட்டுரையை 95
▁காட்சிப்படுத்த 95
▁சரக்க 95
▁சரக்குகளை 95
▁சூழ்நிலைகளில் 95
▁சேர்ந்தவர் 95
▁ஜப்பானில் 95
▁தந்தார் 95
▁துன்புறுத்த 95
▁தொழில்முறை 95
▁தோற்க 95
▁நாட்டுத் 95
▁நாளான 95
▁படுக்கை 95
▁பணிபுரி 95
▁பண்பு 95
▁பரம்ப 95
▁பின்னி 95
▁பிரசுர 95
▁பிரதிநிதியாக 95
▁பெற்றிருக்கிறது 95
▁பொறுப்பே 95
▁மருத்துவர் 95
▁மாநிலங்களை 95
▁ருவா 95
▁வம்சாவளிய 95
▁வரப்பட்ட 95
▁வாழ்க்கைக்கு 95
▁விடுதல 95
▁விளக்கும் 95
▁வெளிப்பட்ட 95
▁வேண்டியிருந்தது 95
▁வேண்டுகோ 95
▁வைத்திருப்பது 95
CSU 94
af 94
ஜு 94
ணிகளை 94
த்தியை 94
மாக்கிய 94
மின 94
ரன்ஸ் 94
ராவ் 94
ருமே 94
ர்ச்சிய 94
வராய 94
வர்களைப் 94
வீதம் 94
வுக்கான 94
ாமை 94
ாரணமாக 94
ாவல் 94
ிகளோ 94
ிச்ச 94
ிண 94
ியானது 94
ுடை 94
▁அபே 94
▁ஆகஸ்டு 94
▁ஆட்டம் 94
▁ஆண்டுகளை 94
▁இதைவிட 94
▁இத்துடன் 94
▁இயந்திரம் 94
▁ஊடுருவ 94
▁கல்லூரியின் 94
▁சந்திரசேகர் 94
▁சபைக்கு 94
▁சாகச 94
▁செய்தித்த 94
▁சோதி 94
▁தனித்துவ 94
▁தலைவ 94
▁திட்டமானது 94
▁தோன்றி 94
▁நடப்பது 94
▁நாளே 94
▁நெருங்க 94
▁நோக்கத்தில் 94
▁பணிகளையும் 94
▁பதினைந்து 94
▁பழங்கள் 94
▁பழி 94
▁பீட 94
▁புலம்ப 94
▁பூமியில் 94
▁பெற்றவர் 94
▁பெல்ஜிய 94
▁பொருளை 94
▁பொறுத்து 94
▁போடும் 94
▁மற்றவர்களுக்கு 94
▁முதற்ப 94
▁முயற்சித்த 94
▁வணிகர்கள் 94
▁விசாரணைகள் 94
▁விடவும் 94
▁வீசி 94
▁வெடிக்க 94
if 93
கட 93
க்கூடியதாக 93
க்கூடியது 93
சிறப்பு 93
டின் 93
ண்டிய 93
தம 93
த்துக்குள்ள 93
ன்களும் 93
பிள் 93
ப்பகுத 93
ப்பட்டுக் 93
ப்பழ 93
ப்புகளும் 93
முகம் 93
மைகளின் 93
ரத்தின் 93
வற்றின் 93
வாசிகள் 93
ாமலேயே 93
ிருப்பதும் 93
ுடன 93
்களால் 93
▁அரு 93
▁அர் 93
▁அவற்றுக்கு 93
▁அவற்றைப் 93
▁ஆபிரகாம் 93
▁ஆப்க 93
▁ஆய்வை 93
▁இடம்பெய 93
▁இதற்கென 93
▁இதழில் 93
▁இருத்த 93
▁உதவு 93
▁உள்க 93
▁உள்ளடங்கிய 93
▁எதிர்மறை 93
▁எந்தச் 93
▁எல்லோருக்கும் 93
▁ஒருங்கிணைக்கும் 93
▁ஒழுங்கை 93
▁கட்டளையிட்டார் 93
▁கிரக 93
▁குடும்பங்களின் 93
▁கூர்மையான 93
▁கோபி 93
▁சகோதரன் 93
▁சார்புடைய 93
▁சிங்கப்பூ 93
▁செந்தில் 93
▁செய்துவ 93
▁செய்யவேண்டிய 93
▁சேவைத் 93
▁சொத்துரிமை 93
▁தண்ணீர 93
▁தனு 93
▁தரவில்லை 93
▁தாங்கினார் 93
▁திங்கள் 93
▁திறனில் 93
▁தொன்மையான 93
▁தோட்டக்கலை 93
▁நடமாடும் 93
▁நாட்டிய 93
▁நீட்டிப்பு 93
▁நெறிமுறைகளை 93
▁பன்ன 93
▁பவன் 93
▁பிரான்சுவா 93
▁புதை 93
▁மகாரா 93
▁முதியோர் 93
▁மேல்த 93
▁யாருக்கும் 93
▁ரிச்சர்ட் 93
▁வழிப்ப 93
▁வித்யா 93
▁விபரங்கள் 93
▁விரிவா 93
▁விளைவிக்கும் 93
▁விவரித்த 93
▁ஷூ 93
rist 92
ஃபா 92
கத் 92
க்கல 92
ச்செல்லும் 92
டிக்கப்பட்ட 92
ட்டுமான 92
திருப்ப 92
த்திலோ 92
னவாக 92
ப்பர 92
ப்பிட 92
யாவின் 92
ராவில் 92
ரிச 92
ல்லாமல் 92
வனின் 92
விட்டர் 92
வெளியில் 92
ாக்களும் 92
ிக்கள் 92
ுக்கொள்ளும் 92
ோருக்கான 92
▁அண்ணா 92
▁அதைவிட 92
▁அறிமுகமான 92
▁அவுஸ்திரேலிய 92
▁இட்ட 92
▁இப் 92
▁இவைகள் 92
▁உறுதிசெய்ய 92
▁கட்டணங்கள் 92
▁கண்களை 92
▁கருப்பு 92
▁கலாச்சாரத்தின் 92
▁கிளம்ப 92
▁குடும்பத்திற்கு 92
▁கேள்விக்க 92
▁கையக 92
▁கொள்ளப்பட 92
▁சங்கத்தில் 92
▁சிலவற்றை 92
▁சுருக்கமாக 92
▁செயலிய 92
▁தானும் 92
▁திறமைகளை 92
▁தீயணைப்பு 92
▁தோற்றத்தை 92
▁நிமி 92
▁நிர்வாகி 92
▁நிலையையும் 92
▁படத்திலும் 92
▁பட்டதார 92
▁பரு 92
▁பாடலுக்கு 92
▁பாட் 92
▁பிரதிபலிப்ப 92
▁பேரு 92
▁பொதி 92
▁மணிரத் 92
▁மதிப்பி 92
▁மனப்பான் 92
▁மறுத்துவிட்டார் 92
▁மாறுத 92
▁மிசோரம் 92
▁மீதமுள்ள 92
▁மூலை 92
▁மையப் 92
▁யுரேனிய 92
▁ராக்க 92
▁வலியுறுத்தியது 92
▁வழிவ 92
▁வார்த்தையை 92
▁விபர 92
▁வியாத 92
ack 91
எஸ்எம் 91
கக் 91
சாத 91
சாய் 91
சியாவின் 91
சிஸ் 91
செய்க 91
ச்சன் 91
ச்சீட்டு 91
ச்செய்ய 91
டித் 91
டியது 91
த்தவர்கள் 91
த்துவதற்கு 91
நேரம் 91
பாட்டை 91
பார்த்து 91
ருட 91
வரைவு 91
வினால் 91
வியாக 91
ிக்கப்படுகின்றன 91
ியான் 91
– 91
▁அரங்கம் 91
▁அளித்துள்ளார் 91
▁ஆனந்த் 91
▁இடத்திலும் 91
▁இருத்தல் 91
▁இருந்தவர்கள் 91
▁இலங்க 91
▁உடுத்த 91
▁உற்பத்திக்கு 91
▁ஏற்றிச் 91
▁கழிவுகளை 91
▁காற்றழுத்த 91
▁குழுமம் 91
▁கைகோ 91
▁கொள்கைகளில் 91
▁சட்டப்பூர்வ 91
▁சமயங்களில் 91
▁சமூகச் 91
▁சென்றிருந்த 91
▁தனிநபர்கள் 91
▁தன்னால் 91
▁தரத்தில் 91
▁தாது 91
▁தானாகவே 91
▁தூண்டி 91
▁தொலைவ 91
▁நம்பிக்கையின் 91
▁நற்ப 91
▁நிகழ 91
▁நிகழ்ச்சித் 91
▁நிர்வாண 91
▁பிகார் 91
▁புத்தர் 91
▁பெறவேண்டும் 91
▁பொறியாளர்கள் 91
▁மதிப்பீட்டை 91
▁மலைவாழ் 91
▁மாவட்டங்களின் 91
▁மெதுவாக 91
▁வருடங்கள் 91
▁வருமானத்தில் 91
▁வழக்கறிஞர்கள் 91
▁வாகனங்களின் 91
▁வாய்ப்புள்ள 91
▁விரும்பாத 91
▁விளம்பரம் 91
▁வேகமான 91
▁வேட்பு 91
\ 90
con 90
ited 90
உத்த 90
சாரம் 90
ச்சின் 90
டில் 90
டுவதில்லை 90
டுவர் 90
ந்தால் 90
னர்கள் 90
பசிபிக் 90
பிடித்து 90
ப்படக்கூடிய 90
ப்பாட 90
ரிமை 90
ரியர் 90
ருக்கள் 90
ர்களிடமிருந்து 90
ற்றுக்கு 90
ள்ளி 90
வெள்ள 90
ஷோ 90
ாவு 90
ிப்புத் 90
ிராஜ் 90
▁அமைச்சரான 90
▁அமைப்பிற்கு 90
▁அறிவிய 90
▁அவளுக்கு 90
▁அவைகளில் 90
▁அவ் 90
▁ஆய்வின் 90
▁இழி 90
▁ஈடுபாட்ட 90
▁உப்பு 90
▁எதிரே 90
▁கடற்பட 90
▁கட்டமைப்பின் 90
▁கண்டம் 90
▁கல்வியாளர்கள் 90
▁காரணமாகவும் 90
▁கார்கள் 90
▁கெல்லி 90
▁கேர் 90
▁சந்தித்தது 90
▁சமூகத்திற்கு 90
▁சுரு 90
▁சூழ்நிலைகள் 90
▁தம்ம 90
▁தற்செய 90
▁திருத்தி 90
▁திரும்பக் 90
▁தூர்தர் 90
▁நகரத்தை 90
▁நந்த 90
▁நிர்வாகத் 90
▁நிலவி 90
▁பதிப்பில் 90
▁பழக 90
▁பாடம் 90
▁பாரதி 90
▁பாலி 90
▁பிணைக்க 90
▁பின்ப 90
▁புகலிடம் 90
▁பூச்ச 90
▁போன்றவற்ற 90
▁மறுபுறம் 90
▁மறைமுகமாக 90
▁மாதாந்திர 90
▁முக்கியமானதாக 90
▁மேற்கண்ட 90
▁யூன 90
▁வரைய 90
▁வர்த்தகக் 90
▁விகிதங்கள் 90
▁விரும்பினார் 90
▁வீசிய 90
▁வெறிய 90
1981 89
1988 89
FDP 89
ater 89
ess 89
ler 89
கல 89
ஞ்சிய 89
டிவ் 89
டுகளிலும் 89
ணத்தின் 89
த்திடமிருந்து 89
ந்தரி 89
ப்படுவதோடு 89
ப்பூ 89
மிக் 89
ராஜன் 89
ர்க்கு 89
வதிலும் 89
விருந்த 89
வேளை 89
வைச் 89
ஹெ 89
ிக்காட்ட 89
ிடை 89
ிருப்பர் 89
ொல்ல 89
ொழில் 89
்களுடன் 89
• 89
▁அதனைத் 89
▁அயோ 89
▁அளப்ப 89
▁அவதான 89
▁ஆட்டோ 89
▁இருந்ததில்லை 89
▁உடையது 89
▁உதவிப் 89
▁உதவியாளர் 89
▁உத்திகள் 89
▁ஊர்வல 89
▁எஞ்சியுள்ள 89
▁எதுவு 89
▁ஒழிக்க 89
▁கடக்க 89
▁கடல 89
▁கட்டிடங்கள் 89
▁களைய 89
▁கவனிப்பு 89
▁காட்டுவது 89
▁கீர்த்தி 89
▁குறியீ 89
▁சீனாவை 89
▁செல்க 89
▁ஜின் 89
▁ஜோஷி 89
▁தங்கியிருந்த 89
▁தமிழாக்கம் 89
▁தியேட்டர் 89
▁நடப்ப 89
▁நெருங்கி 89
▁படப்பிடிப்ப 89
▁படையில் 89
▁பட்டயம் 89
▁பரிசோதி 89
▁பலவகையான 89
▁பாப 89
▁பாபு 89
▁பிக்க 89
▁பிரிவுகளும் 89
▁புதன்கிழமை 89
▁புலம்பெயர் 89
▁மரபார்ந்த 89
▁முன்னறிவ 89
▁மையத்திற்கு 89
▁யூகோஸ்லாவிய 89
▁ராதா 89
▁லியோன் 89
▁வகைகளில் 89
▁வசிப்ப 89
▁வடக்கே 89
▁வரிய 89
▁வருவார்கள் 89
▁வளர்ச்சிக் 89
▁வழங்கினர் 89
▁வாங்கு 89
▁விஞ்ஞானி 89
▁விட்டதாக 89
▁வித்த 89
▁வியாழக்கிழமை 89
▁வெல்ல 89
▁வெள்ளிக்க 89
▁வேலைகளில் 89
▁ஹெல் 89
AFL 88
அனைத்து 88
ஒரே 88
காத 88
சுக்கு 88
தானே 88
த்தரம் 88
பலி 88
ப்பின்பு 88
மழை 88
லக் 88
லூ 88
ல்களைப் 88
வகை 88
வழிக் 88
வுட 88
ஸ்கள் 88
ஸ்கார் 88
ிவைத்து 88
ீட்டுத் 88
ுகொள்ளும் 88
ுவர 88
ூரு 88
▁அடங்க 88
▁அடைவது 88
▁அதிகமாய் 88
▁அழிக்கும் 88
▁அழுக 88
▁ஆணையாளர் 88
▁ஆண்டுகளின் 88
▁இரண்டரை 88
▁இரத்தக்க 88
▁இறையாண்மை 88
▁இல்லத்தில் 88
▁ஊடகங்களின் 88
▁எண்ணிக்கையும் 88
▁எழுபது 88
▁ஒருசில 88
▁ஒளிபர 88
▁ஓரளவிற்கு 88
▁ஓரா 88
▁கடிதத்தை 88
▁காய்ச்சல் 88
▁காலணி 88
▁கீத 88
▁கொடுப்ப 88
▁சங்கிலி 88
▁சாமுவேல் 88
▁சிபி 88
▁சிலையை 88
▁சேதம் 88
▁சைக்கிள் 88
▁டான் 88
▁தத்துவம் 88
▁தவிர்க்கும் 88
▁திபெத்திய 88
▁தீர்ப்ப 88
▁தொற்றுநோய் 88
▁நடுப்பகுதியில் 88
▁நபர்களை 88
▁நாளன்று 88
▁நு 88
▁நோய்களை 88
▁பக் 88
▁பலதர 88
▁பாதாள 88
▁பாத் 88
▁பிடித்துக் 88
▁புட 88
▁புரட்சிய 88
▁பூட்ட 88
▁மண்டலத்தின் 88
▁மனிதர்களின் 88
▁மின்ன 88
▁மீட்புப் 88
▁முன்னுத 88
▁வகித்து 88
▁வரலாற்றிலேயே 88
▁வளைகுட 88
▁விழுந்தது 88
▁வோ 88
▁ஸ்ட்ரீ 88
1972 87
eral 87
uk 87
ஃபி 87
இன்று 87
க்கணக்கில் 87
ங்கிப் 87
சிக 87
ச்சட்ட 87
ச்சில் 87
டந்த 87
தாரம் 87
த்துக்கொள்ளும் 87
பக்க 87
பழ 87
பாதை 87
பிறகு 87
பிலி 87
ப்படவும் 87
ப்பாள 87
மியின் 87
முடியாமல் 87
மையாகக் 87
றையில் 87
ற்றல் 87
ற்றுக் 87
லாவின் 87
ல்கா 87
விடம் 87
ிள 87
ிஸ்ட 87
ொள்கின்றனர் 87
்ட் 87
்தர 87
்துறையின் 87
▁ஃபோ 87
▁அசை 87
▁அடிப்படைத் 87
▁அதற்குத் 87
▁அனுப்பியது 87
▁அமைச்சரவையில் 87
▁அமைதிப் 87
▁அரசிடம் 87
▁ஆடியோ 87
▁ஆய்வாளர் 87
▁ஆர்யா 87
▁ஆற்றின் 87
▁இல்லாவிட்டால் 87
▁இழப்பை 87
▁உள்ளட 87
▁எதிரி 87
▁என்றோ 87
▁கண்டுபிடித்து 87
▁கிஷ 87
▁குளிர 87
▁கூற்று 87
▁கொண்டிருப்பதால் 87
▁கொள்கிறார் 87
▁சாத்தியக்கூற 87
▁சீரமை 87
▁சுவர் 87
▁சூட 87
▁சொந்தக் 87
▁சொந்தமாக 87
▁ஜெட் 87
▁தனித்தனி 87
▁தன்னிடம் 87
▁தெரியாமல் 87
▁தெரிவிக்கப்பட்ட 87
▁தேவையில் 87
▁நதிய 87
▁நிலப்பரப்பில் 87
▁பணிகளும் 87
▁பயோ 87
▁பரந்து 87
▁பரவிய 87
▁பாகிஸ்தானில் 87
▁பிணைப்பு 87
▁பின்னரே 87
▁பிரச 87
▁பெய் 87
▁பெருமையை 87
▁மாநகர 87
▁மாவட்டத்தின் 87
▁மூடு 87
▁மேற்கொண்டனர் 87
▁வசதிகளுடன் 87
▁வரைக்கும் 87
▁வாரத்திற்கு 87
▁வீட 87
▁வெளியேறி 87
▁வைத்துக்கொள்ள 87
▁ஸ்ட் 87
115 86
194 86
1982 86
IG 86
இன்ன 86
சென்ற 86
த்தொடர்ந்து 86
நிர 86
ன்மிக்க 86
பற்றிய 86
புறத்தில் 86
ப்பூரில் 86
ப்ள 86
மலே 86
முண்டு 86
ம்பேர் 86
லியும் 86
ல்களுக்கான 86
வண்ண 86
வாவின் 86
விலிருந்து 86
வோன் 86
ஷ்டி 86
ாங்க் 86
ிதம் 86
ித்துச் 86
ினைக் 86
ிருத்தல் 86
ுக்குள்ளேயே 86
ையுடைய 86
ொன்ற 86
்டின் 86
▁அடிப்படைப் 86
▁அதன்மூலம் 86
▁அறையில் 86
▁அளவுகோ 86
▁அழுத்தத்தின் 86
▁இந்தியர்களுக்கு 86
▁இயற்கையான 86
▁இருப்பதற்கான 86
▁இறை 86
▁உயிர்களை 86
▁உள்ளிட்டவை 86
▁எரிய 86
▁எருசலேமில் 86
▁கட்சிகளில் 86
▁கற்பித்தல் 86
▁கல்லூரிகளில் 86
▁காட்சிக்கு 86
▁குத்துவ 86
▁குற்றஞ்ச 86
▁சந்தைப் 86
▁சர்ச்ச 86
▁சிறப்பம்ச 86
▁சிலருக்கு 86
▁சுற்றிவ 86
▁செவி 86
▁ஜம்ம 86
▁தரையில் 86
▁தளங்களில் 86
▁திருப்பிக் 86
▁திருவிழ 86
▁திரைக்கு 86
▁தில 86
▁நாடுகளிடையே 86
▁நாட்டிற்கும் 86
▁நிகழும் 86
▁நிரூபிக்க 86
▁நிலத்தின் 86
▁நீண்டகாலம் 86
▁நீர்மின் 86
▁நுகர்வோ 86
▁படையெடுத்த 86
▁பாகிஸ்தானின் 86
▁பின்பற்று 86
▁பிரபுக்கள் 86
▁பெட்டிகளில் 86
▁பொறுப்புகளை 86
▁மாநிலத் 86
▁மிகை 86
▁மீன்பிடி 86
▁முகத்தில் 86
▁முகவ 86
▁மோக 86
▁வன் 86
▁வளர்வ 86
▁வாய்ப்பும் 86
▁விடுத்து 86
▁விதித்த 86
▁விளக்குகள் 86
▁வெறி 86
▁வைத்தல் 86
+ 85
ங்கிற்கு 85
சிக்கு 85
செல் 85
ட்சியும் 85
ட்டது 85
தங்கள் 85
திகளில் 85
த்தினரும் 85
ன்னு 85
புத் 85
ப்பற்றிய 85
ப்போகிறது 85
மைகளுக்கு 85
ரவி 85
ரிசி 85
ற்றதாக 85
ல்வி 85
விற்கும் 85
ிகளுக்குத் 85
ுக்குள்ளும் 85
ுதியை 85
ும்படி 85
ேயர் 85
▁அயர்லாந்து 85
▁அலைக்க 85
▁ஆண்டிற்குள் 85
▁இந்தோனேசியா 85
▁இருக்கக்கூடும் 85
▁இலத்தீன் 85
▁உயர்நிலைப் 85
▁எழும் 85
▁எவ்வாறாயினும் 85
▁கத்தோலிக்க 85
▁கமிட்ட 85
▁காம 85
▁காரணங்களை 85
▁கிடைத்துள்ள 85
▁குருதி 85
▁கோரினார் 85
▁சமமாக 85
▁சம் 85
▁சாந்தி 85
▁சான 85
▁சாப 85
▁சுமந்து 85
▁சேனா 85
▁சொல்வது 85
▁ஜால 85
▁தகவல்களையும் 85
▁தரித்த 85
▁துவார 85
▁தொல்லியல் 85
▁தோல்வியுற்ற 85
▁நகரங்களின் 85
▁நாடகம் 85
▁நாளொன்றுக்கு 85
▁நிறைவடைந்த 85
▁நிலநடுக்க 85
▁நிலையங்களின் 85
▁நிழ 85
▁நீட்டி 85
▁பணியாளர்களை 85
▁பரத் 85
▁பரம 85
▁பார்வையி 85
▁பின்பற்றும் 85
▁புழ 85
▁போரிட 85
▁போர்கள் 85
▁மக்களவைத் 85
▁வராது 85
▁விடக் 85
▁வீதி 85
▁வேண்டுகோளை 85
1964 84
1978 84
1987 84
ct 84
ll 84
ok 84
ress 84
அதி 84
இட 84
குறைந்த 84
க்ஸ 84
ங்களினால் 84
சக் 84
சேர் 84
ஜக் 84
ந்துகொள்ள 84
னியை 84
பரு 84
ப்பானது 84
மடையும் 84
மற்றும் 84
மல் 84
ம்பா 84
ருகின்ற 84
ருகே 84
ருடனும் 84
வடிக்க 84
ினைப் 84
ியாகப் 84
ிலட 84
ில்லாமல் 84
ிழா 84
ுகொண்டார் 84
ுன 84
ூறிய 84
ைகளாலும் 84
்தே 84
▁... 84
▁அகற்றப்பட்ட 84
▁அடிமட்ட 84
▁அமர்வில் 84
▁ஆக்கிய 84
▁இணைப்புத் 84
▁இரவும் 84
▁இலங்கைக்கு 84
▁இலட்சக்கணக்கான 84
▁எலும்ப 84
▁ஒப்பிட 84
▁கட்டுக்க 84
▁கப்பல்களை 84
▁கவர்ச்சி 84
▁குறுக்கே 84
▁குறைகள் 84
▁கூறின 84
▁கொடுத்தல் 84
▁சங்கீத 84
▁சட்டத் 84
▁சுட்டிக்காட்டி 84
▁சொல்க 84
▁டெக் 84
▁தயாரிப்பது 84
▁தலைநக 84
▁தலைநகர 84
▁திறனும் 84
▁தெருக்க 84
▁தெற்கில் 84
▁நிலையின் 84
▁நேரடித் 84
▁நேர்ந்த 84
▁பக்கத்து 84
▁பட்டின 84
▁பட்டிய 84
▁பதின 84
▁பயிரிட 84
▁பலதரப்பட்ட 84
▁பாட்னா 84
▁பாதுகாப்பற்ற 84
▁பாரதிராஜா 84
▁பிரச்சினையாக 84
▁பிரார்த்தனை 84
▁பிறப்பு 84
▁பெயரால் 84
▁பெரிதாக 84
▁பேசிக் 84
▁போர்த்த 84
▁ப்ரீ 84
▁மாநிலங்களவை 84
▁முன்னறிவிப்பு 84
▁மையக் 84
▁யாத்திர 84
▁யாவும் 84
▁யூனி 84
▁யூரே 84
▁வடிவிலான 84
▁வன்ம 84
▁விழிப்புணர்வ 84
che 83
ies 83
சிங்கம் 83
சிறு 83
டுவதும் 83
தொட 83
நடை 83
ன்பது 83
பர்ட் 83
புரம் 83
ப்பாளர்கள் 83
மாக்கல் 83
மாட்டார் 83
மெல்லாம் 83
யால் 83
யோகம் 83
ய்ட 83
ராப் 83
லியின் 83
லோன் 83
ல்லாம் 83
ழ்ந்த 83
வதாகும் 83
வாஸ் 83
விளை 83
ாதீர்கள் 83
ாவுக்குப் 83
ிகி 83
ிடமிருந்தும் 83
ிப்பதற்க 83
ிராம 83
ிவாக 83
்தல் 83
▁p 83
▁அங்கம் 83
▁அமைக்கவும் 83
▁அறிவித்தனர் 83
▁அளிக்கின்றன 83
▁ஆபிர 83
▁ஆய்வறிக்க 83
▁இருவரையும் 83
▁இலாபத்தை 83
▁இவைகளை 83
▁உட்கார்ந்து 83
▁உண்டாக்கி 83
▁ஒன்றுக்கொன்று 83
▁ஓடும் 83
▁கலக்க 83
▁காரணியாக 83
▁குடிவ 83
▁கைக்கு 83
▁கைதுசெய்ய 83
▁சந்தைப்படுத்த 83
▁சாமி 83
▁சார்பான 83
▁சித்தரி 83
▁சித்திரவத 83
▁சுற்றுலாத்துறை 83
▁செயல்களில் 83
▁செய்பவர்கள் 83
▁செல்லவும் 83
▁தனியான 83
▁தமிழகத்தில் 83
▁தலைநகரில் 83
▁தால 83
▁துணிவ 83
▁தெரியுமா 83
▁தேனீ 83
▁தேவைகளையும் 83
▁தோள் 83
▁நகர்வ 83
▁நன்ன 83
▁நாகாலாந்து 83
▁நினைவூட்ட 83
▁நிறுத்தத்தில் 83
▁பணிகளுக்காக 83
▁பன் 83
▁பயந்த 83
▁பயமுறுத்த 83
▁பாதிப்புக்கு 83
▁போரைத் 83
▁மக்களைப் 83
▁மதிப்பீடுகளை 83
▁மனதை 83
▁முப்ப 83
▁மும்ப 83
▁முழுப் 83
▁லெப்டினன்ட் 83
▁வாய்ப்புக்கள் 83
▁விசாக 83
▁விரும்பி 83
▁விழுமிய 83
▁விஸ்வ 83
▁வெனி 83
▁வெளியீட்ட 83
192 82
ance 82
ary 82
ug 82
அழக 82
ங்கட 82
ங்களிலே 82
சாய 82
சேகர் 82
ஜை 82
டுகின்றது 82
டுக்கும் 82
ணியின் 82
த்திற 82
நவீன 82
நாய 82
நீங்கள் 82
ன்முறை 82
பாடாக 82
மாவை 82
முக்கிய 82
ரூப 82
ஷ்வா 82
ாயுத 82
ாளம் 82
ிகாரம் 82
ுகளுக்குப் 82
ுறுதி 82
்சின் 82
்ய 82
▁அனுப்பினார் 82
▁அப்துல்லா 82
▁அம்சமாகும் 82
▁அவையில் 82
▁ஆஸ்கார் 82
▁ஆஸ்திரேலியாவின் 82
▁இச 82
▁இடத்துக்கு 82
▁இடைத்த 82
▁இதழ் 82
▁இயற்றப்பட்ட 82
▁இளவரசர் 82
▁ஈடுபட்டிருந்த 82
▁உரிமைகளையும் 82
▁உருவாக்கப்பட 82
▁என்பவன் 82
▁ஒன்றைக் 82
▁கடற்ப 82
▁கவனித்த 82
▁காணப்படுகின்றன 82
▁காய்கறிகள் 82
▁காரணத்தை 82
▁காலாண்டு 82
▁குடியேற 82
▁கோல 82
▁சகோதரி 82
▁சிக் 82
▁சோனியா 82
▁ஜவஹர்லால் 82
▁தடுத்தல் 82
▁தன்னம்பிக்க 82
▁தன்மையின் 82
▁தரப்படும் 82
▁தலையில் 82
▁தீமை 82
▁தொடர்ந்தார் 82
▁தொடர்பும் 82
▁நரக 82
▁நாட்டைப் 82
▁நாட்டையும் 82
▁நிரூபித்த 82
▁பசி 82
▁படைக்கும் 82
▁பதவிகளை 82
▁பனி 82
▁பார்த்தார் 82
▁புரோ 82
▁பெருமைக்குரிய 82
▁பொருளாக 82
▁பொறுப்பேற்க 82
▁மகிழ் 82
▁மகிழ்ச்சியுடன் 82
▁மரம் 82
▁மாலும 82
▁மின்னணுவியல் 82
▁முதலமைச்சராக 82
▁முரளி 82
▁மேலாளர் 82
▁மொழிகளிலும் 82
▁யுவ 82
▁ரிச்சார்ட் 82
▁வளர்த்து 82
▁வாரியாக 82
▁விசாகப்பட்டினம் 82
▁விடுபட்ட 82
▁வியட்நாமில் 82
▁வைப்பதற்கு 82
ef 81
land 81
les 81
ure 81
அப் 81
எதிர 81
கித 81
க்கமும் 81
க்களுடன் 81
க்கெ 81
ங்கில 81
சபை 81
சியும் 81
சொல்ல 81
ச்சிய 81
துறை 81
தைக்கு 81
நகர 81
னியர் 81
ன்படி 81
புறம் 81
ரிஸ் 81
வதைத் 81
வையின் 81
ஷனின் 81
ாயும் 81
ாவிடில் 81
ிப்பின் 81
ிப்பும் 81
ிருக்காது 81
ேஸ் 81
ைகளோ 81
்துறையில் 81
்தொ 81
▁அதற்குச் 81
▁அனுப்பப்படும் 81
▁அரசுகள 81
▁அளவாக 81
▁ஆபிரிக்கா 81
▁ஆளில் 81
▁ஆளுக 81
▁இதேபோல 81
▁இப்பிராந்திய 81
▁உத்தம 81
▁உள்ளதால் 81
▁ஒருமைப்பாடு 81
▁கடைகள் 81
▁கணக்குத் 81
▁கண்களில் 81
▁கலைஞர் 81
▁கல்லற 81
▁காலக் 81
▁குட்ட 81
▁கூடு 81
▁கொண்டாலும் 81
▁சந்திப்பில் 81
▁சல 81
▁சாப்பிட 81
▁சிக்கல்கள் 81
▁சீரமைக்க 81
▁சுத்தம் 81
▁சுற்றிய 81
▁செலுத்தப்பட்டது 81
▁சேர்க்கை 81
▁சேவைகளுக்கு 81
▁தண்டிக்க 81
▁திரைய 81
▁தேன் 81
▁தொடர்ச்ச 81
▁தொடர்ந்தது 81
▁நீளம் 81
▁நெறிப்படுத்த 81
▁நோக்கிச் 81
▁பகிர்ந்துகொள்ள 81
▁பயணித்த 81
▁பாதுகாப்பதற்காக 81
▁பிபிசி 81
▁புத்தகத்தை 81
▁புரித 81
▁புள்ள 81
▁பெறுகின்றன 81
▁பொங்க 81
▁போடோ 81
▁போதனைகள் 81
▁போன்றது 81
▁மாநாடுகள் 81
▁முகர்ஜி 81
▁முதலமைச்சர்கள் 81
▁முன்மொழி 81
▁முறையீடு 81
▁மோட்டார்ஸ் 81
▁ரத் 81
▁ராணி 81
▁வடமேற்கு 81
▁வன்முறைகள் 81
▁வளைய 81
▁விட்டுச் 81
▁விதிகளின் 81
▁விதைக்க 81
▁விலக்கி 81
▁வீராங்க 81
▁வெளிப்பட்டது 81
▁ஸ்பெ 81
hi 80
ho 80
och 80
ஃபெ 80
உட 80
ஒய் 80
கள 80
காம 80
க்கப்பட்டனர் 80
க்கிழ 80
ங்கியது 80
ண்டுகள் 80
தேசம் 80
னேன் 80
பெரு 80
போஸ் 80
முதலில் 80
மெண்ட் 80
ம்ப் 80
வராகவும் 80
வேறு 80
ஸ்லோ 80
ாக்குதல் 80
ாய்க் 80
ாளர்களான 80
ிகர 80
ுரை 80
ையாடி 80
▁a 80
▁அதிகபட்சமாக 80
▁அமைப்புடன் 80
▁அரசில் 80
▁அளவும் 80
▁அஹ் 80
▁ஆதரவில் 80
▁ஆறுதல் 80
▁இருவருமே 80
▁இவ்விட 80
▁உலகுக்கு 80
▁உழ 80
▁ஏவுகண 80
▁கிடங்கு 80
▁குடிக்க 80
▁கூறலாம் 80
▁கென் 80
▁கேப்டன் 80
▁கொச 80
▁கோரியது 80
▁செய்வார் 80
▁சொட்டு 80
▁சொற்ப 80
▁தடம் 80
▁தளவாடங்கள் 80
▁திரண்டு 80
▁தொகைகள் 80
▁நாளாக 80
▁நிறைவேற்று 80
▁நெஞ்ச 80
▁பகல் 80
▁பணியமர்த்த 80
▁பவுண்ட 80
▁பாகிஸ்தானிய 80
▁பாசி 80
▁பாய்ச்ச 80
▁பித 80
▁பின்னணிய 80
▁பிரிவைச் 80
▁பொருத்தமாக 80
▁போட்டியிட்ட 80
▁மண்டபத்தில் 80
▁மற்றவர்கள 80
▁மாறியது 80
▁மாறுதல் 80
▁முன்னின்று 80
▁முர 80
▁முழுத் 80
▁முழுமைய 80
▁மேரி 80
▁வகைய 80
▁வளாகங்கள் 80
▁வான்வழி 80
▁வால் 80
▁விக்ர 80
ark 79
gel 79
pe 79
காலத்தில் 79
குமார் 79
ங்கின 79
ட்சிக்கு 79
தென்றும் 79
த்திலிருந்தே 79
த்தொடர் 79
ந்திரிய 79
படியாக 79
மட்டு 79
முறைகளை 79
மையினால் 79
ய்ந்த 79
ராஸ் 79
ர்ட்டில் 79
ளைக் 79
ஷியல் 79
ஸ்கா 79
ஸ்த்த 79
ாயின 79
ிகரமான 79
ுகளோடு 79
ுவந்து 79
ேப் 79
ேஷன் 79
ைக்குக் 79
ையின்றி 79
ொல் 79
▁ஃ 79
▁அட்டவண 79
▁அதையும் 79
▁அன்றாடம் 79
▁அமைந்திருக்கும் 79
▁அருக 79
▁அழைத்துவ 79
▁ஆதாயம் 79
▁இங்கிலாந்தில் 79
▁இடம்பெயர்ந்த 79
▁இத்திட்டத்தில் 79
▁இயற்றிய 79
▁இரண்டையும் 79
▁உடையவர்கள் 79
▁உத்திகளை 79
▁உறுப்பினர்களில் 79
▁உள்ளவர்களுக்கு 79
▁எரிபொரு 79
▁ஐடி 79
▁ஐந்தாம் 79
▁கண்ணோட்டத்தில் 79
▁கருதப்பட்டது 79
▁கருத்தரங்குகள் 79
▁கற 79
▁காணப்பட 79
▁கிடக்கும் 79
▁கிராமங்களை 79
▁குலை 79
▁கொய் 79
▁கொரில்லா 79
▁கோது 79
▁சார்ந்து 79
▁சார்பற்ற 79
▁சிரு 79
▁சிறைச்சால 79
▁சேர்ந்தது 79
▁தடவை 79
▁தயங்க 79
▁தருக 79
▁திங்கட்கிழமை 79
▁துறைகளை 79
▁தெளிவற்ற 79
▁தேஷ் 79
▁தொழிலதிபர்கள் 79
▁நடித்துள்ளார் 79
▁நாட்களை 79
▁நுணுக்க 79
▁பங்களாதே 79
▁படைகளும் 79
▁பணிபுரிந்த 79
▁பயன்படுத்தியது 79
▁பால்க 79
▁பின்த 79
▁புரட்சிக்கு 79
▁பூங்காக்கள் 79
▁பூஜா 79
▁பொம்மை 79
▁போக்கும் 79
▁போட்டோ 79
▁மறுப்பு 79
▁முக்கியமானவை 79
▁முதலிடம் 79
▁முழுவதுமாக 79
▁யே 79
▁வசூலிக்க 79
▁வரையும் 79
▁விதிமுறை 79
); 78
X 78
` 78
ele 78
ive 78
iz 78
que 78
அன்று 78
ங்களுள் 78
சீர் 78
ச்சந்த 78
ட்டான் 78
தமிழ் 78
த்துகள் 78
நோய் 78
னுக்குச் 78
பிள்ள 78
பொருள் 78
ப்ஸ் 78
மகன் 78
மத் 78
மாற்று 78
ரங்கில் 78
ரிம 78
ரியோ 78
லியா 78
லியில் 78
ழுது 78
ார்டு 78
ாவிற்கான 78
ிக்கொண்டிருந்த 78
ிலிருக்கும் 78
ுகளே 78
ுக்கிடையிலான 78
ூடம் 78
ொழில்நுட்ப 78
▁; 78
▁அணிவ 78
▁அணுகும 78
▁அதிகாரபூர்வமாக 78
▁அப்பம் 78
▁அழைப்பின் 78
▁அவசியமானது 78
▁அவையின் 78
▁ஆகக் 78
▁ஆகியவற்றிலும் 78
▁ஆக்கும் 78
▁ஆண்டுகள 78
▁ஆராய்ச்சியில் 78
▁இப்படியான 78
▁இருவருக்கும் 78
▁இறையா 78
▁இல்லாது 78
▁உகாண்டா 78
▁உடல்நலம் 78
▁உற்பத்திச் 78
▁ஒலிபர 78
▁கண்காணிப்பில் 78
▁கலந்தா 78
▁காத்து 78
▁காந்தியடிகளின் 78
▁கார்டியன் 78
▁காவல 78
▁கிடைத்து 78
▁குழுமத்தின் 78
▁கேட்ஸ் 78
▁கொள்வோம் 78
▁சபையை 78
▁சாதனங்களை 78
▁சிப்ப 78
▁சொல்லிக் 78
▁ஜன்ன 78
▁டச்சு 78
▁தடுப்பூ 78
▁தனித்தனியாக 78
▁தயாரிக்கப்பட்டு 78
▁தவறாகப் 78
▁திரட்டி 78
▁திரும்பச் 78
▁துறைமுகங்களில் 78
▁தொகுப்பின் 78
▁தோள 78
▁நகராட்சி 78
▁நம்பகமான 78
▁நாணயம் 78
▁நாயக் 78
▁நிகழ்வுகளில் 78
▁நிகோ 78
▁நிறுவப்பட்டது 78
▁பதிப்பு 78
▁பத்திரிக்கை 78
▁பரந்துபட்ட 78
▁பறவ 78
▁பல்வகை 78
▁பாண்டே 78
▁பார்ப்ப 78
▁பிளாக் 78
▁புகைப்படங்கள் 78
▁புறக்கணிக்க 78
▁புவிசார் 78
▁பேற 78
▁பொருந்த 78
▁மக்கள்தொகை 78
▁மீதிய 78
▁முதன்மைச் 78
▁முறையாகும் 78
▁விடயம் 78
▁வியட்நாம 78
▁விளங்கியது 78
▁வென்று 78
▁வேற்று 78
CSIR 77
mail 77
இந்தப் 77
கர்கள் 77
க்கின்றன 77
சிப்ப 77
டனின் 77
ட்டுக்கு 77
ணத்தை 77
பொருட்கள் 77
ப்படுத்தப்பட்டு 77
ப்புகளுக்கு 77
மாவின் 77
மேயானால் 77
மையிலும் 77
ரோவின் 77
லாளர் 77
ழகம் 77
வானி 77
விகித 77
ிலு 77
ுகு 77
ுக்கிய 77
ேடு 77
▁அவர்களுக்கும் 77
▁ஆரவார 77
▁இன்டர் 77
▁இன்ப 77
▁இழந்தது 77
▁இவற்றுடன் 77
▁இவ்வாறான 77
▁ஈடுபட்டுள்ளனர் 77
▁உடல 77
▁உறவில் 77
▁உள்ளடக்கியதாக 77
▁உள்ளடக்கியது 77
▁எழுதும் 77
▁எழுப்பப்பட்ட 77
▁ஒத்தி 77
▁ஒளிப்பதிவாளர் 77
▁கண்ம 77
▁கத்த 77
▁கனவுகள் 77
▁கீழும் 77
▁கைவிடப்பட்ட 77
▁சந்தைக்கு 77
▁சர்க்க 77
▁சவூதி 77
▁சிங்களத் 77
▁சித 77
▁சேவையின் 77
▁தரவுகள் 77
▁திகழ 77
▁திறந்துவை 77
▁தெற்க 77
▁தோற்கடிக்க 77
▁நடனம் 77
▁நதியின் 77
▁நம்பிக்கையும் 77
▁நாகரீ 77
▁நாற்ப 77
▁நிறுத்தப்பட்ட 77
▁நிறுத்திக் 77
▁பங்குதாரர்கள் 77
▁பதிவிறக்கம் 77
▁பாம் 77
▁பீரங்கி 77
▁புகுந்து 77
▁பூகம்ப 77
▁பூட்டான் 77
▁பேரவை 77
▁பொட்டல 77
▁போபால் 77
▁மணிப்ப 77
▁மாத்திரம் 77
▁மிகக்குறைந்த 77
▁முதலான 77
▁முறைப்படுத்த 77
▁வணிகத் 77
▁வயல் 77
▁வெல் 77
▁வைக்கப்பட்டு 77
▁வைக்கிறது 77
▁ஹாங்காங் 77
ere 76
me 76
mer 76
ohn 76
ult 76
அவ 76
சந்த் 76
ஞ்சம் 76
ஞ்சு 76
ண்டையில் 76
தற்குக் 76
த்திற்கே 76
த்துள்ளார் 76
த்தெ 76
நூற்று 76
நேரத்தில் 76
னமாக 76
னிக்கு 76
ன்களுக்கும் 76
பியூ 76
மயம் 76
மறு 76
முடியவில்லை 76
முள்ளது 76
யாகும் 76
ரசி 76
ராவின் 76
ருகின்றனர் 76
ர்களுடனும் 76
ர்ந்தது 76
லாய் 76
ல்களுடன் 76
ளத்தின் 76
வோரின் 76
ஹர் 76
ார்களா 76
ித்தின் 76
ிப்பதுடன் 76
ிற்குட்பட்ட 76
ுட்ப 76
ுவதாகக் 76
ுவிட்டால் 76
ைகளுக்குள் 76
ைகோ 76
ைக்கொண்டு 76
▁அடிப்படையில 76
▁அநீ 76
▁அமர்ந்து 76
▁அமைச்சு 76
▁அமைத்தது 76
▁அமைப்புகளுடன் 76
▁அறிஞர்கள் 76
▁அஸ்ஸாம் 76
▁ஆட்சிக்க 76
▁ஆண்டாக 76
▁இனை 76
▁உயர்தர 76
▁உரத்த 76
▁எதிர்ப்புப் 76
▁ஏவுகணைகள் 76
▁கச்ச 76
▁கணக்கெடுப்ப 76
▁கத்தார் 76
▁காட்டப்பட்டது 76
▁கால்நட 76
▁குடிமகன் 76
▁சாட்டப்பட்ட 76
▁சாப்பி 76
▁சாம் 76
▁சுயாட்சி 76
▁செயல்திற 76
▁சோத 76
▁டைரக 76
▁தங்கப் 76
▁தனித்தன்மை 76
▁தரிசனம் 76
▁துட 76
▁துல்லிய 76
▁நடைபெறுகின்றன 76
▁நிலையும் 76
▁நூலை 76
▁நேபாளத்தில் 76
▁பகுதியிலிருந்து 76
▁பணிப்ப 76
▁பரிணாம 76
▁பழக்கம் 76
▁பாகுபாடு 76
▁பார்க்கலாம் 76
▁பார்ப்பது 76
▁பின்வா 76
▁பெற்றுத் 76
▁போன்றவர்கள் 76
▁மட்டுப்படுத்த 76
▁மண்டப 76
▁மனப்பான்மை 76
▁மறுத்தார் 76
▁மிதி 76
▁முன்மாதிரி 76
▁முற்று 76
▁முஸ்லிம்கள் 76
▁மையக்கரு 76
▁ராஜேஷ் 76
▁வடிவமைத்த 76
▁வத 76
▁வர்மா 76
▁வழிவகுக்க 76
▁விதிக்கப்படும் 76
▁விளிம்பு 76
▁வெளிப்படும் 76
yn 75
ஐஏ 75
குடிய 75
க்ரோ 75
சாவில் 75
ஜெய 75
ஞ்சலி 75
டுவதோடு 75
ணைப்பு 75
த்தினுடைய 75
த்தியும் 75
நெருக்க 75
னியாவின் 75
பாவ 75
ப்பதற்காகவும் 75
ம்பட்ட 75
யோக 75
ரியாவில் 75
ர்சி 75
லாந்தில் 75
லித் 75
விதி 75
ாஜி 75
ாயி 75
ிட்டி 75
ித்தோ 75
ிவுகள் 75
ைக்குரிய 75
▁e 75
▁அடுத்தடுத்து 75
▁அடையாளங்கள் 75
▁அதிகாரத்தின் 75
▁அமலா 75
▁அமைச்சரும் 75
▁அருகிலுள்ள 75
▁அலுவலகங்களில் 75
▁ஆளாக 75
▁இடங்கள 75
▁இடித்து 75
▁இணைக்கப்படும் 75
▁இந்தியாவிலேயே 75
▁இயலவில்லை 75
▁இழுத்த 75
▁உக்ரை 75
▁எறிந்து 75
▁எறிய 75
▁ஓட்டம் 75
▁கடினம் 75
▁கட் 75
▁கண்டத்தில் 75
▁கலாம் 75
▁கல்யாண 75
▁கவனித்துக் 75
▁காசநோய 75
▁காண் 75
▁காதல 75
▁கான்பூர் 75
▁குடும்பத்த 75
▁குறியீட்ட 75
▁குறும்பட 75
▁குறைகளை 75
▁குழுவுடன் 75
▁கூட்டாண்மை 75
▁கொல்லப்பட்டார் 75
▁கொள்கைகளையும் 75
▁கோள் 75
▁கோவில 75
▁க்க 75
▁சிந்து 75
▁சிறுத 75
▁செயற்படுத்த 75
▁செய்யக்கூடிய 75
▁சேர்த்துக்கொள்ள 75
▁தலைமைக் 75
▁தலைமைத்துவ 75
▁தலைவர்களில் 75
▁தாக்கு 75
▁திருநாள் 75
▁துப்பாக்கிச் 75
▁தேசபக்த 75
▁தேடும் 75
▁நிறுவனத்தால் 75
▁நேரடிப் 75
▁பகுதியும் 75
▁படைகளால் 75
▁பாதுகாத்தல் 75
▁பாரம்பரியமாக 75
▁புதுமுக 75
▁புத்தாண்ட 75
▁புரட்சிகரமான 75
▁புவனே 75
▁பெயர்களை 75
▁பொழுதுபோக்கு 75
▁மாட்டேன் 75
▁மார 75
▁மிகைய 75
▁மீதி 75
▁மீன்பிட 75
▁முடிவடையும் 75
▁மெல்ல 75
▁யாருக்கு 75
▁ரசிகர் 75
▁வடக்க 75
▁வடக்குப் 75
▁வளர்ச்சியையும் 75
▁வில்லன் 75
ical 74
ii 74
ix 74
na 74
ock 74
ood 74
sh 74
ubl 74
கடு 74
சமாக 74
சென் 74
ச்செல்ல 74
டையச் 74
ண்மையை 74
த்தல 74
ந்திரம் 74
பணிய 74
போடு 74
ப்பாகும் 74
மன்ற 74
முடன் 74
மையாகும் 74
ர்களாகவும் 74
ர்மன் 74
ளிப்பது 74
வரோ 74
விள 74
வையாகவும் 74
ாந்த் 74
ாளராகவும் 74
ிகன் 74
ிச 74
ிடையேயான 74
ிப்பதும் 74
ியுமான 74
ிரியை 74
ிருக்கக்கூடும் 74
ீத் 74
ீனம் 74
ெயர் 74
ைகொண்ட 74
ையாகப் 74
ொன்றில் 74
ொழில 74
்கால 74
▁அபக 74
▁அமைப்புச் 74
▁அறுபது 74
▁அலன் 74
▁அலுவல் 74
▁அலைய 74
▁அழிவை 74
▁ஆசியாவிலும் 74
▁ஆதரவளிக்கும் 74
▁இசையமைப்ப 74
▁இணக்கம் 74
▁இப்போதுள்ள 74
▁ஈடாக 74
▁ஈட்டிய 74
▁உருக்கு 74
▁எதிர்நோக்க 74
▁எல்லைகளில் 74
▁ஏற்படவில்லை 74
▁ஏற்றுக்கொண்டு 74
▁ஒரேயொரு 74
▁கடத்தி 74
▁கரியமில 74
▁கருத்தைக் 74
▁காம் 74
▁கால்பந்து 74
▁கில 74
▁குவா 74
▁கொடுமை 74
▁கொண்டாடப்படும் 74
▁கொள்ளக் 74
▁சந்த் 74
▁சிந்தனைய 74
▁சூழ் 74
▁செயல்கள 74
▁சேர்ந்தார் 74
▁டர் 74
▁டெல் 74
▁தனித்து 74
▁தன்மைக்கு 74
▁தன்மையுடைய 74
▁தலையின் 74
▁தாழ்வு 74
▁தொழிலக 74
▁நின 74
▁நினைவக 74
▁நிறுவனங்களால் 74
▁நீக்கி 74
▁பழிவாங்க 74
▁பிரிவுகளுக்கு 74
▁பிரிவும் 74
▁பெறுவ 74
▁பெறுவர் 74
▁போட்டித் 74
▁மகிழ்ச்சியான 74
▁மதிப்பிட்ட 74
▁மறுவா 74
▁மலையாளத்தில் 74
▁மாறு 74
▁மீண்ட 74
▁முயலும் 74
▁முற்பகுதியில் 74
▁வாக 74
▁வாக்கெடுப்பில் 74
▁விளையாட்டுக்கள் 74
▁வீச்சு 74
▁வேதன 74
▁ஸ்வா 74
1984 73
G2 73
amp 73
ial 73
ite 73
இரண்டு 73
ங்கான 73
ச்சினை 73
ச்சீட்ட 73
ட்சமாக 73
ணியாக 73
தொழில் 73
தொழில்நுட்ப 73
த்தகுந்த 73
த்துவிட்ட 73
நாயக் 73
னாவ 73
னாவில் 73
புது 73
மைப்பின் 73
ரேஷன் 73
லரின் 73
ல்களிலும் 73
ளாய் 73
ஸ்து 73
ாரன் 73
ியிடம் 73
ிற்காகவும் 73
ிவின் 73
ுதலையும் 73
▁அடைவதற்காக 73
▁அண்ட 73
▁அதன்பின் 73
▁அனுபவித்து 73
▁அம்சங்களையும் 73
▁அவல 73
▁ஆச்ச 73
▁ஆன்ம 73
▁ஆய்வுக்கு 73
▁இசையில் 73
▁இனத்த 73
▁இராம 73
▁இருந்துள்ளது 73
▁இறுக்க 73
▁உக்ரைன் 73
▁உடனேயே 73
▁உறுதுணையாக 73
▁உள்ளதா 73
▁உள்ளூராட்சி 73
▁எடி 73
▁எப்போ 73
▁எழுப்பி 73
▁ஐந்தில் 73
▁ஓக 73
▁கட்டுதல் 73
▁கவுர் 73
▁கார்ப்பரேஷன் 73
▁குழுவான 73
▁கூறுகிறார்கள் 73
▁சுற்றுவட்ட 73
▁செப்டெம்பர் 73
▁செல்லும்போது 73
▁டாக 73
▁தரிச 73
▁தற்காப்பு 73
▁தாக்கியது 73
▁திறப்பு 73
▁துவக்கத்தில் 73
▁தோமஸ் 73
▁நகர்புற 73
▁நாட்டிலேயே 73
▁நிமிடங்கள் 73
▁நிறுவனங்களையும் 73
▁நிறுவனத்துக்கு 73
▁நேரிட்ட 73
▁பழுத 73
▁பாதிக்கப்படும் 73
▁பாதிப்புகள் 73
▁பான் 73
▁பிரசவ 73
▁பிரசா 73
▁பிரஸ் 73
▁புத்தா 73
▁புரிதல் 73
▁பெத் 73
▁பொறுப்பேற்றார் 73
▁போகலாம் 73
▁போர்க்கால 73
▁மனநிலை 73
▁மறுஆ 73
▁மான் 73
▁மிரு 73
▁மெக்சிகோ 73
▁யுவன் 73
▁யூனியனின் 73
▁வகுப்பினர் 73
▁வகுப்பில் 73
▁வடிவத்தை 73
▁வட்டங்களில் 73
▁வட்டாரங்களில் 73
▁வந்ததும் 73
▁வருடங்களில் 73
▁வருவார் 73
▁வழிகாட்டியாக 73
▁வாங்கிக் 73
▁வாய்ப்புள்ளது 73
▁விக்ரம 73
▁விதைகள் 73
▁விமர்சகர்கள் 73
▁விஸ்த 73
▁ஹொ 73
1977 72
ck 72
ind 72
we 72
இந்தியாவின் 72
கட்டு 72
க்கல்ல 72
சனை 72
ணர் 72
ண்டல் 72
தளத்தில் 72
நாயகி 72
ந்திரநாத் 72
னாலும் 72
னிக்க 72
ன்பட்ட 72
படம் 72
புர் 72
பேசி 72
ப்படியான 72
ப்பணிகள் 72
மாதம் 72
மில்ல 72
யிலை 72
ருகின்றன 72
ர்கின்றன 72
றுகள் 72
ள்கள் 72
வங்க 72
வசதி 72
வெல் 72
ஸ்ஸல் 72
ாதவர்கள் 72
ியாகி 72
ுக்கிடையேயான 72
ுடையதாக 72
ையடுத்து 72
▁அகாட 72
▁அடக்கி 72
▁அதற்கேற்ப 72
▁அந்நாட்டில் 72
▁அமைப்புகள 72
▁அறநெறி 72
▁அழுது 72
▁ஆகி 72
▁ஆகியவையே 72
▁ஆற்றும் 72
▁ஆளும 72
▁இடையூறு 72
▁இணைந்துள்ள 72
▁இப்பகுதி 72
▁இருந்திருக்க 72
▁இவ்விரு 72
▁உயர்கல் 72
▁உருவாக்கப் 72
▁உருவாக்குகிறது 72
▁உள்ளடக்கம் 72
▁எதுவுமே 72
▁ஏற்றம் 72
▁ஐந்தாண்டு 72
▁ஓல் 72
▁கவிழ 72
▁காது 72
▁கிடந்த 72
▁குறிப்பிடத் 72
▁குழுக்களில் 72
▁குவை 72
▁குவைத் 72
▁கோரக் 72
▁சதா 72
▁சிறுவர்கள் 72
▁சீட்ட 72
▁சுரங்கம் 72
▁செய்யும்போது 72
▁தகுதியை 72
▁தூய்மைப்படுத்த 72
▁தேவைப்படுகின்றன 72
▁தொலைதொடர்பு 72
▁பங்குத 72
▁படமான 72
▁பதிவே 72
▁பரிவு 72
▁பாதிப்புக்குள்ள 72
▁பிடிவ 72
▁பிரான்சு 72
▁பிளவ 72
▁புல்ல 72
▁பெற்றுள்ளார் 72
▁போர்ட்ட 72
▁மனோஜ் 72
▁மார்ச்சில் 72
▁முக்க 72
▁முக்கியக் 72
▁முடித்துக் 72
▁மேலாள 72
▁வணிகக் 72
▁வளைந்து 72
▁வாழ்க்கைச் 72
▁விளக்கிக் 72
▁விளையும் 72
▁வீதமான 72
1945 71
1949 71
ETA 71
ear 71
ign 71
ner 71
ois 71
கலா 71
காலம் 71
சாத் 71
த்தேன் 71
நிலைப் 71
னியார் 71
பாஸ் 71
புலி 71
பெட் 71
மூன்று 71
மைச்ச 71
ம்சம் 71
ம்பை 71
ரின 71
றியும் 71
ல்துறை 71
வாய்ப்பு 71
விழாவில் 71
வைத்த 71
வொரு 71
ீது 71
ுப்ப 71
ோடி 71
்சன் 71
▁அணிந்து 71
▁அதிகமானோர் 71
▁அதிகரிப்பதற்கு 71
▁அப்போதைய 71
▁அரசாண்ட 71
▁ஆய்வுகளை 71
▁ஆழ்ந்து 71
▁இக் 71
▁இயல்பாக 71
▁இயல்பாகவே 71
▁உயர்நிலைக் 71
▁உரிமைகளைப் 71
▁உள்ளாக 71
▁எக் 71
▁எதிர்நோ 71
▁எபிர 71
▁ஏந்திய 71
▁கமி 71
▁கருத்தியல் 71
▁கற்றுக்கொள்ள 71
▁கிடங்க 71
▁கிம் 71
▁குரூப் 71
▁குறிக்க 71
▁குறிப்புக்கள் 71
▁குறைப்பதற்கான 71
▁கேள்விய 71
▁கொண்டாட்டம் 71
▁சந்தியா 71
▁சமா 71
▁சாகர் 71
▁சாசனம் 71
▁சித்தாந்த 71
▁சூடு 71
▁செயலில் 71
▁செலுத்தியது 71
▁சேகர் 71
▁ஜென் 71
▁தன்ம 71
▁தற்ப 71
▁துப்பாக்க 71
▁துறையாக 71
▁தூய 71
▁தெலுங்கானா 71
▁தேங்காய் 71
▁தேவா 71
▁தொகுதியில் 71
▁தொடங்கினர் 71
▁நகரான 71
▁நடுவ 71
▁நரே 71
▁நாட்டுப் 71
▁நிகழ்வை 71
▁நேராக 71
▁பகதூர் 71
▁பசிய 71
▁படித்து 71
▁பதவிக் 71
▁பயணங்கள் 71
▁பயிற்சிக் 71
▁பாதிப்புகளை 71
▁பாஷ 71
▁பிபி 71
▁பிரகாசமான 71
▁பிரபலமாக 71
▁பிராங்க் 71
▁பெங்களூருவில் 71
▁பெருந்தொக 71
▁பொருட்களையும் 71
▁பொருந்திய 71
▁மண்டலங்கள் 71
▁மலைய 71
▁மலையின் 71
▁மாற்றப்படும் 71
▁முடிவெடுக்கும் 71
▁முஸ்லீம 71
▁மூட்ட 71
▁மூளை 71
▁மூவர் 71
▁ரணில் 71
▁ராஜஸ்தானில் 71
▁ராஜ்யம் 71
▁வங்காளதேச 71
▁வந்துள்ளார் 71
▁வரலாம் 71
▁வரையறு 71
▁வரையான 71
▁விசை 71
▁விதத்திலும் 71
▁விமர்சனங்கள் 71
▁வியாபாரிகள் 71
▁விழாக்க 71
▁வெளிநாட்டுப் 71
▁வேறுபாடுகள 71
): 70
1962 70
1986 70
உற்பத்தி 70
குமாரன் 70
க்கூறு 70
ச்சான் 70
ஜூன் 70
டாது 70
தள 70
தையடுத்து 70
பல் 70
பாலா 70
பிக் 70
பிரா 70
ப்பக 70
ப்பட்டவர் 70
ப்பைச் 70
ப்ர 70
மொழிகள் 70
ராகப் 70
ர்களிலும் 70
ற்கால 70
லாலும் 70
லியன் 70
ல்லிய 70
வையில் 70
ஸ்டோ 70
ஸ்பர்க் 70
ிக்குக் 70
ிடையில் 70
ித்தொக 70
ிருப்பதைக் 70
ில்கள் 70
ுறுத்த 70
ோகன் 70
▁width 70
▁அசைக்க 70
▁அணிந்த 70
▁அண்ணன் 70
▁அதற்குள் 70
▁அந்நா 70
▁அமைப்பின 70
▁அரியானா 70
▁அவரைச் 70
▁அவு 70
▁அஸ்வ 70
▁ஆகிறது 70
▁ஆரோக்கியமாக 70
▁ஆலயத்தில் 70
▁இடத்திலிருந்து 70
▁இணைச் 70
▁இதுவாகும் 70
▁இருந்திருக்கும் 70
▁இலக்கியம் 70
▁இல்லாவிட்டாலும் 70
▁உடனுக்குடன் 70
▁உடைந்து 70
▁உண்டாக 70
▁எதிரொ 70
▁எலிய 70
▁ஏதாவதொரு 70
▁ஒளிய 70
▁ஓட்டுந 70
▁கட்டப்பட்டு 70
▁கண்டறி 70
▁கனடாவின் 70
▁களி 70
▁காலப்பகுதியில் 70
▁கிடைக்கப் 70
▁கிளர்ச்சிய 70
▁குடிசை 70
▁கும்பல் 70
▁குழாய்கள் 70
▁குழுவுக்கு 70
▁கூட்டி 70
▁கூறினார்கள் 70
▁கொம்ப 70
▁கொள்ளத் 70
▁சிக்கிக் 70
▁சிறுபான்மையின 70
▁சீனப் 70
▁சுட்டுக் 70
▁செயல்பட்டது 70
▁செய்தவர்கள் 70
▁தயாரிப்பதற்கான 70
▁தாஸ் 70
▁திகழ்கின்றன 70
▁தினமாக 70
▁தீவுகளின் 70
▁துப்பு 70
▁துருக்க 70
▁தொழிற்துற 70
▁தொழிலதிப 70
▁நடந்துகொண்ட 70
▁நிதிகள் 70
▁நிர்வாகப் 70
▁நிலைநிறு 70
▁நெறி 70
▁பணிவ 70
▁பத்தாண்டுகளில் 70
▁பயனாக 70
▁பலவற்றை 70
▁பவுல் 70
▁பார்த்திபன் 70
▁பிரெஞ்ச 70
▁புதுதில் 70
▁பூமியை 70
▁பெறுவதற்கும் 70
▁பேரரசு 70
▁மதிப்புடைய 70
▁மதிவ 70
▁மனை 70
▁மறியல் 70
▁மறுப 70
▁மற்றவை 70
▁மற்றுமொரு 70
▁மாதிரிகளை 70
▁மாலையில் 70
▁மால் 70
▁முதிர்ந்த 70
▁முயற்சிக்கும் 70
▁வலுவிழ 70
▁வல்லுனர் 70
▁விடப்பட்ட 70
▁விளிம்பில் 70
▁விளைந்த 70
▁விவசாயத்தை 70
▁வீட்டிலேயே 70
▁வெளிவர 70
00% 69
PM 69
aj 69
per 69
uel 69
சம்ப 69
சிசி 69
சிற 69
சோன் 69
ஜின 69
நிலைக் 69
ந்திருந்த 69
னன் 69
னையையும் 69
படியான 69
பத்து 69
பரப்பு 69
ப்படுபவை 69
ப்பாடுகளை 69
மையோடு 69
யமான 69
ரத்த 69
ர்கான் 69
வரிடமும் 69
வர்களிடையே 69
வென்றால் 69
ஸன் 69
ாகம 69
ாகு 69
ாவிட 69
ாவினால் 69
ிகளாகவும் 69
ிப்பார்கள் 69
ிரியும் 69
ுறும் 69
ுவுக்கு 69
ுவைத் 69
ோப 69
ோமா 69
▁ஃபெ 69
▁அதன்பிறகு 69
▁அதிகப்படியான 69
▁அதிகாரத்தைக் 69
▁அனுபவித்த 69
▁ஆசிரியர்களுக்கு 69
▁ஆப்பிரிக்காவில் 69
▁ஆராயும் 69
▁இசையமைத்த 69
▁இனிமேல் 69
▁இயக்கங்களின் 69
▁இயக்குநர்கள் 69
▁இலக்கிய 69
▁இளைப்பாற 69
▁உள்ளதை 69
▁உழைப்பின் 69
▁ஊழலுக்கு 69
▁எதிரிகளை 69
▁எதிரிகள் 69
▁என்பதின் 69
▁எரிபொருள 69
▁எழுப்பும் 69
▁ஐம்ப 69
▁ஐஸ் 69
▁ஒப்படைத்த 69
▁கட்டுப்பாட்டுப் 69
▁கணக்கை 69
▁கதையில் 69
▁கபூர் 69
▁கல்விக்கு 69
▁காப்பாற்றும் 69
▁கியூப 69
▁கிரீன் 69
▁கொண்டுவந்தது 69
▁சகோதரரும் 69
▁சாஸ்திரி 69
▁சிறும 69
▁செய்தாலும் 69
▁தன்னம்பிக்கை 69
▁தமிழர்களுக்கு 69
▁தமிழ்நாட்ட 69
▁தலைமையக 69
▁தாமதமாக 69
▁திரட்டும் 69
▁தொழிலுக்கு 69
▁நாடுகளுக்கிடையே 69
▁நாராயணன் 69
▁நிலையைக் 69
▁நேர்ந்தது 69
▁பக்தர்கள் 69
▁பயிர்களை 69
▁பயிற்சிகளை 69
▁பறவைகள் 69
▁பலி 69
▁பாடி 69
▁பாதிக்கப்பட்டு 69
▁புளோரிட 69
▁பூர்வமாக 69
▁பெட 69
▁ப்ள 69
▁மாநிலத்திலும் 69
▁மின்னஞ்ச 69
▁யாரோ 69
▁யூகோ 69
▁ரக் 69
▁வகைப்பட்ட 69
▁வங்காளம் 69
▁வசதியும் 69
▁வந்தவர் 69
▁வாக்குறுதி 69
▁வாழ்கின்றனர் 69
▁விழும் 69
▁வீரர்களும் 69
▁வெற்றிகள் 69
▁வைத்துப் 69
▁ஸ்பானிய 69
PPP 68
ade 68
ons 68
rance 68
ஐஎஸ் 68
க்கட்டு 68
க்களைக் 68
சந்தை 68
சிகள் 68
ச்செய்து 68
ச்செய்யும் 68
டூ 68
தொழி 68
னாவின் 68
பிரிவ 68
ப்படுவதும் 68
ப்பாற்ற 68
ப்பொருள 68
மதா 68
ரையின் 68
ர்கா 68
ர்டன் 68
லோடு 68
ளுக்கும் 68
வய 68
ஹன் 68
ஹாம் 68
ாட்சிகள் 68
ாவுக்கான 68
ின்க 68
ியாவில் 68
ிலுமே 68
ென்ட் 68
ேற்றம் 68
ைக்குப் 68
ொடர் 68
▁on 68
▁sr 68
▁அகர்வால் 68
▁அடங்கியுள்ளன 68
▁அதிகரிக்கிறது 68
▁அனுபவிக்க 68
▁அரசியலமைப்பின் 68
▁அறிக 68
▁அலைவரிசை 68
▁ஆகியவற்றுக்காக 68
▁ஆசிரியர்களும் 68
▁ஆலோ 68
▁ஆஸ்திரேலியாவில் 68
▁இங்கிலாந்தின் 68
▁இடையிலும் 68
▁இம்மாத 68
▁இயற்கைப் 68
▁உதாரணமாகும் 68
▁உறவின் 68
▁ஊரான 68
▁என்கிறது 68
▁என்றது 68
▁எழுப்பினார் 68
▁ஏது 68
▁ஏரோ 68
▁ஓய் 68
▁கட்டப்படும் 68
▁கண்டார் 68
▁கரி 68
▁காதுக 68
▁காலக்கட்ட 68
▁கிராமங்களின் 68
▁கைத்தொழில் 68
▁கொடியை 68
▁கோட்பாடுகளை 68
▁சரித்திர 68
▁சிகிச்சைக்கு 68
▁செயலா 68
▁சேவைகளையும் 68
▁சோதிக்க 68
▁தக்கவைத்துக் 68
▁தங்கு 68
▁தடைசெய்ய 68
▁தனியே 68
▁தயாராகும் 68
▁தானியங்களை 68
▁திச 68
▁தீர்க்கும் 68
▁தெலுங்க 68
▁நட்சத்திரங்கள் 68
▁நன்மைகளை 68
▁நால 68
▁நினைவாக 68
▁நியூசிலாந்து 68
▁நிலங்கள் 68
▁நிலைமைகளில் 68
▁நீர்மூழ்க 68
▁நேரி 68
▁நோக்கங்களுக்காக 68
▁படங்களும் 68
▁படிய 68
▁பதக்க 68
▁பயன்படுத்தவும் 68
▁பயிற்சிப் 68
▁பவ 68
▁பின்னடைவு 68
▁பிரிவான 68
▁புகையில 68
▁புத்தரின் 68
▁பூர்வமான 68
▁பெருநகர 68
▁பெற்றிருந்தது 68
▁பெல்ஜியம் 68
▁போனார் 68
▁மட்டக்களப்பு 68
▁மரங்கள் 68
▁மாதிரியாக 68
▁மிய 68
▁முன்பாகவே 68
▁வசித்து 68
▁வரவேற்பை 68
▁வரைபட 68
▁வழித்தடம் 68
▁வஸ்த 68
▁விதிப்ப 68
▁வித்தியாசம் 68
▁விரிகுட 68
▁வீற்ற 68
▁வெளியேற்றப்பட்ட 68
▁ஷர்மா 68
▁ஷே 68
▁ஸ்டேட் 68
0" 67
FBI 67
int 67
ke 67
அக 67
எஸ்சி 67
கிறிஸ்த 67
கும் 67
க்கரு 67
சுர 67
ஜான் 67
டையாக 67
ட்டுக்கள் 67
ண்ம 67
தற்போது 67
தியா 67
நெற 67
பட்டது 67
புரத்தில் 67
மாகிறது 67
ம்மா 67
ராச 67
ரீட் 67
ருக்கே 67
ர்களது 67
றையின் 67
வினைக் 67
விலை 67
வீர் 67
வுகளும் 67
வேக 67
வைத்து 67
ாண்ட் 67
ானியத் 67
ாமில் 67
ாயினும் 67
ாலில் 67
ிக்கி 67
ிதழ் 67
ினாமா 67
ிப்பதிலும் 67
ிவார 67
ீஷ் 67
ுதியாக 67
ுவான 67
ெழுந்த 67
ைக்குள் 67
ையாகத் 67
▁அங்கா 67
▁அதன 67
▁அத்துமீ 67
▁அமிதாப் 67
▁அரா 67
▁அருணாச்சல 67
▁ஆச்சார் 67
▁ஆட்சியாளர்கள் 67
▁ஆளான 67
▁ஆழ் 67
▁இடம்பெற்றது 67
▁இந்தியர் 67
▁ஈடுபடுத்திக் 67
▁உட்பட்டது 67
▁உண்மைகளை 67
▁உபரி 67
▁எல்லைக் 67
▁ஏஞ்சல்ஸ் 67
▁ஏற்படுவது 67
▁ஒன்றே 67
▁ஒற்ற 67
▁ஓடிவ 67
▁ஓர 67
▁ஓவிய 67
▁கரம் 67
▁காணப்பட்டு 67
▁காற்றாலை 67
▁காஸ்ட்ரோ 67
▁கிடக்க 67
▁குடும்பங்களில் 67
▁கூறப்பட்டுள்ள 67
▁கொல்கத்தாவில் 67
▁கொள 67
▁சார்ந்தவர்கள் 67
▁சாலைகளில் 67
▁சூழ்ந்த 67
▁செயல்திறனை 67
▁செயின்ட் 67
▁செல்லப்பட்ட 67
▁செல்வதற்காக 67
▁செஸ் 67
▁சேவைகளுக்கான 67
▁ஜாதி 67
▁டிகிரி 67
▁தருமாறு 67
▁தாமே 67
▁தூரத்திற்கு 67
▁தெற்கே 67
▁தொகுப்புகள் 67
▁நன்கொட 67
▁நன்மைகள் 67
▁நம்பத்தகுந்த 67
▁நம்பிக்கைகள் 67
▁நிகழ்வாக 67
▁நிச்சயமற்ற 67
▁நிஷ 67
▁நீர 67
▁நுண்ணறிவ 67
▁நூலக 67
▁பகுதிகளைச் 67
▁பங்கும் 67
▁படையெடுத்து 67
▁பட்டா 67
▁பயனை 67
▁பலமாக 67
▁பாடசால 67
▁பாலங்கள் 67
▁பாலமாக 67
▁புத்தகங்கள் 67
▁புலம்பெய 67
▁பெருமைய 67
▁போவது 67
▁மன்ச 67
▁மறுக்கும் 67
▁மாவட்டங்களிலும் 67
▁மில் 67
▁முழுமையாகப் 67
▁வந்திற 67
▁வருடத்தில் 67
▁வழங்குவதன் 67
▁வாய்ப்பைப் 67
▁வீடாக 67
▁வெளியாகி 67
▁வெளியிட்டனர் 67
▁வேவு 67
▁வைத்துள்ளார் 67
ASEAN 66
CPE 66
cy 66
ey 66
ham 66
ins 66
ly 66
old 66
oy 66
rad 66
ss 66
அனு 66
க்குவாத 66
ங்களுக்க 66
ச்சாவ 66
டுக்கி 66
ணும் 66
த்தக 66
னவு 66
பியின் 66
பிரான் 66
பிற 66
மைகளில் 66
மையைத் 66
யத்தை 66
லின்போது 66
ளித்தனர் 66
ளுடன் 66
வுகளின் 66
ஷெ 66
ியுற்ற 66
ிலியன் 66
ுகளாலும் 66
ுமாக 66
ெரிக்க 66
ையினை 66
்சிங் 66
்ரீ 66
்ல் 66
▁அகமதா 66
▁அஜய் 66
▁அட்டைகளை 66
▁ஆசிரியர்களின் 66
▁ஆபிரிக்காவில் 66
▁இடைவெளியில் 66
▁இருப்பதும் 66
▁உருவாவ 66
▁எடுத்துக்காட்டு 66
▁ஒன்றைத் 66
▁ஒப்பீட்டளவில் 66
▁ஒல 66
▁கடற்படைத் 66
▁கட்டமைப்புகள் 66
▁கணக்குகளை 66
▁கருணாநிதி 66
▁கருவுற்ற 66
▁காட்டியுள்ளார் 66
▁காப்பீட்ட 66
▁காப்புறுதி 66
▁கீழ்த்த 66
▁குப்தா 66
▁கேபிள் 66
▁கொண்டாடப்பட்டது 66
▁கொலம்பியா 66
▁கோட் 66
▁கோட்பாடு 66
▁சங்கர் 66
▁சுவிஸ் 66
▁சேமித்து 66
▁சேர்ப்ப 66
▁சேவைக்கு 66
▁தத்துவார்த்த 66
▁தன்னைத் 66
▁திசையை 66
▁திரும்பிச் 66
▁துருக்கியின் 66
▁துறைகளும் 66
▁தெரியவந்தது 66
▁நடிப்பில் 66
▁நமக்குக் 66
▁நம்புகின்றனர் 66
▁நிரூபிக்கப்பட்ட 66
▁நிறுவுதல் 66
▁நீர்மூழ்கிக் 66
▁நோபல் 66
▁நோயைக் 66
▁பங்குபற்ற 66
▁பட்டப்படிப்பு 66
▁பதவிகள் 66
▁பறக்கும் 66
▁பாலிவுட் 66
▁பிந்திய 66
▁பீகாரில் 66
▁புகைப்படம் 66
▁புட்ட 66
▁புத்தகத்தில் 66
▁பேரின் 66
▁மகப்பேறு 66
▁மக்களுக்குப் 66
▁மணிநேரம் 66
▁மனநல 66
▁மனிதர்களை 66
▁மாதமும் 66
▁மாநா 66
▁முனைப்பு 66
▁முரண 66
▁முரண்பாடு 66
▁மூன்றாவதாக 66
▁மோகன்லால் 66
▁ராயல் 66
▁லாக 66
▁வயதை 66
▁வழக்கறிஞ 66
▁வாசிக்க 66
▁வாட்ட 66
▁விருதுக்கு 66
▁விற்பனையை 66
▁ஹாட் 66
1953 65
G8 65
ancial 65
orn 65
rans 65
res 65
இத்த 65
எண் 65
டுவதால் 65
டைன் 65
ட்டுச் 65
ட்டையில் 65
தன்ன 65
த்யா 65
நாளும் 65
னத்தை 65
னுக்காக 65
ப்படைத் 65
ப்பிலிருந்து 65
ப்புகளில் 65
மண்டல 65
முகமாக 65
மேற்கு 65
மொன்றில் 65
யாவில் 65
லாந்த 65
லுக்க 65
ளிலும் 65
வர்களான 65
ஸ்ட்டில் 65
ிகம் 65
ிகித 65
ிட்டான் 65
ியல 65
ியாகத் 65
ுமானால் 65
ுவதற்குப் 65
்க்கான 65
▁அரவணை 65
▁அறிகுறி 65
▁ஆரம்பித்தது 65
▁இங்க 65
▁இரண்டிலும் 65
▁இருக 65
▁இளநிலை 65
▁இவரும் 65
▁உயிர்ப்ப 65
▁உரிமையாளர் 65
▁உருளைக்கிழங்கு 65
▁உள்ளடக்கி 65
▁எண்ணத்தை 65
▁எருசலேம் 65
▁எல்லாமே 65
▁எல்லோ 65
▁ஏராளமாக 65
▁கஞ்ச 65
▁கணி 65
▁கருத்திற்க 65
▁கலந்துகொண்டார் 65
▁கல்விக்கழக 65
▁கியூபா 65
▁கிரேக்கம் 65
▁குத்தகை 65
▁குரலை 65
▁குருக 65
▁குறைவாகும் 65
▁குழப்பத்தை 65
▁குழுத் 65
▁கொடுத்தால் 65
▁கொலம்பிய 65
▁கௌதம் 65
▁சாட்சியாக 65
▁சால் 65
▁சுட்டு 65
▁சூரத் 65
▁செல்வக் 65
▁டாடா 65
▁தண்டனையை 65
▁தன்னிச்சையாக 65
▁தாக்கப்பட்ட 65
▁தாழ்த்தப்பட்ட 65
▁தாவர 65
▁தினந்தோறும் 65
▁திய 65
▁தீங்க 65
▁தீர்மானிக்க 65
▁தூங்க 65
▁தொழிற்சாலைகளில் 65
▁நாகரீக 65
▁நாக்பூர் 65
▁நிதியின் 65
▁நிம்ம 65
▁நிறைந்தது 65
▁நிலையிலேயே 65
▁நெட்வொர்க் 65
▁நெறிய 65
▁நேர்மறை 65
▁நோக்கத்திற்காக 65
▁பணிந்து 65
▁பணியாற்றினார் 65
▁பரிசாக 65
▁பரிந்துரைக்க 65
▁பலரை 65
▁பாரம்பரியமான 65
▁புனர 65
▁பேசுவது 65
▁போட்டிகளை 65
▁மனோகர் 65
▁மாவட்டத்திலும் 65
▁முடிவெடுக்க 65
▁முட்டாள 65
▁முயன்றார் 65
▁மேடைய 65
▁யாக 65
▁ரத்னா 65
▁வகுத்து 65
▁வடக்குக் 65
▁வயதிற்கு 65
▁விடுவது 65
▁விடுவிக்கப்பட்ட 65
▁விற்கும் 65
▁விழாக்கள் 65
▁விவசாயக் 65
▁வெளியீ 65
▁ஹெச் 65
!! 64
PASOK 64
PDS 64
age 64
ci 64
earch 64
ord 64
pl 64
unt 64
இடி 64
ஐக்கிய 64
காண்ட 64
க்கச் 64
க்கடை 64
க்களைப் 64
க்கிங் 64
சத் 64
சமா 64
சாகர் 64
சிடி 64
சீஸ் 64
சூரிய 64
சேவை 64
திகளும் 64
த்தர் 64
த்தார்கள் 64
த்தொழில 64
நாடுகளில் 64
ன்பெ 64
ன்முற 64
ப்படவேண்டிய 64
ப்புகளின் 64
மானின் 64
முறைப் 64
மென்றும் 64
ய்மை 64
ர்கன் 64
றல் 64
ற்துறை 64
ழாய் 64
வரிட 64
ஸ்டி 64
ானும் 64
ாமலே 64
ாளின் 64
ிட்டல் 64
ிட்டால் 64
ிதழ்கள் 64
ிப்பி 64
ிப்பூர் 64
ிருந்ததாக 64
ெடுக்கப்பட்டது 64
▁nar 64
▁அடுத்தபடியாக 64
▁அபாயத்தை 64
▁அருள 64
▁அவருக்குக் 64
▁ஆக்கிரமித்த 64
▁ஆடம்பர 64
▁ஆண்டுவ 64
▁இக்கட்சி 64
▁இணையப் 64
▁இந்நிறுவனம் 64
▁உடைக்க 64
▁உருவாக்குவதன் 64
▁உள்ளடங்க 64
▁என்டி 64
▁எல்லைக்கு 64
▁ஒடு 64
▁ஓவர் 64
▁கமிட்டி 64
▁கருதப்பட்டு 64
▁கருவியை 64
▁கலிபோர்னியா 64
▁காம்ப 64
▁காலகட்டம் 64
▁குக 64
▁குழந்தைகளுக்கான 64
▁கூட்டை 64
▁கூறும்போது 64
▁கேட 64
▁கொள்வதன் 64
▁சத்தியாக 64
▁சலா 64
▁சாத் 64
▁சிகிச்சைக்காக 64
▁சிட்ட 64
▁சிறப்பாகச் 64
▁சிற்ப 64
▁சீயோன் 64
▁சீரா 64
▁சும் 64
▁சேர்க்கப்படும் 64
▁சொல்கிறார் 64
▁ஜாக 64
▁ஜெர்மன் 64
▁தனக்குக் 64
▁தன்னிறைவு 64
▁தலைவன 64
▁தானம் 64
▁தியான 64
▁தொடங்கப்பட்டு 64
▁தொடர்க 64
▁தோற்றுவிக்க 64
▁நகை 64
▁நடாத்திய 64
▁நட் 64
▁நிலையாக 64
▁நிவ 64
▁பகலும் 64
▁பகுதிகளும் 64
▁படுகின்றன 64
▁பயன்பாட்டில் 64
▁பள 64
▁பாகங்கள் 64
▁பாக்த 64
▁பிரசித்த 64
▁பிராக 64
▁புரட்ட 64
▁பெருந்திர 64
▁பெறுகின்ற 64
▁போதுமானதாக 64
▁போன் 64
▁போரின்போது 64
▁போலும் 64
▁மதியம் 64
▁மாட 64
▁மாறான 64
▁மீட்டு 64
▁மேற்கூறிய 64
▁ராமே 64
▁வணிகத்தை 64
▁வருடாந்த 64
▁வறட்சி 64
▁வாரியான 64
▁விரைவாகவும் 64
▁விற்பனையாள 64
▁வில்லியம் 64
▁வீட்டுக் 64
▁வொ 64
▁ஹங்கே 64
112 63
>< 63
PSOE 63
ina 63
ki 63
oh 63
ott 63
ru 63
ஆண்ட 63
உய 63
எரி 63
ஐசி 63
ஐரோ 63
குறிப்பாக 63
கோடி 63
க்கூட்ட 63
க்கூறுகள் 63
ங்காக 63
சத்தை 63
சனம் 63
சாம 63
ச்சட்டம் 63
ச்சாரம் 63
டாக்க 63
டித்துக் 63
ணிப் 63
ண்டல 63
ண்மையில் 63
நாயக்க 63
ந்தே 63
னிங் 63
பத் 63
பாடுகளின் 63
பாடுகளில் 63
பிரகாஷ் 63
ப்படுத 63
ப்பாடுகள் 63
மரு 63
மைகளையும் 63
யில்லை 63
ராஷ்டிரா 63
ளித்தல் 63
ள்களில் 63
ழிப்ப 63
ழ்வு 63
வர்களாவர் 63
வாட் 63
ாடாகும் 63
ார்வ 63
ாலய 63
ாளருமான 63
ிக்கிறார்கள் 63
ினே 63
ுகின்றார் 63
ைகளையே 63
▁அனுச 63
▁அமைச்சரவையின் 63
▁அரசர் 63
▁அலைகள் 63
▁அழிப்பு 63
▁அவர்களோடு 63
▁ஆந்திராவில் 63
▁ஆயில் 63
▁இக்கரு 63
▁இணைப்பது 63
▁இத்தாக்க 63
▁இந்துஸ்தான் 63
▁இருண்ட 63
▁இருப்பதைக் 63
▁உடற்பயிற்சி 63
▁உடலில் 63
▁உலகப்போ 63
▁எடுத்தார் 63
▁எண்ணங்களை 63
▁எதிரானது 63
▁ஒருமுக 63
▁கடைப்பிடி 63
▁கலிஃபோர் 63
▁காத்துக் 63
▁காபூ 63
▁காலப் 63
▁குடும்பத்தை 63
▁குழுவால் 63
▁கென்னடி 63
▁கோவை 63
▁கௌ 63
▁சட்டங்களின் 63
▁சத்தி 63
▁சாதனைய 63
▁செய்தபோது 63
▁செவிலியர் 63
▁சேவைகளும் 63
▁ஜாம 63
▁ஜெய்ப்பூர் 63
▁ஞாயிற்றுக் 63
▁தரைமட்ட 63
▁தலைமறை 63
▁திருப்பதி 63
▁தொகையின் 63
▁தொடரு 63
▁நகைச்சுவை 63
▁நாட்டிலிருந்து 63
▁நிகழ்த்தினார் 63
▁நிலா 63
▁நெரிசல் 63
▁படைவீர 63
▁பட்டினி 63
▁பதவிகளில் 63
▁பயணிக்கும் 63
▁பற்றாக்க 63
▁பவுண்டுகள் 63
▁பிகாரி 63
▁பின்பற்றிய 63
▁பிரத்தியேக 63
▁பிரம்ம 63
▁புத்திசால 63
▁புறப்படும் 63
▁பெட் 63
▁பெட்டிய 63
▁பெண்களுக்கான 63
▁போக்குவரத்தில் 63
▁போதுமானது 63
▁மனைவ 63
▁மாநகராட்சி 63
▁மாறுதல்கள் 63
▁முகவர்கள் 63
▁மொராக்கோ 63
▁யான 63
▁யோவான 63
▁ராஜாக்கள் 63
▁லத்தீன் 63
▁வண்டி 63
▁விருப்பத்திற்கு 63
▁விளையாட்டில் 63
▁விளையாட்டை 63
▁வீழ்த்த 63
▁வெங்கடேஷ் 63
▁வெளிப்பாட்ட 63
▁வேண்டுமென்றால் 63
▁வேலூர் 63
135 62
aire 62
ft 62
gy 62
nt 62
அதிகார 62
குதி 62
கூடிய 62
ங்களுடனும் 62
ச்செய் 62
ட்டிகள் 62
ட்ரி 62
தவ 62
த்தன்ம 62
த்துக்குரிய 62
த்ன 62
நாக 62
படுத்தப்பட்ட 62
பத்திர 62
பள்ள 62
பவராக 62
ப்பவர் 62
ப்புழ 62
மருத்துவ 62
மாதிரி 62
மெங்கும் 62
மொத்த 62
ரங்கள் 62
ரீதியில் 62
லண்ட் 62
ல்வே 62
வழிப் 62
வாழ்வு 62
வியுடன் 62
ஸ்வரன் 62
ாய்த் 62
ாய்வ 62
ிகொ 62
ிறு 62
ேஷ்வ 62
▁style 62
▁அடங்கியுள்ளது 62
▁அதிகாலையில் 62
▁அதிலுள்ள 62
▁அல்ஜீ 62
▁ஆரா 62
▁இசைக் 62
▁இதயம் 62
▁இதிலிருந்து 62
▁இயக்கங்களை 62
▁இருக்குமானால் 62
▁இருந்ததுடன் 62
▁உயரத்தில் 62
▁உயரம் 62
▁உள்நாட்டுக் 62
▁எழுந்தது 62
▁ஏந்தி 62
▁ஏற்பட்டன 62
▁ஐரோப்பாவிலும் 62
▁கட்டப்பட 62
▁கட்டுவது 62
▁கருத்துக்களைப் 62
▁கலந்துகொள் 62
▁கழிவுகள் 62
▁காணப்படவில்லை 62
▁கிடைக்காமல் 62
▁குப்பை 62
▁குழந்தையை 62
▁கைகள் 62
▁கோப்பை 62
▁கோழ 62
▁சிகர 62
▁சீராக 62
▁சீர்த 62
▁சுற்றுப்பயணம் 62
▁சுலப 62
▁சென்றன 62
▁செயலாகும் 62
▁சேகரித்து 62
▁சேனை 62
▁ஜிம் 62
▁டொமின 62
▁தட்டி 62
▁தயாரிப்பதற்கு 62
▁திபெத் 62
▁திருகோணமலை 62
▁தீவை 62
▁தேவைகளுக்காக 62
▁தேவைப்பட்டால் 62
▁தொகையாக 62
▁நடத்துதல் 62
▁நடந்தன 62
▁நம்பப்படுகிறது 62
▁நலிவ 62
▁பரீ 62
▁பலா 62
▁பழமை 62
▁பாதுகாப்பின் 62
▁பாய 62
▁பிரச் 62
▁புகுத்த 62
▁புறத்தில் 62
▁பேட் 62
▁பொங்கல் 62
▁பொருளாகும் 62
▁போதக 62
▁போலவும் 62
▁மங்கள 62
▁மலேசியாவில் 62
▁மாணவர்களுடன் 62
▁மாதிரிய 62
▁மாநிலமாக 62
▁முடியும 62
▁முண்ட 62
▁யாழ்ப்பாணத்தில் 62
▁வார்த்தையின் 62
▁விடுபட 62
▁விளக்கத்தை 62
▁விளைச்சல் 62
▁வெங்காயம் 62
▁வெடித்தது 62
▁ஷெல் 62
▁ஸ்லோ 62
▁ஹிட்லர் 62
1857 61
1961 61
MMA 61
anka 61
arn 61
gen 61
soci 61
என்ற 61
செல்ல 61
டுகளிலிருந்து 61
ட்சியில் 61
ட்பு 61
ண்ணை 61
தனு 61
தாக் 61
த்தையோ 61
ன்னி 61
ப்படுகையில் 61
ப்பணம் 61
ப்பொருள் 61
மிடையில் 61
ய்யும் 61
ர்களைச் 61
ற்பட்டு 61
ளங்கள் 61
வாக்கிய 61
ஷூ 61
ஷ்யா 61
ஸால் 61
ஸ்பியன் 61
ாகர் 61
ிகளாகும் 61
ுட்பட்ட 61
ூறு 61
ெல 61
ேயு 61
ையாகிய 61
▁அடைக்கல 61
▁அணியில் 61
▁அத்தியாய 61
▁அள்ள 61
▁ஆய்வுத் 61
▁இணையும் 61
▁இதழ 61
▁இவற்றைப் 61
▁உடலை 61
▁உறைவிட 61
▁உள்ளுர் 61
▁என்பதற்க 61
▁என்பதற்கும் 61
▁எல்லைக்குள் 61
▁ஒன் 61
▁கட்டிடத்தில் 61
▁கட்டுரையாளர் 61
▁கதாநாயகியாக 61
▁கருத்தா 61
▁கல்வித்த 61
▁களஞ்சிய 61
▁கிறிஸ்துமஸ் 61
▁குறியீட்டில் 61
▁கூறுகள் 61
▁கொள்ளாத 61
▁சகோதரர்கள் 61
▁சய 61
▁சிங்கப்பூரில் 61
▁சிதம்பரம் 61
▁சிறப்பாகப் 61
▁சிறுவர் 61
▁சுரே 61
▁சுற்றுச்சூழலை 61
▁செயலாளராக 61
▁செய்யப்படாத 61
▁செலுத்தினர் 61
▁சேலம் 61
▁சோதனைகளை 61
▁ஞாயிற்றுக்கிழமை 61
▁டெல்ல 61
▁தகவல்களைத் 61
▁தரக் 61
▁தலைவராகவும் 61
▁தாயார் 61
▁திருட்டு 61
▁திறமைகள் 61
▁துணையாக 61
▁துறையால் 61
▁தெருவ 61
▁தொகு 61
▁தொடர்புள்ள 61
▁நடுநிலை 61
▁நல்லுறவு 61
▁நாள்கள் 61
▁பங்கே 61
▁படைகள 61
▁பணவீ 61
▁பயக்கும் 61
▁பயணித்து 61
▁பயிற்சியின் 61
▁பயிற்சியும் 61
▁பரப்பில் 61
▁பிடியில் 61
▁பிரதேசத்தை 61
▁பிரீ 61
▁பிறக்கும் 61
▁புரட்சியில் 61
▁பெறுகிறார்கள் 61
▁பேச்சாளர்கள் 61
▁போட்டியின் 61
▁போரினால் 61
▁மதிப்பிடப்பட்ட 61
▁மரணத்திற்கு 61
▁மறுத்தது 61
▁மாற்றமும் 61
▁முகமாக 61
▁முடிக்கும் 61
▁முதி 61
▁முஸ்லிம 61
▁யாழ்ப்பாணக் 61
▁ராஜபக்ச 61
▁வகிக்கின்றன 61
▁வயிற்ற 61
▁வாழ்வதற்கு 61
▁விளக்கி 61
▁விளைவை 61
▁விழுக்காடு 61
▁வெளிநாடுகளிலும் 61
▁ஹாக்கி 61
▁ஹாங்கா 61
▁ஹுசைன் 61
1975 60
="0" 60
net 60
oc 60
olf 60
ren 60
rial 60
uncil 60
uss 60
uth 60
ஆல 60
ஏப்ரல் 60
கந்த 60
ங்காட்ட 60
ட்டமைப்பு 60
தாகச் 60
திக்கப்பட்ட 60
த்தம்ப 60
த்திலிருந்தும் 60
நாயுடு 60
நிர் 60
புல் 60
போய 60
மட 60
மட்டத்தில் 60
மாக்குதல் 60
மாக்ஸ் 60
மேய 60
யத்தின் 60
ய்வுத் 60
ர்ச்சி 60
ர்வாக 60
லஸ் 60
லாகவும் 60
வட்ட 60
வாயில் 60
விட்டால் 60
விரும்ப 60
ஷ்மி 60
ாக்களுக்கு 60
ாவிலேயே 60
ித்திறன் 60
ின்று 60
ிராப்பள்ளி 60
ிரும் 60
ுதலாக 60
ுவும் 60
ேசி 60
ைகளுக்குக் 60
ொன்றும் 60
▁அசோ 60
▁அதுவரை 60
▁அமைச்சின் 60
▁அரசாக 60
▁அழைத்துக் 60
▁அவசியமில்லை 60
▁ஆக்கிரமிப்ப 60
▁ஆத்ம 60
▁இடம்பெற்றுள்ளது 60
▁இருந்ததாகவும் 60
▁ஈட்டும் 60
▁உயர்த்தப்பட்ட 60
▁உலகப்போர் 60
▁ஊர்வலத்தில் 60
▁எதிர்பா 60
▁எத்த 60
▁என்னென்ன 60
▁எரிச்ச 60
▁ஒன்றிணைந்த 60
▁கடத்தப்பட்ட 60
▁கடுமையாகப் 60
▁கட்டுப்படுத்தி 60
▁கப்பலை 60
▁கர்ப்பி 60
▁கவரும் 60
▁காஷ்மீரின் 60
▁கிரை 60
▁கீர்த்த 60
▁குழி 60
▁கைப்பற்றி 60
▁கொளுத்த 60
▁சண்டிகர் 60
▁சரவணன் 60
▁சாட்சிகள் 60
▁சிவா 60
▁சீக்கிய 60
▁சுக் 60
▁செயற்பாட்ட 60
▁செயலை 60
▁செயல்பாட்டிற்கு 60
▁செய்திப் 60
▁சேகரிக்கும் 60
▁டில் 60
▁தங்கத்தை 60
▁தம்பி 60
▁தரப்பினர் 60
▁தரவரிசையில் 60
▁தாக்கங்கள் 60
▁தாங்கும் 60
▁திகழ்ந்தார் 60
▁தீவிரம் 60
▁துறையைச் 60
▁தூண்டிய 60
▁தேவையைப் 60
▁நகரும் 60
▁நாகரிக 60
▁நிகழ்ந்தது 60
▁நினைக்கும் 60
▁நிறுவும் 60
▁நிறைவடைந்தது 60
▁நேரடியாகப் 60
▁நோய்வாய் 60
▁படகுகள் 60
▁படிப்பை 60
▁படிவம் 60
▁பணிமன 60
▁பத்திரம் 60
▁பத்திரிகைகளில் 60
▁பரா 60
▁பலனாக 60
▁பாவம் 60
▁பிரண 60
▁பிரிந்த 60
▁பிரிவிலும் 60
▁பிற்பகுதியில் 60
▁புறக்கணிப்பு 60
▁பெருக்கம் 60
▁பொருட்களைக் 60
▁போர்வீர 60
▁மந்திரத்தை 60
▁மந்திரம் 60
▁மற்றொன்று 60
▁மாட்சி 60
▁மாதா 60
▁முறையைக் 60
▁முறையையும் 60
▁முழுதும் 60
▁மேலோ 60
▁ராமானு 60
▁லிட்டர் 60
▁வலைய 60
▁வளர்ச்சியும் 60
▁வளைகுடாவில் 60
▁வாயில் 60
▁விதிகளின்படி 60
▁விமர்சனங்களை 60
▁விளக்குகிறது 60
▁விவசாயத்தில் 60
▁வீதத்தில் 60
▁வெடிக்கும் 60
▁வெள்ளையனே 60
▁வைத்தான் 60
PTCL 59
ire 59
lo 59
ng 59
அல் 59
ஆப்கான 59
இதில் 59
களை 59
க்கர 59
க்காலம் 59
க்கூட்டம் 59
ங்களில 59
சஸ் 59
ஜிக் 59
டியிலிருந்து 59
ட்சர் 59
ட்டியில் 59
நிகழ்ச்ச 59
ந்துரை 59
ன்பு 59
படுகிறது 59
பின்ன 59
ப்படுத்தப்படும் 59
ப்பதற்குப் 59
ப்பத்திர 59
யிற்சி 59
ரிப் 59
ர்க்கின் 59
வராவார் 59
ாகிறது 59
ாணும் 59
ானந்த 59
ானாக 59
ாலை 59
ிகளினால் 59
ினால 59
ிராம் 59
ிவரு 59
ுடிய 59
ைகிறது 59
ையாட 59
்கான் 59
்காலத்தில் 59
▁அசல் 59
▁அடிமைத்த 59
▁அதிகபட்சம் 59
▁அரபிக்க 59
▁அரிஸ்ட 59
▁அறக்கட்டளையின் 59
▁அறிவாற்ற 59
▁ஆக்சிஜன் 59
▁ஆசாத் 59
▁ஆய்வுக்க 59
▁ஆர்ய 59
▁இருக்குமாறு 59
▁இருபத்து 59
▁இழுத்து 59
▁இவர்களது 59
▁உதி 59
▁உயிரின 59
▁உறுப்பினர்களைக் 59
▁ஊடுருவல் 59
▁கடந்தகால 59
▁கடைப்பிடித்து 59
▁கண்டுபிடிக்கும் 59
▁கலிலேய 59
▁கல்வியறிவு 59
▁கிண 59
▁கிறிஸ்துவின் 59
▁கிழக்கே 59
▁குறிப்பிடுவது 59
▁குறியீடுகள் 59
▁குறிவைத்து 59
▁குறுகியகால 59
▁கூட்டுச் 59
▁கெள 59
▁சல்மான் 59
▁சாதாரணமான 59
▁சிங்கின் 59
▁சித்தரிக்க 59
▁சென்றால் 59
▁செயல்பாடுகளின் 59
▁ஜாக்க 59
▁தலைவருக்கு 59
▁தானியம் 59
▁தாமாகவே 59
▁தாள 59
▁திமோர் 59
▁திருப்புமுன 59
▁துணைக்கண்ட 59
▁தொகுத்து 59
▁தொடரின் 59
▁தொந்தரவு 59
▁நகரத்திற்கு 59
▁நம்பிக்கைக்கு 59
▁நாகர் 59
▁நாள்தோறும் 59
▁நிகோபார் 59
▁நிமித்தம் 59
▁நிறுவி 59
▁நீரில் 59
▁நீர்த் 59
▁நெருப்பு 59
▁நோக்கிப் 59
▁பகுதிகளையும் 59
▁பசுபதி 59
▁படைவீரர்கள் 59
▁பணியா 59
▁பர்வ 59
▁பல்வேறுபட்ட 59
▁பள்ளத்தாக்கு 59
▁பழங்குடியினரின் 59
▁பாக்யராஜ் 59
▁பாய்ந்து 59
▁பிரசன்ன 59
▁பிராங் 59
▁புறம்ப 59
▁பெற்றதாக 59
▁பொறி 59
▁மழைக்கால 59
▁மாணவர்களுக்கான 59
▁மாணவர்களுக்கும் 59
▁மாநிலத்தை 59
▁மாற்றியமைத்த 59
▁மாவட்டங்களை 59
▁முதலாக 59
▁மொழ 59
▁மோது 59
▁ரைன் 59
▁வடிவமைத்து 59
▁வளங்களையும் 59
▁வழிம 59
▁வவு 59
▁வாரி 59
▁விளைச்ச 59
▁விஷ்ணுவ 59
▁வீடுகளும் 59
▁வேட்ட 59
▁வேட்டையா 59
▁வைக்கவும் 59
▁ஹைதராபா 59
1942 58
1985 58
COVID 58
are 58
line 58
uc 58
கிராம 58
கோதர 58
க்காலத்தில் 58
க்டர் 58
ங்காவ 58
சுத 58
டித்தல் 58
டைகள் 58
ட்டரி 58
ணன் 58
நிற 58
ந்திரி 58
னோம் 58
ன்களாக 58
பீல்ட் 58
ப்பகுதிகள் 58
ப்பட்டதால் 58
ப்புள்ள 58
மயமான 58
மால் 58
மீர் 58
விவ 58
ஸோ 58
ஸ்டை 58
ாளர்களுக்கான 58
ிப்புக் 58
ிறதா 58
ுதியில் 58
ுற்ற 58
ூல் 58
ையிடும் 58
▁border 58
▁அண்மைக்கால 58
▁ஆகியவற்றைத் 58
▁ஆஸ்த 58
▁இணக்கமான 58
▁இனிய 58
▁இயக்கமும் 58
▁இல்லையென்றால் 58
▁இளையராஜா 58
▁உணர்வும் 58
▁உண்ணாவிரத 58
▁உதவுகின்றன 58
▁உதிரி 58
▁உலை 58
▁உள்ளான 58
▁எடுத்தல் 58
▁எளிமையாக 58
▁ஏடி 58
▁ஏற்படாமல் 58
▁ஏற்றுக்கொண்டார் 58
▁ஐதராபாத் 58
▁ஓட்டுநர் 58
▁கடம 58
▁கட்டப்பட்டுள்ளன 58
▁கட்டளைகளை 58
▁கண்டறியப்பட்ட 58
▁கழகங்கள் 58
▁கார்த்திக் 58
▁கிளைகள் 58
▁குத்து 58
▁குறிப்பிடவில்லை 58
▁குழந்தையின் 58
▁கையொப்ப 58
▁சந்தோஷ் 58
▁சூற 58
▁சென்றபோது 58
▁செய்வதிலும் 58
▁செல்வி 58
▁ஜாம்ப 58
▁ஜெனீவா 58
▁டைட்ட 58
▁ட்ரூ 58
▁தகவல்களும் 58
▁தலைகீழாக 58
▁தளர்வ 58
▁தில்லியின் 58
▁தூக்கிய 58
▁தேர்ந்த 58
▁தேர்ந்தெடுத்து 58
▁நகர்த்த 58
▁நடமா 58
▁நபர்களின் 58
▁நாசர் 58
▁நாண 58
▁நிகழ்வின் 58
▁நிறுவனர் 58
▁நீச்சல் 58
▁நுண் 58
▁நேர்மை 58
▁பஞ்சம் 58
▁பதிலீடு 58
▁பயன்படுகிறது 58
▁பரிந்து 58
▁பாங்க 58
▁பாதுகாத்துக் 58
▁பாதுகாப்பும் 58
▁பாராட்டும் 58
▁பாலிவு 58
▁பிலிப் 58
▁பிளே 58
▁பெரியது 58
▁பெருக்கிக் 58
▁பேசுகிறார் 58
▁பொருட்களும் 58
▁போரிடும் 58
▁மரணதண்டனை 58
▁மருந்துகளின் 58
▁மற்றவர்களை 58
▁மாற்றுதல் 58
▁முதற்கட்ட 58
▁முறையைப் 58
▁மென் 58
▁மேலாண்மைக் 58
▁மேள 58
▁மைதான 58
▁மொழியை 58
▁வகைகளை 58
▁வன்னி 58
▁வருந்த 58
▁வளர்ச்சியைக் 58
▁வளர்த்தல் 58
▁விற்பனையாளர்கள் 58
▁விழித்த 58
▁வீட்டிலும் 58
▁வீதிகளில் 58
▁வீரவ 58
▁வேரூ 58
▁ஹோட்டலில் 58
1973 57
ABC 57
fer 57
ille 57
ocratic 57
rand 57
ton 57
une 57
அல்லது 57
ஆட்சி 57
க்ச 57
ங்களுமே 57
சென்னை 57
சைப் 57
ஜூலை 57
டாத 57
தற்குத் 57
துகளின் 57
த்திற்குட்பட்ட 57
னுக்குத் 57
பாரதி 57
பாவின் 57
புவ 57
ப்படுத்துகின்றன 57
ப்பள்ள 57
ப்ரா 57
மாக்கியது 57
முகி 57
முடி 57
ரீப் 57
ரையா 57
ர்ண 57
லிலிருந்து 57
லையின் 57
ாக்கி 57
ாத்த 57
ாலுக்கு 57
ாவைத் 57
ிகளுக்குக் 57
ிசை 57
ினரால் 57
ியாங் 57
ிறதோ 57
ிறுக்க 57
ீழ் 57
ுதும் 57
ுவதைப் 57
ுவருகின்றன 57
ுவெ 57
ென்ப 57
ேஜ் 57
்டன் 57
▁--- 57
▁\ 57
▁ஃபி 57
▁அசோக் 57
▁அண்ட் 57
▁அமைதிக்கான 57
▁அறக்கட்ட 57
▁அழுத்தத்திற்கு 57
▁ஆண்டவன் 57
▁ஆண்டுக் 57
▁ஆலயம் 57
▁இக்குழு 57
▁இந்தியச் 57
▁இயற்பியல் 57
▁இறுதிக் 57
▁இலங்கையிலும் 57
▁இல்லா 57
▁இளமை 57
▁இவ்விழாவில் 57
▁உடைகள் 57
▁உட்பிர 57
▁உண்மைகள் 57
▁உதய் 57
▁உயிர்கள் 57
▁என்பதைவிட 57
▁ஏற்படுத்தின 57
▁ஒத்திசை 57
▁ஓடிய 57
▁கடவு 57
▁கடைசிய 57
▁கணின 57
▁கற்பிக்க 57
▁காய்கற 57
▁காரணத்தினால் 57
▁கிரீ 57
▁குறிப்பான 57
▁கெம்ப 57
▁கேட்டது 57
▁கொடுக்கின்றன 57
▁சிரமம் 57
▁சுவார 57
▁சூடான 57
▁சைக்கி 57
▁சோதனைக்கு 57
▁ஜெயின் 57
▁தத்துவத்தை 57
▁தாவரங்கள் 57
▁திணைக்கள 57
▁திருவிழாக்கள் 57
▁துணைத்தலை 57
▁தேயிலை 57
▁தேர்வில் 57
▁தொண்டர்கள் 57
▁தொலைநோக்க 57
▁தொழிற்சாலையில் 57
▁நகரை 57
▁நாட்டைக் 57
▁நியூயார்க் 57
▁நிற்பது 57
▁நுழையும் 57
▁பக்தி 57
▁பங்காற்றி 57
▁பணிக்க 57
▁பணிக்காக 57
▁பரவலாக்க 57
▁பராமரிக்கும் 57
▁பரீட்ச 57
▁பாதுகாவ 57
▁பாலாஜி 57
▁பிடிக்கப்பட்ட 57
▁பிரச்ன 57
▁பிரம்மாண்ட 57
▁புகு 57
▁புதிதாகத் 57
▁புறக்கணித்து 57
▁பெருக்கும் 57
▁பெறாமல் 57
▁பெற்றால் 57
▁போட்டித்த 57
▁போரிட்ட 57
▁மகாராஜா 57
▁மனப்பா 57
▁மாற்றப்பட 57
▁முன்மாத 57
▁மூலமாகவோ 57
▁மெய் 57
▁மேலாண்மையில் 57
▁லார 57
▁வங்கத்தில் 57
▁வங்காளதேசம் 57
▁வசதியுடன் 57
▁வந்ததாக 57
▁வரவேற்று 57
▁வலைப்பின்னல் 57
▁வழங்குகிறார் 57
▁வாடகைக்கு 57
▁வாதிட்டார் 57
▁வாய்க்க 57
▁வாழ்கின்ற 57
▁வாழ்வ 57
▁வாழ்வாத 57
▁விசால 57
▁விண்கல 57
▁விமானநிலைய 57
▁வியாழன் 57
▁விற்பனையில் 57
▁விஷேட 57
▁வெளிப்புற 57
▁வெளியீடுகள் 57
▁வெளிவந்தது 57
▁ஸ்வீ 57
▁ஹோட்டல் 57
@ 56
PP 56
ka 56
to 56
ux 56
ys 56
ä 56
அப 56
ஆல் 56
கட்சி 56
குற்ற 56
க்கால் 56
ங்கிக் 56
டுகளைப் 56
டுத்தும் 56
டுவதையும் 56
ட்களின் 56
திப்பது 56
னால்ட் 56
ன்மூலம் 56
பத்தில் 56
பந்து 56
பாபா 56
பெல் 56
ப்பீ 56
மார்க் 56
யாங் 56
யுடன் 56
ய்வுக் 56
ரானில் 56
ரீதிய 56
ரோஸ் 56
ர்கர் 56
லிக 56
லிங் 56
வதற்குத் 56
வரில் 56
வர்களுக்காக 56
வர்தன 56
வற 56
வியில் 56
வேலி 56
ஷன்ஸ் 56
ஸ்வர் 56
ஹை 56
ானவை 56
ாமே 56
ாய்ப் 56
ார்ட்ஸ் 56
ாளும் 56
ாவற்ற 56
ித்தன் 56
ியோடு 56
ிராய 56
ில்க 56
ுகூ 56
ுக்கிட 56
ுக்கொண்டிருந்த 56
ுதிர 56
ேயோ 56
ைகார 56
ையையே 56
ொள்கின்றன 56
ோக்கு 56
்திறன் 56
▁அந்ந 56
▁அளவிட 56
▁ஆடுகளை 56
▁ஆராய்ச்சிப் 56
▁ஆற்றி 56
▁இத்தாலியில் 56
▁இந்நா 56
▁இயல் 56
▁இராது 56
▁இருட்ட 56
▁இருப்பவர் 56
▁இலையுதிர 56
▁இளையோர் 56
▁இவர்களே 56
▁உதிர 56
▁உல் 56
▁எட்டியது 56
▁எம்ம 56
▁ஏலத்தில் 56
▁ஓப்ப 56
▁கடக்கும் 56
▁கடுங்கோ 56
▁கட்டப்பட்டுள்ள 56
▁கண்காணித்தல் 56
▁கதாநாயகன் 56
▁கனேடிய 56
▁கருத்தின் 56
▁காணமுடியும் 56
▁குடியரசில் 56
▁குறிப்பிடும் 56
▁கையகப்படுத்த 56
▁சதவீதத்தினர் 56
▁சிக்கி 56
▁சென்றுவிட்ட 56
▁செயற்படும் 56
▁செயலாற்றி 56
▁செயலாளரும் 56
▁செயல்களுக்கு 56
▁செயல்முற 56
▁செய்ததாக 56
▁செல்லுபடிய 56
▁செழிப்பு 56
▁ஜாம் 56
▁டிக் 56
▁டிவி 56
▁தயாரான 56
▁தள்ளு 56
▁தாழ்ந்த 56
▁திறனுடன் 56
▁தில்லிய 56
▁தெரிந்தது 56
▁நடமாட்ட 56
▁நடுக்க 56
▁நாட்களிலும் 56
▁நாயர் 56
▁நாராயண் 56
▁நிலைக் 56
▁நிலையற்ற 56
▁நிலையைப் 56
▁நீரோ 56
▁பாடிய 56
▁பிரகா 56
▁பிரசித்தி 56
▁பிரதிபலிப்பு 56
▁புதல் 56
▁போதே 56
▁மாகாணங்களில் 56
▁முத்து 56
▁முன்னு 56
▁ராஜேந்திர 56
▁வளர்ப்ப 56
▁வழக்குத் 56
▁விடாமல் 56
▁விதிகளுக்கு 56
▁விதியை 56
▁விதிவிலக்கு 56
▁வித்துக்கள் 56
▁வியக்க 56
▁வென் 56
▁வேடங்களில் 56
▁வேதியியல் 56
OECD 55
PT 55
back 55
enn 55
eration 55
ex 55
hr 55
ore 55
rd 55
use 55
எல்ல 55
ங்காது 55
சுக்க 55
டெல்லி 55
ணிக்க 55
தரன் 55
நிறுவனம் 55
ன்களுடன் 55
ப்பகுதிய 55
ப்படியே 55
மன்ன 55
மயமாதல் 55
மல்லாமல் 55
முதல 55
ம்பாப்வே 55
ராகும் 55
ரில்லா 55
லுக்குள் 55
ளைச் 55
ாட்சியின் 55
ிக்கொள்க 55
ிடையேயும் 55
ினியின் 55
ிருப்பவர் 55
ிவந்து 55
ுன் 55
ூட் 55
ைகுறை 55
்கி 55
்டு 55
▁00 55
▁he 55
▁அங்கிருந்த 55
▁அடைந்தனர் 55
▁அதிகாரியின் 55
▁அதையே 55
▁அன்றே 55
▁அமிதா 55
▁அறைகள் 55
▁அளவில 55
▁அழகிய 55
▁ஆகியவற்றைச் 55
▁ஆடைகள் 55
▁ஆண்டுகளுக்குள் 55
▁ஆப்பிரிக்காவின் 55
▁ஆற்று 55
▁இடுக்க 55
▁இதுவொரு 55
▁இரக்கம் 55
▁இருப்பர் 55
▁இருப்பை 55
▁உணவள 55
▁உரிமைகளும் 55
▁ஊர்வலம் 55
▁ஒன்றிணைக்க 55
▁ஒன்றோடொன்று 55
▁ஒப்பிட்டு 55
▁ஒப்புதல 55
▁ஒருவரைய 55
▁ஒழு 55
▁கடமைகள் 55
▁கடமையாகும் 55
▁கட்டங்களில் 55
▁கப்பற்படை 55
▁கருத்துரு 55
▁கரோ 55
▁கல்வித்துறை 55
▁காணப்பட்டன 55
▁காப்பக 55
▁கார்ல் 55
▁குறைபாடுகள 55
▁குறைப்பதற்காக 55
▁குழந்தைகளைப் 55
▁கையேடு 55
▁கொண்டாட்டங்கள் 55
▁கொரியாவின் 55
▁கோவிலில் 55
▁சக் 55
▁சச்ச 55
▁சித் 55
▁சிறுபான் 55
▁சுருங்க 55
▁செயற்றிட்ட 55
▁செயல்பாட்டின் 55
▁செய்ததன் 55
▁செல்வதாக 55
▁ட்ரை 55
▁தங்கியிருக்கும் 55
▁தரப்பட்டது 55
▁திகதிய 55
▁திரும்பினார் 55
▁துறைமுகப் 55
▁துள 55
▁தெருவில் 55
▁தேர்வை 55
▁நலவாழ்வு 55
▁நாக் 55
▁நாடாகவும் 55
▁நாளேடு 55
▁நித 55
▁நிலைகளிலும் 55
▁நிலைகொண்ட 55
▁பகுதிகளாக 55
▁படிகள் 55
▁பதவிக்காலம் 55
▁பயன்படுத்தக் 55
▁பயன்படுத்துவதன் 55
▁பரப்பளவில் 55
▁பராமரித்தல் 55
▁பறி 55
▁பறைசா 55
▁பலவிதமான 55
▁பாடத் 55
▁பாத்தி 55
▁பிசி 55
▁புகழ்ந்து 55
▁பெரியார் 55
▁பெரும்பாலானவை 55
▁பெறமுடியும் 55
▁பேரி 55
▁போரும் 55
▁மருந்தை 55
▁மறுத 55
▁மாகாணத்தின் 55
▁மாற்றங்களைக் 55
▁மிகச்சிற 55
▁முகாமைத்துவ 55
▁முதலீட்டாளர் 55
▁முழுமைக்கும் 55
▁முஸ்லீம்கள் 55
▁மூடும் 55
▁மைக 55
▁யாரையும் 55
▁ரேடியோ 55
▁வணிகச் 55
▁வளமும் 55
▁வளர்ந்துள்ளது 55
▁வாய்ந்ததாக 55
▁வாராந்திர 55
▁வால 55
▁விடுகின்றன 55
▁விநியோகச் 55
▁விமானத்தை 55
▁விருப்பு 55
▁வெடிகுண்ட 55
▁வெப்பம் 55
▁வெளியிடப்பட்டன 55
142 54
1951 54
1969 54
= 54
OCI 54
oman 54
orth 54
ower 54
ver 54
உள் 54
எம்எஸ் 54
காந்த 54
சோதனை 54
ச்சால 54
ட்டிற்கு 54
த்தீவுகள் 54
நல்ல 54
நவம்பர் 54
நீண்ட 54
னுமான 54
பக்த 54
பவர்களும் 54
ப்படிய 54
மான்கள் 54
மிகுந்த 54
முமே 54
யோகி 54
ராகத் 54
ருதி 54
ர்களுக்குத் 54
றிகள் 54
ல்கார 54
ழுக்கள் 54
வாழ்க்க 54
விஜய் 54
வ்வ 54
ஷல் 54
ினைத் 54
ிறனை 54
ீரன் 54
ுக்களால் 54
ென்பது 54
ெல்லா 54
ையுண்ட 54
▁அசோசிய 54
▁அணைக்க 54
▁அதிகப் 54
▁அனுப்பப்பட்டது 54
▁அமர்வு 54
▁அமைப்பையும் 54
[...]
