▁ 1420032
▁the 495841
▁, 365507
▁. 317131
▁of 305310
▁and 230362
▁to 200536
▁in 159418
T 123280
; 121480
▁& 121420
S 116181
I 114773
▁a 114407
ap 111997
os 110513
A 100890
M 94795
s 91688
▁for 81271
▁that 77024
P 76412
▁is 74219
he 71143
C 69281
e 64430
2 61712
h 59909
- 57390
▁on 56000
n 53773
nd 52958
B 51300
in 46972
▁by 45513
ing 45184
▁with 45177
R 43989
0 43444
H 42528
▁has 42037
D 41648
G 41301
N 39957
▁as 39292
▁be 39112
t 37695
ar 36637
F 36261
▁was 36183
▁have 36158
r 35584
al 34363
W 34332
▁will 33463
▁are 33080
ed 31753
E 30800
▁from 30622
an 30515
ia 30219
y 29914
▁this 29019
▁it 27438
J 27411
▁at 27026
i 26958
▁) 26109
▁he 26013
▁( 25899
a 25592
o 25552
. 25512
▁not 25482
L 25137
K 24601
▁an 23828
O 23735
▁said 22962
▁his 22940
▁: 22908
at 22438
▁been 21586
ri 21507
▁all 21233
ment 21113
es 21085
or 21035
▁their 20626
ister 20584
U 20550
er 20311
▁also 20123
▁you 19820
▁which 19636
ation 18914
1 18755
ra 17662
ate 17192
u 17074
ly 16803
ers 16582
▁its 16574
V 16378
▁people 16086
ad 16018
▁were 15919
ay 15846
▁government 15797
ot 15578
▁they 15475
am 15295
▁had 14689
ist 14600
l 14378
ime 14177
▁we 14162
▁our 13788
f 13766
re 13589
ur 13371
▁up 13243
ian 12959
▁country 12940
qu 12935
ion 12902
▁out 12892
p 12856
th 12853
od 12786
ab 12766
▁- 12591
w 12507
▁who 12470
US 12357
om 12198
m 12119
ic 12111
▁one 11879
▁or 11869
on 11831
▁shall 11773
▁over 11749
el 11724
ut 11649
▁would 11614
▁them 11579
en 11561
5 11419
00 11414
▁but 11354
ir 11269
▁under 11113
ity 10794
▁more 10749
ent 10724
res 10561
il 10535
3 10411
▁there 10368
it 10247
ro 10181
as 10016
his 9956
and 9899
▁; 9886
▁against 9849
istry 9828
um 9663
b 9590
▁new 9492
art 9486
▁other 9474
ak 9461
▁about 9419
ations 9385
j 9345
▁war 9312
d 9306
et 9228
▁your 9133
id 9131
▁him 8973
▁un 8905
ism 8708
▁than 8676
▁these 8662
is 8658
Y 8649
av 8612
c 8611
▁into 8583
ah 8531
▁years 8499
ational 8453
ice 8438
▁my 8435
▁two 8370
▁no 8367
▁world 8365
k 8341
ions 8330
▁can 8317
▁only 8257
4 8196
▁between 8187
ance 8119
19 8031
ident 7992
▁being 7989
able 7891
ol 7891
us 7851
overn 7793
▁through 7735
▁any 7715
▁time 7714
har 7705
g 7674
▁made 7599
ish 7543
▁such 7516
pe 7483
im 7472
ash 7417
▁film 7380
▁today 7372
▁so 7324
man 7316
▁year 7300
mer 7290
▁political 7220
ated 7163
ates 7093
ai 6997
▁after 6992
ep 6940
ust 6851
ud 6844
▁when 6843
ath 6793
ec 6760
st 6702
ary 6698
em 6665
ush 6654
▁l 6639
ial 6594
▁last 6565
est 6557
our 6557
up 6518
▁work 6492
ast 6458
q 6445
ant 6424
hi 6394
se 6376
▁me 6346
▁state 6335
▁working 6333
▁social 6303
ive 6292
▁now 6269
amil 6248
ch 6247
hen 6240
6 6230
▁should 6227
▁p 6198
ow 6187
ank 6182
▁first 6161
LORD 6130
▁development 6111
ore 6076
▁minister 6072
18 6051
un 6048
▁military 6042
aj 5992
aren 5967
▁cro 5915
▁like 5845
ff 5812
▁her 5805
ure 5777
oc 5737
ating 5702
7 5685
▁workers 5648
▁s 5638
ter 5591
ag 5584
▁during 5515
dra 5491
▁well 5486
? 5442
▁do 5397
han 5385
▁day 5376
ies 5365
rael 5361
▁even 5330
▁support 5240
8 5234
▁countries 5200
▁economic 5190
▁every 5164
ge 5162
ov 5154
▁many 5136
ors 5099
▁percent 5095
▁us 5041
▁those 4955
▁including 4925
▁make 4925
▁if 4923
here 4889
ican 4875
le 4864
akh 4854
▁am 4844
ence 4826
ings 4814
▁class 4724
ya 4709
▁prime 4693
▁st 4678
x 4670
ine 4634
▁per 4625
▁some 4618
v 4611
uro 4608
ul 4578
▁come 4567
9 4566
▁before 4553
,000 4541
▁public 4535
▁india 4518
iv 4493
▁w 4466
▁take 4445
ness 4438
▁national 4437
ran 4435
ain 4430
ill 4424
▁health 4420
17 4412
ha 4410
end 4374
▁i 4367
ks 4365
ail 4347
ac 4343
ens 4328
▁man 4316
▁re 4313
▁where 4312
▁both 4301
▁en 4296
▁she 4293
ce 4266
▁part 4266
ments 4249
ord 4233
ise 4221
, 4217
▁given 4216
▁d 4211
▁t 4211
ts 4208
ang 4205
ry 4205
▁could 4179
▁very 4178
▁international 4167
ind 4147
ite 4144
ited 4136
▁just 4090
istan 4079
15 4073
▁most 4060
▁further 4058
▁three 4043
▁b 4011
ith 3992
sh 3981
ral 3955
▁right 3941
▁place 3940
rit 3939
ig 3930
▁taken 3910
ou 3886
▁sector 3880
▁what 3880
▁power 3862
▁down 3859
age 3847
all 3843
inet 3839
ana 3832
ach 3825
ct 3823
ev 3818
▁way 3818
der 3809
als 3806
▁sh 3795
▁then 3784
▁role 3777
ised 3773
▁hand 3760
▁must 3751
▁because 3744
▁days 3714
▁number 3699
▁same 3675
ile 3667
▁dis 3660
▁system 3633
are 3620
ard 3591
te 3576
▁may 3568
▁various 3562
COVID 3560
▁f 3558
PM 3557
ost 3556
▁capital 3555
ubl 3546
▁global 3533
▁administration 3521
▁came 3520
▁end 3516
▁life 3507
adesh 3503
▁children 3501
ater 3498
▁own 3487
▁con 3470
▁r 3453
▁did 3438
ll 3431
ical 3430
ret 3423
ong 3414
▁n 3390
ans 3389
▁among 3369
▁great 3363
▁back 3360
▁land 3354
▁major 3353
▁areas 3336
uring 3332
▁policy 3325
▁need 3324
▁while 3320
▁h 3312
▁provide 3312
▁present 3305
▁security 3268
▁set 3253
▁meeting 3249
ne 3245
▁water 3223
▁cooperation 3220
▁go 3219
ists 3217
ous 3208
▁address 3203
ress 3199
ities 3188
▁help 3187
▁terror 3183
tern 3178
ik 3174
day 3153
▁important 3137
mit 3110
▁financial 3109
▁long 3107
▁nation 3083
▁pro 3080
ake 3074
▁called 3072
ub 3062
▁party 3062
▁towards 3051
▁e 3048
▁across 3045
ip 3041
ase 3035
# 3028
▁good 3027
▁far 3026
uc 3018
velop 3016
ass 2997
▁since 2975
z 2969
▁campaign 2927
ute 2924
▁how 2918
▁put 2913
ged 2907
▁held 2904
ss 2898
▁police 2897
ve 2892
ib 2879
▁house 2877
ari 2876
▁crisis 2876
▁fact 2866
▁high 2859
airs 2855
▁order 2854
▁farmers 2852
▁within 2845
16 2828
ely 2827
▁efforts 2813
▁peace 2803
ob 2795
▁off 2789
▁see 2788
▁trade 2781
ever 2779
ias 2779
ized 2779
ome 2777
ines 2774
ative 2762
▁become 2755
▁states 2745
▁get 2744
▁forces 2741
ver 2739
▁economy 2731
ara 2728
ina 2726
▁million 2725
▁media 2722
ocr 2716
ear 2711
▁m 2705
▁energy 2703
▁used 2701
▁post 2699
und 2698
▁election 2687
▁took 2686
LTTE 2684
▁already 2680
ort 2671
▁business 2668
▁use 2661
ok 2653
▁conf 2653
14 2652
▁projects 2651
▁women 2649
▁opposition 2641
ally 2639
’ 2631
ons 2623
▁students 2614
ric 2610
▁here 2606
▁period 2603
▁based 2600
▁de 2592
uss 2588
ired 2583
atic 2581
▁added 2580
▁leaders 2579
11 2578
▁told 2576
▁visit 2574
▁without 2573
▁region 2571
air 2563
▁y 2563
its 2559
▁ex 2556
▁another 2555
▁next 2545
ld 2541
▁technology 2529
og 2517
eral 2511
▁sc 2510
▁pay 2505
ide 2500
stit 2500
▁give 2497
ma 2496
ting 2484
▁members 2483
▁app 2477
▁several 2474
▁son 2474
ire 2460
▁foreign 2452
▁education 2445
aw 2442
▁human 2441
ond 2439
port 2438
▁four 2437
led 2430
old 2427
▁parties 2424
▁making 2418
▁city 2410
alth 2407
▁c 2407
▁rights 2407
ala 2406
cc 2403
▁mass 2403
ians 2394
iz 2392
▁movement 2388
me 2380
▁due 2380
ark 2378
▁occasion 2373
▁together 2373
▁total 2373
ways 2371
! 2368
▁services 2368
ign 2361
az 2359
▁around 2354
▁done 2354
op 2353
▁poor 2353
oun 2352
▁society 2343
ful 2342
▁/ 2342
che 2339
▁scheme 2338
▁growth 2337
ington 2327
▁films 2321
▁know 2320
ious 2318
▁union 2318
ef 2314
▁king 2309
tal 2307
▁youth 2307
ven 2304
▁say 2304
erv 2298
▁ensure 2297
▁left 2294
▁real 2293
▁measures 2292
ats 2291
eg 2288
une 2287
▁future 2286
▁j 2286
▁past 2285
rance 2273
▁level 2268
▁much 2268
▁law 2267
ose 2266
rench 2266
ted 2265
▁men 2262
▁special 2258
ization 2257
▁went 2255
▁population 2252
▁month 2239
▁five 2235
▁increase 2235
ug 2234
▁field 2231
na 2226
▁protest 2224
▁project 2217
ee 2211
▁sp 2211
▁action 2210
les 2209
ants 2204
▁months 2191
mission 2190
▁young 2187
▁se 2182
▁saying 2181
ril 2180
rad 2170
▁situation 2170
ology 2161
▁process 2161
ower 2158
gr 2151
▁food 2149
outh 2148
▁officials 2148
▁streng 2147
▁mod 2144
▁best 2138
▁each 2134
▁again 2133
▁infrastructure 2133
chn 2129
▁g 2127
▁bring 2126
ess 2125
▁bl 2123
ace 2119
Z 2117
▁entire 2115
▁different 2108
▁brought 2094
ther 2091
▁$ 2089
▁ass 2084
▁lives 2081
ention 2076
arch 2075
▁production 2066
atives 2065
▁president 2060
ama 2057
▁billion 2055
▁report 2054
▁sent 2051
▁interests 2049
▁v 2046
▁cost 2041
▁information 2040
ory 2039
▁oil 2038
▁large 2035
▁rep 2035
ij 2027
ade 2024
isation 2024
▁name 2014
▁free 2010
▁tax 2001
▁change 1994
▁pl 1994
elf 1992
iness 1992
▁few 1981
▁inaug 1980
▁press 1979
▁def 1977
▁int 1976
ality 1973
ition 1966
▁cut 1964
▁strong 1964
ural 1962
▁civil 1959
ling 1958
▁anti 1958
▁along 1953
▁ind 1952
▁cha 1949
▁industry 1949
▁al 1948
▁building 1946
▁open 1946
▁former 1943
▁launched 1942
ability 1941
▁issues 1941
▁market 1941
riend 1937
▁ur 1935
▁away 1927
▁progress 1926
▁announced 1925
▁control 1918
▁week 1917
13 1915
men 1911
ives 1910
ghan 1909
▁rest 1908
▁area 1902
▁k 1900
▁service 1900
ack 1896
rib 1893
ically 1891
▁things 1890
ution 1888
▁big 1888
ement 1887
com 1877
▁decision 1877
▁case 1870
▁prov 1869
ember 1866
▁small 1866
▁going 1865
uk 1862
▁declared 1861
▁provided 1856
▁pre 1853
▁conditions 1845
cil 1842
▁inter 1839
ork 1838
▁form 1838
▁program 1838
ging 1835
▁following 1835
ie 1833
▁democratic 1833
less 1830
▁sub 1830
▁possible 1829
▁hero 1828
▁struggle 1826
▁father 1823
▁received 1814
▁family 1813
▁ruling 1813
▁better 1812
▁ins 1812
▁0 1809
▁deep 1805
aries 1803
▁itself 1803
ner 1802
▁inc 1798
hem 1796
▁investment 1796
itation 1795
the 1791
ages 1787
pl 1785
▁ch 1783
▁demand 1783
▁living 1782
ified 1780
▁regime 1778
▁heart 1777
▁too 1777
per 1775
ief 1774
▁less 1773
▁sl 1773
tt 1772
▁does 1771
out 1769
▁able 1767
▁fight 1767
▁forward 1767
▁local 1767
ize 1764
▁full 1754
▁means 1754
▁trans 1754
way 1753
91 1751
ham 1749
ivity 1748
▁face 1747
▁opportunity 1740
▁policies 1737
▁programme 1737
▁interest 1735
ures 1734
▁call 1733
▁clear 1731
ram 1729
▁act 1729
▁cities 1728
▁second 1727
umb 1726
med 1719
▁basis 1718
ins 1717
ration 1716
▁found 1716
ves 1715
ators 1714
ics 1714
▁troops 1712
▁still 1711
ren 1707
oth 1704
ivers 1703
▁approved 1702
▁taking 1702
▁issue 1696
igh 1690
▁innov 1688
ices 1683
▁co 1682
▁however 1678
▁let 1678
▁question 1677
ron 1675
to 1675
▁citizens 1674
▁official 1672
ances 1670
ites 1670
▁deal 1670
cial 1666
▁attack 1666
▁benefit 1666
ood 1655
▁increased 1655
▁= 1654
93 1650
come 1650
iah 1646
ier 1644
▁rural 1643
▁released 1642
▁expressed 1635
conom 1634
▁ent 1634
hand 1632
▁comp 1631
▁governments 1631
ets 1623
▁available 1623
uary 1619
▁function 1619
ell 1615
urs 1615
over 1614
▁want 1613
▁direct 1612
▁according 1611
ured 1607
ience 1605
▁home 1605
▁clean 1602
ification 1601
▁activities 1600
▁director 1600
ward 1598
▁continue 1598
ination 1596
down 1594
mun 1592
ph 1592
red 1589
▁story 1589
hold 1588
ees 1587
▁gave 1587
if 1586
▁appro 1586
ax 1585
ms 1583
▁event 1583
▁force 1583
ptember 1581
▁old 1578
▁seen 1578
▁care 1573
ces 1572
▁ad 1571
▁ever 1569
amp 1567
▁companies 1566
▁cases 1565
▁current 1565
imes 1564
▁recent 1563
bo 1558
fic 1558
▁head 1557
▁top 1557
int 1556
▁times 1556
▁cl 1555
cy 1553
ue 1549
▁imp 1549
ince 1546
▁private 1543
▁result 1541
▁started 1538
att 1537
act 1536
▁agreement 1535
▁spoke 1533
▁leadership 1528
▁bank 1524
ning 1519
row 1519
war 1518
▁exp 1518
▁led 1518
ced 1516
▁growing 1516
▁gl 1513
▁im 1513
▁elections 1512
▁attacks 1511
▁training 1511
▁aim 1510
▁relations 1508
000 1506
▁start 1506
one 1505
▁invest 1504
her 1503
of 1503
▁community 1502
mir 1496
▁medical 1495
▁research 1495
▁capacity 1494
▁institutions 1494
ka 1492
▁agreed 1482
▁facilities 1482
▁management 1481
▁air 1480
▁nor 1478
ars 1477
▁bo 1475
▁threat 1475
ger 1474
▁initi 1474
▁commit 1473
▁money 1473
▁others 1472
io 1471
form 1467
▁themselves 1467
SEP 1464
ati 1464
ung 1464
ned 1463
▁issued 1460
ect 1458
▁needs 1458
▁related 1456
▁common 1449
ani 1448
ission 1448
aking 1447
▁br 1447
▁san 1447
▁strike 1447
▁leader 1444
▁providing 1443
aff 1441
apan 1440
▁vote 1440
ult 1436
ber 1431
ues 1431
▁ago 1430
▁families 1429
▁account 1428
▁group 1428
emic 1427
ied 1427
rom 1427
▁decided 1425
▁lay 1425
▁rel 1425
▁central 1424
wing 1423
▁might 1423
ising 1422
ving 1422
▁general 1422
ight 1413
▁upon 1413
▁aware 1412
▁death 1412
▁whole 1411
▁asked 1410
▁history 1410
ending 1409
▁cont 1409
▁spread 1408
ead 1407
▁o 1406
▁access 1405
▁signed 1405
▁person 1403
▁leading 1401
▁key 1399
ja 1398
▁share 1398
▁six 1398
▁got 1397
min 1396
▁imperial 1395
▁office 1394
ich 1393
▁certain 1391
▁th 1389
ober 1384
▁cannot 1384
▁defence 1383
▁prior 1382
▁self 1380
▁show 1380
utes 1375
▁close 1375
ini 1374
▁‘ 1374
▁respect 1370
▁thousands 1369
▁live 1368
▁challeng 1366
▁having 1366
▁powers 1364
▁etc 1363
▁resources 1363
ng 1362
▁least 1362
rans 1358
▁transform 1358
ents 1357
▁officers 1354
▁plan 1353
ty 1352
ert 1350
ined 1349
▁compl 1349
▁discuss 1349
els 1348
▁jobs 1348
▁conference 1347
▁army 1346
▁focus 1345
▁yet 1345
ication 1342
eng 1340
▁point 1340
ensions 1339
▁hard 1339
▁opportunities 1337
▁res 1336
▁budget 1335
▁gas 1333
▁rate 1332
▁coming 1328
▁pr 1325
▁why 1325
▁directed 1324
gy 1323
▁don 1323
▁short 1323
ening 1321
▁himself 1320
▁plans 1320
▁therefore 1320
oga 1319
▁keep 1318
▁position 1318
ual 1314
ital 1313
ois 1313
▁joint 1311
▁impact 1310
▁implementation 1310
ene 1309
▁tal 1309
ound 1306
▁establishment 1301
▁rem 1301
ressed 1300
▁problems 1300
▁works 1300
▁cent 1298
▁meet 1298
ctor 1297
▁ab 1297
▁especially 1297
ction 1295
hip 1295
▁met 1295
▁non 1295
▁response 1295
▁dev 1294
▁ens 1294
▁thing 1294
arm 1293
▁turn 1292
ator 1291
▁employment 1291
▁importance 1291
▁expected 1290
ched 1289
▁largest 1289
▁create 1287
▁host 1287
▁chief 1281
▁supply 1281
▁success 1280
UN 1279
▁review 1279
▁significant 1279
▁ref 1276
ify 1275
ricult 1275
▁potential 1275
▁fire 1274
▁doing 1273
▁half 1270
▁quality 1270
ont 1268
cess 1267
ica 1267
▁necessary 1267
▁build 1266
▁qu 1262
▁wel 1261
▁dem 1260
▁line 1260
ble 1259
au 1258
▁income 1258
▁written 1258
▁company 1257
▁target 1257
lin 1255
ony 1255
▁rec 1255
ense 1252
▁carried 1252
▁nuclear 1252
▁ag 1251
▁happ 1251
ton 1250
ada 1249
ones 1246
▁main 1246
▁partnership 1246
ji 1244
ancing 1241
▁always 1241
▁enh 1241
▁never 1240
ouse 1239
ining 1237
rist 1237
▁once 1237
▁inv 1236
▁prevent 1235
▁bene 1233
rid 1232
▁created 1232
▁whose 1231
▁connect 1230
▁soldiers 1230
▁till 1229
▁release 1227
▁reported 1227
▁bour 1226
▁broad 1226
▁course 1226
31 1225
▁bil 1225
▁trib 1218
▁killed 1217
▁pass 1217
ences 1216
▁strength 1216
▁villages 1215
cl 1210
▁socialist 1210
uch 1209
eb 1208
▁assistance 1206
▁throughout 1206
▁mother 1205
▁operations 1205
aman 1204
▁lead 1204
▁stated 1199
▁elite 1197
▁vision 1197
▁earlier 1196
▁thousand 1196
▁gener 1194
▁fl 1193
▁near 1193
▁statement 1193
cember 1192
▁fear 1192
▁developed 1191
▁early 1191
lo 1190
ugust 1190
▁groups 1190
▁return 1190
urity 1189
▁look 1189
▁member 1189
▁says 1189
ns 1188
▁banks 1188
ection 1187
ension 1187
ium 1187
ulated 1187
▁export 1185
▁step 1185
▁words 1183
ps 1180
▁des 1179
ann 1177
esh 1177
ury 1176
ree 1173
▁using 1173
ries 1169
▁lo 1169
▁offer 1169
.0 1168
▁view 1168
▁laid 1167
ft 1166
▁hours 1166
rif 1165
▁include 1164
▁district 1162
▁approval 1161
bs 1160
▁sw 1158
yan 1155
▁dec 1155
ount 1153
▁known 1153
EU 1152
land 1151
▁facilit 1150
▁nothing 1150
▁weapons 1150
aya 1149
▁continued 1149
▁kind 1149
ban 1148
▁promote 1148
▁third 1148
▁stand 1147
▁bre 1146
rep 1145
▁spirit 1145
amm 1143
anth 1143
ys 1143
▁particularly 1143
▁cast 1141
▁foundation 1137
▁modern 1137
▁construction 1135
▁det 1135
▁majority 1133
▁above 1132
so 1131
bruary 1130
gan 1130
ays 1129
▁le 1129
rod 1127
▁initiative 1126
▁prom 1126
▁nations 1124
▁mission 1123
▁sect 1123
ams 1121
▁products 1121
▁school 1121
▁serious 1121
▁sons 1121
anda 1120
atory 1119
▁milit 1119
isters 1118
oper 1118
▁mind 1117
▁noted 1117
▁tra 1117
izing 1116
▁though 1116
ship 1115
▁environment 1115
▁popular 1114
oy 1112
▁hands 1112
▁serv 1112
agement 1111
▁saw 1111
▁democracy 1110
▁lock 1110
▁senior 1110
▁wh 1110
▁road 1106
▁benefits 1105
▁politics 1105
▁prepared 1103
▁steps 1103
af 1102
▁culture 1102
iance 1100
nt 1100
▁border 1100
▁reforms 1099
any 1098
ards 1098
▁celebr 1098
be 1096
ester 1096
ame 1095
ata 1095
ped 1094
▁earth 1094
▁recently 1094
ho 1092
lim 1092
tra 1090
▁soon 1090
▁develop 1089
▁find 1089
▁shooting 1088
ises 1087
itude 1086
then 1086
▁think 1086
▁side 1083
▁product 1082
▁strategic 1082
▁port 1080
iation 1078
ored 1078
▁agriculture 1078
▁existing 1078
▁reform 1078
▁adv 1077
▁believe 1077
▁essential 1077
▁sections 1077
ock 1072
fore 1071
▁parliament 1071
▁effort 1070
▁manner 1070
▁comm 1069
▁demonstr 1068
▁court 1067
▁launch 1067
▁sm 1067
▁committed 1063
▁el 1063
ering 1062
▁knowledge 1062
line 1061
▁previous 1061
ened 1060
hy 1060
ping 1060
acy 1059
▁digital 1059
▁parts 1059
▁whether 1059
▁imm 1058
▁districts 1057
▁move 1057
▁nearly 1056
iament 1055
▁talk 1054
▁whom 1054
▁equ 1052
▁required 1052
▁fe 1051
▁blood 1050
▁welfare 1049
co 1048
▁higher 1048
▁ra 1048
▁behind 1047
ick 1046
▁interact 1046
▁greater 1045
▁light 1044
ami 1043
▁sur 1043
▁rev 1041
▁middle 1040
arn 1039
gypt 1039
▁involved 1037
de 1036
ility 1036
▁coalition 1035
▁speak 1033
zy 1029
▁run 1027
▁brothers 1025
▁gather 1025
stem 1024
▁break 1024
▁plant 1024
▁forth 1023
▁responsibility 1023
▁dist 1022
▁play 1021
▁“ 1020
aken 1019
ots 1019
ront 1019
▁huge 1019
▁terms 1019
▁improve 1018
▁job 1017
kar 1016
▁... 1016
▁weeks 1016
ered 1015
▁decades 1015
▁addition 1012
▁pressure 1012
mar 1011
▁example 1011
▁final 1010
ished 1009
ying 1009
▁round 1009
ible 1007
ali 1005
ci 1002
▁established 1001
▁lot 1001
▁began 1000
pur 999
▁freedom 999
▁prop 999
▁sisters 999
ject 998
▁proposed 998
ively 997
▁den 996
▁amount 995
employ 994
▁occupation 994
▁gr 993
▁increasing 993
▁emp 992
equ 991
▁worth 991
▁encoura 990
▁regional 989
▁until 989
0- 988
GST 988
emb 988
lam 988
▁conflict 988
▁hold 988
▁series 988
get 987
▁labour 987
▁accept 986
ale 984
ference 984
▁neither 984
ional 983
▁par 981
▁ground 980
▁places 980
▁commun 979
iy 978
▁later 978
▁reason 978
▁legal 977
▁happy 976
▁date 975
▁hope 975
rd 973
▁century 973
▁remain 973
▁won 973
▁participation 969
▁protect 969
▁seven 969
▁undert 969
amb 967
▁heard 966
▁age 965
▁experience 965
▁resol 964
idence 963
▁likely 963
▁industrial 962
ours 961
pan 961
oll 959
standing 959
hed 958
▁ar 958
▁standards 958
▁ten 957
ict 956
▁armed 955
▁sup 955
astern 954
▁produced 954
▁transport 954
▁team 953
orpor 952
▁emb 952
▁persons 952
▁conducted 951
uction 950
▁contribution 950
▁violence 950
▁became 949
▁matter 949
▁mentioned 949
ient 948
▁dead 948
▁eng 947
▁generation 946
▁independent 944
▁low 944
▁witness 944
olic 942
ek 941
▁centre 941
▁gre 941
▁cr 940
▁mill 940
ately 939
▁word 938
▁del 937
olution 936
▁effective 935
▁paid 935
▁indian 934
▁value 933
▁priest 932
▁emer 931
asi 930
▁price 930
pro 928
▁bill 928
▁hospital 928
▁sign 928
▁directly 927
▁stone 926
ently 925
▁book 925
▁lost 925
▁demands 924
▁offering 924
ific 923
▁similar 923
dd 922
ky 920
▁speech 920
▁built 919
▁character 918
▁love 918
▁patients 918
▁rise 918
▁domestic 917
▁manufacturing 917
▁organized 917
▁cause 916
▁govern 916
▁reach 916
ote 915
▁single 915
ained 914
▁turned 914
75 913
▁details 913
▁disc 913
▁hundred 913
hood 912
▁deleg 912
▁north 912
▁sustain 912
▁village 912
gram 911
é 911
▁inf 911
ides 909
istic 909
ras 909
▁aimed 909
▁data 908
▁personnel 908
▁shared 908
vey 907
▁basic 907
▁science 907
▁houses 906
▁music 906
▁prof 906
▁stri 906
hor 905
hu 905
▁bar 905
▁emphas 904
dle 902
▁mob 902
oh 901
▁att 901
▁path 901
ere 900
▁consider 899
▁highlight 899
▁platform 899
ele 898
isc 898
▁acting 898
▁perspective 897
hn 896
▁little 896
▁space 896
▁er 895
▁conduct 894
ulation 893
▁everyone 893
▁news 892
ches 891
▁fulf 891
▁played 891
ern 890
▁prosper 890
▁responsible 890
ex 888
li 888
▁independence 888
▁actions 887
▁decl 886
▁events 886
▁implement 886
usalem 885
▁presidential 885
▁sac 885
▁worked 885
JVP 884
▁mon 884
▁programmes 884
ery 883
pir 883
▁completed 883
▁ut 881
nes 880
ray 880
wa 879
▁thus 878
ave 877
gre 877
ression 877
▁comes 877
▁massive 877
▁sought 877
▁achie 875
▁achieve 875
▁authorities 875
” 874
▁rule 874
▁complete 871
▁renew 870
ased 869
▁gold 869
▁natural 869
▁objective 868
▁message 867
▁sea 866
nam 865
▁south 865
▁additional 864
▁attempt 864
▁reports 864
ably 863
uted 862
▁sides 861
gar 860
▁direction 860
▁poverty 860
▁treatment 860
ffic 859
▁base 859
agh 858
aka 858
▁anniversary 858
▁seek 858
ains 857
lect 857
nn 857
▁problem 857
▁contrib 856
▁testing 856
hus 855
oard 855
▁positive 853
▁concerned 852
▁candidate 850
▁presence 849
▁list 848
ws 847
▁night 847
▁test 847
based 846
mp 846
▁funds 846
▁personal 846
▁voice 844
▁markets 842
eder 841
▁developing 841
▁und 840
▁child 839
▁exchange 838
▁approach 837
▁section 837
▁fighting 836
▁aid 835
▁regard 835
ink 834
▁establish 834
▁almost 833
▁safety 833
▁sal 833
pect 832
▁cabinet 832
▁command 832
▁record 832
▁art 831
▁intelligence 830
ulate 829
very 829
care 828
rol 828
▁getting 828
▁prices 828
ision 827
ple 827
anded 825
▁successful 825
▁cons 824
▁ev 824
▁reduce 824
▁reg 824
▁setting 823
▁gra 822
▁staff 822
elled 821
▁informed 820
▁latest 820
▁rather 820
▁beginning 819
ames 818
▁particular 818
▁car 817
ared 816
hal 816
▁changes 816
▁interv 816
epend 814
▁cover 814
▁ir 814
ika 813
ild 813
▁giving 813
35 812
wn 812
▁friends 812
imate 810
▁outside 808
▁followed 807
ese 806
oci 804
ople 803
▁conv 802
▁video 802
▁visited 802
ti 801
eth 800
▁fore 800
ather 799
▁contract 799
▁evidence 799
▁mult 799
▁provides 799
eva 798
▁effect 798
▁online 798
▁storage 798
▁claims 797
▁organ 797
aring 796
fer 796
▁candidates 795
▁fast 795
▁suggest 795
Q 794
den 794
iting 794
well 794
year 794
▁challenge 794
ishes 793
▁cultural 793
▁express 793
▁em 792
▁organis 792
tar 791
vest 791
▁lack 790
MSME 789
▁electricity 789
▁che 788
▁fund 788
▁beh 787
▁brother 787
▁nature 787
▁employ 786
iber 785
ications 784
▁concern 784
▁monitor 784
▁rich 784
ald 783
gh 783
my 783
ows 783
▁enter 783
ories 781
▁collaboration 781
▁fundamental 781
▁representatives 781
▁eat 780
▁speed 780
▁vast 780
SPD 779
▁claim 779
aving 778
▁language 778
hes 777
wards 777
▁sure 777
▁wife 777
▁ce 776
▁affected 775
ike 773
▁fr 773
▁immediately 773
other 772
▁morning 772
▁supported 772
â 771
▁birth 771
▁jud 771
▁bure 770
▁daily 770
▁opposed 770
icit 769
▁understand 769
iter 768
▁average 768
▁front 768
lish 767
inc 766
ological 766
uct 766
▁laws 766
ming 765
pr 765
▁feel 765
▁schools 765
▁presented 764
ges 763
ously 763
▁limited 763
▁util 763
▁article 762
▁east 762
▁makes 761
▁body 760
▁estimated 760
▁withdra 760
▁produce 759
cing 758
▁credit 758
▁serve 758
aining 757
▁hundreds 757
▁systems 757
▁urban 757
▁explained 756
hel 755
inese 755
ta 755
▁forced 755
▁ties 755
inian 753
uv 753
▁acc 753
▁subject 753
het 752
omen 752
▁creating 752
▁allow 751
▁mark 751
ke 750
▁employees 750
▁econom 749
eds 747
osp 747
▁discussed 747
▁seeking 747
pt 746
▁implemented 746
▁relief 746
▁ahead 745
▁summit 745
▁strategy 744
elling 743
ool 743
▁award 743
▁dedicated 743
▁levels 743
▁reaction 743
▁understanding 743
0. 742
▁expl 742
ented 741
ull 741
▁agencies 741
▁constitution 741
anc 740
tr 740
▁read 740
▁extended 739
▁hit 739
▁aggress 738
▁scale 738
▁operation 737
iment 736
rises 735
▁avail 735
▁thought 735
ona 734
▁alone 734
▁critical 734
▁toward 734
amed 733
oviet 733
▁finance 733
called 732
ck 732
▁destruction 732
▁prev 732
▁published 732
adi 731
▁purs 731
▁something 731
▁compared 729
ane 728
▁calls 728
▁ready 728
cont 727
fl 727
▁either 727
▁poll 727
enda 726
▁mand 724
igation 722
ued 722
▁active 722
▁guid 722
▁immediate 722
reen 721
▁included 721
▁explo 720
▁framework 720
wal 719
▁hear 719
▁safe 719
▁highest 718
▁link 718
▁loss 718
ended 717
uation 717
▁join 717
▁newspaper 717
aled 716
▁creation 716
▁purpose 716
▁claimed 715
▁fall 715
▁true 715
dom 714
ocation 714
▁associated 714
▁goods 714
▁import 714
▁organised 714
▁secret 714
▁cur 713
▁deliver 713
isions 712
▁decisions 712
▁resolution 712
▁vis 712
mon 711
▁answ 711
▁passed 711
▁joined 709
▁term 709
▁trust 708
▁announce 707
ked 706
▁carry 706
▁offered 706
con 705
press 704
▁attention 704
▁results 704
orm 703
pet 703
▁corporate 703
run 702
▁discussion 702
▁ministry 702
▁mutual 702
▁str 702
▁gu 701
▁red 701
asing 700
ency 700
uth 700
▁gen 700
▁tr 700
rem 699
aged 697
bed 697
gency 697
▁expect 697
▁supporters 697
▁wor 697
ao 696
▁har 696
▁difficult 694
▁facility 693
▁km 693
▁remember 693
▁tourism 693
ause 692
itals 692
▁eyes 692
▁invasion 692
BJP 691
empt 691
▁stage 690
▁values 689
▁evil 688
▁op 688
▁train 688
ring 687
▁proposal 687
▁sports 687
aud 686
▁learn 686
▁counter 685
▁source 685
▁protection 684
itions 683
ls 683
ugh 683
▁leave 683
kes 682
▁dr 682
▁participate 682
idents 680
▁accounts 680
▁advance 680
▁af 680
▁drive 680
▁regarding 680
▁despite 679
▁network 679
▁wrote 679
WSWS 678
▁wealth 678
add 677
▁alternative 676
▁ob 676
ided 675
▁– 675
▁afford 674
▁achieved 673
▁context 672
▁reached 672
vi 671
▁relationship 671
▁revolution 671
▁unit 671
iding 669
iet 669
back 668
ior 668
omm 668
▁moment 668
ler 667
ved 667
▁increasingly 667
▁institution 667
▁allowed 666
▁div 666
▁profit 666
▁extra 665
▁gone 665
▁propos 665
▁disp 664
▁status 664
ends 662
jo 662
agon 661
▁appe 659
▁participated 658
▁stop 658
bu 656
▁raised 656
▁solution 656
ular 655
▁technologies 655
▁faith 654
▁tom 653
ria 652
▁described 652
▁fully 652
▁opened 652
▁ded 651
▁refused 651
▁teachers 651
mal 650
rich 650
▁cap 650
▁consult 650
▁prepar 650
▁ste 650
▁task 650
ugu 649
▁island 649
▁refuge 649
45 648
onment 648
▁infl 648
▁secretary 648
pre 647
▁attended 647
yn 646
▁committee 646
▁travel 646
▁demon 645
▁flag 645
▁consequ 644
▁climate 643
▁pra 643
▁session 643
▁block 642
▁emergency 642
▁lab 642
▁commercial 641
▁holy 641
▁ways 641
rage 640
sc 640
▁council 640
▁airport 639
▁defend 639
▁festival 639
▁alliance 638
▁solar 638
▁stay 638
▁housing 637
▁ro 637
▁influence 636
▁bur 635
▁maintain 635
▁technical 635
iva 633
aut 632
▁beyond 632
▁bringing 632
▁eight 632
▁identified 632
▁proceed 632
▁shot 632
▁vir 632
hered 631
ollow 631
▁includes 631
▁coal 630
▁concerns 630
▁clearly 628
ports 627
▁traditional 627
vis 626
▁needed 626
▁victory 626
▁camp 625
▁lif 625
▁pray 625
▁solutions 624
▁super 624
ira 623
ploy 623
vent 623
▁editor 623
▁subsid 623
hab 622
och 622
▁request 622
▁stood 622
oms 621
▁inst 621
irect 620
iver 620
erson 619
ey 619
rop 619
unt 619
▁promoting 619
▁spok 619
illed 618
▁web 618
work 617
▁forms 617
▁mobile 617
ez 616
▁appeal 616
▁individual 616
▁planned 616
▁com 615
▁organizations 615
pp 614
▁parliamentary 614
▁mis 613
▁object 613
iture 612
▁abroad 612
▁fields 612
▁repeated 612
posed 611
▁rising 611
▁delivered 610
▁satisf 610
▁agricultural 609
▁letter 609
▁longer 609
▁religious 609
▁signing 609
▁takes 609
ching 608
▁federal 608
▁trying 608
▁units 608
▁below 607
▁died 607
▁mount 607
▁priv 607
▁negotiations 606
▁skill 606
▁producer 605
▁tre 605
▁woman 605
▁lower 604
▁sens 604
iss 603
▁centres 603
▁introduced 603
▁scientists 603
▁val 603
▁lines 602
▁rates 602
ually 601
▁condem 601
▁numbers 601
▁vac 601
vir 600
▁disaster 600
▁bomb 599
▁bus 599
▁ris 599
clus 598
la 598
▁changed 598
▁corruption 598
▁daughter 598
▁impro 598
▁programs 598
▁pointed 597
▁send 597
utions 596
▁bra 596
eter 595
jan 595
▁ant 595
▁receive 595
▁screen 595
athan 594
▁considered 594
▁dep 594
▁fell 594
ibility 593
king 593
Ã 593
▁contin 593
▁currently 593
▁follow 593
▁save 593
coming 592
ley 592
oon 592
sp 592
▁failed 592
▁none 592
▁stock 592
ough 591
▁meetings 591
▁shown 591
▁tim 591
199 590
▁annual 590
▁enough 590
uing 589
▁remains 589
▁ear 588
▁keeping 588
▁points 588
▁appl 587
▁historical 587
▁provision 587
▁questions 587
aging 586
ract 586
▁cooper 586
▁crimes 586
▁journey 586
▁operational 586
▁pos 586
▁ret 586
▁scientific 586
off 585
▁ill 585
▁kept 585
▁ple 585
erve 584
▁model 584
acle 583
fire 583
reat 583
▁charge 583
▁homes 583
▁lies 583
▁planning 583
vin 582
▁heavy 582
abilities 581
▁collapse 581
▁practices 581
▁hon 580
eur 579
rot 579
▁faced 579
▁hosp 579
▁impl 579
▁insurance 579
▁industries 578
▁interview 578
▁spending 578
▁study 578
▁unity 578
ondon 577
▁pres 577
▁railway 577
▁firm 576
▁assess 575
▁ongoing 575
▁song 575
osh 574
tered 574
▁expansion 574
▁opening 574
▁running 574
▁burn 573
▁criminal 573
▁sense 573
▁expand 572
▁competition 571
isted 570
▁contact 570
▁hop 570
rant 569
▁heritage 569
▁ideas 569
ements 568
▁partner 566
▁guarant 565
app 564
cast 564
uel 564
▁mid 564
▁secure 564
▁dest 563
eli 562
▁becoming 562
▁laun 562
▁station 561
▁trains 561
▁unique 561
▁deliber 560
▁inside 560
▁po 560
▁revolutionary 560
oe 559
▁pol 559
we 558
▁pm 558
▁dream 557
▁kill 557
▁voters 557
▁advanced 556
▁regions 556
▁requirements 556
▁chairman 555
▁debt 555
▁fuel 555
▁heaven 555
▁late 555
▁temple 555
▁ge 554
▁goal 554
▁loan 554
▁ministers 554
▁river 554
▁sol 554
▁sum 554
action 553
aly 553
vel 553
▁engaged 553
pose 552
▁domin 551
▁pet 551
▁tell 551
ried 550
▁helped 550
▁cor 549
▁hour 549
ange 548
ctions 548
▁waste 548
rim 547
▁equipment 547
▁facing 547
▁performance 547
iti 546
▁registered 546
eline 545
▁organisation 545
▁pun 545
▁wish 545
ifying 544
▁measure 544
▁student 544
▁amb 543
▁assault 543
▁figures 543
▁reflect 543
▁continues 542
▁opp 542
ift 541
▁cou 541
▁reduced 540
▁risk 540
▁roads 540
iled 539
▁completely 539
xt 538
▁count 538
UNP 537
▁department 537
▁material 537
anes 536
ask 536
que 536
▁contain 535
▁wants 535
▁author 534
▁divers 534
NITI 533
iving 533
▁accepted 533
▁constit 533
▁fra 533
▁regular 532
term 531
ela 530
part 530
▁ide 530
▁moved 530
▁u 530
▁belong 529
▁bit 529
▁reality 529
▁supporting 529
ura 528
ze 528
▁fin 528
▁justice 528
▁ones 528
ten 527
▁diss 527
▁gri 527
ilar 526
ror 526
▁goes 526
ily 525
oot 525
reme 525
▁foot 524
rict 523
▁exam 523
▁returned 523
▁walk 523
ida 522
itor 522
use 522
▁calling 522
▁truth 522
II 521
▁coverage 521
▁historic 521
▁gives 520
▁investigation 520
▁labor 519
▁accused 518
▁caused 518
▁skills 518
▁methods 517
▁reserv 517
ayan 516
estern 516
▁bet 516
▁dict 516
▁mer 516
▁moving 516
▁win 516
▁widespread 515
uck 514
va 514
▁accord 514
▁critic 514
▁vehicles 514
own 513
▁interaction 513
▁la 513
▁wanted 513
son 512
▁integr 512
▁served 512
oss 511
▁biggest 511
▁check 511
▁illegal 511
▁recommend 511
▁successfully 511
▁votes 511
ights 510
let 510
rip 510
▁carrying 510
▁grand 510
▁specific 510
NATO 509
aint 509
▁note 509
▁officer 509
▁organization 509
▁techn 509
abor 508
hop 507
▁soc 507
ds 506
era 506
rupt 506
nov 505
ruct 505
▁defeat 505
inent 504
▁sil 504
nal 503
▁bond 503
▁discip 503
65 502
▁cond 502
▁extent 502
▁opinion 502
▁powerful 502
▁rapid 502
▁doct 501
▁wid 501
cher 500
▁placed 500
▁resistance 500
pos 499
▁gat 499
▁particip 499
ket 498
lection 498
▁cash 498
▁connected 498
▁destroyed 498
▁emerged 498
ession 497
uting 497
▁black 497
alk 496
orge 496
▁bound 496
▁pred 496
da 495
▁ext 495
▁parents 495
▁rules 495
orn 494
ables 493
ga 493
itarian 493
oke 493
tre 493
▁attract 493
▁formed 493
▁stability 493
▁capt 492
▁decade 492
▁husband 492
▁min 492
▁strugg 492
▁supposed 492
▁constant 491
▁costs 491
▁cred 491
▁cruc 491
▁deaths 491
▁instead 491
▁ph 491
▁soul 491
▁sources 491
▁twenty 491
rising 490
▁amongst 490
▁flood 490
▁simply 490
ague 489
org 489
▁corpor 489
▁di 489
▁figure 489
▁northern 489
▁raise 489
▁charges 488
▁confer 488
▁ign 488
▁insp 488
▁learning 488
ih 487
itive 487
▁bodies 487
▁distribution 487
▁doubt 487
▁largely 487
▁looking 487
▁seats 487
▁separate 487
▁eastern 486
▁battle 485
▁collabor 485
▁comprehensive 485
▁respective 485
cept 484
hr 484
lying 484
▁aspects 484
▁cat 484
▁extremely 484
▁ma 484
▁significance 484
iant 483
▁actor 483
▁arran 483
▁bi 483
▁fort 483
▁rail 483
▁town 483
▁extend 482
▁package 482
▁principles 482
▁recalled 482
▁trial 482
GDP 481
ius 481
▁behalf 481
▁decline 481
▁politicians 481
▁processing 481
▁sin 481
▁ter 481
aded 479
set 479
▁covered 479
▁crime 479
▁fisher 479
racy 478
▁entered 478
▁separ 478
▁supplies 478
▁viol 478
wan 477
▁closely 477
▁evening 477
▁speaking 477
▁university 477
▁doub 476
▁rapidly 476
▁char 475
▁coast 475
▁combat 475
▁exper 475
chang 474
istics 474
una 474
▁exercise 474
▁plants 474
▁spent 474
48 473
eted 473
ijing 473
▁bad 473
▁liv 472
▁offensive 472
▁title 472
rat 471
▁adopted 471
▁advoc 471
▁ball 471
▁double 471
▁matters 471
▁remained 471
▁scenes 471
▁elect 470
▁warning 470
▁polit 469
▁tried 469
cis 468
eless 468
▁comment 468
▁stations 468
▁theme 468
▁warm 468
▁felt 467
AYUSH 466
▁activity 466
▁esc 466
▁prep 466
aur 465
inary 465
▁completion 465
▁effectively 465
▁failure 465
▁log 465
elves 464
lands 464
▁households 464
imin 463
▁elected 463
▁fail 463
▁highly 463
▁hom 463
olit 462
▁advis 462
▁pip 462
▁prec 462
▁tab 462
33 460
CIA 460
fully 460
ither 460
nel 460
▁camps 460
▁disease 460
▁everything 460
▁arrest 459
▁authority 459
▁bul 459
▁victims 459
▁ordinary 458
ima 457
▁board 457
▁collective 457
▁elements 457
▁gar 457
▁often 457
▁passengers 457
▁physical 457
▁thr 457
ena 456
rap 456
▁determined 456
▁dialogue 456
▁formal 456
▁brief 455
▁height 455
▁rejected 455
ny 454
oked 454
yr 454
▁consum 454
▁proper 454
▁reb 454
▁relevant 454
UK 453
ope 453
ylon 453
▁avoid 453
▁pan 453
▁murder 452
vements 451
▁reject 451
▁try 451
ris 450
urday 450
▁deb 450
▁incident 450
cell 449
oured 449
▁* 449
▁alleged 449
▁door 449
▁dre 449
▁harm 449
▁requested 449
▁bow 448
▁commission 448
▁debate 448
▁extrem 448
▁stands 448
ateg 447
aza 447
▁communities 447
▁invited 447
▁overall 447
▁suggested 447
enn 446
iqu 446
▁add 446
▁die 446
▁experiences 446
▁render 446
▁sk 446
198 445
ases 445
time 445
▁anything 445
▁believed 445
▁killing 445
▁transfer 445
▁quite 444
▁z 444
iles 443
til 443
▁answer 443
▁initiated 443
▁languages 443
▁mouth 443
long 442
▁incom 442
ially 441
▁conscious 441
▁document 441
▁mort 441
▁television 441
IMF 440
chi 440
ership 440
▁individuals 440
▁statements 440
ums 439
▁continuing 439
▁prison 439
▁ran 439
aker 438
ua 438
▁ap 438
▁citizen 438
▁negoti 438
▁tradition 438
▁designed 437
▁united 437
arters 436
aster 436
rain 436
▁allies 436
▁daughters 436
▁idea 436
▁nam 436
▁views 436
force 435
▁medic 435
▁ren 435
gent 434
icip 434
itable 434
light 434
uses 434
▁commanded 434
▁educational 434
▁sharing 434
▁solid 434
erted 433
oor 433
 433
▁connections 433
▁pers 433
▁profession 433
icate 432
iring 432
oted 432
riev 432
urn 432
▁cross 432
▁equal 432
▁green 432
▁minimum 432
▁recogn 432
ju 431
oa 431
▁mechanism 431
aches 430
for 430
wise 430
▁adopt 430
▁civilian 430
▁heads 430
▁sharp 430
▁tort 430
gen 429
▁awards 429
▁helping 429
▁journal 429
▁star 429
omin 428
ounced 428
sa 428
▁delivery 428
▁friendly 428
▁hol 428
55 427
by 427
ected 427
▁concluded 427
▁diplomatic 427
▁diseases 427
▁recovery 427
▁threatened 427
rel 426
▁balance 426
▁bear 426
▁except 426
▁friend 426
▁reduction 426
▁seems 426
▁showed 426
MP 425
atically 425
ode 425
rial 425
▁ban 425
▁rain 425
TV 424
right 424
was 424
▁deploy 424
▁funding 424
▁partners 424
▁sell 424
inn 423
▁cre 423
▁maximum 423
▁phase 423
37 422
ix 422
▁ask 422
▁nut 422
ru 421
▁site 421
▁assets 420
▁electoral 420
▁linked 420
▁reasons 420
▁taxes 420
ett 419
▁enthus 419
▁euro 419
▁mant 419
▁remark 419
aling 418
ament 418
▁appropriate 418
▁attend 418
▁connection 418
▁expression 418
▁inspiration 418
▁pill 418
▁sav 418
▁spoken 418
▁vill 418
iction 417
▁ceremony 417
▁sab 417
yl 416
▁establishing 416
▁prisoners 416
▁targets 416
gements 415
▁mas 415
CEO 414
▁affairs 414
▁communication 414
▁gets 414
▁injured 414
▁wonder 414
usion 413
▁arrested 413
▁closed 413
▁cov 413
▁promotion 413
▁thereby 413
▁trav 413
ales 412
eda 412
iers 412
omb 412
▁neighbour 412
▁prosec 412
abil 411
isms 411
▁fert 411
IT 410
ulf 410
▁analysis 410
▁anyone 410
▁practice 410
▁ship 410
▁sus 410
▁ton 410
agan 409
resent 409
▁destroy 409
▁encouraged 409
▁processes 409
▁range 409
icts 408
key 408
▁grow 408
▁lie 408
▁losses 408
▁radical 408
ailed 407
aine 407
state 407
▁application 407
▁born 407
▁complex 407
▁grant 407
▁happened 407
▁remaining 407
▁revealed 407
▁shows 407
▁shut 407
▁sing 407
▁sword 407
36 406
cles 406
▁acts 406
▁begin 406
▁extension 406
▁improved 406
▁participants 406
▁standard 406
▁wide 406
ids 405
sk 405
▁chain 405
▁confirmed 405
▁dollars 405
▁efficiency 405
▁really 405
▁reducing 405
ano 404
▁clos 404
▁duty 404
▁offers 404
ading 403
cent 403
par 403
▁integration 403
▁involving 403
▁legit 403
▁offices 403
▁resulted 403
▁celebrated 402
▁fighters 402
▁holding 402
▁investig 402
▁multi 402
▁vital 402
go 401
pa 401
▁aircraft 401
▁colonial 401
▁indicated 401
▁integrated 401
▁willing 401
34 400
br 400
where 400
▁assist 400
▁indeed 400
▁voted 400
▁acted 399
▁fourth 399
▁imag 399
▁shift 399
lan 398
road 398
▁feet 398
▁kn 398
▁quarter 398
▁stat 398
adem 397
▁accompl 397
▁roles 397
itar 396
▁ability 396
▁arms 396
▁text 396
ibilities 395
▁desire 395
▁ec 395
▁limit 395
▁motiv 395
▁applications 394
▁kingdom 394
▁liberal 394
▁phone 394
igned 393
inations 393
ude 393
▁appeared 393
▁pat 393
▁substantial 393
ASEAN 392
mart 392
▁borders 392
▁conservation 392
▁paper 392
iveness 391
▁defin 391
▁factory 391
▁fair 391
▁scene 391
▁scheduled 391
▁unc 391
ades 390
ails 390
uff 390
▁career 390
▁cinema 390
▁smart 390
▁streets 390
▁ver 390
▁ww 390
▁appointed 389
▁executive 389
▁internationally 389
▁legislation 389
▁meant 389
arent 388
iling 388
olk 388
rastruct 388
▁danger 388
▁inqu 388
▁requirement 388
▁accel 387
▁efficient 387
▁joy 387
▁wrong 387
▁agency 386
▁distributed 386
▁fought 386
▁hum 386
▁kilomet 386
▁prominent 386
▁touch 386
▁tw 386
▁via 386
▁waters 386
encing 385
gence 385
illing 385
ternal 385
▁bridge 385
▁confl 385
▁depos 385
▁ethnic 385
▁filed 385
now 384
▁condition 384
▁delay 384
▁track 384
iry 383
▁agree 383
▁farming 383
▁ne 383
▁privile 383
▁search 383
iences 382
most 382
▁arrived 382
▁corresponding 382
▁driven 382
▁migr 382
▁net 382
▁react 382
▁represent 382
ilding 381
▁congreg 381
▁length 381
▁represents 381
ocks 380
▁bid 380
▁constructed 380
▁march 380
▁mor 380
▁previously 380
▁pul 380
ania 379
apore 379
▁actress 379
▁gate 379
▁pur 379
▁southern 379
▁talent 379
▁widely 379
akers 378
itors 378
ney 378
oring 378
oura 378
uit 378
▁advantage 378
▁collect 378
▁finally 378
▁property 378
hing 377
ils 377
▁auto 377
▁cra 377
▁expert 377
▁quickly 377
▁thro 377
▁coordin 376
▁demonstrated 376
▁wars 376
aced 375
▁chosen 375
▁cy 375
▁knew 375
▁merely 375
▁permanent 375
▁playing 375
▁spec 375
1999 374
LCR 374
▁concept 374
▁combined 373
▁fellow 373
▁initial 373
▁med 373
▁tro 373
anti 372
mb 372
omon 372
ump 372
▁buy 372
▁dark 372
▁household 372
▁producers 372
▁producing 372
▁propag 372
▁responded 372
▁soil 372
ature 371
ird 371
ule 371
▁sight 371
▁titled 371
arian 370
iary 370
uri 370
▁explos 370
▁items 370
▁standing 370
ived 369
uce 369
▁businesses 369
▁changing 369
▁emphasis 369
▁minority 369
▁version 369
though 368
urt 368
▁distrib 368
▁eth 368
▁mar 368
▁positions 368
▁selected 368
▁songs 368
▁wake 368
▁west 368
eration 367
▁dam 367
▁ke 367
▁recovered 367
▁rob 366
▁tend 366
▁wave 366
ordan 365
▁aff 365
▁arm 365
▁suff 365
▁tour 365
onse 364
orts 364
▁college 364
▁possibility 364
▁territory 364
bit 363
▁drawn 363
▁institute 363
▁peoples 363
... 362
encies 362
gment 362
ila 362
oo 362
rog 362
▁broken 362
▁dra 362
▁eye 362
▁observed 362
▁respond 362
fall 361
▁comb 361
▁denied 361
▁isol 361
▁silver 361
▁sym 361
▁bombing 360
▁defense 360
▁hur 360
▁surve 360
▁wick 360
▁actors 359
▁cal 359
▁doll 359
▁entry 359
▁internal 359
ders 358
iel 358
ott 358
rin 358
ume 358
▁girl 358
▁primary 358
▁requires 358
▁structure 358
▁backing 357
▁fir 357
▁hearing 357
▁honour 357
▁vul 357
aria 356
enth 356
esty 356
ulations 356
▁apart 356
▁constitutional 356
▁flight 356
▁season 356
▁sun 356
rary 355
▁judge 355
▁names 355
▁passing 355
iam 354
ishing 354
▁choice 354
▁construct 354
▁assass 353
▁cir 353
▁concerning 353
▁contributions 353
▁mean 353
▁meaning 353
▁stories 353
▁suffered 353
CDU 352
ception 352
essed 352
▁acknowled 352
▁continu 352
▁directors 352
▁follows 352
▁fruit 352
eries 351
▁drink 351
▁ancient 350
▁attempts 350
▁design 350
▁detailed 350
▁headed 350
▁pros 350
olved 349
▁bankrupt 349
▁principle 349
▁website 349
aus 348
igible 348
vers 348
▁aud 348
▁differences 348
▁division 348
▁involvement 348
▁mention 348
▁reservoir 348
38 347
CSIR 347
bra 347
lay 347
ster 347
▁contributed 347
▁ended 347
▁possess 347
▁steel 347
▁towns 347
197 346
▁academic 346
▁covering 346
▁easy 346
▁li 346
▁neo 346
▁teach 346
▁tele 346
aq 345
haw 345
▁exc 345
▁improvement 345
▁prem 345
▁survey 345
▁unable 345
▁wind 345
ival 344
ö 344
▁clar 344
▁comple 344
▁enemies 344
▁named 344
85 343
ili 343
▁flow 343
▁focused 343
▁occup 343
▁sat 343
▁sec 343
ingly 342
oration 342
▁contest 342
▁draft 342
▁feed 342
▁maritime 342
▁regulations 342
ander 341
ole 341
rest 341
▁chemical 341
▁faces 341
▁nine 341
▁orient 341
oned 340
oz 340
¬ 340
▁circumstances 340
▁else 340
▁operating 340
clusion 339
▁becomes 339
▁fans 339
▁rival 339
▁vi 339
ground 338
uration 338
▁criticism 338
▁extreme 338
ores 337
rav 337
▁fit 337
▁image 337
▁pleas 337
body 336
emen 336
mi 336
point 336
 336
▁content 336
▁determin 336
▁larger 336
▁medium 336
▁pot 336
▁seed 336
▁sold 336
▁transportation 336
▁turning 336
▁compet 335
▁drugs 335
▁earn 335
▁traffic 335
aching 334
bert 334
mark 334
ross 334
▁manifest 334
▁margin 334
▁plays 334
▁sugar 334
▁tren 334
▁wall 334
▁zone 334
▁deployed 333
▁located 333
▁professional 333
▁publicly 333
47 332
abled 332
iger 332
ops 332
▁era 332
▁immigrants 332
▁mal 332
▁province 332
▁respons 332
▁sale 332
een 331
omic 331
▁regist 331
▁settlement 331
▁size 331
▁capable 330
▁greatest 330
▁satellite 330
▁stress 330
▁visiting 330
ashed 329
ires 329
ni 329
▁dro 329
▁hy 329
▁recognition 329
▁swe 329
bb 328
ictions 328
lor 328
▁audience 328
▁background 328
▁draw 328
▁mil 328
▁sanct 328
▁seeing 328
▁wis 328
▁deter 327
▁hal 327
▁normal 327
▁rein 327
▁suffering 327
▁winning 327
ilit 326
kh 326
ules 326
▁boy 326
▁ident 326
▁indic 326
aked 325
▁fat 325
▁forg 325
▁restrictions 325
▁thinking 325
atures 324
fin 324
lywood 324
▁auton 324
▁traditions 324
anced 323
▁appear 322
▁closer 322
▁entirely 322
▁excell 322
▁removed 322
▁stars 322
PS 321
oking 321
path 321
uits 321
▁beg 321
▁install 321
▁praised 321
astic 320
asts 320
▁accident 320
▁amend 320
▁approximately 320
▁looked 320
▁revenue 320
ether 319
▁inher 319
▁kings 319
▁ve 319
▁virtually 319
atus 318
power 318
rics 318
ught 318
▁conc 318
▁employed 318
▁estim 318
▁friendship 318
▁hosts 318
▁master 318
▁rally 318
▁uncle 318
bur 317
hall 317
ita 317
kan 317
▁festivals 317
▁fil 317
▁hall 317
▁membership 317
▁representative 317
rec 316
▁card 316
▁depend 316
▁developments 316
▁filled 316
▁lord 316
▁obvious 316
▁regul 316
▁represented 316
▁universities 316
ancy 315
fe 315
iew 315
owned 315
▁affect 315
▁maintaining 315
▁pack 315
kel 314
▁achievement 314
▁bal 314
▁holds 314
▁hub 314
▁impossible 314
▁insur 314
▁links 314
▁maintained 314
▁resign 314
CGT 313
PA 313
iot 313
itary 313
self 313
▁mr 313
▁opponents 313
round 312
▁conservative 312
▁degree 312
▁lov 312
▁marked 312
▁sovereign 312
ashi 311
iven 311
po 311
van 311
▁attacked 311
▁classes 311
▁consid 311
▁identity 311
▁mode 311
196 310
fts 310
iny 310
rent 310
▁progressive 310
icle 309
▁mess 309
▁reaching 309
▁ts 309
dr 308
str 308
▁association 308
▁false 308
▁maintenance 308
▁metro 308
▁prot 308
▁require 308
▁significantly 308
▁vehicle 308
▁weight 308
44 307
je 307
▁acqu 307
▁agre 307
▁milk 307
▁movements 307
▁resource 307
▁reve 307
▁severe 307
▁tree 307
cott 306
ivals 306
▁autom 306
▁oppos 306
▁rank 306
▁someone 306
▁spe 306
▁tru 306
▁wil 306
cow 305
gu 305
ikh 305
▁charged 305
▁environmental 305
▁features 305
▁rose 305
gian 304
ims 304
▁comprom 304
▁difficulties 304
▁documents 304
▁minutes 304
gress 303
▁ac 303
▁convers 303
▁meat 303
▁table 303
ols 302
wide 302
▁arg 302
▁collection 302
▁core 302
▁currency 302
▁goals 302
▁preparation 302
ellor 301
resh 301
▁competitive 301
▁unf 301
ellig 300
level 300
rolled 300
▁atmosphere 300
▁commented 300
▁fled 300
▁scen 300
▁serving 300
▁worship 300
43 299
▁awarded 299
▁conclusion 299
▁exceed 299
▁fill 299
▁heroes 299
▁religion 299
▁weak 299
ique 298
ques 298
▁begun 298
▁considerable 298
▁distance 298
▁drop 298
▁elimin 298
▁necess 298
▁receiving 298
▁remote 298
▁thanks 298
▁worst 298
ential 297
icted 297
mo 297
▁letters 297
▁trees 297
clud 296
ech 296
▁attempted 296
▁compens 296
▁inform 296
▁orders 296
▁referred 296
▁tests 296
MT 295
aland 295
etary 295
sters 295
▁fresh 295
▁ordered 295
▁sri 295
edia 294
ordin 294
ply 294
▁cad 294
▁chance 294
▁extensive 294
▁guard 294
▁initially 294
▁optim 294
▁room 294
▁sister 294
▁spiritual 294
▁stopped 294
▁strateg 294
▁voting 294
▁administrative 293
▁comfort 293
▁inspect 293
▁intention 293
▁miss 293
▁ports 293
▁universal 293
ae 292
eed 292
ints 292
position 292
ses 292
▁although 292
▁medicine 292
▁push 292
▁raising 292
▁respectively 292
▁sudden 292
IIT 291
gra 291
iety 291
ishment 291
mes 291
▁bel 291
▁colle 291
▁dig 291
▁easily 291
▁fasc 291
▁heat 291
▁hot 291
▁qual 291
▁rescue 291
▁stones 291
PIB 290
UT 290
asc 290
govern 290
ki 290
▁loc 290
▁memor 290
▁sa 290
▁shock 290
▁type 290
▁write 290
GOD 289
ares 289
had 289
▁correct 289
▁courses 289
▁dependent 289
▁favour 289
▁liquid 289
▁principal 289
▁starting 289
▁trained 289
▁vol 289
41 288
lets 288
urb 288
▁categories 288
▁enemy 288
▁greatly 288
▁tem 288
▁vig 288
oly 287
pected 287
▁damage 287
▁dance 287
▁departments 287
▁identify 287
▁proved 287
▁submitted 287
49 286
oul 286
▁broke 286
▁gain 286
▁gang 286
▁sust 286
▁wounded 286
antly 285
▁ang 285
▁immigration 285
▁intended 285
▁mah 285
▁residents 285
▁ruled 285
▁sound 285
▁strongly 285
held 284
using 284
zen 284
▁analy 284
▁forest 284
▁formation 284
▁pen 284
▁pursue 284
▁shel 284
grad 283
▁assembly 283
▁besides 283
▁cell 283
▁introd 283
▁pop 283
51 282
lant 282
▁0. 282
▁colleges 282
▁entering 282
▁evac 282
▁examination 282
▁lit 282
▁studies 282
▁teams 282
ipp 281
plement 281
▁newly 281
▁tested 281
▁weekend 281
64 280
AIIMS 280
UP 280
play 280
▁breaking 280
▁campus 280
▁certific 280
▁claiming 280
▁deputy 280
▁easier 280
▁revised 280
▁route 280
▁symbol 280
ario 279
mine 279
▁cle 279
▁courts 279
▁cub 279
▁expanded 279
▁glob 279
▁listen 279
▁treas 279
bar 278
ien 278
ml 278
▁bom 278
▁cited 278
▁commemor 278
▁fav 278
▁gap 278
▁increases 278
▁purposes 278
▁sit 278
▁street 278
LSSP 277
▁category 277
▁declaration 277
▁navy 277
▁outbreak 277
▁overs 277
1998 276
ota 276
▁bh 276
▁generated 276
▁intent 276
▁materials 276
▁mut 276
▁stret 276
FDI 275
SLFP 275
aba 275
sy 275
▁exhibition 275
▁farm 275
▁married 275
▁useful 275
▁wait 275
commun 274
uts 274
▁favor 274
▁introduction 274
▁marks 274
▁naval 274
▁pit 274
95 273
icated 273
ulating 273
▁diplom 273
▁exec 273
▁input 273
▁locations 273
▁ram 273
▁remove 273
46 272
aps 272
dy 272
reg 272
▁appears 272
▁harvest 272
▁minor 272
▁numerous 272
▁prove 272
▁sets 272
ael 271
▁actually 271
▁bann 271
▁difference 271
▁mainly 271
▁register 271
▁tact 271
▁watch 271
bl 270
cel 270
▁aug 270
▁consumption 270
▁instit 270
▁magazine 270
▁sufficient 270
▁violent 270
akes 269
obile 269
▁ep 269
▁trading 269
bal 268
bi 268
illa 268
▁admitted 268
▁edition 268
▁narrow 268
▁quar 268
▁rice 268
▁valid 268
▁books 267
▁exped 267
▁factor 267
▁faster 267
▁leaving 267
▁showing 267
▁stran 267
▁strict 267
▁wing 267
ba 266
di 266
ding 266
nan 266
▁corner 266
▁marriage 266
▁notice 266
▁railways 266
▁saved 266
▁summer 266
ISRO 265
enant 265
head 265
▁allied 265
▁av 265
▁congress 265
▁drug 265
▁mart 265
▁regarded 265
▁samples 265
▁tap 265
▁tot 265
39 264
56 264
aints 264
feld 264
oles 264
▁bases 264
▁consolid 264
▁elder 264
▁famous 264
▁peas 264
▁pil 264
GM 263
aph 263
▁alleg 263
▁articles 263
▁consumer 263
▁divisions 263
▁fine 263
▁heavily 263
▁ii 263
▁organic 263
▁subsequent 263
arily 262
how 262
oric 262
▁channels 262
▁isolated 262
▁rat 262
▁repl 262
▁rum 262
▁sack 262
▁tel 262
▁trad 262
asa 261
berg 261
iff 261
organ 261
▁adding 261
▁buildings 261
▁entitled 261
▁existence 261
▁gun 261
▁installed 261
▁ranks 261
▁temporary 261
ills 260
▁belief 260
▁flights 260
▁forum 260
▁heights 260
▁indigenous 260
▁lived 260
▁preced 260
▁pure 260
▁ships 260
▁superv 260
1991 259
ifications 259
onic 259
▁accommod 259
▁conver 259
▁crit 259
▁inhabitants 259
▁massacre 259
▁proced 259
▁select 259
dem 258
iji 258
uz 258
▁bat 258
▁center 258
▁duties 258
▁ending 258
▁signs 258
▁understood 258
54 257
ocated 257
ody 257
rence 257
▁crew 257
▁cul 257
▁estate 257
▁granted 257
BRICS 256
atch 256
ille 256
ios 256
lock 256
▁disappe 256
▁mys 256
▁theatre 256
atin 255
▁generally 255
▁globe 255
▁gods 255
▁tribe 255
NER 254
eters 254
tle 254
▁ann 254
▁departed 254
▁electronic 254
▁grown 254
▁innoc 254
▁sad 254
▁thirty 254
fort 253
imb 253
inted 253
▁drinking 253
▁fee 253
▁overseas 253
▁sle 253
▁vent 253
▁virtual 253
ield 252
uled 252
za 252
▁continuous 252
▁corporation 252
▁fle 252
▁lose 252
▁oblig 252
▁simpl 252
▁white 252
aste 251
orial 251
rate 251
▁cutting 251
▁latter 251
▁promoted 251
hern 250
never 250
ocracy 250
▁aus 250
▁bed 250
▁dispute 250
▁joining 250
▁reflected 250
▁scre 250
▁te 250
fit 249
inal 249
▁accompanied 249
▁drivers 249
▁fan 249
▁outstanding 249
▁petro 249
▁prin 249
▁shif 249
▁sick 249
▁tear 249
▁vessels 249
▁western 249
▁writing 249
NPA 248
hist 248
rew 248
▁convention 248
▁engineering 248
▁multiple 248
▁passenger 248
63 247
RD 247
USA 247
ifies 247
ips 247
isher 247
ography 247
udi 247
▁assistant 247
▁fifty 247
▁ha 247
▁inspired 247
▁sales 247
▁teaching 247
ava 246
ife 246
▁attempting 246
▁borrow 246
▁leg 246
HRD 245
PMO 245
ters 245
▁diagn 245
▁fate 245
▁marketing 245
▁nat 245
▁suicide 245
59 244
aves 244
ety 244
hib 244
hol 244
▁diverse 244
▁girls 244
▁honor 244
▁nar 244
▁pract 244
▁statue 244
zil 243
▁channel 243
▁platforms 243
▁quick 243
▁wat 243
night 242
▁dil 242
▁est 242
▁fallen 242
▁falling 242
▁feature 242
▁gross 242
▁obtained 242
▁returns 242
▁telephone 242
▁worldwide 242
PPE 241
ault 241
car 241
cle 241
izes 241
uster 241
▁agents 241
▁alt 241
▁cards 241
▁corn 241
▁enjoy 241
enses 240
with 240
▁eag 240
▁images 240
▁pain 240
▁vib 240
58 239
char 239
ifornia 239
ox 239
por 239
under 239
▁display 239
▁eve 239
▁option 239
▁resulting 239
ader 238
ded 238
rah 238
▁arbit 238
▁bottom 238
▁radio 238
▁simple 238
▁stamp 238
chan 237
omy 237
otic 237
rated 237
▁apply 237
▁assum 237
▁dial 237
▁electric 237
▁recruit 237
▁reference 237
▁sort 237
68 236
place 236
zh 236
▁cattle 236
▁cook 236
▁formally 236
▁kid 236
▁lank 236
▁mel 236
▁recorded 236
▁resort 236
193 235
CWC 235
apt 235
atra 235
iced 235
▁amendment 235
▁brand 235
▁coastal 235
▁dim 235
▁dub 235
▁fac 235
▁su 235
▁vice 235
▁weather 235
57 234
aign 234
antine 234
apping 234
eta 234
rous 234
▁beat 234
▁fifth 234
▁functions 234
▁grounds 234
▁id 234
▁mit 234
▁regulation 234
▁sn 234
▁treated 234
CPI 233
acher 233
ledge 233
omous 233
▁component 233
▁desp 233
▁memorial 233
▁method 233
▁toll 233
aim 232
claimed 232
keep 232
order 232
▁aspect 232
▁benef 232
▁bright 232
▁dangerous 232
▁nomin 232
▁rational 232
▁rock 232
▁suitable 232
▁toler 232
▁waiting 232
▁wider 232
▁aust 231
▁centuries 231
▁excellent 231
▁ment 231
▁seat 231
▁upgr 231
0, 230
reek 230
▁ash 230
▁endors 230
▁explain 230
▁iron 230
▁mist 230
▁param 230
▁twelve 230
UPA 229
ands 229
riers 229
▁ben 229
▁blind 229
▁calcul 229
▁mot 229
▁probably 229
▁proof 229
▁recognized 229
gement 228
onstr 228
post 228
▁assemb 228
▁dyn 228
▁missile 228
▁original 228
▁perform 228
▁ultimately 228
▁var 228
67 227
bon 227
ould 227
rian 227
ula 227
▁arrangement 227
▁aut 227
▁coup 227
▁debut 227
▁rac 227
▁recover 227
▁rid 227
BBC 226
izer 226
ston 226
▁abuse 226
▁bag 226
▁driving 226
▁hun 226
▁shoot 226
▁spot 226
▁transferred 226
▁veget 226
73 225
law 225
lines 225
▁amounts 225
▁bes 225
▁computer 225
▁couple 225
▁cycl 225
▁enterprise 225
▁feeling 225
▁perhaps 225
▁purchase 225
▁stable 225
▁susp 225
▁sy 225
53 224
alled 224
band 224
national 224
▁contrast 224
▁falls 224
▁instruct 224
▁magn 224
▁regularly 224
ext 223
oph 223
▁actual 223
▁mechan 223
▁mining 223
▁percentage 223
PSG 222
erated 222
rose 222
¦ 222
▁audio 222
▁celebration 222
▁referend 222
▁rivers 222
▁wa 222
election 221
uals 221
▁bu 221
▁connecting 221
▁examples 221
▁fixed 221
▁relatively 221
▁script 221
▁smooth 221
66 220
miss 220
pat 220
▁bin 220
▁cancer 220
▁habit 220
▁moral 220
▁planet 220
▁race 220
▁sheep 220
74 219
DST 219
inger 219
pic 219
prise 219
▁allowing 219
▁divided 219
▁drew 219
▁hence 219
▁rout 219
▁wine 219
LPG 218
book 218
pel 218
▁map 218
▁suppl 218
▁surrounding 218
195 217
98 217
ailand 217
case 217
▁ba 217
▁cold 217
▁exposed 217
▁slow 217
61 216
PPP 216
eria 216
lem 216
olas 216
ounded 216
upt 216
▁components 216
▁cultiv 216
▁dominated 216
▁permission 216
▁presidency 216
▁quant 216
▁spend 216
▁tri 216
agues 215
rations 215
▁aviation 215
▁minim 215
▁relation 215
▁reportedly 215
▁style 215
1997 214
MW 214
gl 214
▁alive 214
▁aside 214
▁circ 214
▁mountain 214
erate 213
erved 213
gal 213
jamin 213
ros 213
ym 213
▁artist 213
▁confir 213
▁corrupt 213
▁didn 213
▁doors 213
▁exer 213
▁origin 213
▁republic 213
▁roots 213
▁schedule 213
▁teacher 213
born 212
while 212
▁000 212
▁bas 212
▁believes 212
▁rele 212
▁shar 212
▁tar 212
▁tribute 212
.00 211
tha 211
▁destination 211
▁judges 211
▁nearby 211
▁substant 211
LMT 210
jun 210
uments 210
▁const 210
▁cum 210
▁diver 210
▁finding 210
▁micro 210
▁mountains 210
▁recon 210
▁roll 210
▁smaller 210
IAF 209
inder 209
sec 209
turn 209
▁centers 209
▁cry 209
▁jun 209
▁leads 209
▁mental 209
▁novel 209
▁occupied 209
▁taught 209
83 208
UMP 208
eas 208
igan 208
omet 208
▁devices 208
▁perfect 208
▁split 208
1995 207
ieth 207
ipl 207
▁appoint 207
▁bore 207
▁casualties 207
▁forty 207
▁sites 207
▁trip 207
DBT 206
UPFA 206
ugg 206
var 206
zz 206
▁abandoned 206
▁dated 206
▁elabor 206
▁equivalent 206
▁execution 206
▁experienced 206
▁god 206
▁headquarters 206
▁multip 206
▁rub 206
▁younger 206
gments 205
onia 205
othes 205
rum 205
will 205
▁choose 205
▁counterpart 205
▁permitted 205
▁polic 205
▁portion 205
77 204
99 204
field 204
oman 204
scale 204
sl 204
thern 204
▁aw 204
▁bare 204
▁commander 204
▁counsel 204
▁islands 204
▁mad 204
▁seem 204
▁sor 204
ender 203
going 203
iest 203
ucted 203
▁effects 203
▁managed 203
▁negative 203
▁replace 203
▁sr 203
▁uns 203
hl 202
uls 202
ware 202
▁advice 202
▁associ 202
▁dropped 202
▁manag 202
▁newspapers 202
▁notes 202
▁preserve 202
▁twice 202
▁wheat 202
ption 201
side 201
uous 201
▁blue 201
▁eval 201
▁fel 201
▁gained 201
▁instrument 201
▁moves 201
▁obs 201
▁recommended 201
▁succeed 201
▁ven 201
▁whe 201
agn 200
put 200
▁ay 200
▁bought 200
▁element 200
▁leaf 200
▁neigh 200
▁sleep 200
gi 199
mad 199
person 199
▁controlled 199
▁decre 199
▁fashion 199
▁je 199
▁players 199
▁provincial 199
▁reign 199
▁sitting 199
▁wedding 199
NGO 198
active 198
theless 198
▁cargo 198
▁escape 198
▁exist 198
▁od 198
▁ric 198
▁shortly 198
▁stim 198
1989 197
UNF 197
ovo 197
pective 197
rig 197
west 197
▁exit 197
▁iss 197
▁manufact 197
▁philosophy 197
▁pregn 197
▁pull 197
▁starring 197
board 196
estone 196
▁monthly 196
▁primarily 196
▁societies 196
cho 195
eding 195
ensive 195
wer 195
▁artists 195
▁collected 195
▁declined 195
▁enc 195
▁governor 195
▁gur 195
▁prompt 195
guard 194
icians 194
iments 194
olf 194
orient 194
ove 194
val 194
▁administ 194
▁argued 194
▁internet 194
▁pharm 194
▁pick 194
▁piece 194
▁struck 194
▁tools 194
▁treat 194
▁tribes 194
▁trouble 194
DRDO 193
ador 193
itt 193
market 193
pen 193
▁ambassador 193
▁flex 193
▁pool 193
▁shape 193
▁upper 193
ads 192
isl 192
outs 192
▁angel 192
▁announ 192
▁argument 192
▁elsewhere 192
▁fishing 192
▁golden 192
▁manage 192
CM 191
archy 191
lar 191
▁ark 191
▁col 191
▁female 191
▁museum 191
▁nurs 191
▁occurred 191
▁ocean 191
▁rede 191
▁selection 191
aro 190
bor 190
change 190
estic 190
▁chair 190
▁defined 190
▁intellectual 190
▁motion 190
▁options 190
▁prohib 190
▁returning 190
▁winners 190
FY 189
free 189
olog 189
▁beautiful 189
▁box 189
▁bull 189
▁causes 189
▁guide 189
▁helps 189
▁invol 189
▁legacy 189
▁representing 189
▁retirement 189
▁shares 189
▁thor 189
▁tourist 189
86 188
enced 188
house 188
inter 188
ogue 188
ogy 188
sequ 188
▁camer 188
▁onto 188
▁pe 188
▁retired 188
▁satell 188
mits 187
rative 187
▁alle 187
▁jan 187
▁pieces 187
▁raj 187
▁stra 187
PCF 186
PSU 186
col 186
ider 186
mod 186
raine 186
vision 186
§ 186
▁arr 186
▁caught 186
▁der 186
▁herself 186
▁twent 186
▁unless 186
87 185
eum 185
hum 185
owed 185
▁appearance 185
▁capac 185
▁consist 185
▁doctor 185
▁procedure 185
▁surface 185
anted 184
class 184
range 184
sts 184
ü 184
▁branches 184
▁ed 184
▁file 184
▁judicial 184
▁lawyer 184
▁nomination 184
▁ol 184
▁performed 184
▁replaced 184
▁supplied 184
▁tanks 184
▁tong 184
MSP 183
anning 183
issions 183
ken 183
ouses 183
umber 183
▁asia 183
▁burning 183
▁column 183
▁crowd 183
▁detail 183
▁intense 183
▁opposite 183
▁raw 183
▁score 183
▁wood 183
▁writes 183
erse 182
ibly 182
rup 182
▁academ 182
▁cit 182
▁comedy 182
▁interested 182
▁rever 182
▁sem 182
▁tas 182
▁theat 182
ady 181
gest 181
vard 181
▁animal 181
▁assumed 181
▁guilty 181
▁hor 181
▁index 181
▁limits 181
▁occasions 181
▁owners 181
▁reporting 181
▁researchers 181
▁similarly 181
▁sometimes 181
▁van 181
▁weapon 181
71 180
ino 180
irt 180
ogan 180
undred 180
urg 180
used 180
▁beauty 180
▁captured 180
▁concrete 180
▁exhib 180
▁handling 180
▁lowest 180
▁obtain 180
▁purch 180
▁repe 180
▁sees 180
▁suit 180
▁uses 180
▁x 180
84 179
ape 179
atively 179
eman 179
rief 179
teen 179
▁abund 179
▁appointment 179
▁runs 179
▁transition 179
76 178
INS 178
enge 178
friend 178
front 178
▁applied 178
▁designated 178
▁fired 178
▁fish 178
▁iii 178
▁journalist 178
▁observ 178
▁opportun 178
▁pup 178
▁sever 178
▁usual 178
▁visible 178
JK 177
X 177
porter 177
tic 177
▁external 177
▁familiar 177
▁grave 177
▁hang 177
aming 176
enders 176
oes 176
oti 176
sen 176
uced 176
▁approached 176
▁featuring 176
▁highway 176
▁salv 176
▁treaty 176
▁vessel 176
▁alien 175
▁blow 175
▁customs 175
▁depth 175
▁equipped 175
▁factors 175
▁ox 175
▁publication 175
▁ruth 175
▁stayed 175
▁subsc 175
▁syn 175
81 174
igr 174
tan 174
ushed 174
▁.. 174
▁accum 174
▁cher 174
▁ends 174
▁ess 174
▁motor 174
▁routes 174
▁scar 174
▁territories 174
▁venture 174
▁yield 174
cribed 173
idel 173
race 173
uan 173
uate 173
Â 173
▁absence 173
▁coll 173
▁correspond 173
▁flour 173
▁helicopter 173
▁mat 173
▁operate 173
▁valley 173
▁wr 173
69 172
cks 172
cluding 172
▁avo 172
▁differ 172
▁distinguished 172
▁educ 172
▁gates 172
▁patient 172
▁patri 172
▁poss 172
▁reorgan 172
▁selling 172
▁sessions 172
▁subsequently 172
▁£ 172
78 171
USD 171
city 171
itz 171
load 171
ords 171
ufact 171
▁accessible 171
▁captain 171
▁dismissed 171
▁fly 171
▁grew 171
▁hel 171
▁kit 171
▁liber 171
▁losing 171
▁manip 171
▁operated 171
▁revol 171
▁sid 171
▁tool 171
▁wealthy 171
96 170
CPM 170
TB 170
aily 170
mas 170
pin 170
resp 170
▁arrival 170
▁da 170
▁dang 170
▁eventually 170
▁games 170
▁prevented 170
▁shield 170
▁stem 170
88 169
avel 169
met 169
 169
▁aband 169
▁conspir 169
▁cycle 169
▁frame 169
▁grass 169
▁records 169
▁settled 169
▁soldier 169
▁subjects 169
▁supports 169
▁trigger 169
MHA 168
agger 168
enged 168
mid 168
raph 168
ucing 168
▁adop 168
▁bro 168
▁sweet 168
1996 167
UAW 167
anim 167
arked 167
esc 167
read 167
ux 167
▁absol 167
▁earned 167
▁earthquake 167
▁heav 167
▁hyp 167
▁inj 167
▁instruments 167
▁machine 167
▁networks 167
▁resist 167
▁transmission 167
ato 166
jpg 166
rying 166
▁birthday 166
▁camera 166
▁combination 166
▁curt 166
▁du 166
▁fighter 166
▁grace 166
▁guer 166
▁indians 166
▁prest 166
▁pushed 166
▁sevent 166
▁specified 166
▁spect 166
▁types 166
SHG 165
ached 165
amic 165
aughter 165
lex 165
oud 165
ricts 165
thy 165
▁activ 165
▁clim 165
▁dismiss 165
▁protected 165
▁reviews 165
▁writer 165
ISA 164
WHO 164
emed 164
iders 164
igious 164
▁empty 164
▁lad 164
▁mach 164
▁otherwise 164
▁recognised 164
▁serves 164
▁straight 164
ICMR 163
idd 163
ivan 163
uy 163
▁abd 163
▁abs 163
▁blocks 163
▁campaigns 163
▁cinem 163
▁composed 163
▁gro 163
▁hydro 163
▁neg 163
▁retail 163
▁spectrum 163
▁throne 163
▁upd 163
▁users 163
anna 162
cap 162
ilt 162
oral 162
rise 162
▁august 162
▁cow 162
▁dur 162
▁fame 162
▁instance 162
▁rebu 162
▁restoration 162
▁scholarship 162
▁software 162
▁stages 162
▁techniques 162
▁variety 162
-0 161
ager 161
bus 161
iser 161
▁attending 161
▁custom 161
▁driver 161
▁founded 161
▁gender 161
▁hosted 161
▁indicate 161
▁reli 161
ST 160
ache 160
chen 160
forms 160
ilities 160
iller 160
urch 160
▁layer 160
▁male 160
▁permit 160
▁ranking 160
▁speaker 160
▁transit 160
AVM 159
BCM 159
aks 159
entially 159
inem 159
lad 159
pled 159
ties 159
▁contained 159
▁containing 159
▁displ 159
▁gift 159
▁imper 159
▁indicates 159
▁location 159
▁polar 159
▁ranging 159
▁reconstruction 159
▁scand 159
▁thir 159
NDA 158
cre 158
hest 158
iversary 158
related 158
urally 158
▁departure 158
▁enforcement 158
▁exists 158
▁founding 158
▁funded 158
▁grad 158
▁intellect 158
▁match 158
▁medal 158
▁mines 158
▁rul 158
▁vow 158
NAM 157
aga 157
aha 157
aper 157
edy 157
iod 157
rupted 157
▁africa 157
▁boat 157
▁collaps 157
▁composer 157
▁covers 157
▁dust 157
▁explicit 157
▁mur 157
▁performing 157
▁reading 157
▁terminal 157
AI 156
IAEA 156
LED 156
osis 156
pop 156
· 156
▁chose 156
▁dischar 156
▁earliest 156
▁excess 156
▁explan 156
▁possession 156
▁squad 156
▁wearing 156
eper 155
hou 155
ipe 155
mm 155
utive 155
▁acres 155
▁banned 155
▁cho 155
▁coinc 155
▁dry 155
▁exposure 155
▁faculty 155
▁foc 155
▁supplement 155
▁tenure 155
aces 154
agu 154
hard 154
igen 154
oslav 154
star 154
ucle 154
ument 154
▁aer 154
▁behaviour 154
▁cars 154
▁determine 154
▁drag 154
▁hat 154
▁ho 154
▁models 154
▁ownership 154
▁plus 154
▁removal 154
▁sport 154
▁uncertain 154
▁usage 154
▁whereas 154
NCC 153
abet 153
cer 153
hour 153
ificant 153
▁cop 153
▁devoted 153
▁finan 153
▁mine 153
▁october 153
▁secondary 153
amine 152
burg 152
prod 152
ère 152
▁bor 152
▁fabric 152
▁patrol 152
▁phys 152
▁provinces 152
▁string 152
phal 151
worth 151
▁buried 151
▁defeated 151
▁iv 151
▁lect 151
▁personality 151
1947 150
ca 150
isp 150
▁pa 150
▁termin 150
▁viewed 150
bers 149
jud 149
ples 149
uma 149
▁depart 149
▁flows 149
▁immigr 149
▁leaves 149
▁manufacturers 149
▁princip 149
▁scat 149
▁statistics 149
▁tank 149
194 148
1994 148
enger 148
herent 148
ients 148
last 148
zech 148
▁cens 148
▁edge 148
▁hab 148
▁lic 148
▁root 148
▁valuable 148
EPFO 147
amps 147
appo 147
claim 147
ologies 147
sw 147
utt 147
▁attached 147
▁hotel 147
▁japan 147
▁logic 147
▁mos 147
▁predomin 147
▁subst 147
▁trump 147
94 146
cul 146
hot 146
rick 146
▁bol 146
▁chancellor 146
▁closing 146
▁hide 146
▁lik 146
▁machines 146
▁mainstream 146
▁mo 146
▁protocol 146
▁rece 146
▁spring 146
▁volunteers 146
ceived 145
enue 145
ker 145
nar 145
ogn 145
omas 145
tering 145
terior 145
usal 145
▁alongside 145
▁carbon 145
▁committe 145
▁fre 145
▁fu 145
▁listed 145
▁pret 145
▁print 145
▁shadow 145
▁soft 145
▁somewhat 145
▁tea 145
▁tied 145
▁wom 145
bel 144
gers 144
icks 144
icles 144
ola 144
zer 144
▁attacking 144
▁customers 144
▁enjoyed 144
▁essentially 144
▁hair 144
▁honey 144
▁impris 144
▁obl 144
▁panel 144
▁passage 144
▁pla 144
▁prayer 144
▁residence 144
▁sexual 144
▁structures 144
89 143
ICFI 143
III 143
icient 143
ignment 143
urban 143
▁abst 143
▁animals 143
▁annually 143
▁bab 143
▁broadcast 143
▁compos 143
▁lou 143
▁officially 143
▁ord 143
▁readers 143
▁sel 143
▁stream 143
eing 142
▁affili 142
▁capit 142
▁consists 142
▁illust 142
▁involves 142
▁legislative 142
▁missions 142
▁plastic 142
▁rig 142
▁seventh 142
CCEA 141
TRIFED 141
amin 141
aped 141
engers 141
rac 141
▁arranged 141
▁crow 141
▁destro 141
▁floor 141
▁gif 141
▁inner 141
▁legisl 141
▁lesser 141
▁missing 141
▁ratio 141
▁saints 141
▁sir 141
▁uniform 141
▁usually 141
NH 140
ais 140
eff 140
mor 140
ported 140
▁band 140
▁displayed 140
▁evolution 140
▁finished 140
▁guests 140
▁ideal 140
▁mayor 140
▁stating 140
▁supreme 140
atern 139
bul 139
iang 139
ison 139
▁congressional 139
▁ic 139
▁promot 139
▁sou 139
▁ze 139
PP 138
bre 138
making 138
orship 138
step 138
unk 138
▁church 138
▁commerce 138
▁jum 138
▁memory 138
▁picture 138
▁walls 138
1993 137
WTO 137
adian 137
ago 137
conn 137
hom 137
room 137
▁bind 137
▁branch 137
▁copy 137
▁damaged 137
▁exception 137
▁game 137
▁liberation 137
▁manufactured 137
▁mostly 137
▁plain 137
▁premier 137
▁revival 137
▁simultaneously 137
▁specifically 137
▁suggests 137
97 136
PDS 136
RBI 136
eland 136
pass 136
▁burned 136
▁ca 136
▁finds 136
▁helicop 136
▁store 136
bing 135
uated 135
▁contemporary 135
▁lion 135
▁liter 135
▁literature 135
▁referring 135
▁remov 135
▁succeeded 135
SP 134
ason 134
do 134
elect 134
hann 134
ocol 134
roph 134
▁bombard 134
▁crossed 134
▁dates 134
▁doctrine 134
▁equip 134
▁furn 134
▁lights 134
▁lyrics 134
▁practical 134
▁quiet 134
▁spir 134
▁surrender 134
▁thin 134
CSU 133
ICAR 133
ette 133
ready 133
▁acknow 133
▁club 133
▁domain 133
▁dominant 133
▁executed 133
▁wear 133
▁zero 133
FCI 132
cut 132
greg 132
real 132
▁cup 132
▁cyl 132
▁interior 132
▁lev 132
▁recip 132
▁situations 132
▁trap 132
▁vic 132
79 131
alan 131
gam 131
ographic 131
uda 131
▁afghanistan 131
▁drawing 131
▁engineers 131
▁gest 131
▁hill 131
▁january 131
▁lin 131
▁mem 131
▁miles 131
▁originally 131
▁output 131
▁sixth 131
▁ty 131
▁victim 131
achment 130
arus 130
bour 130
etic 130
imir 130
▁begins 130
▁convinced 130
▁dram 130
▁guest 130
▁meets 130
▁mir 130
▁navigation 130
▁opt 130
▁pilot 130
▁reporter 130
▁retain 130
▁storm 130
ested 129
hens 129
overs 129
teenth 129
xim 129
▁compete 129
▁consistent 129
▁converted 129
▁exclusively 129
▁giant 129
▁gradu 129
▁photo 129
▁presents 129
▁pron 129
▁secular 129
▁shipping 129
▁structural 129
IV 128
arr 128
ounds 128
redited 128
▁artificial 128
▁boom 128
▁clinical 128
▁cricket 128
▁minute 128
▁themes 128
▁vide 128
1971 127
chers 127
even 127
orous 127
rill 127
stan 127
style 127
ulus 127
▁biological 127
▁mater 127
▁owned 127
▁pair 127
▁papers 127
▁proportion 127
▁rating 127
▁restrict 127
▁secured 127
▁theory 127
▁tight 127
KVIC 126
USSR 126
oney 126
ulsion 126
ysis 126
▁bott 126
▁creative 126
▁desert 126
▁exactly 126
▁kil 126
▁shops 126
▁suspended 126
▁ult 126
▁unex 126
agre 125
alia 125
inte 125
ners 125
pri 125
wealth 125
▁00 125
▁bell 125
▁bridges 125
▁capture 125
▁cells 125
▁code 125
▁noble 125
▁ser 125
▁shop 125
▁signal 125
0.0 124
cons 124
utor 124
▁champion 124
▁flat 124
▁foster 124
▁hind 124
▁instr 124
▁landmark 124
▁municipal 124
▁portray 124
▁ring 124
▁sequence 124
▁turns 124
▁wings 124
1983 123
iar 123
iki 123
vant 123
▁chall 123
▁concent 123
▁movie 123
▁prefer 123
▁publ 123
▁reserve 123
▁tick 123
▁tur 123
▁visitors 123
▁warriors 123
1948 122
pling 122
▁chand 122
▁doesn 122
▁freight 122
▁interviews 122
▁oper 122
▁passion 122
▁pattern 122
▁pock 122
▁politician 122
▁properties 122
▁sentence 122
▁separation 122
▁virt 122
FDP 121
SARS 121
itch 121
▁ble 121
▁boys 121
▁coc 121
▁communications 121
▁embassy 121
▁emot 121
▁kh 121
▁metres 121
▁refer 121
▁resc 121
▁residential 121
▁sand 121
▁square 121
▁starts 121
▁trail 121
▁wal 121
▁waves 121
▁window 121
din 120
gel 120
oma 120
third 120
water 120
yard 120
è 120
▁automatic 120
▁coron 120
▁liberty 120
▁lob 120
▁noise 120
▁peninsula 120
▁receives 120
▁settlements 120
▁subs 120
ado 119
awa 119
estyle 119
net 119
uis 119
▁attracted 119
▁commissioned 119
▁comparison 119
▁constitu 119
▁deemed 119
▁lim 119
▁northeast 119
▁pal 119
▁pav 119
▁scientist 119
▁wild 119
cluded 118
kin 118
oda 118
soft 118
▁apparent 118
▁asc 118
▁crown 118
▁definition 118
▁emotional 118
▁episode 118
▁grid 118
▁species 118
▁traditionally 118
amese 117
cially 117
hammad 117
hur 117
▁allows 117
▁apparently 117
▁arts 117
▁candid 117
▁controls 117
▁convert 117
▁december 117
▁entertainment 117
▁fro 117
▁hung 117
▁mix 117
▁opponent 117
▁organiz 117
▁resid 117
▁ru 117
▁sky 117
▁survive 117
▁truck 117
▁viewers 117
UAE 116
cro 116
ctic 116
lers 116
lik 116
▁acquisition 116
▁boss 116
▁bullet 116
▁difficulty 116
▁fest 116
▁nav 116
▁occur 116
▁preserv 116
▁recru 116
▁seemed 116
▁semi 116
▁shore 116
▁tob 116
cha 115
hill 115
ico 115
ko 115
ku 115
ographer 115
▁affair 115
▁contains 115
▁critics 115
▁escaped 115
▁extract 115
▁federation 115
▁historically 115
▁ice 115
▁merc 115
▁neighbor 115
▁penalty 115
▁ruler 115
▁stre 115
▁thereafter 115
1979 114
ero 114
made 114
nic 114
ograph 114
ographical 114
tor 114
▁advert 114
▁conventional 114
▁depends 114
▁fig 114
▁functional 114
▁gradually 114
▁monarch 114
▁rare 114
▁weekly 114
175 113
bey 113
cious 113
enez 113
tim 113
uf 113
wart 113
▁compar 113
▁engine 113
▁existed 113
▁horses 113
▁intern 113
▁kg 113
▁moon 113
▁pap 113
▁prize 113
▁releases 113
▁restricted 113
▁studying 113
▁tons 113
AM 112
JHU 112
MGR 112
anish 112
ipped 112
pers 112
pie 112
ulum 112
▁amaz 112
▁assigned 112
▁aver 112
▁hindu 112
▁manager 112
▁mineral 112
▁moderate 112
▁mounted 112
▁pictures 112
▁possibly 112
▁prince 112
▁stick 112
PT 111
SDG 111
TNA 111
forced 111
more 111
rier 111
sch 111
vious 111
▁discovered 111
▁flying 111
▁incorpor 111
▁owner 111
▁peak 111
▁spons 111
▁sporting 111
▁spr 111
% 110
estab 110
heart 110
like 110
may 110
pal 110
sing 110
view 110
▁boats 110
▁bon 110
▁cler 110
▁featured 110
▁laboratory 110
▁older 110
▁psych 110
▁serial 110
CSR 109
GW 109
erg 109
gs 109
rection 109
▁arena 109
▁causing 109
▁cloud 109
▁expos 109
▁fix 109
▁ille 109
▁obt 109
▁placing 109
▁popularity 109
▁requ 109
▁reverse 109
▁roof 109
▁rooms 109
▁surrounded 109
CIO 108
cal 108
page 108
▁colour 108
▁discover 108
▁dup 108
▁forests 108
▁frequent 108
▁horn 108
▁jump 108
▁june 108
▁marine 108
▁photographs 108
▁profess 108
▁reputation 108
▁sequ 108
▁sex 108
▁superior 108
1968 107
asion 107
dro 107
eu 107
umin 107
week 107
▁athlet 107
▁bangl 107
▁conquest 107
▁constituency 107
▁lands 107
▁mig 107
▁page 107
▁rebellion 107
▁september 107
▁situated 107
▁walking 107
FICCI 106
NTPC 106
PSLV 106
eto 106
otes 106
▁cancelled 106
▁copies 106
▁mag 106
▁produces 106
▁relative 106
▁resp 106
▁strip 106
▁suc 106
▁transl 106
▁voc 106
FBI 105
ISSE 105
aire 105
ental 105
iop 105
oct 105
olly 105
ora 105
uin 105
ulous 105
▁adj 105
▁deput 105
▁eliminated 105
▁flor 105
▁handle 105
▁kick 105
▁orbit 105
▁poet 105
▁populations 105
▁sail 105
▁skin 105
ASHA 104
NSSP 104
OF 104
chel 104
kir 104
no 104
ween 104
win 104
▁absolute 104
▁behavior 104
▁describing 104
▁enforce 104
▁flo 104
▁kids 104
▁mac 104
▁mills 104
▁nevertheless 104
▁parad 104
▁raid 104
▁scholars 104
▁studied 104
▁warfare 104
roit 103
▁acquired 103
▁artillery 103
▁compound 103
▁consisting 103
▁discovery 103
▁haven 103
▁learned 103
▁passes 103
▁player 103
▁precip 103
▁saf 103
▁sole 103
▁tall 103
PCR 102
alt 102
ersed 102
mann 102
oid 102
oning 102
rell 102
stone 102
▁approaches 102
▁cand 102
▁injuries 102
▁jew 102
▁lady 102
▁outer 102
▁plane 102
▁sam 102
▁sar 102
▁speakers 102
▁surviv 102
▁territorial 102
▁ticket 102
0000 101
IG 101
ivid 101
oded 101
▁assisted 101
▁cert 101
▁concentration 101
▁cord 101
▁dom 101
▁harmon 101
▁incorporated 101
▁notably 101
▁park 101
▁topics 101
1956 100
1967 100
IAS 100
NHAI 100
anni 100
inity 100
occ 100
▁bog 100
▁competing 100
▁describe 100
▁device 100
▁gram 100
▁kne 100
▁load 100
▁operators 100
▁prob 100
▁row 100
▁updated 100
BIMSTEC 99
HFW 99
KISAN 99
angu 99
fect 99
month 99
raft 99
rey 99
roll 99
ucks 99
ucky 99
▁boundaries 99
▁categ 99
▁dramatic 99
▁educated 99
▁elementary 99
▁fut 99
▁illness 99
▁independently 99
▁representation 99
▁trials 99
1988 98
CCP 98
SAARC 98
clos 98
gro 98
iro 98
olition 98
ologists 98
utenant 98
▁adjust 98
▁cust 98
▁impress 98
▁murdered 98
▁ped 98
▁persu 98
▁picked 98
▁venue 98
▁vot 98
WCD 97
ando 97
core 97
elected 97
omer 97
pm 97
sur 97
▁chapter 97
▁cru 97
▁degrees 97
▁football 97
▁hidden 97
▁jurisdiction 97
▁mail 97
▁ninet 97
▁pric 97
▁rot 97
▁sacred 97
▁ther 97
▁unknown 97
CPSE 96
DNA 96
PMAY 96
aa 96
aught 96
cript 96
dal 96
ems 96
iden 96
phant 96
serv 96
tery 96
▁april 96
▁brain 96
▁cant 96
▁coun 96
▁designs 96
▁diesel 96
▁eff 96
▁electronics 96
▁fault 96
▁fo 96
▁fun 96
▁landed 96
▁landscape 96
▁phenomenon 96
▁quest 96
▁ranked 96
▁reaches 96
▁resigned 96
▁ri 96
▁sciences 96
▁temporarily 96
▁wheel 96
IC 95
ensity 95
fted 95
inner 95
istical 95
los 95
oft 95
uge 95
▁architecture 95
▁arriving 95
▁bears 95
▁birds 95
▁charity 95
▁detect 95
▁inn 95
▁interpretation 95
▁mud 95
▁recomm 95
▁relationships 95
▁separated 95
▁stor 95
ICT 94
PSOE 94
aki 94
amo 94
ategy 94
isa 94
nas 94
ün 94
ür 94
▁armies 94
▁bapt 94
▁battles 94
▁cam 94
▁criticized 94
▁frequently 94
▁hills 94
▁libert 94
▁predecessor 94
▁rect 94
▁restored 94
▁scores 94
▁singapore 94
1981 93
AFL 93
DG 93
ID 93
bank 93
olds 93
ortion 93
oys 93
sel 93
▁bars 93
▁chamb 93
▁distinction 93
▁economics 93
▁gulf 93
▁jay 93
▁nit 93
▁ost 93
▁photos 93
▁qualified 93
▁requiring 93
▁settle 93
▁substit 93
▁user 93
▁volume 93
AR 92
hetic 92
iful 92
ingu 92
inois 92
mat 92
rator 92
rison 92
tel 92
▁collections 92
▁depression 92
▁distinct 92
▁firing 92
▁forming 92
▁freed 92
▁gear 92
▁horse 92
▁kar 92
▁palace 92
▁parks 92
▁pilots 92
▁retire 92
▁tracks 92
▁tunnel 92
▁whilst 92
ANC 91
MOU 91
fast 91
ighter 91
top 91
▁architect 91
▁forb 91
▁interpre 91
▁maintains 91
▁oldest 91
▁ultimate 91
▁veter 91
▁wre 91
CBDT 90
SCO 90
acts 90
eller 90
erous 90
iat 90
olid 90
went 90
works 90
▁accompan 90
▁adapt 90
▁aged 90
▁ages 90
▁classified 90
▁controversy 90
▁entrance 90
▁flew 90
▁formula 90
▁improvements 90
▁measured 90
▁musical 90
▁nad 90
▁prim 90
▁squ 90
▁ward 90
ICU 89
ethe 89
isk 89
pher 89
umed 89
▁-- 89
▁appearing 89
▁basket 89
▁carries 89
▁composition 89
▁founder 89
▁meas 89
▁nan 89
▁neck 89
▁palm 89
▁preferred 89
▁retained 89
▁retreat 89
▁ware 89
115 88
1964 88
eenth 88
uccess 88
uces 88
▁arist 88
▁capita 88
▁garden 88
▁kal 88
▁loyal 88
▁pages 88
▁pri 88
▁purchased 88
▁tor 88
ON 87
PRAGATI 87
RCL 87
icial 87
ori 87
phone 87
rors 87
▁budd 87
▁cab 87
▁circular 87
▁guards 87
▁instrumental 87
▁ms 87
▁parade 87
▁preservation 87
▁resident 87
▁slight 87
1978 86
1987 86
EPDP 86
ICAI 86
RT 86
chief 86
closed 86
cted 86
ford 86
just 86
lav 86
zes 86
▁ast 86
▁concentrated 86
▁encoun 86
▁fa 86
▁july 86
▁luc 86
▁promin 86
▁sponsored 86
@ 85
CII 85
G8 85
SMS 85
disc 85
igration 85
isf 85
medi 85
sm 85
uter 85
▁admir 85
▁cart 85
▁classical 85
▁cool 85
▁engineer 85
▁hier 85
▁intellig 85
▁lam 85
▁maj 85
▁na 85
▁ow 85
▁oxygen 85
▁regardless 85
▁rocket 85
away 84
gin 84
itzerland 84
known 84
las 84
rates 84
stein 84
umes 84
▁anal 84
▁catch 84
▁chamber 84
▁database 84
▁drama 84
▁lasted 84
▁mom 84
▁neutral 84
▁q 84
▁replacement 84
▁republ 84
▁rounds 84
▁segment 84
▁tag 84
HIV 83
cker 83
compass 83
cr 83
dam 83
ellation 83
itudes 83
strong 83
▁agent 83
▁altern 83
▁ancest 83
▁coach 83
▁fifteen 83
▁finish 83
▁fur 83
▁haz 83
▁invent 83
▁landing 83
▁ly 83
▁parallel 83
▁publications 83
▁repair 83
▁russia 83
▁salt 83
▁siege 83
▁swing 83
ellow 82
iana 82
oli 82
orter 82
stand 82
vement 82
▁annex 82
▁asian 82
▁bund 82
▁buses 82
▁canc 82
▁cotton 82
▁dual 82
▁eleven 82
▁explains 82
▁hav 82
▁humans 82
▁legislature 82
▁nic 82
▁nominated 82
▁observation 82
▁relig 82
▁rod 82
▁tex 82
▁tone 82
AC 81
COVID19 81
NDMA 81
OCI 81
elle 81
gart 81
phas 81
rob 81
▁attorney 81
▁casual 81
▁ced 81
▁clin 81
▁exclusive 81
▁exile 81
▁folk 81
▁gh 81
▁hell 81
▁hits 81
▁library 81
▁november 81
▁opin 81
▁perceived 81
▁singing 81
▁southeast 81
▁tiger 81
▁typical 81
▁vers 81
▁voices 81
▁windows 81
BSNL 80
acing 80
bro 80
gn 80
inning 80
oir 80
reng 80
tes 80
thing 80
▁chart 80
▁commissioner 80
▁conserv 80
▁contem 80
▁fewer 80
▁gal 80
▁lamb 80
▁mile 80
▁nerv 80
▁plot 80
▁resemb 80
▁royal 80
▁survival 80
CBSE 79
def 79
ertain 79
erts 79
igin 79
soc 79
vert 79
¤ 79
▁accurate 79
▁beng 79
▁circum 79
▁clock 79
▁democrats 79
▁fer 79
▁lod 79
▁manufacturer 79
▁myth 79
▁native 79
▁pac 79
▁periods 79
▁portrayed 79
▁professor 79
▁que 79
▁racial 79
▁rol 79
▁sung 79
▁tower 79
ETA 78
don 78
illy 78
jour 78
oven 78
rock 78
stream 78
▁airlines 78
▁calendar 78
▁extensively 78
▁gospel 78
▁holiday 78
▁poison 78
▁rap 78
▁rough 78
▁underground 78
▁winter 78
DMK 77
MGNREGA 77
after 77
appro 77
aret 77
count 77
cs 77
dney 77
ogle 77
rie 77
spe 77
wind 77
¡ 77
▁ah 77
▁ax 77
▁color 77
▁cultures 77
▁evolved 77
▁exact 77
▁flu 77
▁followers 77
▁hired 77
▁junior 77
▁kiss 77
▁lag 77
▁marvel 77
▁merch 77
▁quantum 77
▁sett 77
▁successor 77
▁thick 77
ball 76
gle 76
incoln 76
link 76
ribed 76
▁axis 76
▁baby 76
▁conversion 76
▁credited 76
▁describes 76
▁dish 76
▁frank 76
▁inject 76
▁lac 76
▁mini 76
▁shell 76
1945 75
1977 75
acc 75
bad 75
gue 75
iciency 75
onent 75
pes 75
ridge 75
uble 75
wegian 75
▁absor 75
▁administered 75
▁attendance 75
▁circle 75
▁commentary 75
▁experien 75
▁fed 75
▁fortune 75
▁grade 75
▁kr 75
▁pas 75
▁titles 75
▁voiced 75
1949 74
1984 74
CNN 74
ella 74
idency 74
oty 74
vas 74
▁array 74
▁bath 74
▁chronic 74
▁expensive 74
▁license 74
▁marg 74
▁neighborhood 74
▁origins 74
▁snow 74
▁temperature 74
▁tip 74
▁volumes 74
▁writers 74
1986 73
IST 73
amer 73
andy 73
aven 73
enburg 73
gate 73
grade 73
ii 73
onduct 73
sky 73
▁briefly 73
▁china 73
▁civ 73
▁documentary 73
▁estates 73
▁influenced 73
▁lists 73
▁notable 73
▁pad 73
▁surround 73
▁tells 73
1953 72
AIIB 72
EPF 72
GSAT 72
dan 72
itan 72
rehens 72
vo 72
yer 72
▁characters 72
▁depict 72
▁diamond 72
▁dir 72
▁et 72
▁fleet 72
▁merger 72
▁partial 72
▁rad 72
▁rav 72
▁slightly 72
CARES 71
FPO 71
NCERT 71
NDRF 71
ODF 71
OECD 71
SC 71
UGC 71
arest 71
ige 71
ilation 71
lete 71
list 71
mary 71
▁advant 71
▁attrib 71
▁characterized 71
▁dress 71
▁eas 71
▁february 71
▁files 71
▁foss 71
▁gent 71
▁gust 71
▁manual 71
▁martial 71
▁mixed 71
▁pir 71
▁tail 71
NABARD 70
OBC 70
cra 70
human 70
inch 70
sup 70
zo 70
▁donated 70
▁exhaust 70
▁maxim 70
▁patron 70
▁performances 70
▁printed 70
▁psychological 70
▁sim 70
▁stal 70
▁submarine 70
▁suspension 70
▁symptoms 70
▁theoretical 70
CPE 69
DD 69
FM 69
LO 69
MHRD 69
agen 69
craft 69
orders 69
phan 69
▁abolished 69
▁associate 69
▁authors 69
▁charter 69
▁competitions 69
▁convicted 69
▁craft 69
▁divine 69
▁divor 69
▁experiment 69
▁graph 69
▁influ 69
▁interface 69
▁korea 69
▁modified 69
▁suburb 69
▁ultim 69
▁videos 69
▁withdrew 69
BSF 68
CAPF 68
CP 68
CRPF 68
cur 68
heim 68
idal 68
ixon 68
kins 68
riage 68
through 68
uable 68
uela 68
▁ambass 68
▁conqu 68
▁curren 68
▁defe 68
▁depending 68
▁dog 68
▁elev 68
▁fib 68
▁formerly 68
▁hunt 68
▁lifetime 68
▁roughly 68
▁studio 68
▁switch 68
▁varieties 68
▁wire 68
AAI 67
CISF 67
ESIC 67
FPI 67
GSLV 67
_ 67
avia 67
des 67
inct 67
leans 67
mund 67
portun 67
speaking 67
uese 67
xic 67
▁adaptation 67
▁adventure 67
▁angels 67
▁appropri 67
▁attraction 67
▁batt 67
▁cas 67
▁childhood 67
▁clothing 67
▁communist 67
▁electrical 67
▁flowers 67
▁fold 67
▁genetic 67
▁movies 67
▁penn 67
▁printing 67
▁profile 67
▁recording 67
▁saint 67
▁survived 67
▁telev 67
▁wag 67
▁winner 67
INDIA 66
IRCTC 66
MMA 66
NASA 66
NSS 66
PASOK 66
fun 66
ipher 66
rapped 66
ube 66
umn 66
▁client 66
▁coff 66
▁feat 66
▁format 66
▁giants 66
▁gig 66
▁ham 66
▁normally 66
▁patent 66
▁sour 66
▁spell 66
▁spl 66
▁victor 66
IB 65
ergy 65
iac 65
isition 65
listed 65
mill 65
▁bands 65
▁cave 65
▁classification 65
▁eighth 65
▁funeral 65
▁graduate 65
▁hack 65
▁influential 65
▁jury 65
▁meters 65
▁nom 65
▁optical 65
▁rings 65
▁temper 65
LDP 64
NBFC 64
SWAYAM 64
UPSC 64
bone 64
lie 64
minute 64
okes 64
ologist 64
omot 64
ream 64
▁adults 64
▁alternate 64
▁comed 64
▁consecutive 64
▁corps 64
▁grav 64
▁jo 64
▁mixture 64
▁partially 64
▁rif 64
▁va 64
▁winds 64
135 63
1975 63
1985 63
ADB 63
MFP 63
NFSA 63
PAN 63
WMD 63
amous 63
ante 63
bean 63
borne 63
bound 63
door 63
enh 63
fr 63
geon 63
owski 63
president 63
san 63
urer 63
▁adult 63
▁bot 63
▁cass 63
▁dawn 63
▁gall 63
▁marry 63
▁metal 63
▁pione 63
▁ride 63
▁tu 63
▁vary 63
▁vo 63
▁wins 63
NCR 62
PKK 62
SSB 62
UNESCO 62
alty 62
essions 62
flow 62
icular 62
onents 62
rect 62
ville 62
▁adapted 62
▁apost 62
▁ceremon 62
▁corp 62
▁crus 62
▁desc 62
▁dock 62
▁gren 62
▁neighboring 62
▁painting 62
▁shopping 62
▁singer 62
▁soph 62
▁statistical 62
▁tum 62
▁twin 62
▁wit 62
IDF 61
IDY 61
PTCL 61
SS 61
augh 61
iner 61
rine 61
spec 61
ui 61
ye 61
▁airline 61
▁arch 61
▁astron 61
▁attributed 61
▁brid 61
▁british 61
▁bypass 61
▁colonies 61
▁define 61
▁elevated 61
▁guns 61
▁hardware 61
▁laure 61
▁league 61
▁longest 61
▁meanwhile 61
▁necessarily 61
▁partly 61
▁perman 61
▁replacing 61
▁sample 61
▁thunder 61
▁triple 61
▁unif 61
▁unusual 61
▁veterans 61
▁washing 61
▁wed 61
& 60
1857 60
1961 60
1973 60
AVSM 60
IP 60
IPR 60
PMUY 60
SME 60
cos 60
iph 60
iterranean 60
itled 60
lane 60
left 60
oni 60
oons 60
she 60
sol 60
weight 60
wood 60
▁arsen 60
▁ceased 60
▁dar 60
▁descent 60
▁devil 60
▁dum 60
▁ere 60
▁france 60
▁harbour 60
▁inhab 60
▁legs 60
▁lun 60
▁pow 60
▁sang 60
▁slowly 60
▁surf 60
▁torn 60
▁tries 60
ABC 59
ISO 59
JJM 59
UPF 59
US1 59
USP 59
attle 59
bell 59
endar 59
inth 59
itis 59
lings 59
mount 59
oba 59
profit 59
ruit 59
zing 59
▁accur 59
▁advertising 59
▁album 59
▁autumn 59
▁declar 59
▁democr 59
▁experiments 59
▁legend 59
▁locally 59
▁musicians 59
▁nag 59
▁orche 59
▁references 59
▁residing 59
▁tie 59
▁translated 59
▁traveling 59
▁vict 59
BS 58
DB 58
HUA 58
IFFI 58
IIS 58
MGNREGS 58
PLO 58
SLMC 58
VI 58
face 58
haps 58
itic 58
lic 58
ogen 58
osa 58
pent 58
sal 58
space 58
▁bird 58
▁buff 58
▁cable 58
▁chron 58
▁circuit 58
▁fairly 58
▁fortress 58
▁mus 58
▁preserved 58
▁rit 58
▁rush 58
▁specialized 58
▁stadium 58
▁stro 58
1969 57
1976 57
CIPET 57
GSTR 57
IMD 57
PML 57
THE 57
apes 57
bill 57
ennial 57
foot 57
km 57
lu 57
mers 57
onymous 57
ounder 57
raction 57
▁arrow 57
▁clubs 57
▁cos 57
▁crash 57
▁crossing 57
▁esp 57
▁exclus 57
▁infer 57
▁operates 57
▁poly 57
▁rab 57
▁ratings 57
▁sed 57
▁subsidiary 57
▁temperatures 57
▁vit 57
▁webs 57
▁wheels 57
▁wildlife 57
1917 56
1938 56
AP 56
burgh 56
del 56
far 56
fare 56
five 56
hon 56
iev 56
maker 56
onda 56
stop 56
track 56
uka 56
▁african 56
▁broadcasting 56
▁certified 56
▁characteristics 56
▁derived 56
▁diet 56
▁feud 56
▁ga 56
▁hockey 56
▁hors 56
▁indonesia 56
▁mild 56
▁por 56
▁prol 56
▁rolling 56
▁signals 56
▁signature 56
▁southwest 56
▁technique 56
CGST 55
DGB 55
IBC 55
IIM 55
RSS 55
\ 55
assy 55
bas 55
bat 55
hell 55
joy 55
lished 55
mates 55
non 55
phe 55
techn 55
▁alter 55
▁artistic 55
▁beaut 55
▁boundary 55
▁computers 55
▁concepts 55
▁dal 55
▁description 55
▁dire 55
▁error 55
▁glass 55
▁herald 55
▁lat 55
▁pict 55
▁sen 55
▁stores 55
▁visual 55
1951 54
DAY 54
LNG 54
NHM 54
SEBI 54
apers 54
aux 54
gir 54
issue 54
mitted 54
osevelt 54
▁abilities 54
▁advent 54
▁beliefs 54
▁bonus 54
▁coin 54
▁confused 54
▁defensive 54
▁dogs 54
▁engines 54
▁males 54
▁northwest 54
▁paris 54
▁proport 54
▁publishing 54
▁slave 54
▁surgery 54
▁theater 54
▁therapy 54
▁timber 54
CCI 53
MD 53
MUDRA 53
VC 53
chron 53
fa 53
first 53
four 53
overty 53
rical 53
uations 53
▁belie 53
▁brook 53
▁carn 53
▁clay 53
▁cloth 53
▁colony 53
▁consisted 53
▁cour 53
▁deriv 53
▁injury 53
▁jour 53
▁objects 53
▁phil 53
▁pseud 53
▁rebell 53
▁recipient 53
▁submar 53
▁ug 53
▁uk 53
▁volunteer 53
AIDS 52
AIM 52
COP 52
NEET 52
NPS 52
PG 52
tenance 52
▁argues 52
▁champions 52
▁cogn 52
▁controversial 52
▁essay 52
▁favorite 52
▁feder 52
▁ferry 52
▁kab 52
▁queen 52
▁renov 52
▁sympt 52
▁tit 52
▁unlike 52
AIADMK 51
APY 51
BHIM 51
CBIC 51
CPN 51
CSC 51
IBBI 51
NIPER 51
NRLM 51
NSA 51
SSP 51
df 51
icop 51
ighth 51
pg 51
pol 51
stra 51
thur 51
▁afterwards 51
▁animation 51
▁atomic 51
▁ele 51
▁gaz 51
▁infrastruct 51
▁kin 51
▁manif 51
▁ore 51
▁shuttle 51
▁stol 51
▁synthe 51
▁tun 51
▁writings 51
116 50
1936 50
1974 50
3D 50
CFDT 50
CIL 50
CPA 50
ITI 50
NIT 50
abel 50
bin 50
brew 50
cor 50
cription 50
ouri 50
roy 50
urers 50
▁cult 50
▁graphics 50
▁hunting 50
▁iran 50
▁israel 50
▁loy 50
▁lux 50
▁malaysia 50
▁masters 50
▁merged 50
▁monument 50
▁phrase 50
▁pond 50
▁slavery 50
▁voy 50
186 49
EESL 49
GSTN 49
ICRC 49
MS 49
hs 49
intend 49
nia 49
othe 49
poses 49
prof 49
south 49
zed 49
▁adjacent 49
▁bah 49
▁bud 49
▁erected 49
▁flash 49
▁flower 49
▁lane 49
▁mol 49
▁photograph 49
▁seal 49
▁seconds 49
▁spin 49
▁struct 49
▁thorn 49
138 48
143 48
1933 48
AICTE 48
BANK 48
BIS 48
CA 48
DARPG 48
IPS 48
MLA 48
MMT 48
NE 48
PNG 48
SBM 48
SLMM 48
acon 48
adow 48
alf 48
igo 48
ione 48
▁arab 48
▁businessman 48
▁conjun 48
▁consort 48
▁county 48
▁english 48
▁fran 48
▁gene 48
▁ju 48
▁ken 48
▁meg 48
▁nights 48
▁oce 48
▁pairs 48
▁philosopher 48
▁phot 48
▁recur 48
▁refers 48
▁spaces 48
▁tang 48
CBNAAT 47
CD 47
CNG 47
FDIC 47
IGST 47
IN 47
KS 47
NCDC 47
NEC 47
PFMS 47
REGION 47
antic 47
fran 47
graduate 47
iga 47
itect 47
lah 47
rh 47
unc 47
writ 47
ée 47
▁afghan 47
▁anc 47
▁bou 47
▁carrier 47
▁decor 47
▁defeating 47
▁dialect 47
▁ghost 47
▁inhabit 47
▁jam 47
▁ka 47
▁mainland 47
▁mun 47
▁ninth 47
▁nose 47
▁paintings 47
▁rus 47
▁sentenced 47
▁somet 47
▁tig 47
▁traveled 47
▁versions 47
▁vik 47
ITBP 46
UDAN 46
VW 46
aments 46
ensed 46
ifer 46
opher 46
ript 46
roe 46
ski 46
▁alcohol 46
▁alumn 46
▁battery 46
▁churches 46
▁climb 46
▁connects 46
▁dancing 46
▁democrat 46
▁dissolved 46
▁empire 46
▁guy 46
▁haw 46
▁infant 46
▁lav 46
▁magic 46
▁norm 46
▁rang 46
▁reprod 46
▁rip 46
▁settlers 46
▁surg 46
▁youngest 46
1957 45
CPWD 45
DC 45
GDL 45
IBM 45
IPPB 45
PMGSY 45
SOP 45
VVPAT 45
agram 45
alph 45
father 45
life 45
olitan 45
pecially 45
rus 45
sey 45
uzz 45
▁bald 45
▁calc 45
▁counties 45
▁danc 45
▁demolished 45
▁dies 45
▁lodge 45
▁merchant 45
▁nap 45
▁phr 45
▁protein 45
▁rom 45
▁scholar 45
▁ta 45
▁virgin 45
113 44
1939 44
BRO 44
CCTV 44
KMT 44
PMJAY 44
RPF 44
UNICEF 44
VIP 44
asia 44
asy 44
aver 44
etta 44
mah 44
osen 44
oto 44
ova 44
piece 44
ré 44
् 44
▁adam 44
▁anch 44
▁ber 44
▁bun 44
▁compan 44
▁compilation 44
▁gam 44
▁heir 44
▁identical 44
▁ing 44
▁label 44
▁mu 44
▁northe 44
▁parking 44
▁parl 44
▁pitch 44
▁symbols 44
▁tape 44
▁translation 44
▁univers 44
111 43
117 43
139 43
ESF 43
KRG 43
SWP 43
anian 43
eld 43
ilst 43
lon 43
mond 43
raham 43
« 43
­ 43
▁appearances 43
▁bact 43
▁battal 43
▁belt 43
▁caf 43
▁canada 43
▁consec 43
▁convent 43
▁expedition 43
▁gauge 43
▁horizon 43
▁instruction 43
▁palest 43
▁patterns 43
▁teen 43
▁wells 43
145 42
1959 42
1963 42
APTG 42
FAC 42
FORM 42
INSV 42
NRI 42
ONGC 42
RERA 42
TO 42
azz 42
can 42
chester 42
gree 42
ierra 42
py 42
thro 42
western 42
én 42
▁activist 42
▁ak 42
▁characteristic 42
▁exerc 42
▁frequency 42
▁hug 42
▁japanese 42
▁lake 42
▁lingu 42
▁literary 42
▁muslim 42
▁observations 42
▁pole 42
▁predecess 42
▁romantic 42
▁russian 42
▁turb 42
CMD 41
HWC 41
LWE 41
SA 41
bow 41
cycl 41
east 41
fs 41
glas 41
ito 41
olia 41
ovakia 41
si 41
usa 41
▁academy 41
▁beach 41
▁coat 41
▁es 41
▁germany 41
▁hyper 41
▁inherited 41
▁ja 41
▁knock 41
▁lan 41
▁makeup 41
▁remainder 41
▁riding 41
▁senator 41
▁spacecraft 41
▁ue 41
▁vocal 41
▁yard 41
114 40
165 40
181 40
FO 40
GAM 40
ICC 40
INA 40
INR 40
NW 40
SIDBI 40
effic 40
god 40
hod 40
nor 40
oka 40
oria 40
regular 40
see 40
sized 40
that 40
▁bent 40
▁chase 40
▁commem 40
▁epic 40
▁filmed 40
▁horror 40
▁hybrid 40
▁interpret 40
▁keys 40
▁lords 40
▁nob 40
▁portions 40
▁pp 40
▁radar 40
▁radiation 40
▁vas 40
▁vertical 40
▁vii 40
173 39
1944 39
1965 39
AB 39
AIG 39
ATL 39
MBBS 39
MIG 39
NCD 39
PMGKAY 39
POPSK 39
POW 39
PSB 39
RNA 39
TN 39
VHP 39
bourne 39
cat 39
dp 39
gas 39
mag 39
modern 39
oust 39
publ 39
ricted 39
union 39
via 39
▁brick 39
▁coins 39
▁commer 39
▁compat 39
▁credits 39
▁los 39
▁mm 39
▁parall 39
▁plains 39
▁plat 39
▁rocks 39
▁steam 39
▁towers 39
161 38
1955 38
AND 38
BULLETIN 38
DAILY 38
DPR 38
FHTC 38
G7 38
KVK 38
MCA 38
MRP 38
N95 38
NEP 38
PIBS 38
RTI 38
SU 38
comp 38
du 38
enc 38
fi 38
fight 38
mont 38
quer 38
speed 38
tical 38
tur 38
ét 38
▁apartment 38
▁basin 38
▁bos 38
▁breeding 38
▁burns 38
▁commonly 38
▁conn 38
▁frontier 38
▁goddess 38
▁gym 38
▁historian 38
▁housed 38
▁individ 38
▁jet 38
▁paint 38
▁rear 38
▁sched 38
▁slaves 38
▁universe 38
141 37
1617 37
1914 37
AG 37
ATM 37
NATIONAL 37
PDF 37
UPI 37
amental 37
aust 37
cia 37
former 37
ician 37
idden 37
not 37
official 37
poss 37
sis 37
▁administer 37
▁bay 37
▁brigade 37
▁cannon 37
▁classic 37
▁comput 37
▁depicted 37
▁designation 37
▁fif 37
▁ker 37
▁langu 37
▁millenn 37
▁pakistan 37
▁parent 37
▁phenomen 37
▁photographer 37
▁plann 37
▁pon 37
▁tow 37
▁von 37
134 36
APA 36
BE 36
CDS 36
DTE 36
EVM 36
IS 36
RM 36
RP 36
asty 36
attan 36
cin 36
cult 36
icien 36
rium 36
roid 36
tem 36
wheel 36
és 36
▁adap 36
▁az 36
▁bang 36
▁bicy 36
▁consequently 36
▁eg 36
▁estab 36
▁fitted 36
▁incre 36
▁kir 36
▁logo 36
▁mamm 36
▁oral 36
▁outdoor 36
▁pin 36
▁powered 36
▁tract 36
▁travels 36
▁tube 36
▁wet 36
▁yellow 36
118 35
133 35
146 35
151 35
185 35
ASI 35
DVD 35
ES 35
FN 35
MNRE 35
PV 35
SSA 35
VSM 35
aware 35
brid 35
card 35
fan 35
fly 35
group 35
gun 35
inson 35
mic 35
uer 35
word 35
▁alb 35
▁butter 35
▁chang 35
▁coffee 35
▁comprehens 35
▁hem 35
▁inhib 35
▁ireland 35
▁jack 35
▁london 35
▁mans 35
▁mole 35
▁narrative 35
▁operator 35
▁pu 35
▁scored 35
▁sculpt 35
▁swit 35
144 34
BHU 34
CBI 34
GNP 34
HRW 34
ITR 34
JE 34
MK 34
NHRC 34
NPT 34
PC 34
PFC 34
PMOI 34
RCF 34
SCTIMST 34
SUD 34
UDF 34
VP 34
cour 34
ido 34
ifically 34
iler 34
illes 34
kee 34
kn 34
language 34
onym 34
othy 34
otte 34
two 34
¢ 34
̄ 34
▁copper 34
▁hole 34
▁intermedi 34
▁literally 34
▁originated 34
▁painted 34
▁restaurant 34
▁simultane 34
▁succession 34
▁traded 34
119 33
171 33
178 33
API 33
BA 33
CAS 33
CRS 33
EC 33
FOR 33
GDR 33
KCC 33
NBC 33
NM 33
NTA 33
aters 33
onto 33
owa 33
uries 33
▁anim 33
▁appo 33
▁bod 33
▁brig 33
▁census 33
▁cod 33
▁complet 33
▁lip 33
▁pel 33
▁pig 33
▁pioneer 33
▁pod 33
▁poetry 33
▁py 33
▁renamed 33
▁strat 33
▁theories 33
▁ul 33
▁wooden 33
1516 32
166 32
1958 32
311 32
AK 32
BLPI 32
BPCL 32
CIC 32
DIPP 32
FTA 32
ISC 32
JPM 32
KLA 32
MSDE 32
MV 32
NWFP 32
OFB 32
OMC 32
PIO 32
PMKSY 32
UNEF 32
ationally 32
child 32
cular 32
enna 32
rane 32
stad 32
station 32
sub 32
▁america 32
▁aqu 32
▁auth 32
▁buddhist 32
▁concert 32
▁confeder 32
▁curve 32
▁dan 32
▁earthqu 32
▁gardens 32
▁ger 32
▁korean 32
▁libraries 32
▁mall 32
▁marath 32
▁matches 32
▁myster 32
▁portrait 32
▁pref 32
▁republican 32
▁tub 32
▁usa 32
▁yards 32
1946 31
3B 31
ARN 31
NIFTEM 31
NLM 31
OPEC 31
PRI 31
PRO 31
PVSM 31
RCEP 31
RRB 31
SERB 31
SJ 31
SPV 31
UMANG 31
UPDATES 31
US3 31
amics 31
ashion 31
box 31
div 31
general 31
gon 31
ieties 31
low 31
pread 31
resents 31
rift 31
sylvania 31
type 31
▁archae 31
▁ath 31
▁bone 31
▁brown 31
▁chick 31
▁cock 31
▁colon 31
▁distinguish 31
▁drum 31
▁electron 31
▁escort 31
▁eu 31
▁european 31
▁finishing 31
▁maur 31
▁mechanical 31
▁poem 31
▁portra 31
▁reader 31
▁reed 31
▁robot 31
▁seasons 31
▁sod 31
▁som 31
▁stops 31
▁studios 31
▁township 31
156 30
164 30
191 30
AN 30
CBS 30
FEMA 30
HUDCO 30
IFSC 30
IIIT 30
ISAF 30
JEE 30
JPG 30
MMR 30
NIC 30
NIOT 30
PSA 30
PUK 30
SBI 30
SCIRI 30
ULB 30
aku 30
big 30
cover 30
cules 30
eks 30
ersey 30
icut 30
nat 30
oker 30
verse 30
▁catal 30
▁cm 30
▁dating 30
▁denomin 30
▁dos 30
▁entertain 30
▁fab 30
▁fant 30
▁galax 30
▁gallery 30
▁ip 30
▁liqu 30
▁mirror 30
▁mrs 30
▁nov 30
▁occasionally 30
▁random 30
▁ray 30
▁resear 30
▁swimming 30
▁tam 30
▁texts 30
▁tv 30
131 29
136 29
CO 29
GVA 29
IEC 29
POSHAN 29
SE 29
abeth 29
apse 29
bes 29
elve 29
iami 29
icas 29
lit 29
lord 29
master 29
odes 29
vd 29
▁ach 29
▁australia 29
▁biography 29
▁bir 29
▁bronze 29
▁burial 29
▁companion 29
▁diff 29
▁electro 29
▁french 29
▁hein 29
▁hood 29
▁khan 29
▁locomotive 29
▁locomotives 29
▁nest 29
▁pant 29
▁springs 29
▁testament 29
▁vs 29
▁xi 29
155 28
189 28
3R 28
ADMK 28
CCMB 28
DAC 28
ECB 28
ESI 28
FAST 28
GS 28
ICDS 28
ITC 28
JP 28
MCI 28
NFL 28
PF 28
TA 28
UJALA 28
UV 28
aho 28
alo 28
bol 28
century 28
euro 28
from 28
igenous 28
mons 28
opes 28
opy 28
pit 28
rele 28
tw 28
ulu 28
unct 28
utation 28
wor 28
▁anchor 28
▁anten 28
▁duke 28
▁eggs 28
▁episodes 28
▁filming 28
▁guardian 28
▁inducted 28
▁jurisd 28
▁kan 28
▁lee 28
▁mete 28
▁molecular 28
▁pacific 28
▁pam 28
▁plate 28
▁pom 28
▁probability 28
▁productions 28
▁ps 28
▁sounds 28
▁spar 28
▁ster 28
▁surviving 28
▁tournament 28
▁wrest 28
AMRUT 27
BAF 27
BIRAC 27
CHC 27
CIS 27
DM 27
ECI 27
EDF 27
EPC 27
EV 27
HSZ 27
IISER 27
IMO 27
IWAI 27
LIC 27
MEA 27
NCLT 27
NHPM 27
OPD 27
PFRDA 27
PMFBY 27
PMJDY 27
POCSO 27
PTA 27
RE 27
SED 27
TR 27
YB 27
ample 27
asons 27
dist 27
fir 27
ichi 27
iques 27
ista 27
lived 27
mu 27
oston 27
stage 27
vol 27
world 27
yon 27
zona 27
ör 27
▁angle 27
▁aux 27
▁buck 27
▁bug 27
▁chest 27
▁colors 27
▁cousin 27
▁cryst 27
▁downtown 27
▁empt 27
▁grandfather 27
▁ib 27
▁ire 27
▁num 27
▁poems 27
▁portugal 27
▁princ 27
▁rarely 27
▁recept 27
▁remix 27
▁senate 27
▁sha 27
▁sund 27
▁vietnam 27
137 26
154 26
163 26
1918 26
1919 26
1966 26
AFP 26
APMC 26
BSP 26
DPJ 26
FC 26
GAIL 26
GES 26
HE 26
KV 26
NPC 26
NSDC 26
NYKS 26
PMC 26
SACP 26
SH 26
STIP 26
UG 26
UNGA 26
WFP 26
adelphia 26
bridge 26
brit 26
icide 26
mos 26
pson 26
zi 26
▁champ 26
▁dictionary 26
▁elevation 26
▁experimental 26
▁fiction 26
▁gor 26
▁hydrogen 26
▁jur 26
▁liver 26
▁mp 26
▁municipalities 26
▁mystery 26
▁orb 26
▁philosophical 26
▁regiment 26
▁sant 26
▁scout 26
▁shorter 26
▁sunday 26
▁sweden 26
▁volunte 26
▁warri 26
147 25
183 25
ASSOCHAM 25
CLSS 25
DISCOM 25
DPIIT 25
EIM 25
FACT 25
FEE 25
ISI 25
LAC 25
NASSCOM 25
NMCG 25
PMK 25
SAS 25
SGST 25
SPI 25
TDP 25
USAID 25
adel 25
ateur 25
etime 25
gor 25
gow 25
north 25
oren 25
orus 25
oster 25
rapy 25
ser 25
three 25
unte 25
▁adventures 25
▁ampl 25
▁cauc 25
▁chemistry 25
▁christmas 25
▁concerts 25
▁density 25
▁europe 25
▁facult 25
▁ful 25
▁gamb 25
▁gy 25
▁hen 25
▁historians 25
▁inters 25
▁occurs 25
▁perfor 25
▁phen 25
▁psychology 25
▁ranges 25
▁strings 25
▁tribut 25
▁wool 25
153 24
167 24
313 24
415 24
ADC 24
AIIA 24
CBEC 24
COSATU 24
DAE 24
DSP 24
ECBC 24
EWS 24
FATA 24
GV 24
HRC 24
IARI 24
IEA 24
JNPT 24
KDP 24
KYC 24
NC 24
NCMC 24
NHPC 24
SPR 24
SVP 24
TNI 24
VAT 24
WASG 24
achusetts 24
ansas 24
aska 24
dimensional 24
elli 24
holm 24
iration 24
mr 24
naissance 24
ooth 24
ste 24
sun 24
ultane 24
▁aboard 24
▁approxim 24
▁bloom 24
▁bush 24
▁cav 24
▁displays 24
▁dut 24
▁exhibit 24
▁ft 24
▁las 24
▁mes 24
▁muscle 24
▁restaurants 24
▁sailed 24
▁sev 24
▁shaw 24
▁sher 24
▁tours 24
188 23
356 23
365 23
381 23
APJ 23
AS 23
AT 23
BEL 23
BIO 23
CBEU 23
CBG 23
CMP 23
CPC 23
DEP 23
DTAA 23
DTH 23
FA 23
FONT 23
FSSAI 23
ISGA 23
JNCASR 23
NHS 23
NSG 23
PMEGP 23
acht 23
base 23
ben 23
break 23
cht 23
dis 23
ello 23
enz 23
iko 23
mot 23
ricket 23
some 23
 23
▁aber 23
▁archaeological 23
▁brazil 23
▁buddh 23
▁canal 23
▁chip 23
▁colonel 23
▁compact 23
▁couples 23
▁deck 23
▁decom 23
▁disorder 23
▁eagle 23
▁equival 23
▁grey 23
▁infin 23
▁intermediate 23
▁ltd 23
▁magnetic 23
▁netherlands 23
▁om 23
▁partn 23
▁peer 23
▁premi 23
▁prototype 23
▁rud 23
▁scient 23
▁soci 23
▁swim 23
▁telesc 23
▁undergraduate 23
▁unsuccessful 23
▁ye 23
159 22
187 22
1935 22
1954 22
376 22
6E 22
ANM 22
BPO 22
CEB 22
CMERI 22
FAO 22
GSEE 22
IR 22
IRRI 22
JAY 22
JWG 22
KVS 22
NDB 22
NDP 22
NIP 22
NLD 22
PMBJP 22
PMKVY 22
RK 22
RKVY 22
RR 22
SAC 22
TMVP 22
TULF 22
UNFCCC 22
UNHCR 22
VCD 22
VM 22
anne 22
bec 22
dire 22
ength 22
high 22
jack 22
mac 22
mel 22
ograp 22
olo 22
phy 22
porary 22
smith 22
town 22
wall 22
yle 22
▁0.0 22
▁anat 22
▁archive 22
▁archives 22
▁bowl 22
▁cele 22
▁ceo 22
▁dynasty 22
▁fifa 22
▁gem 22
▁harbor 22
▁hart 22
▁infantry 22
▁lap 22
▁lew 22
▁lunar 22
▁nas 22
▁orthodox 22
▁pale 22
▁phosph 22
▁pier 22
▁rib 22
▁thailand 22
▁um 22
▁vector 22
▁versus 22
▁volcan 22
149 21
158 21
177 21
1931 21
341 21
354 21
375 21
BARC 21
CSO 21
DDT 21
ECHS 21
HRE 21
JNV 21
LCO 21
MSE 21
NAFED 21
NCP 21
NIL 21
NRC 21
PK 21
PMGKP 21
RLB 21
SAP 21
SNCF 21
acent 21
built 21
coll 21
idge 21
kov 21
record 21
rome 21
sam 21
which 21
wig 21
writer 21
▁breed 21
▁caus 21
▁chanc 21
▁controvers 21
▁dun 21
▁flav 21
▁hammer 21
▁hurricane 21
▁ig 21
▁interstate 21
▁kath 21
▁mond 21
▁myst 21
▁oct 21
▁prefect 21
▁prod 21
▁railroad 21
▁reconstr 21
▁stored 21
▁tennis 21
▁tissue 21
▁trinity 21
▁tropical 21
▁unus 21
▁variation 21
▁vern 21
▁wrestling 21
00. 20
168 20
1937 20
1943 20
315 20
393 20
585 20
BBBP 20
BC 20
BPL 20
CNE 20
CPP 20
CR 20
CSP 20
DEA 20
GTF 20
HC 20
ICTY 20
IGM 20
ILO 20
IOB 20
IOR 20
IRCS 20
ITAT 20
ITEC 20
JAM 20
LBSNAA 20
LRU 20
MLD 20
NA 20
NCT 20
NID 20
NS 20
NSDAP 20
OK 20
PBD 20
REC 20
RS 20
SHAR 20
UDAY 20
US4 20
bach 20
but 20
cop 20
istol 20
lee 20
mc 20
ockey 20
ovak 20
rote 20
stood 20
sum 20
ussion 20
written 20
▁acid 20
▁animated 20
▁apple 20
▁artific 20
▁avenue 20
▁battalion 20
▁behav 20
▁bureau 20
▁compounds 20
▁conductor 20
▁crosses 20
▁dipl 20
▁edited 20
▁envir 20
▁headqu 20
▁hypothes 20
▁ko 20
▁lakes 20
▁landsc 20
▁manuscript 20
▁matt 20
▁mong 20
▁oak 20
▁partic 20
▁physics 20
▁sculpture 20
▁worn 20
▁writ 20
174 19
179 19
1934 19
316 19
384 19
435 19
AA 19
BHARAT 19
CBRN 19
CVC 19
EFCC 19
ENC 19
EPS 19
HAL 19
HCT 19
HIL 19
IOC 19
MNREGA 19
MPLADS 19
NCB 19
NCPCR 19
NCS 19
NEW 19
NGMA 19
OEM 19
PETROTECH 19
PMGKY 19
PSC 19
RJ 19
RTH 19
SAI 19
TOP 19
USFI 19
VVD 19
ardo 19
helm 19
hire 19
incinnati 19
olis 19
ollo 19
origin 19
size 19
spring 19
stock 19
uki 19
▁+ 19
▁aired 19
▁alumin 19
▁architectural 19
▁beam 19
▁codes 19
▁cp 19
▁femin 19
▁franchise 19
▁genre 19
▁hut 19
▁influences 19
▁init 19
▁isa 19
▁junction 19
▁lar 19
▁mak 19
▁maps 19
▁matrix 19
▁mend 19
▁mercury 19
▁musician 19
▁olympics 19
▁recordings 19
▁rio 19
▁starred 19
▁surn 19
▁tourn 19
▁typically 19
▁veh 19
▁é 19
148 18
ACPWU 18
ADIP 18
CARICOM 18
CMU 18
DLC 18
DPE 18
DS 18
EAC 18
EEPC 18
FIU 18
FSU 18
HP 18
ICG 18
IDBI 18
INC 18
INDIAN 18
MA 18
MR 18
NAS 18
NIA 18
NPD 18
NT 18
PDP 18
PLI 18
PMI 18
PR 18
PRD 18
RB 18
RTE 18
SAUBHAGYA 18
SEC 18
UNCTAD 18
WIPO 18
abama 18
found 18
illo 18
leg 18
nik 18
season 18
ublin 18
udes 18
winning 18
▁american 18
▁amph 18
▁comic 18
▁continental 18
▁descend 18
▁designer 18
▁disband 18
▁distingu 18
▁dod 18
▁dragon 18
▁females 18
▁font 18
▁german 18
▁grove 18
▁indust 18
▁ky 18
▁lor 18
▁mathematics 18
▁median 18
▁ok 18
▁pak 18
▁philippines 18
▁physician 18
▁rebuilt 18
▁sket 18
▁stere 18
▁tan 18
▁theore 18
▁trek 18
▁variations 18
157 17
176 17
184 17
389 17
ACLU 17
AIF 17
AMPHAN 17
CAD 17
CAR 17
CDA 17
CDRI 17
CFR 17
CSL 17
FDC 17
GK 17
GOM 17
GPS 17
GSR 17
IICA 17
LJEWU 17
LT 17
MANODARPAN 17
MKI 17
MTPA 17
NUW 17
OM 17
PATCO 17
PMPM 17
PNV 17
POTA 17
RC 17
RPR 17
SDRF 17
SIT 17
SLCBEU 17
SPB 17
SSC 17
STP 17
SVAN 17
SYRIZA 17
TPM 17
UNSC 17
USS 17
alb 17
allas 17
aser 17
dest 17
die 17
eign 17
esis 17
haus 17
isconsin 17
oen 17
pi 17
rons 17
± 17
▁buc 17
▁chann 17
▁crystal 17
▁din 17
▁distinctive 17
▁doc 17
▁dy 17
▁egg 17
▁johann 17
▁kur 17
▁lud 17
▁lyn 17
▁medieval 17
▁metropolitan 17
▁municipality 17
▁nucle 17
▁ny 17
▁pine 17
▁racing 17
▁recre 17
▁redes 17
▁tales 17
▁toy 17
▁trim 17
1776 16
1915 16
344 16
359 16
373 16
447 16
687 16
7G 16
888 16
967 16
AD 16
AIS 16
AKP 16
APHC 16
BHEL 16
CAT 16
CDSCO 16
CECA 16
CGD 16
DCGI 16
DGP 16
DIW 16
DKP 16
DV 16
ECOSOC 16
ECR 16
FOB 16
GIS 16
GSDP 16
HADR 16
IIFPT 16
IPO 16
IRS 16
LG 16
LTD 16
MC 16
MDMK 16
MI5 16
NEIST 16
NFRA 16
NLF 16
NMC 16
NULM 16
PCPIR 16
PHD 16
PIF 16
PRESS 16
RISAT 16
RSK 16
SDSC 16
SLD 16
SM 16
SNC 16
SOUTHERN 16
SPAN 16
TCIL 16
TOTAL 16
UIDAI 16
UNHRC 16
VFC 16
VIII 16
WB 16
YOJANA 16
boy 16
dor 16
eton 16
fil 16
green 16
new 16
oro 16
ought 16
rete 16
sil 16
six 16
uther 16
▁albums 16
▁biology 16
▁buffalo 16
▁christ 16
▁dat 16
▁emperor 16
▁explor 16
▁fict 16
▁fluid 16
▁habitat 16
▁hous 16
▁il 16
▁innings 16
▁lear 16
▁malays 16
▁mathematical 16
▁mic 16
▁mike 16
▁novels 16
▁ov 16
▁publisher 16
▁scoring 16
▁shah 16
▁trophy 16
▁verb 16
.. 15
1441 15
169 15
1941 15
331 15
335 15
448 15
451 15
453 15
ALP 15
AMS 15
AU 15
BY 15
CAG 15
CRA 15
DPP 15
DWC 15
ED 15
FIFA 15
GDBA 15
HRH 15
ICGS 15
IGNOU 15
IOCL 15
IRNSS 15
LLP 15
MBA 15
MI 15
MI6 15
MOS 15
NSO 15
OAS 15
OS 15
PLA 15
PMMSY 15
PMSSY 15
POTO 15
RF 15
RMS 15
RO 15
SAGAR 15
SETU 15
SIH 15
SMART 15
SRS 15
UBS 15
UL 15
UML 15
UNEP 15
USIBC 15
ambig 15
apolis 15
appe 15
bie 15
boards 15
burn 15
ensively 15
illery 15
itzer 15
mingham 15
osph 15
oyd 15
rast 15
rett 15
shire 15
ture 15
ylv 15
▁# 15
▁additionally 15
▁athletics 15
▁attor 15
▁bec 15
▁belgium 15
▁cann 15
▁cel 15
▁commonwealth 15
▁deer 15
▁dise 15
▁ey 15
▁gay 15
▁gir 15
▁histor 15
▁humid 15
▁hurric 15
▁illustrated 15
▁invented 15
▁jordan 15
▁kim 15
▁mast 15
▁math 15
▁nephe 15
▁nether 15
▁neuro 15
▁orange 15
▁quad 15
▁races 15
▁radi 15
▁server 15
▁solo 15
▁southe 15
▁subt 15
▁synd 15
▁transmit 15
▁— 15
1511 14
1⁄ 14
339 14
353 14
445 14
547 14
556 14
588 14
5G 14
615 14
655 14
675 14
769 14
ADEDY 14
ALIMCO 14
APEC 14
BNP 14
CAPE 14
CCC 14
CDC 14
CEA 14
CID 14
CS 14
CTU 14
CWA 14
DACFW 14
DP 14
DPSU 14
ENT 14
FRP 14
HM 14
HO 14
ICCR 14
IGNCA 14
IMA 14
KB 14
KUSUM 14
LOC 14
MDP 14
NALCO 14
NIH 14
NIRF 14
NIS 14
NMDC 14
NOIDA 14
NPPA 14
PCC 14
PL 14
PRC 14
SARAS 14
SDP 14
STEM 14
TM 14
UAN 14
US5 14
VID 14
auge 14
iii 14
ippi 14
lett 14
live 14
lyn 14
mate 14
mus 14
norm 14
pool 14
psy 14
rix 14
ruction 14
sect 14
trans 14
tz 14
ymond 14
▁ara 14
▁argentina 14
▁atmosp 14
▁cran 14
▁discontin 14
▁drums 14
▁equation 14
▁gard 14
▁hob 14
▁holland 14
▁honorary 14
▁israeli 14
▁kam 14
▁kat 14
▁leop 14
▁lt 14
▁michel 14
▁ni 14
▁nik 14
▁nobel 14
▁raf 14
▁resour 14
▁rifle 14
▁sud 14
▁sultan 14
▁torped 14
▁vari 14
1718 13
1899 13
1A 13
314 13
333 13
343 13
345 13
348 13
364 13
388 13
419 13
431 13
498 13
514 13
614 13
631 13
917 13
9411 13
AFMS 13
AFSPA 13
AIR 13
AMT 13
APEDA 13
ARD 13
BPRD 13
CFTI 13
CIRP 13
CITU 13
CMC 13
CPSU 13
CSP75 13
CSS 13
CYP 13
DAVP 13
DRC 13
DRM 13
EADS 13
EBRD 13
EMC 13
EMU 13
FARC 13
HH 13
HSTUA 13
ICSI 13
IGCAR 13
IIA 13
IMPRINT 13
IRGC 13
JPTUC 13
KKE 13
KLM 13
KPD 13
LAMP 13
LPF 13
ME 13
MEDEF 13
MMTC 13
MMTPA 13
NAAC 13
NCPOR 13
NCST 13
NET 13
NFC 13
NIIF 13
NIOS 13
NSC 13
OFC 13
ONE 13
PART 13
PMMY 13
PMS 13
PNB 13
PO 13
PWD 13
RML 13
RMSA 13
SECI 13
TDS 13
TRIPS 13
VEBA 13
berry 13
bury 13
design 13
dou 13
fc 13
fo 13
gely 13
icance 13
icon 13
imens 13
inum 13
lou 13
mother 13
respond 13
sea 13
second 13
sex 13
stre 13
tv 13
́ 13
▁ali 13
▁anthrop 13
▁antiqu 13
▁broadcasts 13
▁cartoon 13
▁championship 13
▁charts 13
▁configuration 13
▁craw 13
▁dak 13
▁datab 13
▁denmark 13
▁duo 13
▁editions 13
▁independ 13
▁ion 13
▁laser 13
▁len 13
▁les 13
▁memb 13
▁nun 13
▁occas 13
▁painter 13
▁pear 13
▁princess 13
▁publishers 13
▁renaissance 13
▁rug 13
▁spa 13
▁styles 13
▁symphony 13
▁viet 13
▁washington 13
317 12
338 12
357 12
363 12
366 12
386 12
387 12
477 12
485 12
497 12
543 12
576 12
679 12
698 12
755 12
993 12
ACC 12
AIU 12
ATAL 12
ATTAC 12
BU 12
CBM 12
CC 12
CE 12
CEC 12
CECRI 12
CENTRAL 12
CFE 12
CLRI 12
CREDAI 12
CRT 12
CT 12
D66 12
DA 12
DEO 12
DIGITAL 12
EK 12
ELISA 12
EP 12
FI 12
FTII 12
GI 12
GOI 12
ICF 12
IEF 12
IGC 12
IMC 12
INMAS 12
INST 12
IRDAI 12
ITPO 12
JDI 12
JS 12
KD 12
KMS 12
KP 12
MARGIN 12
MEIS 12
MIDH 12
MIS 12
ND 12
NDMC 12
NHPS 12
NIF 12
NLA 12
NREGP 12
NSF 12
NTFP 12
OIL 12
PCV 12
PDR 12
PMLA 12
PMSMA 12
PMT 12
PPW 12
PRS 12
RATP 12
RIS 12
RKM 12
RTC 12
RUSA 12
RWA 12
SAIL 12
SPLM 12
STATE 12
TIFR 12
TMT 12
TRADE 12
TRIBES 12
UESTION 12
UIA 12
WSF 12
anny 12
anton 12
boat 12
common 12
eric 12
family 12
gus 12
imensional 12
jor 12
nell 12
ropical 12
rub 12
 12
▁camb 12
▁cardinal 12
▁cemetery 12
▁circumst 12
▁competed 12
▁dif 12
▁expans 12
▁famil 12
▁golf 12
▁graduated 12
▁heath 12
▁hus 12
▁italy 12
▁jer 12
▁lieutenant 12
▁lon 12
▁mechanics 12
▁motors 12
▁mythology 12
▁offic 12
▁programming 12
▁proteins 12
▁psy 12
▁shan 12
▁slav 12
▁sut 12
▁tet 12
▁yam 12
▁york 12
00, 11
1893 11
334 11
346 11
349 11
358 11
385 11
394 11
3E 11
433 11
465 11
475 11
539 11
554 11
564 11
574 11
587 11
671 11
785 11
854 11
935 11
AIBP 11
AL 11
ASA 11
AV 11
BEPS 11
BG 11
BISAG 11
BKA 11
BMS 11
BP 11
BR1 11
BSCL 11
CAP 11
CBO 11
CERT 11
CFS 11
CFTC 11
CI 11
COMMUNIUE 11
CPCB 11
CPT 11
CTBT 11
CTI 11
DAX 11
DEVELOPMENT 11
DMDK 11
ESM 11
FEFSI 11
FROM 11
FTP 11
IES 11
IFS 11
IIP 11
IMCT 11
IORA 11
JAL 11
JB 11
JMVP 11
JV 11
KC 11
KR 11
LC 11
LS 11
MANTRI 11
MG 11
MH 11
MMRDA 11
MOP 11
MVA 11
NBS 11
NCW 11
NDC 11
NFHS 11
NIV 11
NLCIL 11
NNM 11
NPCI 11
NPL 11
NRDC 11
NSTI 11
PCMC 11
PD 11
PHWR 11
PLF 11
PMJJBY 11
PMRF 11
PPT 11
PRABHA 11
PRADHAN 11
RESF 11
RNU 11
ROB 11
ROK 11
SBS 11
SCHEME 11
SMC 11
SNP 11
SR 11
TARP 11
TDB 11
TIFAC 11
UMNO 11
WCL 11
WCO 11
WEP 11
WR 11
also 11
amilton 11
best 11
bet 11
chell 11
eley 11
famil 11
folk 11
iano 11
know 11
nie 11
onian 11
orph 11
present 11
sat 11
sterdam 11
® 11
▁admiral 11
▁agricult 11
▁anth 11
▁australian 11
▁autobi 11
▁bac 11
▁bever 11
▁castle 11
▁chlor 11
▁constr 11
▁david 11
▁dc 11
▁dol 11
▁evangel 11
▁excav 11
▁fantasy 11
▁fox 11
▁han 11
▁hip 11
▁loop 11
▁marsh 11
▁marshal 11
▁monastery 11
▁ng 11
▁olympic 11
▁paren 11
▁persian 11
▁photography 11
▁pitcher 11
▁rhythm 11
▁sequel 11
▁sib 11
▁swiss 11
▁tale 11
▁toured 11
▁touring 11
▁triang 11
▁variable 11
▁variant 11
▁wolf 11
1415 10
1I 10
319 10
351 10
355 10
368 10
369 10
379 10
399 10
455 10
467 10
473 10
491 10
534 10
546 10
557 10
575 10
584 10
595 10
596 10
599 10
635 10
644 10
646 10
657 10
681 10
746 10
777 10
7A 10
813 10
855 10
899 10
948 10
988 10
AASHA 10
ANSWER 10
APP 10
ATS 10
BBIN 10
BPPI 10
BSL 10
C4 10
CFTRI 10
CGA 10
CIRDAP 10
CSI 10
CWG 10
DCHC 10
DDA 10
DL 10
DLF 10
DR 10
EBP 10
EBR 10
EFC 10
EPO 10
FCIL 10
FCRA 10
FRDI 10
FSAP 10
FT 10
FY17 10
FY18 10
GD 10
GEM 10
GEO 10
GKAY 10
GOAL 10
GR 10
GSTIN 10
HLC 10
HPCL 10
IDA 10
IECC 10
IGP 10
IICC 10
IICT 10
IIIDEM 10
IIPA 10
IPCC 10
IPI 10
IPV 10
IRIN 10
ISDS 10
ISPRL 10
IUSF 10
IVRS 10
JSK 10
LHB 10
MFI 10
MIC 10
MISSION 10
MIT 10
MOOC 10
MSNBC 10
NABL 10
NAL 10
NCAP 10
NCH 10
NCSTC 10
NGC 10
NLEM 10
NRDWP 10
NROER 10
NRW 10
NSDF 10
NSIC 10
ONLINE 10
OT 10
PCI 10
PESO 10
PHC 10
PMJVK 10
PMP 10
POS 10
PPO 10
RAF 10
RAN 10
RFID 10
RISE 10
SN 10
SPG 10
SYM 10
TFR 10
TISC 10
TJ 10
TPS 10
TRIM5 10
U5MR 10
UAPA 10
UBA 10
UDD 10
UNIFIL 10
US6 10
USISPF 10
UTS 10
VII 10
XP 10
acre 10
ahl 10
cd 10
ceed 10
haust 10
japan 10
kshire 10
later 10
olph 10
only 10
rogen 10
sim 10
sou 10
su 10
 10
▁abb 10
▁amateur 10
▁ans 10
▁arc 10
▁clan 10
▁cot 10
▁cruis 10
▁diam 10
▁encyclop 10
▁glac 10
▁intersection 10
▁islamic 10
▁jul 10
▁lib 10
▁lith 10
▁ll 10
▁magazines 10
▁mam 10
▁mars 10
▁metrop 10
▁mexico 10
▁orn 10
▁particles 10
▁patt 10
▁pic 10
▁plaza 10
▁pub 10
▁relocated 10
▁repr 10
▁serge 10
▁sic 10
▁surv 10
▁tokyo 10
▁tomb 10
▁turkey 10
▁typ 10
▁unsuccess 10
▁vin 10
▁wol 10
1848 9
1897 9
318 9
336 9
347 9
377 9
383 9
391 9
397 9
398 9
434 9
436 9
458 9
466 9
468 9
479 9
499 9
511 9
531 9
555 9
577 9
654 9
685 9
696 9
733 9
764 9
783 9
788 9
797 9
838 9
875 9
885 9
911 9
937 9
961 9
965 9
968 9
A9 9
AAA 9
ACT 9
ADR 9
AHIDF 9
AMRIT 9
ATC 9
BOP 9
BPM 9
BSA 9
BUR 9
CACP 9
CCPA 9
CFA 9
CIMAP 9
CMA 9
CONTROL 9
CPGRAMS 9
DAP 9
DGCA 9
DGFT 9
DGHS 9
DGMS 9
DIN 9
DK 9
DLW 9
DRI 9
EAS 9
EBC 9
ECLGS 9
EG 9
ER 9
ETF 9
EUFOR 9
EURRF 9
FBU 9
FIELD 9
FIR 9
FLO 9
FMD 9
GDF 9
GHG 9
GIFT 9
GNCTD 9
GSI 9
HEI 9
HFC 9
HLL 9
HPIL 9
HRIDAY 9
IBRD 9
ICARDA 9
ICP 9
ICTAI 9
IIG 9
IRA 9
ISG 9
ISTRAC 9
ITF 9
IW 9
JEM 9
JNU 9
LA 9
LK 9
LTA 9
MCL 9
MDMA 9
MHP 9
ML 9
MTA 9
NACIN 9
NCTE 9
NDIAC 9
NF 9
NMOOP 9
NRTI 9
NSAP 9
NSP 9
OD 9
ONA 9
OP 9
OROP 9
OSCE 9
OSD 9
PCA 9
PMA 9
PMG 9
PMNCH 9
PMSBY 9
POSCO 9
PTO 9
PUN 9
RAFTAAR 9
RDSO 9
RFP 9
RPL 9
RRTS 9
SAMPADA 9
SAR 9
SCM 9
SEB 9
SIM 9
SPLA 9
SÃ 9
TC 9
TMO 9
UM 9
VA 9
VK 9
WRP 9
agonist 9
annel 9
atherine 9
bc 9
bishop 9
cca 9
donald 9
helor 9
including 9
ingham 9
intern 9
liest 9
minster 9
odox 9
older 9
pc 9
who 9
you 9
ön 9
▁baker 9
▁britain 9
▁chap 9
▁charl 9
▁chem 9
▁chess 9
▁commons 9
▁crypt 9
▁delta 9
▁gn 9
▁iraq 9
▁john 9
▁mg 9
▁monaster 9
▁mov 9
▁nelson 9
▁nord 9
▁orchestra 9
▁pent 9
▁philosoph 9
▁pie 9
▁pist 9
▁rim 9
▁saturday 9
▁sch 9
▁shir 9
▁ski 9
▁squadron 9
▁sug 9
▁varies 9
▁vlad 9
▁whit 9
▁woods 9
1789 8
414 8
418 8
444 8
487 8
488 8
496 8
515 8
541 8
561 8
565 8
567 8
573 8
581 8
611 8
647 8
688 8
691 8
744 8
751 8
758 8
811 8
865 8
915 8
951 8
953 8
981 8
987 8
A1 8
ADNOC 8
AMC 8
AOC 8
APRC 8
ARCI 8
ARV 8
ASIO 8
ASPI 8
ASRB 8
BEE 8
BES 8
BMGF 8
BVG 8
BÃ 8
C43 8
CAF 8
CAMPA 8
CCE 8
CCG 8
CCRH 8
CCT 8
CGTMSE 8
CIPAM 8
CLE 8
CNS 8
CPR 8
CSA 8
CTSU 8
DDU 8
DIG 8
DU 8
EPORTS 8
ESA 8
EWR 8
FB 8
FME 8
FRRO 8
FSI 8
GCC 8
GKY 8
GMC 8
H1N1 8
HAP 8
HDFC 8
HELP 8
HK 8
HPO 8
HR 8
HUF 8
HURL 8
IA 8
ICCC 8
ICCW 8
IDU 8
IFC 8
IIGEP 8
IITF 8
INAS 8
INSPIRE 8
IPA 8
IPDS 8
IREP 8
ISKCON 8
ITB 8
ITN 8
JD 8
JSC 8
JSM 8
JUI 8
KBR 8
KG 8
KRL 8
LCA 8
LF 8
LIG 8
LURD 8
MDG 8
MDR 8
MGISC 8
MM 8
MPLAD 8
MTV 8
MVL 8
NAA 8
NCDE 8
NCVET 8
NHB 8
NO 8
NPCIL 8
NRF 8
NTR 8
OCKHI 8
ODR 8
OEF 8
OFS 8
OIC 8
OVL 8
PB 8
PCRA 8
PMMVY 8
PMNRF 8
PMRSSM 8
PMW 8
PRESIDENT 8
PROGRAMME 8
PSIDS 8
QRF 8
RPG 8
RSETI 8
RTL 8
SAG 8
SERVICES 8
SFC 8
SHC 8
SHS 8
SI 8
SIS 8
SJVN 8
SK 8
SLL 8
SWIFT 8
TADA 8
TCS 8
TMC 8
TRACK 8
TTP 8
UAV 8
UL1 8
UNCCD 8
UNDP 8
UPD 8
US7 8
US8 8
US9 8
VIN 8
VLE 8
VOC 8
VRS 8
WAPCOS 8
WEF 8
WESTERN 8
YMCA 8
YSM 8
aco 8
angel 8
borough 8
dale 8
gie 8
gold 8
gomery 8
good 8
iants 8
iley 8
inction 8
obi 8
vet 8
▁0.00 8
▁ale 8
▁alphabet 8
▁benjamin 8
▁bib 8
▁butler 8
▁canadian 8
▁canton 8
▁cath 8
▁cd 8
▁chinese 8
▁cous 8
▁discontinued 8
▁dna 8
▁dor 8
▁finals 8
▁friday 8
▁fried 8
▁furthermore 8
▁geomet 8
▁gray 8
▁gw 8
▁hp 8
▁hud 8
▁ibm 8
▁interchange 8
▁islam 8
▁lang 8
▁licensed 8
▁locomot 8
▁max 8
▁memoir 8
▁mh 8
▁morn 8
▁mul 8
▁occ 8
▁peters 8
▁pink 8
▁scot 8
▁smith 8
▁stud 8
▁sty 8
▁switzerland 8
▁tai 8
▁violin 8
1777 7
1894 7
1911 7
337 7
361 7
378 7
411 7
417 7
439 7
443 7
449 7
454 7
463 7
471 7
476 7
478 7
493 7
4K 7
533 7
537 7
5415 7
544 7
579 7
583 7
637 7
648 7
658 7
659 7
661 7
678 7
695 7
6A 7
715 7
717 7
734 7
743 7
747 7
773 7
816 7
857 7
866 7
868 7
874 7
91K 7
936 7
946 7
947 7
963 7
964 7
973 7
984 7
994 7
9E 7
A3 7
ABHIYAN 7
ACF 7
ADALAT 7
ADMM 7
AEP 7
AES 7
AGM 7
AMBU 7
AMU 7
AOL 7
ATCSA 7
ATF 7
ATMANIRBHAR 7
AUC 7
AY 7
BD 7
BIBF 7
BOC 7
BPJ 7
C38 7
CAA 7
CARA 7
CAWACH 7
CCIT 7
CCRAS 7
CEF 7
CEMS 7
CFCM 7
CISCE 7
CITIENS 7
COBAS 7
COV 7
CPSL 7
CRAR 7
CRF 7
DAIC 7
DAK 7
DDUGJY 7
DFC 7
DI 7
DIKSHA 7
DIME 7
DISHA 7
DMF 7
DRR 7
DWR 7
EASTERN 7
EB 7
ECEC 7
EPCH 7
EWB 7
FAME 7
FATF 7
FFS 7
FHA 7
FIDL 7
FOD 7
FORMGST 7
FRAPH 7
FY16 7
GFCF 7
GIAN 7
GNR 7
GPMM 7
GRSE 7
GTO 7
HEALTHY 7
HI 7
HLG 7
HMS 7
HT 7
ICAO 7
ICFT 7
ICJ 7
ICTU 7
IDEA 7
IDP 7
IFLADP 7
IIFCL 7
IIPE 7
IISF 7
IMPORTS 7
IMR 7
INAE 7
INCOIS 7
IPGL 7
ISARC 7
ITE 7
JJ 7
JSA 7
KK 7
KKNPP 7
KM 7
LB 7
LHMC 7
LIVE 7
LNJP 7
LOCKDOWN 7
LPA 7
LTIF 7
M1 7
MDM 7
MDWS 7
MEITY 7
MES 7
MOVE 7
MUSK 7
MWCD 7
NABH 7
NADA 7
NAFTA 7
NBCC 7
NBRI 7
NDL 7
NDPS 7
NEDF 7
NHIDCL 7
NHP 7
NICL 7
NIDM 7
NISARGA 7
NJB 7
NKN 7
NLC 7
NMDFC 7
NMPB 7
NOC 7
NPP 7
NSD 7
NTCPWC 7
NWR 7
PAHAL 7
PAS 7
PDB 7
PDVSA 7
PMCARES 7
PMM 7
PMRPY 7
PNM 7
POLICY 7
POP 7
POUM 7
PSE 7
RKS 7
SAMUDRA 7
SATH 7
SAV 7
SDLP 7
SECC 7
SEIU 7
SF 7
SIDM 7
SL 7
SLA 7
SLCP 7
SLWM 7
SO 7
SOS 7
SRIJAN 7
STC 7
STRONG 7
STS 7
SUP 7
SYSTEM 7
TABLE 7
TANGEDCO 7
TCP 7
THP 7
TID 7
TNSM 7
TOR 7
TRO 7
TULIP 7
UIICL 7
UKBA 7
UMLC 7
UNDER 7
UPU 7
WDRA 7
aug 7
gard 7
lington 7
otype 7
sburg 7
shaped 7
this 7
timore 7
tom 7
wich 7
wick 7
~ 7
▁alph 7
▁berlin 7
▁blo 7
▁brit 7
▁cape 7
▁caval 7
▁cc 7
▁cliff 7
▁descendants 7
▁egypt 7
▁fictional 7
▁george 7
▁guinea 7
▁interp 7
▁jar 7
▁jazz 7
▁jose 7
▁lig 7
▁moscow 7
▁paul 7
▁phoenix 7
▁rh 7
▁schol 7
▁somers 7
▁stan 7
▁syndrome 7
▁syria 7
▁variants 7
▁vert 7
▁voltage 7
11477 6
1383 6
15187 6
1773 6
1786 6
1794 6
1865 6
1871 6
1873 6
1874 6
1887 6
1913 6
19T 6
1S 6
371 6
396 6
3N 6
413 6
459 6
461 6
484 6
495 6
4G 6
536 6
548 6
549 6
553 6
559 6
566 6
589 6
598 6
636 6
645 6
653 6
676 6
6949 6
737 6
745 6
748 6
756 6
759 6
787 6
789 6
795 6
814 6
815 6
818 6
819 6
831 6
835 6
845 6
846 6
849 6
864 6
869 6
871 6
879 6
891 6
894 6
895 6
938 6
955 6
958 6
974 6
975 6
979 6
985 6
997 6
999 6
9A 6
AAP 6
ADG 6
AF 6
AFCC 6
AFD 6
ARI 6
ASCI 6
ASEEM 6
ASF 6
AWACS 6
BCG 6
BIOFIN 6
BJD 6
BND 6
BSE 6
CAC 6
CCL 6
CDAC 6
CHENNAI 6
CJ 6
CMEV 6
CMVR 6
COOPERATION 6
CPAO 6
CPCT 6
CPSA 6
CRISIL 6
CRM 6
CU 6
DARE 6
DEFENCE 6
DELHI 6
DFS 6
DIHAR 6
DNC 6
DO 6
DONER 6
DSB 6
DSIR 6
DTTI 6
DWT 6
ECC 6
EE 6
EMI 6
EMRS 6
EOI 6
ESDM 6
ESMA 6
F11 6
FCA 6
FOC 6
FPD 6
FRS 6
FSC 6
FTAA 6
FUND 6
GB 6
GECL 6
GER 6
GMR 6
GMT 6
GOT 6
GPAI 6
GRP 6
GSL 6
GSTAT 6
HEALTH 6
HEC 6
HOCL 6
HS 6
IALA 6
IAP 6
IASST 6
IATA 6
IAY 6
ICAEW 6
ICI 6
ICPAK 6
IDRC 6
IED 6
IEM 6
IGIB 6
IHBT 6
IIIM 6
IILF 6
IIMC 6
IITM 6
ILS 6
INITIATIVES 6
IRHPA 6
ITER 6
IUTUJC 6
IWT 6
JAC 6
JAI 6
JCPOA 6
JFIR 6
JIC 6
JIPMER 6
JSS 6
LLC 6
MAP 6
MAS 6
MCF 6
MDL 6
MEK 6
MHEP 6
MII 6
MLI 6
MMLP 6
MOC 6
MODEL 6
MOM 6
MPCI 6
MPF 6
MPR 6
MRO 6
MSF 6
MSZP 6
MU 6
NAD 6
NAI 6
NAPS 6
NASC 6
NBA 6
NCF 6
NCL 6
NCRB 6
NEERI 6
NEIDS 6
NESIDS 6
NFCU 6
NFDC 6
NFSM 6
NIDHI 6
NIFT 6
NIPFP 6
NISHTHA 6
NOT 6
NOTTO 6
NPCDCS 6
NPR 6
NRSC 6
NSNIS 6
NY 6
OFAJ 6
OFFICES 6
OI 6
ONLY 6
OPMS 6
P5 6
P8I 6
PACE 6
PAM 6
PAME 6
PAT 6
PCPNDT 6
PFU 6
PJAK 6
PKI 6
PMBJK 6
PMCM 6
PMD 6
PMJAK 6
PMR 6
PMU 6
PN 6
PNR 6
PSL 6
PSM 6
PSSRTUC 6
QC 6
RCE 6
RCI 6
RECOVERY 6
RFCL 6
RIC 6
RIL 6
RNTCP 6
SAUNI 6
SER 6
SERC 6
SERVICE 6
SFOR 6
SHRI 6
SLM 6
STATUS 6
STF 6
STI 6
STT 6
SURAKSHA 6
SUV 6
SUVIDHA 6
SVEEP 6
TDR 6
TEU 6
TF1 6
TG 6
TIRUCHIRAPALLI 6
TP 6
TROPE 6
TRT 6
TSP 6
UC 6
UF6 6
UFCW 6
US35 6
USOF 6
UTV 6
VARUNA 6
VGF 6
VIBHA 6
VISTAS 6
VNR 6
WIHG 6
WITH 6
YDI 6
ZAAR 6
about 6
contin 6
izon 6
lahoma 6
mouth 6
released 6
united 6
 6
स 6
▁0- 6
▁affiliate 6
▁alco 6
▁analog 6
▁antonio 6
▁austral 6
▁bachelor 6
▁barn 6
▁bened 6
▁carter 6
▁chur 6
▁dav 6
▁dave 6
▁dean 6
▁descript 6
▁ensemb 6
▁fal 6
▁finland 6
▁franç 6
▁gran 6
▁iranian 6
▁jesus 6
▁kap 6
▁kaz 6
▁kev 6
▁kon 6
▁linear 6
▁mi 6
▁muhammad 6
▁nickn 6
▁nickname 6
▁oh 6
▁peaked 6
▁pearl 6
▁penins 6
▁pont 6
▁prote 6
▁queens 6
▁rugby 6
▁zealand 6
1175 5
1194 5
1788 5
1791 5
1793 5
1819 5
1861 5
1884 5
1896 5
1916 5
1C 5
35A 5
367 5
374 5
395 5
3978 5
438 5
441 5
457 5
469 5
483 5
486 5
494 5
4A 5
4C 5
518 5
5334 5
535 5
545 5
551 5
558 5
571 5
5A 5
619 5
633 5
641 5
674 5
694 5
697 5
699 5
6AS 5
711 5
714 5
716 5
718 5
719 5
738 5
749 5
765 5
766 5
768 5
774 5
794 5
7N 5
833 5
841 5
867 5
877 5
878 5
883 5
886 5
934 5
941 5
944 5
956 5
989 5
995 5
996 5
AAROGYA 5
ABBFF 5
ABCD 5
AEG 5
AEH 5
AFH 5
AGAINST 5
AGS 5
AIPAC 5
AKASH 5
ALH 5
AMIS 5
ANI 5
ANZUS 5
ARHC 5
ARIES 5
ARP 5
AWW 5
AYURAKSHA 5
BALANCE 5
BCAS 5
BDC 5
BK 5
BSID 5
BSIP 5
BTL 5
BWF 5
C3 5
C41 5
CAB 5
CABE 5
CAGR 5
CARE 5
CBPACS 5
CBTC 5
CCS 5
CCUS 5
CDB 5
CENTRE 5
CFSI 5
CG 5
CHO 5
CINCAN 5
CITY 5
CL 5
CMRS 5
CMS 5
CNPC 5
COAL 5
COAS 5
COLA 5
CORONA 5
COVD 5
CPGB 5
CPRF 5
CRRI 5
CSCM 5
CTV 5
CURE 5
CV 5
DAL 5
DAV 5
DCH 5
DDP 5
DEMU 5
DEVI 5
DGT 5
DHR 5
DHRUV 5
DLHS 5
DNB 5
DNO 5
DOJ 5
DOP 5
DPRK 5
DPS 5
DRDL 5
DRUG 5
DSE 5
DWS 5
EAM 5
EASE 5
EBSB 5
ECO 5
ECONOMY 5
EDUCATION 5
EMF 5
ESCAP 5
ESDP 5
FACTCHECK 5
FAZ 5
FCTC 5
FDN 5
FICN 5
FIG 5
FIPB 5
FIPIC 5
FIRST 5
FLC 5
FMBAP 5
FP 5
FRBM 5
FSCS 5
G17 5
GAMA 5
GARV 5
GAVI 5
GBS 5
GDS 5
GJ 5
GKRA 5
GOC 5
GSVA 5
H1 5
HDI 5
HECI 5
HEFA 5
HFCL 5
HIND 5
HLPF 5
HONBLE 5
HRMS 5
HSBC 5
HSD 5
HVF 5
IAAMS 5
ICN 5
IDAS 5
IDSA 5
IEER 5
ILBS 5
IM 5
IMPACT 5
IMT 5
IMU 5
INDRA 5
INPUTS 5
INSERM 5
INTUC 5
IPC 5
IPD 5
IPESS 5
IPP 5
IRC 5
IREDA 5
ITD 5
ITLU 5
ITU 5
JALASHWA 5
JANANI 5
JESUS 5
KALYAN 5
KAPL 5
KEIM 5
KING 5
KISCE 5
KL 5
KRRI 5
KSK 5
KW 5
LCI 5
LD 5
LDC 5
LEHI 5
LEJ 5
LEO 5
LIBOR 5
LOI 5
LPR 5
LÃ 5
MAEF 5
MDNIY 5
MF 5
MINISTER 5
MIPCOM 5
MMABY 5
MNS 5
MOD 5
MODI 5
MSMED 5
MSW 5
MTNL 5
NCCS 5
NCGG 5
NCSCM 5
NCVT 5
NDCP 5
NDDB 5
NDFB 5
NDSO 5
NEIA 5
NEJM 5
NGRI 5
NHA 5
NHDP 5
NHFDC 5
NHIPC 5
NMITLI 5
NORTHERN 5
NPCB 5
NREG 5
NREGS 5
NRO 5
NSE 5
NSRTC 5
NSSO 5
NTU 5
NWDA 5
OALP 5
OFFERS 5
OMSS 5
OPERATION 5
OSC 5
OTP 5
PADMANABHAN 5
PBPT 5
PCU 5
PDI 5
PE 5
PHASE 5
PIBF 5
PKP 5
POI 5
PORTAL 5
POSB 5
POSOCO 5
PPF 5
PRAGYATA 5
PRIME 5
PROGRAM 5
PS4 5
PSS 5
PTT 5
QA 5
RATE 5
REAL 5
REDD 5
RFD 5
RFSAF 5
RIA 5
RJD 5
RMNCHA 5
RNI 5
RPO 5
RRM 5
RSBY 5
RURAL 5
S1 5
SACON 5
SAICA 5
SAKSHAM 5
SANKALP 5
SAT 5
SBRT 5
SCBTS 5
SCCL 5
SCHEDULE 5
SEED 5
SFIO 5
SIAC 5
SIP 5
SPIC 5
SPVS 5
SRE 5
SRTP 5
STAR 5
START 5
STORAGE 5
SWADES 5
SZ 5
TBI 5
TELO 5
TEST 5
TFL 5
THROUGH 5
TIWB 5
TK 5
TOMS 5
TRAI 5
TRC 5
TRCA 5
TREAT 5
TUC 5
TWU 5
UCU 5
UGT 5
ULV 5
UNMIK 5
UNMISS 5
UNWTO 5
UTTAM 5
VCK 5
VR 5
VSSC 5
VTM 5
VV 5
WAN 5
WASH 5
WEO 5
WISE 5
WSDS 5
WWF 5
WWII 5
YEAR 5
YG 5
YOGA 5
ZDF 5
ensis 5
final 5
grand 5
hero 5
iforn 5
inals 5
love 5
odore 5
paul 5
screen 5
there 5
univers 5
what 5
▁accom 5
▁algorith 5
▁algorithm 5
▁baseball 5
▁basketball 5
▁beer 5
▁belgian 5
▁borough 5
▁california 5
▁chicago 5
▁chile 5
▁christian 5
▁chrom 5
▁colomb 5
▁config 5
▁convin 5
▁cort 5
▁crim 5
▁czech 5
▁donald 5
▁eldest 5
▁elizabeth 5
▁fm 5
▁footballer 5
▁frequ 5
▁gon 5
▁hay 5
▁hig 5
▁hist 5
▁hull 5
▁juris 5
▁kenn 5
▁ku 5
▁latin 5
▁lu 5
▁marshall 5
▁mary 5
▁mason 5
▁mathematic 5
▁mc 5
▁morph 5
▁neut 5
▁opera 5
▁oz 5
▁prix 5
▁quart 5
▁recreation 5
▁rhy 5
▁ridge 5
▁rocky 5
▁russ 5
▁sie 5
▁singles 5
▁spanish 5
▁ss 5
▁subdiv 5
▁swedish 5
▁ted 5
▁theology 5
▁turk 5
1173 4
1185 4
1314 4
1347 4
1359 4
1363 4
1431 4
1464 4
1518 4
15354 4
15568 4
1568 4
1653 4
173668 4
1775 4
1795 4
1818 4
1841 4
1863 4
1864 4
1877 4
19B 4
338B 4
3561 4
3568 4
3699 4
3A 4
3T 4
416 4
437 4
446 4
4465 4
4554 4
456 4
481 4
489 4
4957 4
4QB 4
4S 4
4UK 4
516 4
517 4
519 4
538 4
568 4
569 4
586 4
591 4
5C 4
616 4
617 4
649 4
6519 4
664 4
666 4
667 4
668 4
669 4
684 4
686 4
689 4
6C 4
739 4
741 4
757 4
761 4
767 4
775 4
776 4
779 4
781 4
817 4
8178359845 4
853 4
861 4
863 4
8747185 4
876 4
887 4
889 4
893 4
898 4
8I 4
913 4
914 4
916 4
918 4
957 4
9599676953 4
9656815943 4
971 4
976 4
9N 4
AADHAAR 4
AAIB 4
AAY 4
ABN 4
ACE 4
ACFE 4
ACFW 4
ACHSU 4
ACS 4
ADDRESS 4
ADRM 4
AEPS 4
AFCAT 4
AFS 4
AIFMD 4
AIST 4
AKL 4
AKT 4
ALL 4
ANA 4
ANAP 4
APRIL 4
ARMED 4
ASEM 4
AWC 4
AWH 4
AWS 4
AWWA 4
AYUSHMAN 4
B5 4
BAI 4
BASF 4
BB 4
BBB 4
BBMP 4
BCI 4
BDI 4
BDM 4
BEEP 4
BIA 4
BJ 4
BO 4
BOT 4
BRIC 4
BT 4
BWSSC 4
C44 4
C47 4
C48 4
CAE 4
CAMPAIGN 4
CBA 4
CCA 4
CCPD 4
CCRT 4
CEP 4
CEPA 4
CETP 4
CEV 4
CGM 4
CGMS 4
CH 4
CICT 4
CIFT 4
CISL 4
CIT 4
CLAP 4
CLC 4
CLMV 4
CNT 4
COB 4
COI 4
COP14 4
COPE 4
COPS 4
CPAC 4
CPCSEA 4
CPF 4
CPJ 4
CRIIRAD 4
CRIS 4
CSB 4
CSMC 4
CWDT 4
CWSN 4
D1 4
DADF 4
DAG 4
DBV 4
DCA 4
DCIL 4
DDN 4
DDO 4
DES 4
DGC 4
DGFASLI 4
DGGI 4
DGSD 4
DGTR 4
DHL 4
DHS 4
DIS 4
DMA 4
DMCS 4
DMIC 4
DOE 4
DRDE 4
DSC 4
DSM 4
DSNG 4
DSS 4
DTA 4
DURING 4
DVU 4
DYFI 4
EAMINATION 4
ECGC 4
EFM 4
EIB 4
ELI 4
ELN 4
ENCORE 4
ENI 4
EOU 4
ERM 4
ERP 4
ESPS 4
ET 4
FARMERS 4
FATCA 4
FDDI 4
FEB 4
FIEO 4
FORCES 4
FS 4
FSA 4
FSDC 4
FTSE 4
GAL 4
GANDHI 4
GE 4
GF 4
GFR 4
GH 4
GIM 4
GMAC 4
GNS 4
GOP 4
GOVERNMENTS 4
GP 4
GPA 4
GRAM 4
GREEN 4
HELPING 4
HFEA 4
HLAG 4
HLEG 4
HMIEU 4
HMT 4
HPC 4
HRVP 4
HÃ 4
I4F 4
IACS 4
IAFS 4
IBP 4
ICAF 4
ICE 4
ICSE 4
ICTE 4
ICWF 4
IDSP 4
IEF16 4
IF 4
IFL 4
IGNOAPS 4
IHM 4
IIITDM 4
ILFS 4
ILR 4
IMS 4
IMTECH 4
INES 4
INSTC 4
INSTITUTE 4
IOCINDIO 4
IPL 4
IRAS 4
IRFC 4
IRSE 4
ISBT 4
ISP 4
ITV 4
IVF 4
IVR 4
IVTT 4
JAG 4
JCM 4
JCP 4
JEHOVAH 4
JET 4
JETRO 4
JEWS 4
JJAA 4
JMI 4
JNNURM 4
JPR 4
KADEK 4
KAI 4
KGB 4
KI 4
KIMS 4
KJ 4
KPMG 4
LAPAN 4
LIFE 4
LIMITED 4
LOAN 4
LTC 4
LWO 4
MACAY 4
MACDA 4
MADAD 4
MAKA 4
MAKE 4
MALABAR 4
MANAGEMENT 4
MAST 4
MB 4
MDC 4
MEDRF 4
MEMU 4
MEP 4
MERCHANDISE 4
MERIT 4
MIEP 4
MLC 4
MLFAC 4
MLPD 4
MN 4
MOF 4
MOHUA 4
MPC 4
MRAP 4
MÃ 4
NAACP 4
NAIMISHA 4
NAMO 4
NBCFDC 4
NBMMP 4
NCGTC 4
NCI 4
NCIM 4
NCMRWF 4
NCSK 4
NEGA 4
NELP 4
NERIST 4
NICDIT 4
NIEPMD 4
NIIO 4
NIKSHAY 4
NIMHANS 4
NIOC 4
NP 4
NPE 4
NPK 4
NPV 4
NREGA 4
NSDA 4
NSIDC 4
NSIL 4
NU 4
NUP 4
NVBDCP 4
NVLI 4
NWIC 4
OCES 4
ODA 4
OFFICER 4
OOPE 4
OTA 4
OWS 4
PADC 4
PAP 4
PCB 4
PCP 4
PCT 4
PDC 4
PDPS 4
PFRDAI 4
PGCIL 4
PGI 4
PGIMER 4
PHDCCI 4
PHEIC 4
PHFI 4
PIBI 4
PIL 4
PISA 4
PLC 4
PLOTE 4
PMBJAK 4
PMN 4
PMVVY 4
POL 4
POLICE 4
PPC 4
PPI 4
PRATAP 4
PRL 4
PROJECT 4
PSD 4
PSGIC 4
PSK 4
PT1N 4
PUBLICITY 4
PUSA 4
RA 4
RAIL 4
RAISE 4
RBA 4
RBD 4
RCER 4
RCH 4
RCM 4
REFORMS 4
RG 4
RIDF 4
RISEN 4
RMG 4
RMI 4
RMO 4
RSA 4
RSSM 4
SABHA 4
SAMVAAD 4
SATAT 4
SBC 4
SBICAP 4
SCA 4
SCF 4
SCTL 4
SDF 4
SDPL 4
SE1 4
SEIS 4
SEL 4
SEPC 4
SEWA 4
SFH 4
SG 4
SGB 4
SHAKTI 4
SIAM 4
SIL 4
SINE 4
SKOCH 4
SLBC 4
SLN 4
SLPA 4
SOCIAL 4
SOCPA 4
SPECIAL 4
SPECS 4
SRFTI 4
SRK 4
SRLM 4
SSCO 4
SSL 4
SSM 4
SSR 4
STRATFOR 4
STWC 4
TAFE 4
TAN 4
TARC 4
TCSP 4
TD 4
TERI 4
TITP 4
TLTRO 4
TMIR 4
TOURISM 4
TPCI 4
TPDS 4
TRANSPORT 4
TSK 4
TU 4
UCIL 4
UD 4
UHC 4
UIL 4
UKIP 4
ULT 4
UMWA 4
UNCLOS 4
UNCRPD 4
UNION 4
UNODC 4
UNTSO 4
UOIF 4
UR 4
US15 4
UTGST 4
VCG 4
VDVK 4
VFX 4
VIGIL 4
VPM1 4
VPT 4
VVER 4
WAM 4
WEBINAR 4
WFI 4
WMA 4
WORLD 4
WPF 4
akespeare 4
ampton 4
ancouver 4
black 4
castle 4
christ 4
enberg 4
ficult 4
gio 4
history 4
ishop 4
june 4
main 4
ocy 4
original 4
osexual 4
phil 4
pres 4
rien 4
ñ 4
सबका 4
‍ 4
▁0000 4
▁afric 4
▁alex 4
▁anna 4
▁armen 4
▁athletic 4
▁atlantic 4
▁bishops 4
▁blues 4
▁brew 4
▁canon 4
▁cathedral 4
▁cer 4
▁cham 4
▁championships 4
▁charles 4
▁cuba 4
▁diameter 4
▁dublin 4
▁ell 4
▁ern 4
▁heavyweight 4
▁herit 4
▁hunter 4
▁indones 4
▁james 4
▁jews 4
▁jim 4
▁keyboard 4
▁kw 4
▁martin 4
▁microsoft 4
▁mk 4
▁mold 4
▁muslims 4
▁nel 4
▁nick 4
▁niger 4
▁novelist 4
▁orth 4
▁osc 4
▁percussion 4
▁philip 4
▁poland 4
▁portuguese 4
▁roy 4
▁si 4
▁soccer 4
▁stein 4
▁symmet 4
▁tak 4
▁tibet 4
▁trig 4
▁turkish 4
▁vel 4
▁verse 4
▁victoria 4
▁winn 4
▁yug 4
1111 3
1169 3
1178 3
117A 3
1339 3
1351 3
1355 3
1375 3
1413 3
1416 3
1595 3
1611 3
16394 3
1731 3
1767 3
1785 3
1787 3
1815 3
1846 3
1854 3
1858 3
1869 3
1898 3
1ES 3
1GB 3
3355 3
3417 3
3731 3
37465761 3
3945 3
3954 3
4197 3
4371 3
4483 3
44C 3
474 3
5369 3
5375 3
5419 3
5K 3
5MMT 3
5N 3
613 3
618 3
634 3
638 3
639 3
651 3
663 3
665 3
677 3
6PM 3
713 3
735 3
736 3
754 3
7585 3
763 3
7695 3
778 3
784 3
793 3
796 3
799 3
8119 3
836 3
843 3
844 3
847 3
848 3
851 3
859 3
8835 3
884 3
919 3
91P 3
91S 3
933 3
939 3
943 3
94444 3
945 3
954 3
969 3
983 3
9C 3
A38 3
AADHAR 3
AAR 3
ABB 3
ABHY 3
ABLED 3
ACI 3
AERA 3
AERB 3
AFA 3
AFW 3
AGMUT 3
AGNI 3
AIFTA 3
AIIM 3
AISHE 3
AITUC 3
AKDN 3
ALC 3
AMPTP 3
ANR 3
APCWU 3
APRA 3
ARMY 3
ARR 3
ART 3
ASH 3
ASKO 3
ASLEF 3
ASUH 3
ASW 3
ATVM 3
AUGUST 3
AURIC 3
AVIAINDRA 3
AWARDS 3
AYDMS 3
B747 3
BACKGROUND 3
BASE 3
BBA 3
BBNL 3
BCC 3
BCD 3
BCT 3
BDS 3
BEFR 3
BEML 3
BFNA 3
BGD 3
BGMEA 3
BH 3
BHP 3
BILL 3
BILLS 3
BIMIT 3
BIN 3
BMI 3
BN 3
BOCW 3
BORDER 3
BOU 3
BPOM 3
BPU 3
BR 3
BRINGS 3
BSNLEU 3
BSR 3
BTAD 3
BTC 3
BTF 3
BTIA 3
BUSINESS 3
C46 3
CACM 3
CANDIDATES 3
CANI 3
CB 3
CBN 3
CCH 3
CCIE 3
CCPWC 3
CCR 3
CCRGA 3
CCTNS 3
CDSL 3
CEPAL 3
CERC 3
CF 3
CFI 3
CFPI 3
CGC 3
CGHS 3
CGME 3
CHCDS 3
CIM 3
CIPD 3
CIPR 3
CIRT 3
CITI 3
CIVIL 3
CJI 3
CKIC 3
CNBC 3
CNCI 3
CNHI 3
COAST 3
COC 3
CODE 3
COE 3
COMMISSION 3
CONVOCATION 3
COPD 3
CORRUPTION 3
COTA 3
COVI 3
COVSACK 3
CPD 3
CPO 3
CPRM 3
CPUSA 3
CRB 3
CRCL 3
CRORE 3
CSIO 3
CTDP 3
CUPB 3
CVO 3
CWI 3
CÃ 3
DAF 3
DARPAN 3
DATA 3
DBG 3
DCBO 3
DCP 3
DDUGKY 3
DE 3
DEBKA 3
DFB 3
DFP 3
DFPD 3
DGLL 3
DGS 3
DH 3
DHAN 3
DIAT 3
DICCI 3
DICE 3
DIPAM 3
DISE 3
DISEASE 3
DIWAS 3
DJB 3
DMEO 3
DMRC 3
DOING 3
DPCC 3
DPT 3
DSCL 3
DT 3
DTEP 3
DÃ 3
ECCE 3
ECL 3
ECN 3
ECONOMIC 3
EDP 3
EECL 3
EF 3
EHR 3
EIA 3
EME 3
EMISAT 3
ENA 3
ENEL 3
ENVIS 3
EPE 3
EPR 3
EPRLF 3
ERC 3
ERO 3
ESC 3
ESTATE 3
ETP 3
EUD 3
EURO 3
EVKS 3
EYE 3
FAE 3
FANI 3
FDA 3
FELLOW 3
FFC 3
FGAAC 3
FGD 3
FINE 3
FIS 3
FLIGHTS 3
FMS 3
FPS 3
FR 3
FREE 3
FRM 3
FSB 3
FTSC 3
FW 3
FWICE 3
FYP 3
GA 3
GAJA 3
GBU 3
GCHQ 3
GFSU 3
GGEF 3
GGR 3
GII 3
GITAM 3
GMB 3
GO 3
GOLD 3
GOVERNMENT 3
GPU 3
GRID 3
GRT 3
GSDS 3
GSK 3
GU 3
GUARD 3
HAG 3
HDC 3
HDU 3
HELINA 3
HEPG 3
HERE 3
HG 3
HIRA 3
HKSAR 3
HMC 3
HTL 3
IBN 3
IBSF 3
ICAS 3
ICAT 3
ICCIMA 3
ICD 3
ICIJ 3
ICPS 3
IDB 3
IDPL 3
IEPF 3
IFFCO 3
IGAD 3
IGI 3
IHMP 3
IHR 3
IHS 3
IIFT 3
IJ 3
IL 3
ILI 3
IMAC 3
IMFC 3
IMI 3
IMP 3
IMPACTS 3
IMPROVES 3
INCOME 3
INDC 3
INDIAS 3
INDIRA 3
INFRASTRUCTURE 3
INMMS 3
INSA 3
INTERNATIONAL 3
IOE 3
IOM 3
IOT 3
IPISH 3
IPKF 3
IPM 3
IPPP 3
IRDA 3
IRPS 3
IRR 3
IRSDC 3
IRSEE 3
IRSME 3
IRSSE 3
IRTS 3
ISAC 3
ISL 3
ISRWD 3
ISS 3
ISTS 3
ITA 3
ITDC 3
IU 3
IUSSTF 3
IWPSD 3
JACTO 3
JAMMU 3
JID 3
JMSDF 3
JTAC 3
JTS 3
KASHMIR 3
KATHA 3
KIC 3
KISG 3
KLCC 3
KN 3
KOVIND 3
KSA 3
KT 3
KTV 3
KUMAR 3
LABOUR 3
LCU 3
LDH 3
LE 3
LEARNING 3
LIB 3
LICRA 3
LL 3
LMIS 3
LOA 3
LOK 3
MAA 3
MAITREE 3
MAJOR 3
MALDIVES 3
MARUDHAM 3
MAT 3
MATRITVA 3
MCM 3
MDA 3
MDFC 3
MDI 3
MEDICAL 3
MENE 3
METI 3
MILAN 3
MILF 3
MINERAL 3
MJP 3
MJS 3
MLAT 3
MMDR 3
MNC 3
MNNIT 3
MNR 3
MO 3
MOE 3
MOHFW 3
MORTH 3
MOSPI 3
MPIGO 3
MRA 3
MRC 3
MRG 3
MRSA 3
MRVC 3
MSDC 3
MSG 3
MSS 3
MSV 3
MTCR 3
MTP 3
MTS 3
MY 3
N99 3
NAC 3
NAP 3
NARES 3
NASDAQ 3
NATH 3
NBAA 3
NBPCL 3
NBT 3
NCAA 3
NCDRC 3
NCLAT 3
NCMM 3
NCSC 3
NCSMCS 3
NDLM 3
NDTV 3
NEH 3
NERCORMP 3
NERLP 3
NFF 3
NFFU 3
NFFWP 3
NFS 3
NFSG 3
NIDEM 3
NIRBHAY 3
NIRDA 3
NISD 3
NLCPR 3
NMEICT 3
NMIS 3
NMM 3
NMSA 3
NMT 3
NORMS 3
NOTICE 3
NPM 3
NPTEL 3
NRA 3
NRE 3
NRHM 3
NSCN 3
NSW 3
NTCA 3
NUA 3
NUHF 3
NUHM 3
NUT 3
NVS 3
NYSPC 3
OBHS 3
OCHA 3
OCR 3
ODOP 3
OHE 3
ONOC 3
OPV 3
OVERSEAS 3
PACKAGE 3
PACS 3
PAF 3
PAFFREL 3
PARV 3
PASS 3
PBS 3
PCGS 3
PCS 3
PDMC 3
PEN 3
PENSION 3
PGD 3
PHE 3
PI 3
PII 3
PIPS 3
PIT 3
PKVY 3
PMF 3
PMGDISHA 3
PMKK 3
PNP 3
POC 3
PORT 3
POST 3
POTUS 3
POWERGRID 3
PPH 3
PQ 3
PRAAPTI 3
PRAN 3
PRASAD 3
PRASHAD 3
PREVENTION 3
PRG 3
PRSSTUC 3
PTB 3
PTC 3
PTI 3
PTM 3
PTOMS 3
PTPS 3
PW 3
QDR 3
QIZ 3
R1 3
RAC 3
RAILWAY 3
RAM 3
RBC 3
RCD 3
RDA 3
RDPL 3
REGIONAL 3
REGULATION 3
RELEASE 3
REN 3
RFC 3
RFCTLARR 3
RGNIYD 3
RITES 3
RLDA 3
RLO 3
RMIT 3
RNC 3
RNR 3
ROAD 3
ROS 3
ROTTO 3
RPN 3
RSF 3
RTPCR 3
RVY 3
RWBCIS 3
RWE 3
SAA 3
SAAW 3
SAD 3
SAF 3
SASO 3
SATS 3
SBD 3
SBPL 3
SCB 3
SCD 3
SCHEMES 3
SCHOLARSHIP 3
SCIENCE 3
SCOVA 3
SDAT 3
SDM 3
SDMC 3
SECURE 3
SELECTION 3
SEO 3
SFAC 3
SFLP 3
SFURTI 3
SHGS 3
SHRAMDAAN 3
SIB 3
SIEV 3
SIMTARS 3
SISMI 3
SITRA 3
SJE 3
SLAO 3
SLINE 3
SLPF 3
SLWJA 3
SMIC 3
SML 3
SNCM 3
SNES 3
SNS 3
SOF 3
SOI 3
SOMO 3
SPC 3
SRB 3
SRI 3
SSBN 3
STPI 3
SUPI 3
SURAKSHIT 3
SV 3
SW 3
SWACHHTA 3
SWAMIH 3
SWR 3
TAB 3
TATA 3
TCA 3
TECH 3
TGB 3
TGV 3
THAT 3
THON 3
THSTI 3
TNSDC 3
TNSF 3
TNT 3
TOT 3
TPA 3
TPF 3
TREM 3
TSC 3
TSR 3
TY 3
U17 3
UAA 3
UAY 3
UB 3
UCC 3
UCLA 3
UCO 3
UIN 3
UIP 3
UJ 3
UNCAC 3
UNITE 3
UNIVERSITY 3
UNL 3
UNPROFOR 3
UNRWA 3
UNSA 3
UNTO 3
UP1 3
UPS 3
URJA 3
US145 3
US19 3
US45 3
US95 3
USHA 3
UVC 3
V5 3
VCIC 3
VEB 3
VEHICLE 3
VICE 3
VIDYA 3
VMC 3
VNS 3
VO 3
VRC 3
VRRK 3
VS 3
VSAT 3
VSSD 3
VYAKTI 3
WAC 3
WADA 3
WAF 3
WAR 3
WASTE 3
WATER 3
WEBCAST 3
WED 3
WGA 3
WINGS 3
WOMEN 3
WORKS 3
WPI 3
WPPT 3
WSC 3
WTI 3
YCL 3
ZDN 3
april 3
brook 3
dav 3
erto 3
eston 3
etery 3
fre 3
grees 3
hedral 3
incorpor 3
incorporated 3
january 3
john 3
october 3
pine 3
pton 3
rovers 3
stown 3
sv 3
walk 3
wright 3
 3
ø 3
धम 3
मा 3
ệ 3
▁aar 3
▁admin 3
▁alexander 3
▁alpha 3
▁amer 3
▁archbishop 3
▁bc 3
▁behavi 3
▁bish 3
▁bishop 3
▁botan 3
▁brad 3
▁carol 3
▁cem 3
▁choir 3
▁cole 3
▁columbia 3
▁comics 3
▁crater 3
▁danish 3
▁dick 3
▁disk 3
▁dutch 3
▁emper 3
▁england 3
▁epis 3
▁fc 3
▁fern 3
▁ford 3
▁gil 3
▁gill 3
▁grammar 3
▁greece 3
▁hong 3
▁householder 3
▁insect 3
▁irish 3
▁jacob 3
▁jean 3
▁jerry 3
▁jewish 3
▁jos 3
▁lem 3
▁lis 3
▁luther 3
▁manga 3
▁manh 3
▁mich 3
▁michael 3
▁naz 3
▁norway 3
▁os 3
▁palmer 3
▁polish 3
▁pope 3
▁roman 3
▁ros 3
▁runner 3
▁serbia 3
▁sig 3
▁soundtrack 3
▁soviet 3
▁spain 3
▁stev 3
▁trio 3
▁vect 3
▁veloc 3
▁wes 3
▁° 3
1143 2
1145 2
1146 2
1149 2
1151 2
1155 2
115AD 2
1167 2
1191 2
1195 2
1199 2
11UAB 2
1313 2
13343 2
1335 2
1336 2
1345 2
1363917 2
1366 2
1378 2
1385 2
1387 2
1396 2
1434 2
1445 2
1449 2
144B 2
1453 2
1456 2
1467 2
1469 2
1474 2
1477 2
1494 2
1496 2
1541 2
1545 2
1565 2
1589 2
1599 2
1644 2
1659 2
1661 2
1671 2
1689 2
1715 2
1737 2
1756 2
175GW 2
1766 2
1773537 2
1774 2
1779 2
1781 2
1799 2
17A 2
17TH 2
1811 2
1813 2
1836 2
1838 2
1845 2
1847 2
18571947 2
1859 2
1867 2
1878 2
1881 2
1885 2
1891 2
18956 2
18C 2
18T 2
19453 2
19636 2
1973M 2
19I 2
19M 2
19N 2
19O 2
19R 2
19S 2
19U 2
1H 2
1TS 2
3144 2
3163 2
3167 2
3169 2
31919 2
3199 2
3333 2
3373 2
338A 2
3477 2
3487 2
3497 2
34A 2
3519 2
3543 2
3599 2
3636 2
3639 2
3656 2
36561 2
36A 2
3746 2
37S 2
3815 2
3963 2
3965 2
3984 2
3C 2
3G 2
3M 2
4155 2
41894 2
4313 2
4338 2
4347 2
4434 2
4461 2
446174 2
45C 2
464 2
4777 2
4866 2
4884 2
4894 2
4995 2
4B 2
4E 2
4H 2
4I 2
513 2
5135 2
557964 2
55854 2
5591 2
55918 2
5715 2
578 2
594 2
5964 2
5B 2
5E 2
6131 2
643 2
6515 2
656 2
673 2
683 2
6AM 2
6E1 2
6E66 2
7453 2
7553 2
7571 2
7579 2
78914 2
7965 2
7E 2
7PM 2
7TH 2
8193 2
834 2
8367 2
83S 2
844844 2
84868 2
8488 2
8513639 2
851364 2
8555 2
858 2
86TH 2
873 2
896 2
8A 2
91H 2
91M 2
91N 2
931 2
9444 2
95839 2
977 2
978 2
986 2
991 2
99K 2
9K 2
9PM 2
A8 2
AAASS 2
AAD 2
AAPC 2
AAS 2
AASSC 2
ABD 2
ABHINANDAN 2
ABP 2
ABPS 2
ABSU 2
ABUSE 2
ACER 2
ACJ 2
ACNAS 2
ADA 2
ADF 2
ADH 2
ADM 2
ADP 2
AE 2
AEI 2
AEOI 2
AEWC 2
AGE 2
AGNEEPRASTHA 2
AHD 2
AHRC 2
AHWP 2
AI57 2
AIC 2
AICC 2
AICS 2
AIDMK 2
AIEMA 2
AIIMSN 2
AIMA 2
AIRCRAFT 2
AISGEF 2
AJS 2
AKI 2
AKM 2
ALA 2
ALG 2
ALIS 2
AMMA 2
ANAEM 2
ANBA 2
ANKK 2
ANNEURE 2
ANUGA 2
ANY 2
AOPV 2
APC 2
APCC 2
APPPA 2
APSCCFC 2
ARAI 2
ARAMCO 2
AROGYA 2
ARPG 2
ARPIT 2
ARTRAC 2
ARTS 2
ARYA 2
ASAT 2
ASBO 2
ASHAS 2
ASHW 2
ASIS 2
ASL 2
ASM 2
ASPAM 2
ASSAM 2
ASU 2
ASUSE 2
ATAG 2
ATCC 2
ATI 2
ATMA 2
ATR 2
AUSINDE 2
AUTO 2
AVCC 2
AVU 2
AWARD 2
AWBI 2
AZF 2
B1 2
BACK 2
BANDHAN 2
BAPA 2
BCA 2
BCAM 2
BCCL 2
BDL 2
BECIL 2
BENEFITS 2
BEP 2
BERD 2
BFC 2
BFT 2
BGN5 2
BIOFACH 2
BIT 2
BKC 2
BL 2
BLACK 2
BMC 2
BMD 2
BMP 2
BMW 2
BNDES 2
BOI 2
BOOK 2
BORNE 2
BOTTOM 2
BPKP 2
BQ 2
BRAHMA 2
BRAHMOS 2
BRANCH 2
BREAST 2
BREASTFEEDING 2
BRITE 2
BRTF 2
BTA 2
BTWC 2
BYST 2
C1 2
CADWM 2
CALL 2
CALPERS 2
CAPITAL 2
CARING 2
CASH 2
CAW 2
CBDR 2
CCEM 2
CCIM 2
CCO 2
CCRI 2
CCRUM 2
CCTF 2
CDFD 2
CDIO 2
CDO 2
CDP 2
CEEW 2
CEFIPRA 2
CELEBRATES 2
CEN 2
CERAW 2
CFC 2
CFCL 2
CFEES 2
CFLTC 2
CFO 2
CGDA 2
CGF 2
CGIL 2
CGO 2
CGP 2
CGPDTM 2
CGS 2
CGTC 2
CGTP 2
CHAARDHAAM 2
CHAMPIONS 2
CHINA 2
CHUS 2
CIBMS 2
CIFRI 2
CIMADE 2
CIN 2
CIP 2
CISO 2
CKD 2
CLASS 2
CMAG 2
CMAJ 2
CNC 2
CNCDH 2
COA 2
COD 2
CODATU 2
COFCO 2
COIVD 2
COLLECTION 2
COLLECTORS 2
COLLEGE 2
COMM 2
COMMERCE 2
COMMIT 2
COMMITTEE 2
COMMON 2
CONCOR 2
CONCORD 2
CONNECTIVITY 2
CONTINGENT 2
COPYRIGHT 2
CORE 2
CORPORATE 2
CPCL 2
CPV 2
CPVW 2
CRC 2
CREATE 2
CRO 2
CRSV 2
CSAUT 2
CSHP 2
CSM 2
CSMOP 2
CSSS 2
CSTM 2
CSUTCB 2
CTB 2
CTS 2
CTVS 2
CURSOR 2
CURTAIN 2
CUSTOM 2
CVD 2
CVID 2
CVP 2
CW 2
CWPRS 2
DAB 2
DAICSET 2
DAISY 2
DARPA 2
DBR 2
DBTI 2
DBTL 2
DCCO 2
DCPC 2
DDE 2
DDG 2
DDK 2
DDR 2
DDRC 2
DEFEPO 2
DEPARTMENT 2
DESW 2
DGCIS 2
DGDS 2
DGNCC 2
DGNO 2
DGOF 2
DGRI 2
DIB 2
DIC 2
DIDF 2
DIFFERENTLY 2
DINA 2
DISABILITY 2
DISBURSED 2
DISCOMS 2
DISR 2
DISTRICT 2
DIY 2
DJP 2
DMICDC 2
DMISP 2
DMO 2
DMS 2
DNAI 2
DNV 2
DOD 2
DOHFW 2
DOM 2
DOMESTIC 2
DONT 2
DOPT 2
DOS 2
DOSTYK 2
DOT 2
DOWN 2
DPA 2
DPD 2
DPEPP 2
DPG 2
DRDA 2
DRIP 2
DSPT 2
DSSS 2
DVCA 2
DVDS 2
DWU 2
DWWA 2
E9 2
EAG 2
EAST 2
ECIS 2
ECISE 2
EETP 2
EEU 2
EG5 2
EGAT 2
EGS 2
EH 2
EHCP 2
EHESS 2
EIC 2
EIGHT 2
EK54 2
EK546 2
ELECRAMA 2
EM 2
EMBARKED 2
EMD 2
EMDE 2
EMPOWERMENT 2
EMV 2
EN 2
END 2
ENDER 2
ENDS 2
ENERGY 2
EODB 2
EPENDITURE 2
EPI 2
EPLORATION 2
EPLORER 2
ERSS 2
ESOP 2
ESPO 2
ESSO 2
ESTC 2
ESW 2
ETUC 2
ETV 2
EUFF 2
EUR 2
EUS 2
EY 2
EZB 2
F4 2
FAA 2
FACILITATION 2
FAGMIL 2
FAR 2
FARM 2
FARMING 2
FASAL 2
FEEDING 2
FESTIVAL 2
FET 2
FEWS 2
FFDC 2
FFPO 2
FII 2
FINANCIAL 2
FIO 2
FISA 2
FIT 2
FMCBG 2
FMCG 2
FMM 2
FOIA 2
FOOD 2
FORCE 2
FORE 2
FOREIGN 2
FORGING 2
FOX 2
FPC 2
FPIS 2
FPM 2
FRA 2
FREMM 2
FRENA 2
FRIENDLY 2
FTH 2
FTPGI 2
FY19 2
G4G 2
G5 2
G9 2
GAELF 2
GANGA 2
GANGE 2
GARIB 2
GAS 2
GBP 2
GCF 2
GCMS 2
GCNEP 2
GCTF 2
GDA 2
GDMO 2
GEC 2
GEHLOT 2
GEN 2
GENERAL 2
GENERATION 2
GEODIS 2
GEW 2
GHAVP 2
GHCTC 2
GIBI 2
GIFMIS 2
GIHS 2
GISAID 2
GIVE 2
GIVEN 2
GKMS 2
GKVK 2
GL 2
GMBH 2
GMCH 2
GMMS 2
GMP 2
GMRT 2
GN 2
GNCT 2
GOVERNANCE 2
GPDP 2
GPO 2
GRANT 2
GREENS 2
GROUPS 2
GROWTH 2
GSM 2
GSP 2
GSW 2
GTB 2
GTE 2
H5N1 2
HA 2
HAM 2
HAND 2
HASHTAG 2
HASTE 2
HAVERI 2
HCC 2
HCW 2
HD 2
HDT 2
HEAVY 2
HEPC 2
HIAMS 2
HIMS 2
HJS 2
HL 2
HLM 2
HMAS 2
HMB 2
HMIS 2
HMTA 2
HOD 2
HOLINESS 2
HPRP 2
HQI 2
HR3447 2
HRA 2
HSN 2
HTS 2
HU 2
HWCWS 2
HYDERABAD 2
IAAD 2
IAC 2
IAHE 2
IAIS 2
IANS 2
IASRI 2
IBB 2
IBCCI 2
IBEF 2
IBWG 2
ICADR 2
ICARE 2
ICBR 2
ICDR 2
ICEGATE 2
ICFAI 2
ICIC 2
ICICI 2
ICMRR 2
ICNU 2
ICON 2
ICRIER 2
IDC 2
IDEAS 2
IDENTIFICATION 2
IDWH 2
IERMS 2
IFOAM 2
IFTPC 2
IFTU 2
IGBT 2
IGL 2
IGNDPS 2
IGNTU 2
IGNWPS 2
IGO 2
IHGF 2
IHHL 2
IHIP 2
IHK 2
IIIII 2
IIRSI 2
IISC 2
IISWC 2
IITS 2
IITTM 2
IIW 2
IMB 2
IMCPF 2
IMDRF 2
IMG 2
IMIS 2
IMPPA 2
INBA 2
INDE 2
INDIANS 2
INDICATORS 2
INDJET 2
INDUSTRIES 2
INDUSTRY 2
INET 2
INFLIBNET 2
INO 2
INR5 2
INSAT 2
INSS 2
INSTITUTIONS 2
INTACH 2
INTEGRATED 2
IOA 2
ION 2
IONS 2
IOSCO 2
IOU 2
IPG 2
IPOI 2
IPOP 2
IPSC 2
IPSOS 2
IPT 2
IRAN 2
IRCE 2
IRCON 2
IRIMEE 2
IRO 2
IRSS 2
ISBLRT 2
ISIE 2
ISIS 2
ISLRTC 2
ISM 2
ISSF 2
ITBA 2
ITDP 2
ITES 2
ITS 2
ITT 2
IUCAA 2
IUSTU 2
IWPC 2
IYCF 2
IYD 2
JAFF 2
JC 2
JCDC 2
JCI 2
JDA 2
JEEVAN 2
JI 2
JICA 2
JIN 2
JK1 2
JLG 2
JMC 2
JN 2
JNNSM 2
JOBS 2
JPO 2
JR 2
JSCL 2
JSY 2
JUF 2
JULY 2
JUNE 2
JVA 2
JVC 2
KA 2
KARGIL 2
KARNIKA 2
KARUR 2
KAVACH 2
KCTU 2
KDS 2
KE 2
KEM 2
KEMPPI 2
KFW 2
KGK 2
KHADI 2
KIOCL 2
KIRAN 2
KLD 2
KMP 2
KOLAM 2
KOTRA 2
KPI 2
KRCN 2
KRIBHCO 2
KSMS 2
KTVU 2
KUSAM 2
L53 2
L7 2
LAAI 2
LAB 2
LAD 2
LAM 2
LANGAR 2
LAOS 2
LAUNCHES 2
LBJ 2
LBNL 2
LCC 2
LDF 2
LDN 2
LEM 2
LENSIGHT 2
LES 2
LFEPA 2
LICENSING 2
LIDAR 2
LKG 2
LLB 2
LLPD 2
LM 2
LMRC 2
LMU 2
LOP 2
LRC 2
LRSAM 2
LSA 2
LSE 2
LTV 2
LV 2
LWR 2
M1A1 2
MAE 2
MAHOTSAV 2
MAIL 2
MAIN 2
MAM 2
MARGDARSHAN 2
MARKA 2
MARPOL 2
MASSIVE 2
MATRIC 2
MATSYA 2
MAY 2
MCC 2
MCD 2
MCDR 2
MCME 2
MCTS 2
MEFTA 2
MELA 2
MERCOSUR 2
MERS 2
MFN 2
MGC 2
MGPSY 2
MIAF 2
MIB 2
MICE 2
MIDHANI 2
MIER 2
MIIM 2
MIIT 2
MISW 2
MKIII 2
MLH 2
MLP 2
MMD 2
MMRC 2
MMSCM 2
MMU 2
MNDF 2
MNEF 2
MODIS 2
MOEFCC 2
MONEY 2
MOOCS 2
MORE 2
MOST 2
MOT 2
MOVCD 2
MPA 2
MPFI 2
MPMRCL 2
MPPA 2
MPPS 2
MPSC 2
MQM 2
MRV 2
MSC 2
MSCI 2
MSMES 2
MSSRF 2
MTHL 2
MVSD 2
N1 2
NAARM 2
NAAT 2
NAB 2
NAMAMI 2
NARUC 2
NASCOM 2
NATION 2
NATIONALS 2
NATMO 2
NATURE 2
NAVY 2
NBHM 2
NBM 2
NBPGR 2
NCAER 2
NCBS 2
NCCR 2
NCOE 2
NCVTC 2
NDAGIJIMANA 2
NDAL 2
NDDTC 2
NDR 2
NDRA 2
NECM 2
NED 2
NEHHDC 2
NEIGRIHMS 2
NEMMP 2
NEPAD 2
NERC 2
NERSDS 2
NESO 2
NFAI 2
NFAR 2
NFCH 2
NFCSR 2
NG 2
NGCD 2
NGOPV 2
NGRSM 2
NGT 2
NHDC 2
NI 2
NIAS 2
NIBP 2
NIE 2
NIEPID 2
NIFM 2
NIIFL 2
NIKI 2
NIMHR 2
NIMS 2
NIN 2
NIO 2
NIPAM 2
NIRMA 2
NIRVIK 2
NISE 2
NIUA 2
NKCL 2
NKVD 2
NMIC 2
NMR 2
NOFN 2
NOFNP 2
NOTE 2
NOVATEK 2
NOW 2
NPMR 2
NPPC 2
NPYAD 2
NRCP 2
NREL 2
NRG 2
NRK 2
NRL 2
NRM 2
NRP 2
NSAEBB 2
NSAEBB1 2
NSCI 2
NSCS 2
NSI 2
NSSF 2
NTEP 2
NTF 2
NTG 2
NVD 2
NWSM 2
NYK 2
NYLP 2
NYSC 2
O4 2
OAFI 2
OAO 2
OBSERVED 2
OCEANSAT 2
OCTAVE 2
OCU 2
OFFICE 2
OFFICERS 2
OGAS 2
OHCHR 2
OICL 2
OLED 2
OLR 2
OMR 2
ONCF 2
ONS 2
OPCW 2
OPR 2
OPS 2
OQTF 2
ORANGE 2
ORD 2
ORGANISATION 2
OSDMA 2
OSH 2
OSM 2
OTT 2
OUR 2
OVER 2
OVERALL 2
OÃ 2
PAC 2
PACER 2
PACOM 2
PAD 2
PAL 2
PAO 2
PARADE 2
PARAKH 2
PARIVESH 2
PAROS 2
PARTICIPATED 2
PASSPORT 2
PAYMENT 2
PBBB 2
PBCM 2
PBG 2
PCE 2
PCIMH 2
PCMA 2
PCO 2
PDSN 2
PEL 2
PEOPLE 2
PERMANENT 2
PETO 2
PETROLEUM 2
PFG 2
PFI 2
PFP 2
PGA 2
PGDAV 2
PHEE 2
PHETHAI 2
PHR 2
PIA 2
PIP 2
PJ 2
PJSC 2
PLASTIC 2
PLATFORM 2
PM1 2
PMINDIA 2
PMKKKY 2
PMMSK 2
PMRJ 2
PMRU 2
PMY 2
PNA 2
PNGEC 2
PNGRB 2
POLL 2
POM 2
POOR 2
PORTS 2
POSSIBILITY 2
PPPAC 2
PRABAL 2
PRE 2
PRM 2
PRODUCTION 2
PRODUCTS 2
PROFILERS 2
PROGRAMMES 2
PROGRESS 2
PROJECTS 2
PROMOTION 2
PROTECTION 2
PSOP 2
PSR 2
PTSD 2
PUBLIC 2
PUNJAB 2
PUR 2
PVTG 2
PZRP 2
PÃ 2
QMV 2
RAA 2
RAASI 2
RADARS 2
RAI 2
RAISER 2
RAY 2
RCN 2
RCS 2
RCSC 2
RDC 2
RDGR 2
RDI 2
READY 2
RECEIVE 2
RED 2
REFFERED 2
REG 2
REGA 2
RELIEF 2
RENEWABLE 2
RES 2
RESUMPTION 2
RETURNED 2
RFI 2
RGNAU 2
RHTC 2
RIMS 2
RIP 2
RITE 2
RMK 2
RMRC 2
RNCWC 2
ROC 2
ROLE 2
ROV 2
RPA 2
RPAS 2
RPCR 2
RPTM 2
RPWD 2
RRSK 2
RRT 2
RSP 2
RSPB 2
RSSB 2
RSTV 2
RTA 2
RTM 2
RTO 2
RTS 2
RULES 2
RUMSL 2
RUN 2
RUPAY 2
RV 2
RWB 2
RWTP 2
RYSK 2
SABKA 2
SAFEROLA 2
SAGE 2
SAGIA 2
SAGT 2
SAM 2
SAMADHAN 2
SAMARTH 2
SAMMAN 2
SAMU 2
SAMVAD 2
SANAD 2
SANDIKSHA 2
SANITARY 2
SARFAESI 2
SAROD 2
SASB 2
SASEC 2
SATYABHAMA 2
SBB 2
SBIOA 2
SCHIS 2
SCI 2
SCNBWL 2
SDA 2
SDD 2
SDG3 2
SDI 2
SDS 2
SEA 2
SEAL 2
SEALS 2
SEARO 2
SECTOR 2
SECURITY 2
SELF 2
SEPA 2
SESF 2
SFB 2
SFDA 2
SFRY 2
SFT 2
SFTT 2
SGPC 2
SHOC 2
SHRAMDAN 2
SHWET 2
SIA 2
SIAL 2
SIIPL 2
SINGH 2
SIPS 2
SIPTU 2
SJH 2
SKILL 2
SLAF 2
SLC 2
SLHRC 2
SLIIT 2
SLNP 2
SLS 2
SLTMA 2
SLV 2
SMP 2
SNJ 2
SNJPC 2
SNPP 2
SOLACE 2
SPA 2
SPAC 2
SPARC 2
SPCCC 2
SPEECH 2
SPEED 2
SPM 2
SPREADING 2
SPS 2
SRA 2
SRC 2
SRGM 2
SRIHER 2
SRISTI 2
SRT 2
SSCSR 2
SSO 2
SSS 2
SSSY 2
SSTL 2
STANDING 2
STE 2
STIAC 2
STOP 2
STRIDE 2
SUCI 2
SUN 2
SURVEY 2
SURYA 2
SVAMITVA 2
SVEP 2
SVIMS 2
SWACHCH 2
SWASTHYA 2
SWB 2
SYSTEMS 2
TAC 2
TAM 2
TAMIL 2
TAMILNADU 2
TANUVAS 2
TAP 2
TAPS 2
TARGETS 2
TCC 2
TCL 2
TCM 2
TE 2
TECC 2
TECHNOLOGY 2
TEJAS 2
TEKEL 2
TESTING 2
TH 2
THAAWARCHAND 2
THDC 2
THIS 2
THY 2
TIDCO 2
TILL 2
TKM 2
TMES 2
TMS 2
TNMSDD 2
TOD 2
TOILING 2
TPC 2
TPH 2
TPP 2
TRI 2
TRIBAL 2
TRISHNA 2
TRNC 2
TRS 2
TS 2
TSA 2
TSPL 2
TSS 2
TTD 2
UAM 2
UBI 2
UCIJ 2
UDAAN 2
UDEUR 2
UDHR 2
UDID 2
UDSC 2
UEC 2
UFO 2
UMEH 2
UNAMID 2
UNED 2
UNISA 2
UNISON 2
UNITED 2
UNIVERSITIES 2
UNMOVIC 2
UNSCOM 2
UNSCR 2
UNSDF 2
UNTAET 2
UPID 2
UPL 2
UPTO 2
URBAN 2
US13 2
US14 2
US17 2
US31 2
US44 2
US75 2
USB 2
USD13 2
USD19 2
USD3 2
USD4 2
USD7 2
USDA 2
USNS 2
UTKROSH 2
UTUF 2
UW 2
VACCINES 2
VAHAN 2
VAJRA 2
VBD 2
VEA 2
VECTOR 2
VEM 2
VET 2
VICTORY 2
VIJAY 2
VIKALP 2
VIRO 2
VISITS 2
VJ 2
VOA 2
VOLUNTARY 2
VOTING 2
VPI 2
VPN 2
VPP 2
VPRC 2
VPS 2
VPU 2
VRP 2
VTG 2
VVGNLI 2
VVIP 2
VX 2
VYASA 2
WAGC3 2
WCT 2
WDG3A 2
WE 2
WEBSITE 2
WEEK 2
WELCOMED 2
WELFARE 2
WELLNESS 2
WFES 2
WHA 2
WHICH 2
WII 2
WILL 2
WIND 2
WIP 2
WORKERS 2
WP 2
WRIS 2
WRMEA 2
WTC 2
WW 2
XI 2
XII 2
XIII 2
XVI 2
XVII 2
XXIII 2
Y4D 2
YASH 2
YEARS 2
YS 2
YSR 2
YUKTI 2
ZEP 2
ZIP 2
ZSSS 2
american 2
bird 2
died 2
every 2
fish 2
fm 2
game 2
gb 2
great 2
iday 2
inus 2
july 2
march 2
november 2
ophone 2
ranean 2
super 2
they 2
whe 2
yll 2
 2
 2
Ð 2
í 2
त 2
प 2
पर 2
ब 2
य 2
विकास 2
साथ 2
है 2
। 2
​ 2
′ 2
▁abbre 2
▁alan 2
▁albert 2
▁alfred 2
▁algebra 2
▁ari 2
▁bart 2
▁berk 2
▁boulevard 2
▁bran 2
▁brazilian 2
▁caribbean 2
▁catholic 2
▁chic 2
▁christians 2
▁citiz 2
▁confederate 2
▁croat 2
▁dale 2
▁drummer 2
▁eric 2
▁eug 2
▁franch 2
▁glas 2
▁guitar 2
▁guitarist 2
▁hamp 2
▁hans 2
▁harvard 2
▁hungary 2
▁immedi 2
▁includ 2
▁inte 2
▁italian 2
▁joseph 2
▁kay 2
▁kel 2
▁kentucky 2
▁keyboards 2
▁kl 2
▁knight 2
▁kos 2
▁leban 2
▁lett 2
▁lex 2
▁liz 2
▁mex 2
▁montreal 2
▁nash 2
▁ot 2
▁parish 2
▁peter 2
▁pi 2
▁pian 2
▁rand 2
▁rhyth 2
▁rick 2
▁ry 2
▁sche 2
▁spider 2
▁stephen 2
▁steven 2
▁sull 2
▁sult 2
▁tay 2
▁tempor 2
▁terminus 2
▁territ 2
▁texas 2
▁thomas 2
▁tol 2
▁touchdown 2
▁ukraine 2
▁unincorporated 2
▁venice 2
▁vienna 2
▁villa 2
▁vincent 2
▁vocalist 2
▁williams 2
● 2
-00 1
111116 1
111175 1
1113 1
111363 1
1114 1
1116 1
1117 1
11179 1
1118 1
11311 1
1133 1
11336 1
1136 1
1137 1
1139 1
114515 1
1148 1
11514 1
11566 1
11578 1
1159 1
115GW 1
11636 1
11659 1
11677 1
1168 1
1171 1
11765 1
1177 1
117776 1
11783 1
11799 1
1183 1
1184 1
1186 1
1187 1
1189 1
1193 1
11945 1
1196 1
11964 1
1197 1
11AA 1
11N 1
11T 1
11TH 1
13151515 1
13156 1
1316 1
1317 1
13176 1
131945 1
1331 1
1341 1
1346 1
1348 1
1349 1
1356 1
13589 1
1365 1
1369 1
1379 1
13799 1
1381 1
1386 1
13868 1
1391 1
1391616 1
1398 1
139A 1
139AA 1
13A 1
13B 1
1411 1
1416387 1
14311 1
1433 1
14433 1
14438 1
1447 1
144781 1
1448 1
14488 1
144A 1
145164 1
14543 1
14555 1
1457 1
14576 1
1465 1
14654 1
14667 1
1471 1
14745 1
147635 1
1478 1
1481 1
1483 1
1483165 1
1485 1
1486 1
1488 1
148B 1
1491 1
14916 1
14939 1
1495 1
149568 1
1497 1
14995 1
14S 1
15113 1
1513 1
1514 1
15177 1
1519 1
151956 1
1533 1
1534 1
15394 1
1543571 1
1555 1
15551 1
1557 1
1558 1
15583 1
1563519 1
1571 1
1575 1
1576 1
1577 1
15791 1
157996 1
1581 1
1584 1
1585 1
15915 1
15948 1
15987 1
15A 1
15E 1
15G 1
15H 1
15TH 1
1615 1
1616 1
1618 1
16184 1
1619 1
16193 1
1634 1
1638 1
16384 1
1648 1
1651 1
1654 1
165587 1
16611 1
1661595 1
1666 1
1673 1
16731 1
1674 1
1678 1
1684 1
1685 1
16857 1
1689176 1
1694 1
16947 1
1695 1
16T 1
1711 1
17134 1
1714 1
17149 1
1717 1
1719 1
173143 1
1733 1
1739 1
1741 1
1744 1
1745 1
1747 1
175766 1
17588 1
1763 1
176441 1
1765 1
1768 1
1773941 1
177445 1
1776644 1
177755 1
1778 1
17875 1
17891 1
17954 1
1796 1
17BCM 1
17U 1
1814 1
1816 1
1817 1
18197 1
18198 1
1831 1
1833 1
1837 1
183A 1
1849 1
1851 1
18546 1
1855 1
1866 1
18661 1
1868 1
18758 1
1879 1
1883 1
1886 1
1895 1
18B 1
18F 1
18MW 1
18O 1
18P 1
18R 1
18S 1
191614 1
191919 1
193313 1
193738 1
19465 1
19474 1
19545 1
196667 1
19676 1
19745 1
19764 1
19791985 1
19818 1
19847 1
19861993 1
198788 1
1989199 1
19971998 1
19E 1
19P 1
19W 1
1C4 1
1F 1
1GW 1
1L 1
1MG 1
1MH 1
1NEU 1
1PM 1
1R 1
1ST 1
1T 1
1U 1
1⁄4 1
31179 1
3136 1
3146 1
3148 1
3171 1
3195 1
31C 1
31F 1
31L 1
31ST 1
3314 1
33176 1
3319 1
3335 1
33367 1
33371 1
3339 1
3341 1
3345 1
334B 1
335595 1
3364 1
3368 1
3376 1
3381198 1
338954 1
339457 1
3398 1
3399 1
33MMT 1
3437 1
34441 1
34514 1
345375 1
3456 1
34648 1
34717 1
3493 1
3498 1
35141 1
35153 1
3534 1
3541 1
3545 1
3548 1
3551 1
355446 1
3555 1
35955 1
3618 1
3633 1
36374 1
36437 1
3644 1
365689 1
366974 1
3681 1
3687 1
3717 1
37198 1
3736 1
3737 1
3747493 1
3755 1
3757 1
3767 1
37741 1
3794 1
3799 1
37G 1
37H 1
3817 1
3818 1
3838 1
3849 1
3858 1
3863 1
3867 1
387584 1
3897 1
3898 1
38A 1
38B 1
38MT 1
3911 1
39136 1
3916 1
3918 1
3938 1
3948 1
3949 1
3959 1
3969 1
3975 1
3979 1
3986 1
3994 1
39T 1
3AC 1
3FP 1
3J 1
3O4 1
3Â 1
4113 1
411859 1
41353 1
4156 1
4163 1
4178 1
4181 1
4183 1
4185 1
4187 1
4188 1
41886 1
4191 1
4194 1
4196 1
41K 1
43159 1
433317 1
4364 1
4384 1
44149 1
4431 1
44477 1
4454 1
4457 1
445C 1
44661 1
447843 1
4484 1
4486 1
4494 1
4519 1
4547 1
4548 1
45516 1
45766 1
4577 1
4586 1
4611 1
4631 1
46384 1
4639 1
4664 1
46694 1
4684 1
4689 1
4735 1
4745 1
4759 1
4765 1
4774 1
4779 1
47791 1
4783 1
47844 1
4787 1
47A 1
47M 1
4814 1
4846 1
484865 1
4853 1
4859 1
4861 1
48764 1
4885 1
4889 1
4893 1
4895719 1
4899 1
48TH 1
491764 1
4919 1
4936 1
4939 1
4944 1
49451 1
4947 1
4955 1
4966 1
49751 1
4977 1
4981159 1
4984 1
4999 1
49C 1
4F 1
4N 1
4OO 1
4PI 1
4T 1
4TH 1
513799 1
5138 1
5145 1
5151 1
5187 1
519144 1
5318 1
5336 1
5338 1
53544 1
5384 1
5414 1
5456 1
54641 1
5465 1
5481 1
54965 1
54991 1
54GB 1
5514474 1
5519 1
5546 1
5548 1
5551 1
5556 1
5564 1
55776 1
5578 1
5597 1
5611 1
563 1
5635 1
5637 1
5638 1
5657773 1
568L 1
56LMT 1
56P 1
5758 1
5767 1
5788 1
57884 1
5799 1
57A 1
585313 1
5855 1
58D 1
58TH 1
5919 1
593 1
59375 1
5938 1
5954 1
5956 1
597 1
5984 1
59869758 1
5989 1
5KW 1
5MT 1
5MW 1
5T 1
5V 1
5Â 1
6138 1
6139 1
61679 1
6335 1
6338 1
63679 1
6376 1
6379 1
6399 1
6448 1
6451 1
6458 1
6474 1
6475 1
6481 1
6484 1
64887 1
64E 1
64T 1
6557 1
65596 1
6565 1
65916 1
6593 1
65A 1
65B 1
65D 1
6669 1
6671 1
6688 1
6695 1
6696 1
66MT 1
6745 1
6748 1
6758 1
67639 1
67664 1
6767 1
67833 1
678385 1
6788 1
6791 1
67D 1
67K 1
6848917 1
6851 1
6874 1
6875 1
6896 1
68HH 1
68L 1
693 1
6941 1
6953 1
6956 1
6999 1
6AA 1
6E54 1
6E65 1
6FDI 1
6M 1
7148 1
716335 1
731 1
7319 1
7365 1
7374 1
7397 1
7419 1
7437 1
746676 1
753 1
7583431 1
75889 1
75G 1
76314 1
76488 1
76635 1
7665 1
7684 1
76931 1
771 1
77678 1
7817 1
783835 1
78386 1
7839 1
786 1
7863 1
791 1
7911 1
7938 1
7953 1
7961 1
79A 1
7B 1
7GW 1
7H 1
7K 1
81436 1
8154 1
81667 1
8181 1
81L 1
8343 1
837 1
8384 1
8455 1
8468 1
8479 1
8554 1
856 1
8577 1
8585 1
85A 1
8619 1
86197 1
8644 1
8685 1
8691 1
86911 1
86F 1
87591 1
8767 1
8779 1
881 1
88116 1
885139 1
8898 1
89515 1
897 1
8975 1
8975993781 1
8985 1
89859 1
8994 1
89947 1
8996 1
8997 1
8AA 1
8AB 1
8B 1
8J 1
8N 1
8QQ 1
8TH 1
9111999 1
9115 1
9117 1
9131 1
9151 1
9156 1
9166 1
9169 1
91981 1
91A 1
91D 1
91G 1
91U 1
91V 1
9343 1
934314 1
93641 1
9381 1
9387 1
9399 1
93T 1
94355578 1
94375 1
9444395553 1
9444396789 1
94459 1
9449 1
94497998 1
9473 1
9474 1
9483 1
949 1
94934 1
94A 1
9533 1
9546 1
9559 1
9561 1
95949 1
9619 1
961973963 1
9631 1
9654 1
9654664614 1
966 1
9674 1
9694373 1
96MMSCM 1
9717957 1
973161 1
9734 1
9761 1
9763 1
9765 1
9777 1
98118 1
9818359 1
9834 1
9844 1
9845 1
9851 1
9863 1
9868 1
986889996 1
9876 1
9884449968 1
98847 1
988996 1
98TH 1
99166 1
9943 1
99571 1
9969 1
9971538681 1
99913 1
9994388877 1
9O 1
9PR 1
9V 1
9W 1
A19 1
A34 1
A35 1
A5 1
AAAR 1
AAB 1
AADI 1
AAIU 1
AAPI 1
AAPOORTI 1
AARAMBH 1
AASU 1
AAYOG 1
ABBAS 1
ABCN 1
ABCP 1
ABHAY 1
ABHYAAS 1
ABI 1
ABLY 1
ABM 1
ABNHPM 1
ABOMINATIONS 1
ABPM 1
ABS 1
ABUL 1
ACARE 1
ACCESSIBLE 1
ACCIDENT 1
ACCOUNT 1
ACEWU 1
ACMA 1
ACMECS 1
ACMEE 1
ACREAGE 1
ACROSS 1
ACSA 1
ACTC 1
ACTION 1
ACTU 1
ACTUF 1
ACTWU 1
ACV 1
ACWP 1
ADARSH 1
ADDRESSES 1
ADE 1
ADGP 1
ADIA 1
ADL 1
ADT 1
ADVANCEMENT 1
ADVERTISING 1
ADVISING 1
AEAN 1
AEBAS 1
AEC 1
AEPC 1
AETC 1
AEW 1
AFCONS 1
AFFECTED 1
AFFORDABLE 1
AFIN 1
AFMC 1
AFMCM 1
AFPSA 1
AFRICOM 1
AFSCME 1
AFV 1
AFWWA 1
AGEY 1
AGI 1
AGP 1
AGSDP 1
AGU 1
AH 1
AHEAD 1
AHF 1
AHMEDABAD 1
AHMS 1
AHP 1
AHWIN 1
AHWR 1
AI1671 1
AI9 1
AIAPGET 1
AIB 1
AICRP 1
AID 1
AIFEC 1
AIFF 1
AIFPA 1
AIH 1
AIIBO 1
AIMS 1
AIPGET 1
AIPMT 1
AIRAVAT 1
AIRCATS 1
AIRF 1
AIRFIBER 1
AIRLIVAS 1
AISRF 1
AISTI 1
AIT 1
AJNIFM 1
AK13 1
AKE 1
AKTC 1
ALBA 1
ALCO 1
ALEAP 1
ALHW 1
ALLAHABAD 1
ALROSA 1
ALUNET 1
AMB 1
AMBO 1
AMCDRR 1
AMENDMENTS 1
AMF 1
AMFU 1
AMONG 1
AMR 1
ANBC 1
ANBP 1
ANDAMAN 1
ANDAVAN 1
ANDHRA 1
ANGANWADI 1
ANGELONI 1
ANIMAL 1
ANMOL 1
ANNIVERSARY 1
ANP 1
ANTI 1
ANTYODAYA 1
ANU 1
ANVESHIKA 1
AO 1
AOA 1
AOCC 1
AOM 1
APAR 1
APB 1
APCE 1
APEDA8 1
APEPDCL 1
APFSDS 1
APHO 1
APIS 1
APO 1
APPEALS 1
APPLICATIONS 1
APR 1
APRO 1
APRS 1
APSFA 1
APSP 1
AQ 1
ARAKKONAM 1
ARDE 1
ARDS 1
ARE 1
AREA 1
ARF 1
ARGUMENT 1
ARIS 1
ARISE 1
ARJUN 1
ARONAI 1
ARRESTED 1
ARRIVES 1
ARRV 1
ARTICLE 1
ARUMUGA 1
AS1 1
ASAN 1
ASBC 1
ASC 1
ASCAP 1
ASD 1
ASDC 1
ASER 1
ASG 1
ASHRAE 1
ASHUTOSH 1
ASIA 1
ASK 1
ASKED 1
ASLT 1
ASN 1
ASP 1
ASPIRATIONS 1
ASPIRE 1
ASSAMESE 1
ASSEDIC 1
ASSISTANCE 1
ASSITANCE 1
ASSK 1
ASSURED 1
ASTE 1
ASTM 1
ASTRA 1
ASTROSAT 1
ASUDTAB 1
ASX 1
ATAGS 1
ATDC 1
ATDS 1
ATGM 1
ATGWU 1
ATHI 1
ATMP 1
ATMS 1
ATSDR 1
ATUFS 1
ATULYA 1
AUCTION 1
AUGV 1
AUM 1
AUMS 1
AVGC 1
AVIATION 1
AVRO 1
AVT 1
AWAS 1
AWCS 1
AWPB 1
AWSAR 1
AWTC 1
AYNISHD 1
AYOG 1
AZ 1
AZT 1
B3 1
BAB 1
BABYLON 1
BACKGROUNDER 1
BADLAV 1
BAE 1
BAFTA 1
BALAJI 1
BALCO 1
BANARAS 1
BANDAR 1
BANKING 1
BANKS 1
BARCLAYS 1
BARODA 1
BAU 1
BBMB 1
BBN 1
BBPS 1
BCACBM 1
BCBS 1
BCPL 1
BDO 1
BEFORE 1
BENEFICIARY 1
BENGALI 1
BESTT 1
BFD 1
BFDC 1
BFSI 1
BGC 1
BGF 1
BGR34 1
BGREI 1
BHARATIDASAN 1
BHAVINI 1
BHELSIA 1
BHOPAL 1
BHS 1
BHVS 1
BI 1
BIAK 1
BIBCOL 1
BIDDING 1
BIFR 1
BIKANER 1
BIMA 1
BIMARU 1
BIODIVERSITY 1
BIP 1
BIPA 1
BIPAP 1
BIPM 1
BIPSDI 1
BIRD 1
BISMTEC 1
BISN 1
BJB 1
BKS 1
BLA 1
BLC 1
BLESSING 1
BLL 1
BLU 1
BLUE 1
BMEK 1
BMG 1
BMHRC 1
BMJ 1
BMMP 1
BMTPC 1
BMVSS 1
BNF 1
BNG 1
BNNCCTM 1
BNS 1
BOARD 1
BOD 1
BOG 1
BON 1
BONDS 1
BOOKING 1
BOOSTING 1
BOOT 1
BPC 1
BPDS 1
BPES 1
BPG 1
BPGP 1
BPP 1
BPRDM 1
BPRL 1
BPSS 1
BR134 1
BR14 1
BR147 1
BR166 1
BR99 1
BRAP 1
BRCP 1
BRD 1
BREIT 1
BRGF 1
BRIDGE 1
BRILLIANT 1
BRIT 1
BRK 1
BRM 1
BROUGHT 1
BRR 1
BRSR 1
BRT 1
BRTS 1
BSFI 1
BSG 1
BSI 1
BSIV 1
BSTI 1
BSVI 1
BTEF 1
BTFTM 1
BUDGET 1
BUDGETARY 1
BUILDERS 1
BUILDING 1
BUT 1
BV13 1
BVA 1
BVFCL 1
BVI 1
BVM 1
BYR 1
BZÃ 1
C1518 1
C343845 1
C37 1
C39 1
C45 1
C6 1
C7475987 1
CA159 1
CABLE 1
CAFOD 1
CAFTA 1
CAIT 1
CALLS 1
CANARA 1
CAPACITY 1
CAPAM 1
CAPI 1
CAPT 1
CARECEN 1
CARINGS 1
CARRYING 1
CARTOSAT 1
CARUNA 1
CASEVAC 1
CATAT 1
CATHOLIC 1
CATS 1
CATWALK 1
CAVR 1
CBC 1
CBCI 1
CBD 1
CBE 1
CBIP 1
CBSC 1
CBSES 1
CBSNEWS 1
CBU 1
CCAP 1
CCAU 1
CCBF 1
CCII 1
CCIIAC 1
CCM 1
CCMC 1
CCMS 1
CCOO 1
CCPI 1
CCRL 1
CCRS 1
CCSCSB 1
CDAD 1
CDI 1
CDISSIA 1
CDTI 1
CDTIC 1
CEBEU 1
CECCEC 1
CEDA 1
CEE 1
CEEPA 1
CEERI 1
CEEU 1
CEI 1
CELEBRATION 1
CELEBRATIONS 1
CEMCA 1
CEMILAC 1
CENI 1
CENTRES 1
CENTURY 1
CEOMD 1
CEPT 1
CERL 1
CERN 1
CERVA 1
CETM 1
CEWU 1
CFLOWS 1
CFSL 1
CGAP 1
CGCRI 1
CGI 1
CGIAR 1
CGLE 1
CGMP 1
CGWWA 1
CHAIN 1
CHAIRMAN 1
CHANDRAYAAN 1
CHANNEL 1
CHAUDHARY 1
CHD 1
CHECK 1
CHF 1
CHHATTISGARH 1
CHIDAMBARANAR 1
CHILD 1
CHILDLINE 1
CHILDREN 1
CHIRAC 1
CHOICE 1
CHOU 1
CHS 1
CHT 1
CIAB 1
CIARI 1
CIAT 1
CIBRC 1
CICMT 1
CIDCO 1
CIDESCO 1
CIET 1
CIF 1
CIFA 1
CIGARETTES 1
CIGL 1
CIH 1
CIIDRET 1
CIII 1
CIPAMI 1
CIPETS 1
CIPMC 1
CISA 1
CISAG 1
CISCO 1
CISFH 1
CITIA 1
CITIBANK 1
CITIES 1
CITIIS 1
CIU 1
CIVID 1
CJM 1
CJSC 1
CK 1
CLARIFICATION 1
CLASH 1
CLASSES 1
CLB 1
CLEAN 1
CLEARANCES 1
CLIA 1
CLIMATE 1
CLIMS 1
CLINIC 1
CLND 1
CLS 1
CLU 1
CLUSTER 1
CMDRF 1
CME 1
CMFTI 1
CMGSY 1
CMO 1
CMOT 1
CMPDIL 1
CMV 1
CNB 1
CNES 1
CNF 1
CNH 1
CNI 1
CNIL 1
CNU 1
CNX 1
CO3 1
COACHES 1
COAG 1
COIN 1
COINTELPRO 1
COLD 1
COLLATERAL 1
COLONEL 1
COMET 1
COMMAND 1
COMMANDER 1
COMMISIONING 1
COMMITTED 1
COMMITTEES 1
COMMUNIU 1
COMPANY 1
COMPETITION 1
COMPLAINTS 1
COMPLE 1
COMPLIANCE 1
COMUSEUCOM 1
CONDUCT 1
CONNECTIONS 1
CONNECTS 1
CONOCORPUS 1
CONSERVATION 1
CONSTITUENCIES 1
CONSTITUTION 1
CONSTRUCTION 1
CONTEST 1
CONTRACT 1
CONTRIBUTION 1
COO 1
COP13 1
COP15 1
COPT 1
COPUS 1
CORAL 1
CORONAVIRUS 1
COROSURE 1
CORPN 1
CORPORATION 1
CORRECT 1
COSC 1
COSPAS 1
COTPA 1
COURSES 1
COV1D 1
COVDI19 1
COVIDH 1
COVISHIELD 1
COVOID 1
CPAP 1
CPDHE 1
CPENGRAMS 1
CPEPA 1
CPGRAM 1
CPHC 1
CPHEEO 1
CPMG 1
CPMP 1
CPPI 1
CPPP 1
CPS 1
CPUC 1
CRACKDOWN 1
CRAFPT 1
CRAZA 1
CREDIT 1
CREST 1
CREU 1
CRI 1
CRISIS 1
CRIYN 1
CRN 1
CROP 1
CROSS 1
CRP 1
CRPD 1
CRTRI 1
CRUDE 1
CRWC 1
CSCNK 1
CSE 1
CSF 1
CSFB 1
CSG 1
CSIR8 1
CSIRT 1
CSIS 1
CSMCM 1
CSMRS 1
CSMT 1
CSMVS 1
CSOI 1
CSRI 1
CSRL 1
CST 1
CSTO 1
CSTS 1
CTIL 1
CTP 1
CTRC 1
CTT 1
CUF 1
CUJ 1
CULTURE 1
CURRENTLY 1
CUSAT 1
CUSTOMS 1
CUT 1
CVL 1
CVN 1
CWF 1
CWH 1
CWPA 1
CWU 1
CY 1
CYBER 1
CYSD 1
DAHDF 1
DAICENTER 1
DAKE 1
DAKSH 1
DAKSHIN 1
DANICS 1
DANM 1
DARPGSEVA 1
DAS 1
DASS 1
DATES 1
DAVV 1
DAYAL 1
DBA 1
DBAM 1
DBB 1
DBFOT 1
DBO 1
DBS 1
DBTT 1
DCAAI 1
DCCC 1
DCDI 1
DCI 1
DCPW 1
DCRB 1
DCWSN 1
DDAP 1
DDC 1
DDI 1
DDRD 1
DDWS 1
DEAKIN 1
DEAL 1
DECISION 1
DEDICATED 1
DEDICATION 1
DEDUCTIONS 1
DEEMED 1
DEEN 1
DEEP 1
DEFEAT 1
DELIVER 1
DELIVERY 1
DEMOGRAPHICS 1
DEMONETIATION 1
DEMONETISATION 1
DENA 1
DEPARTS 1
DEPUTY 1
DESA 1
DESIGN 1
DESPITE 1
DESTINEES 1
DETAILED 1
DEUTSCHE 1
DEVELOPED 1
DFCC 1
DFCCIL 1
DFF 1
DFFI 1
DFI 1
DFIA 1
DFT 1
DFTP 1
DGA 1
DGAC 1
DGAFMS 1
DGAP 1
DGDE 1
DGH 1
DGIT 1
DGLW 1
DGR 1
DHANALAKSHMI 1
DHANAM 1
DHEJ 1
DHFI 1
DHI 1
DIA 1
DIAGNOSTIC 1
DIAL 1
DICGC 1
DIGITISATION 1
DIHK 1
DII 1
DIKHSA 1
DILIP 1
DILRMP 1
DIPAS 1
DIPLOMA 1
DIR 1
DIRECT 1
DISABILITIES 1
DISABLITY 1
DISC 1
DISER 1
DISP 1
DISPUTE 1
DISSOLUTION 1
DISTRIBUTION 1
DISTRICTS 1
DIT 1
DIVERSIFYING 1
DIVYANGJAN 1
DLH 1
DLTFC 1
DM1SP 1
DMAX 1
DMC 1
DMD 1
DMFT 1
DN 1
DNT 1
DOB 1
DOC 1
DOCUMENTS 1
DONATING 1
DONE 1
DOTS 1
DOUBLE 1
DPCO 1
DPMT 1
DPMU 1
DPPS 1
DPSD 1
DPSE 1
DRD 1
DREAMS 1
DRISHTI 1
DRONACHARYA 1
DRONE 1
DRPSC 1
DRS 1
DRT 1
DRUK 1
DRYLAND 1
DSD 1
DSEL 1
DSEW 1
DSN 1
DTEE 1
DTIS 1
DUCHAMP 1
DUSIB 1
DUTY 1
DVC 1
DVDMS 1
DVV 1
DWARKA 1
DWH 1
DWRIS 1
DYP 1
DYSL 1
E1 1
E33 1
E85 1
EA 1
EAEU 1
EAF 1
EARC 1
EARTH 1
EAT 1
ECG 1
ECHANGES 1
ECIL 1
ECOSYSTEM 1
ED95 1
EDCF 1
EDGE 1
EDII 1
EDITIONS 1
EDS 1
EEC 1
EFFECT 1
EFFECTIVELY 1
EFGP 1
EFPO 1
EI 1
EIL 1
EIS 1
EITS 1
EKN 1
EKYC 1
EL 1
ELC 1
ELCITA 1
ELCOMA 1
ELECTORAL 1
ELECTRIC 1
ELECTRONIC 1
ELIAMEP 1
EMB 1
EMBARKS 1
EMDBS 1
EMMY 1
EMORY 1
EMPLOYEES 1
EMPLOYMENT 1
EMR 1
EMRB 1
EMS 1
ENAM 1
ENFORCE 1
ENFORCED 1
ENGLISH 1
ENROLMENT 1
ENRP 1
ENSURE 1
ENTERPRISES 1
ENTREPRENEURIAL 1
ENTREPRENEURS 1
ENVIRONMENT 1
EO 1
EPA 1
EPCG 1
EPERIENCE 1
EPG 1
EPIC 1
EPIRY 1
EPL 1
EPPO 1
EPU 1
ERA 1
ERHSP 1
ERIA 1
EROS 1
ERT 1
ESAG 1
ESG 1
ESL 1
ESMAP 1
ESP 1
ESQUIVE 1
ESS 1
ESSAR 1
ESSENTIAL 1
EST 1
ESTIMATED 1
ESY 1
ETAT 1
ETC 1
ETEND 1
ETENSION 1
ETENT 1
ETPBS 1
EU8 1
EURODAC 1
EUTELSAT 1
EVA 1
EVE 1
EVER 1
EVERY 1
EVK 1
EVP 1
EWAC 1
EWEC 1
F1 1
F16 1
F18 1
FACE 1
FACILITATED 1
FACILITY 1
FACTORS 1
FAES 1
FAF 1
FAHD 1
FAI 1
FAIDF 1
FAIL 1
FAILURE 1
FAITH 1
FAKE 1
FAKT 1
FAMILY 1
FAMT 1
FAP 1
FARMER 1
FASB 1
FASIE 1
FASII 1
FBCCI 1
FBFC 1
FCB 1
FCNR 1
FCS 1
FCT 1
FD 1
FDDC 1
FDJ 1
FDMC 1
FE 1
FEDECAMARAS 1
FEDERAL 1
FEDERALISM 1
FEFKA 1
FEFU 1
FEPSI 1
FERIAAM 1
FERRY 1
FERTILIERS 1
FF 1
FFB 1
FFD 1
FFI 1
FFM 1
FFP 1
FH 1
FHW 1
FIAP 1
FIAPF 1
FIBRE 1
FIDF 1
FIDS 1
FIEOG 1
FIGHT 1
FIGHTERS 1
FILLIP 1
FILM 1
FINER 1
FINUL 1
FIOM 1
FIRE 1
FISCAL 1
FISME 1
FIVE 1
FJ 1
FLOTUS 1
FLOWS 1
FLRP 1
FMCD 1
FMCT 1
FMI 1
FMLN 1
FNAC 1
FNCR 1
FNME 1
FNMF 1
FNTO 1
FOCUS 1
FOGSI 1
FOIN 1
FOMAG 1
FOPS 1
FOREST 1
FORMATIONS 1
FOSSEE 1
FOTNA 1
FOUNDATION 1
FOUR 1
FPBIC 1
FPG 1
FPOS 1
FPR 1
FRANCE 1
FREEDOM 1
FREHA 1
FREUENTLY 1
FRI 1
FRIENDSHIPS 1
FRU 1
FRY 1
FSE 1
FSL 1
FSOC 1
FSS 1
FSSA 1
FTC 1
FTE 1
FTK 1
FTSE1 1
FTTH 1
FUELLING 1
FUNDING 1
FV 1
FWP 1
FY1 1
FYN 1
FYT 1
G1 1
G13 1
G6 1
GAAP 1
GACA 1
GAIN 1
GAINS 1
GALP 1
GAMECHANGER 1
GAMI 1
GANA 1
GAP 1
GAR 1
GARR 1
GARUD 1
GATHERING 1
GATS 1
GATT 1
GAZ 1
GBL 1
GBR 1
GC 1
GCCS 1
GCE 1
GCEA 1
GCSU 1
GDBD 1
GDPR 1
GEAC 1
GEAR 1
GELD 1
GEOLOGICAL 1
GERD 1
GFD 1
GFT 1
GGE 1
GGSIP 1
GHADIYAL 1
GHFK3S 1
GHSA 1
GIF 1
GIFAS 1
GIGN 1
GIPMER 1
GIR 1
GITBP 1
GITC 1
GIVING 1
GLOBAL 1
GLONASS 1
GLORIOUS 1
GLOVES 1
GMERS 1
GMTV 1
GNFC 1
GNLU 1
GNM 1
GNU 1
GOBAR 1
GOLDEN 1
GOOD 1
GOV 1
GPB 1
GPF 1
GPI 1
GPRS 1
GRADUATE 1
GRAIN 1
GRATIS 1
GREAT 1
GREETINGS 1
GRI 1
GRIHA 1
GRIN 1
GROWING 1
GRRIS 1
GSG9 1
GSLEP 1
GSLVM 1
GSO 1
GSSE 1
GSTC 1
GSTGOI 1
GSTIND 1
GSTR1 1
GSTR3B 1
GTK 1
GTKM 1
GTS 1
GUARDS 1
GUIDE 1
GUILD 1
GUJARATI 1
GUJCOST 1
GURANTEE 1
GURU 1
GVW 1
GWDT 1
GWPM 1
GYAANAYDAANAYCH 1
H1FY 1
H1NI 1
H3 1
H8 1
HACCP 1
HADP 1
HAK 1
HAMCL 1
HANDBOOK 1
HANDED 1
HANDLES 1
HANDWARA 1
HARLOTS 1
HARYANA 1
HAUSLA 1
HBA 1
HBJ 1
HBNI 1
HBOS 1
HBP 1
HBS 1
HBYC 1
HCA 1
HCG 1
HCL 1
HCM 1
HCN 1
HCOC 1
HCTISN 1
HEALTHCARE 1
HEARTS 1
HECS 1
HEGC 1
HELI 1
HEMM 1
HEMS 1
HEP 1
HEPA 1
HERO 1
HF 1
HFA 1
HFCS 1
HFM 1
HFWINDIA 1
HGP 1
HHS 1
HICDP 1
HIDDEN 1
HIFS 1
HIGH 1
HIGHLIGHTS 1
HILGOLD 1
HINDI 1
HIPC 1
HIREMEE 1
HKMA 1
HLEC 1
HLF 1
HMCPF 1
HMG 1
HMNEH 1
HN 1
HNB 1
HOLDERS 1
HOMAGE 1
HOME 1
HOMME 1
HONGKONG 1
HONOURING 1
HOPE 1
HOPES 1
HOUSEHOLD 1
HOUSING 1
HOWEVER 1
HPCC 1
HPE 1
HPS 1
HPSCRG 1
HR4437 1
HRDM 1
HRIS 1
HRM 1
HRPO 1
HRSA 1
HRTS 1
HSC 1
HSCT 1
HSHR 1
HSIDC 1
HSIIDC 1
HSL 1
HSMS 1
HSTUSA 1
HTM 1
HTMS 1
HTT 1
HUAC 1
HUB 1
HUMSA 1
HUPA 1
HUSBANDRY 1
HVOC 1
HVPI 1
HVRC 1
HY 1
HYPO 1
I35 1
I61 1
I6MJ 1
IAA 1
IAAS 1
IASF 1
IBA 1
IBSA 1
IBSC 1
ICAL 1
ICBM 1
ICCPR 1
ICDA 1
ICDEOL 1
ICEI 1
ICER 1
ICES 1
ICFRE 1
ICFTU 1
ICH 1
ICHR 1
ICICIB 1
ICLS 1
ICM 1
ICME 1
ICMRS 1
ICR 1
ICRS 1
ICSB 1
ICSC 1
ICTT 1
IDDM 1
IDE 1
IDEB 1
IDEMI 1
IDFC 1
IDI 1
IDIPT 1
IDS 1
IDTR 1
IE 1
IEAG 1
IEEMA 1
IEEPA 1
IEMA 1
IESS 1
IFCOMA 1
IFEER 1
IFES 1
IFF 1
IFIN 1
IFJ 1
IFLMEA 1
IFOP 1
IFRC 1
IFSCS 1
IFTA 1
IG1 1
IG1635 1
IGAS 1
IGBC 1
IGIA 1
IGN 1
IGU 1
IHCL 1
IHO 1
IHT 1
IHW 1
II5595 1
IICB 1
IICHEP 1
IIDC 1
IIDL 1
IIFF 1
IIITM 1
IILG 1
IILM 1
IIMR 1
IIPM 1
IIR 1
IITB 1
IITD 1
IIÂ 1
IK 1
IKI 1
IL78 1
ILA 1
ILDP 1
ILP 1
IMAI 1
IMEC 1
IMEI 1
IMLH 1
IMMUNITY 1
IMOC 1
IMPORTANT 1
IMTMA 1
INAC 1
INAUGURATES 1
INCENTIVES 1
INCHIS 1
INCLUSION 1
INCLUSIVE 1
INCREASES 1
INCREDIBLE 1
IND 1
INDIAB 1
INDIAMEDICALDEVICE 1
INDIAPHARMA 1
INDIGENOUS 1
INDIRECT 1
INDORE 1
INDRADHANUSH 1
INDSAT 1
INDUSTRIAL 1
INECR 1
INF 1
INFECTIOUS 1
INFLICTED 1
INFOCOM 1
INFRA 1
ING 1
INGAF 1
INHS 1
INITIATIVE 1
INLAND 1
INLCU 1
INM 1
INNOVATION 1
INR1 1
INSAS 1
INSDAG 1
INSEE 1
INSEPCTOR 1
INSITU 1
INSTALLED 1
INSTALLING 1
INSTALMENTS 1
INSTRUCTIONS 1
INTENSIFICATION 1
INTERVENTIONS 1
INVESTOR 1
INVOLVED 1
IO 1
IOF 1
IOFS 1
IOL 1
IOS 1
IOTG 1
IPAI 1
IPB 1
IPBES 1
IPE 1
IPFC 1
IPGTRA 1
IPSOTSL 1
IQ 1
IRB 1
IREPS 1
IRIB 1
IRIMS 1
IRIS 1
IRNA 1
IROAF 1
IRPC 1
IRPHA 1
IRWA 1
ISACA 1
ISAM 1
ISAP 1
ISB 1
ISBN 1
ISCA 1
ISCKON 1
ISEM 1
ISEO 1
ISER 1
ISF 1
ISFR 1
ISLANDS 1
ISMA 1
ISMW 1
ISO5 1
ISOLATION 1
ISR 1
ISSNIP 1
ISSSUE 1
ISSUES 1
ITAK 1
ITCO 1
ITEMS 1
ITEWC 1
ITIT 1
ITM 1
ITO 1
ITPB 1
ITSELF 1
IUCN 1
IUFM 1
IUU 1
IVAW 1
IVRI 1
IWC 1
IWL 1
IWMP 1
IX 1
IYBA 1
IÃ 1
JAAC 1
JAH 1
JAIPUR 1
JAK 1
JAN 1
JANAUSHADHI 1
JANUARY 1
JAP 1
JATAN 1
JCC 1
JCEC 1
JCT 1
JCTU 1
JDCA 1
JDP 1
JEC 1
JERC 1
JERIE 1
JETCO 1
JFK 1
JFRTU 1
JG 1
JGC 1
JHBDPL 1
JICF 1
JIGYASA 1
JIM 1
JINSA 1
JIT 1
JJMS 1
JKC 1
JKLF 1
JM 1
JMM 1
JMO 1
JNIMS 1
JNT 1
JNUEE 1
JOBLESSNESS 1
JOINT 1
JOURNALISM 1
JPC 1
JPL 1
JPNATC 1
JRD 1
JRP 1
JSR 1
JSSK 1
JSTAR 1
JSV 1
JUBILEE 1
JUST 1
JW 1
JWC 1
K1 1
K14 1
K34 1
K5 1
K6 1
KAAA 1
KABIL 1
KAGOME 1
KALAM 1
KAMINI 1
KANNADA 1
KAPP 1
KARANGWA 1
KARNATAKA 1
KAUSHAL 1
KB6 1
KBC 1
KBL 1
KBLT 1
KBS 1
KCMG 1
KEDIM 1
KEEP 1
KELTRON 1
KENDRA 1
KESARI 1
KEY 1
KFD1 1
KGBV 1
KGDS 1
KGMU 1
KGP 1
KGS 1
KINGS 1
KIP 1
KITTES 1
KJVD 1
KKA 1
KKNPS 1
KMA 1
KMU 1
KNOWLEDGE 1
KNPP 1
KO 1
KOMPSAT 1
KONNECT 1
KOSH 1
KPCL 1
KPS 1
KPT 1
KQED 1
KRCL 1
KRISHI 1
KRJ 1
KRM 1
KRS 1
KSB 1
KSBS 1
KSCH 1
KSCST 1
KSR 1
KUSUMS 1
KVA 1
KVC 1
KVIV 1
KÃ 1
L1 1
L6 1
LABOR 1
LABORATORY 1
LABS 1
LADAKH 1
LADIES 1
LAF 1
LAHDC 1
LAKSHMI 1
LALD 1
LANGUAGES 1
LANKANS 1
LASTEC 1
LATE 1
LAUCH 1
LAUNCH 1
LAW 1
LAWS 1
LBI 1
LBS 1
LCD 1
LCH 1
LDO 1
LEADING 1
LEADS 1
LEASE 1
LEDS 1
LEEP 1
LEGACY 1
LENGTH 1
LESS 1
LEU 1
LFO 1
LFP 1
LGBTI 1
LH 1
LHOOQ 1
LHP 1
LHSADTU 1
LI 1
LIA 1
LIBE 1
LICENSES 1
LICEWS 1
LIFELINE 1
LIMIT 1
LINK 1
LISTENING 1
LITERACY 1
LIVELIHOOD 1
LJP 1
LKAB 1
LKM 1
LLDPE 1
LLTR 1
LMCS 1
LMM 1
LMV 1
LOANS 1
LOCK 1
LOIN 1
LORDS 1
LOUIS 1
LOVESTEEL 1
LPC 1
LPD 1
LPDA 1
LPDR 1
LPM 1
LPSU 1
LR 1
LRA 1
LRDE 1
LRMP 1
LRT 1
LSD 1
LSG 1
LSQ 1
LSSC 1
LST 1
LTIPP 1
LTTC 1
LUMS 1
LVM3 1
LVMH 1
LVPEI 1
LWLRRM 1
M13 1
M3 1
M6 1
M9 1
MACHINES 1
MACS 1
MACTA 1
MAD 1
MADAAY 1
MADRAS 1
MAF 1
MAH 1
MAHARASHTRA 1
MAHATMA 1
MAI 1
MAIMUM 1
MAIT 1
MAITRI 1
MALE 1
MAMMA 1
MANSA 1
MANUFACTURE 1
MARATHI 1
MARB 1
MARCH 1
MARCO 1
MARCOS 1
MARKET 1
MARRIAGE 1
MART 1
MARTYR 1
MASHAV 1
MASSA 1
MATERIALS 1
MAULANA 1
MAURITIUS 1
MAUSAM 1
MAX 1
MBAW 1
MBIA 1
MBT 1
MC11 1
MCGM 1
MCH 1
MCIIE 1
MCIS 1
MCLLMP 1
MCLR 1
MCMV 1
MCTM 1
MDB 1
MDDA 1
MDMS 1
MDO 1
MDONER 1
MEDIA 1
MEDIUM 1
MEET 1
MEIT 1
MEMS 1
MENTAL 1
MERCANTILE 1
MERU 1
METRES 1
METROS 1
MEWP 1
MFE 1
MFS 1
MGIRI 1
MGM 1
MGMG 1
MGNAREGA 1
MGNREGST 1
MHCT 1
MIA 1
MICRO 1
MIDC 1
MIE 1
MIFA 1
MIGA 1
MIGRANT 1
MIHIR 1
MIM 1
MINIMUM 1
MINING 1
MINISTRY 1
MINORITIES 1
MIP 1
MIR 1
MISCONCEIVED 1
MJD 1
MJPS 1
MKB 1
MKBG 1
MKSP 1
MKU 1
MLINDI 1
MLR 1
MLSA 1
MLT 1
MLTC 1
MMCT 1
MMG 1
MMM 1
MMP 1
MMPC 1
MMS 1
MMSCMD 1
MMYYYY 1
MNF 1
MNLF 1
MNT 1
MNTE 1
MOA 1
MOAB 1
MOCK 1
MODE 1
MODERN 1
MODULE 1
MOFPI 1
MOH 1
MONITORING 1
MONTHS 1
MOPNG 1
MOR 1
MORATORIUM 1
MOSCOW 1
MOTHER 1
MOTOR 1
MOUHA 1
MOWR 1
MPDS 1
MPHW 1
MPI 1
MPLA 1
MPLD 1
MPOPV 1
MPRI 1
MPS 1
MPTU 1
MPUVN 1
MPW 1
MRF 1
MRHRU 1
MRM 1
MS331 1
MSIED 1
MSIPS 1
MSL 1
MST 1
MSTC 1
MSZE 1
MTI 1
MTM 1
MTOE 1
MTR 1
MTY 1
MUCOVIN 1
MUI 1
MUKHYAMANTRI 1
MUKT 1
MULTILATERAL 1
MUNDA 1
MUNIYAPPA 1
MUNYESHYAKA 1
MUSEUMS 1
MUTP 1
MVAA 1
MVP 1
MVRDL 1
MVVS 1
MYAS 1
MYSORE 1
MYSTERY 1
MZE 1
NABARDGST 1
NABCB 1
NABFINS 1
NACDP 1
NACP 1
NACPR 1
NADCP 1
NADU 1
NAFCC 1
NAFLD 1
NAHEP 1
NAIMISH 1
NAINAR 1
NAINITAL 1
NAIP 1
NAMASKARAM 1
NAME 1
NAMES 1
NANAK 1
NANNI 1
NAPDDR 1
NAPHR 1
NARAVANE 1
NAREDCO 1
NASHA 1
NASHAMUKT 1
NATCON 1
NATIONS 1
NATURAL 1
NAVAL 1
NAVIC 1
NAZARETH 1
NB 1
NBAGR 1
NBB 1
NBE 1
NBSA 1
NCAR 1
NCCBM 1
NCCF 1
NCDIR 1
NCDPD 1
NCFSE 1
NCFTE 1
NCHM 1
NCHMCT 1
NCLP 1
NCLTM 1
NCM 1
NCMEC 1
NCO 1
NCOV 1
NCPFECCE 1
NCRA 1
NCSBS 1
NCSM 1
NCTC 1
NCTD 1
NCUI 1
NCWP 1
NDF 1
NDML 1
NDRC 1
NDS 1
NDSL 1
NDU 1
NEAC 1
NEBS 1
NEEDS 1
NEEM 1
NEEPCO 1
NEFT 1
NEGD 1
NEI 1
NEOM 1
NERAMC 1
NERI 1
NERL 1
NESCO 1
NETAJII 1
NETC 1
NETDC 1
NETF 1
NETGEN 1
NETPAC 1
NFA 1
NFAP 1
NFB 1
NFCD 1
NFCG 1
NFDB 1
NFE 1
NFICI 1
NFIR 1
NFTDC 1
NFTE 1
NFWP 1
NGI 1
NGRBA 1
NH19 1
NH57A 1
NHERC 1
NHI 1
NHK 1
NIAB 1
NIBMG 1
NICED 1
NICOBAR 1
NIDA 1
NIDDM 1
NIEPA 1
NIET 1
NIGE 1
NIHFW 1
NIHH 1
NII 1
NIIP 1
NIKE 1
NIKKI 1
NIMH 1
NIMR 1
NIOH 1
NIPCCD 1
NIPGR 1
NIPR 1
NIR 1
NIRDPR 1
NIREH 1
NIRNCD 1
NIRRH 1
NIS5 1
NIS6 1
NISPG 1
NISS 1
NITIE 1
NITRILE 1
NITT 1
NIUSAT 1
NIVARAN 1
NJ 1
NK 1
NLEP 1
NLFT 1
NLP 1
NLSM 1
NLU 1
NMMT 1
NMP 1
NMPP 1
NMRCL 1
NMRL 1
NN 1
NOAA 1
NOG 1
NOK 1
NON 1
NOP 1
NOPV 1
NORAD 1
NORTH 1
NORTHCOM 1
NOSDCP 1
NPNT 1
NPOM 1
NPOP 1
NPOS 1
NPSP 1
NPST 1
NPWC 1
NPY 1
NR 1
NRAA 1
NREGAS 1
NRETP 1
NRRI 1
NRS 1
NRTU 1
NSB 1
NSDM 1
NSERC 1
NSFDC 1
NSKFDC 1
NSSE 1
NST 1
NSTEDB 1
NSTMIS 1
NTAGI 1
NTD 1
NTSA 1
NTUC 1
NTV 1
NTW 1
NUEPA 1
NUSI 1
NUTP 1
NUTRITION 1
NV 1
NVSP 1
NVVN 1
NW1 1
NYAYA 1
NYC 1
NYCERS 1
NYCOSH 1
NYP 1
NYT 1
NYU 1
NZ 1
NÃ 1
OA 1
OAL 1
OAPFSC 1
OASS 1
OAU 1
OB 1
OBCS 1
OBD 1
OBPS 1
OCA 1
OCBIS 1
OCEMS 1
OCIA 1
OCM 1
OCMC 1
ODC 1
ODL 1
ODODP 1
ODS 1
OEMS 1
OFFERED 1
OFPRA 1
OH 1
OHTRDC 1
OIDAR 1
OIE 1
OISD 1
OL 1
OLD 1
OLU 1
OLYMPIAD 1
OMS 1
OMT 1
ONB 1
ONOS 1
ONU 1
OO 1
OOH 1
OOM 1
OOO 1
OPAL 1
OPEN 1
OPENMAT 1
OPGM 1
OPGW 1
OPTICAL 1
OPWP 1
OR 1
OREDA 1
ORGANIATION 1
ORGANISED 1
ORIENTAL 1
ORIYA 1
ORS 1
OSS 1
OTE 1
OTHER 1
OTR 1
OUT 1
OUTLETS 1
OUTPUT 1
OUTREACH 1
OVERCOME 1
OVERSUBSCRIBED 1
OWC 1
OWN 1
OYO 1
P15 1
P17 1
P3C 1
P8 1
P8A 1
PACIFIC 1
PAFFEREL 1
PAGN 1
PAINTING 1
PANDEMIC 1
PANKHA 1
PAPR 1
PARA 1
PARAM 1
PARAS 1
PARESHAAN 1
PARIPEEDNAYAKHALASYA 1
PARLIAMENTARY 1
PARTNERSHIP 1
PARYATAN 1
PASKE 1
PASSIONALS 1
PATH 1
PATIALA 1
PATTERN 1
PAWAN 1
PAY 1
PAYMENTS 1
PAYS 1
PBAC 1
PBAS 1
PBHI 1
PBOR 1
PBR 1
PCCS 1
PCDA 1
PCPR 1
PDEK 1
PDG 1
PDO 1
PDPA 1
PDTC 1
PDUNWFS 1
PEA 1
PEG 1
PENCIL 1
PEPSICO 1
PERCENT 1
PERCENTAGE 1
PERES 1
PERFECT 1
PERSON 1
PERSONS 1
PERSPECTIVES 1
PETA 1
PETN 1
PETRONET 1
PFA 1
PFBR 1
PFLP 1
PFM 1
PFR 1
PGDAO 1
PGMED 1
PGP 1
PHAN 1
PHANA 1
PHARMECIL 1
PHASIC 1
PHDCI 1
PHM 1
PHOEURNG 1
PHONE 1
PIBM 1
PIC 1
PIDDC 1
PIGS 1
PIIGS 1
PILOTS 1
PIM 1
PKB 1
PKM 1
PKR 1
PLATE 1
PLAYED 1
PLB 1
PLEDGE 1
PLIM 1
PLIS 1
PLUS 1
PM3 1
PM5 1
PM8 1
PMB 1
PMCH 1
PMEAC 1
PMEGPK 1
PMH 1
PMIBM 1
PMJ 1
PMJK 1
PMKGY 1
PMKISAN 1
PMLN 1
PMMMNMTT 1
PMNEP 1
PMSS 1
PMSYM 1
PMUG 1
PMV 1
PMVDY 1
PNAC 1
PNC 1
PNDU 1
PNL 1
POA 1
POH 1
POJK 1
POMID 1
PONDICHERRY 1
POPULAR 1
POPULARITY 1
POROTAL 1
POTENTIAL 1
POWER 1
PPA 1
PPD 1
PPM 1
PPPP 1
PPPS 1
PPR 1
PPSS 1
PRAISES 1
PRAYAS 1
PRB 1
PRCS 1
PRECONDITION 1
PRELIMINARY 1
PREPAK 1
PRESENTED 1
PRESENTS 1
PRINT 1
PRK 1
PROFESSOR 1
PROMITA 1
PROMOTE 1
PROMOTING 1
PROPOSALS 1
PROVIDED 1
PROVISIONAL 1
PRT 1
PSCDCL 1
PSCST 1
PSF 1
PSFU 1
PSIC 1
PSID 1
PSTUF 1
PSYOP 1
PTS 1
PTU 1
PTV 1
PU 1
PUB 1
PUCL 1
PUMPS 1
PUNE 1
PURPOSE 1
PVC 1
PVR 1
PVUN 1
PVUNL 1
PWS 1
PY 1
PZPR 1
QBE 1
R6 1
RAB 1
RABINDRANATH 1
RACKET 1
RAFA 1
RAFALE 1
RAISED 1
RAISES 1
RAJ 1
RAJALI 1
RAJAN 1
RAKSHA 1
RAKSHANAY 1
RALLY 1
RAMAN 1
RAMAYAN 1
RAMS 1
RANKING 1
RAO 1
RAP 1
RAR 1
RAS 1
RATH 1
RATNAKAR 1
RAVIDAS 1
RBIS 1
RBS 1
RCAST 1
RCB 1
RCC 1
RCPE 1
RCSTT 1
RCUK 1
RDB 1
RDD 1
RDIF 1
RDJTF 1
RDS 1
REAP 1
RECORD 1
RECP 1
REDDY 1
REFINERY 1
REFURBISHED 1
REGISTRATION 1
REJUVENATES 1
RELA 1
RELATING 1
RELATIONS 1
RELEASES 1
RENFE 1
REP 1
REPAY 1
REPORT 1
RER 1
RESEARCH 1
RESERVATION 1
RESERVES 1
RESOLUTION 1
RESOURCESAT 1
RESTART 1
RESTRUCTURING 1
RET 1
RETAIL 1
RETD 1
RETURN 1
REUEST 1
REVAMPING 1
REVENANTS 1
REVISED 1
REVIVAL 1
REWA 1
REWE 1
RGCB 1
RGK 1
RGO 1
RGSS 1
RH 1
RHJ 1
RHS 1
RI 1
RICE 1
RIGHTEOUSNESS 1
RIHS 1
RIKEN 1
RIM 1
RIMPAC 1
RIN 1
RISK 1
RISKS 1
RJN 1
RLC 1
RLE 1
RLG 1
RLLR 1
RLSS 1
RLV 1
RMA 1
RMBS 1
RMC 1
RMCOMP 1
RMDP 1
RMP 1
RMRI 1
RMV 1
RNC8 1
ROBBO 1
ROPS 1
ROSCOMOS 1
ROSCOSMOS 1
ROSL 1
ROTC 1
ROUND 1
ROUNDS 1
RPLI 1
RPP 1
RPS 1
RRC 1
RRI 1
RRP 1
RRR 1
RRTC 1
RSB 1
RSEE 1
RSHA 1
RSM 1
RSMB 1
RSME 1
RSSDI 1
RTG 1
RTGS 1
RTUF 1
RUB 1
RUDSET 1
RURBAN 1
RUSSIA 1
RVNL 1
RWC 1
RWF 1
SAAP 1
SAATH 1
SAATHI 1
SACD 1
SADC 1
SADHOH 1
SAFAR 1
SAFATA 1
SAFETY 1
SAFRAN 1
SAFTA 1
SAGA 1
SAGARMALA 1
SAHAYATA 1
SAIC 1
SAKSHARTA 1
SAKTHI 1
SALUTE 1
SAMARITANS 1
SAMPANN 1
SAMRIDHI 1
SAMUDRAYAAN 1
SANDWICH 1
SANE 1
SANGRAH 1
SANJIVANI 1
SANSKRITI 1
SARATHI 1
SARDP 1
SARFESI 1
SARI 1
SARSAT 1
SARSC 1
SASAKAWA 1
SATCM 1
SATHEESH 1
SATTE 1
SATVAM 1
SAU 1
SAWIE 1
SB 1
SBA 1
SBICAPS 1
SBIN 1
SBININBB1 1
SCAP 1
SCARE 1
SCBA 1
SCC 1
SCDS 1
SCE 1
SCENARIO 1
SCERT 1
SCHOLARSHIPS 1
SCHOOL 1
SCID 1
SCIR 1
SCISP 1
SCLRA 1
SCOPE 1
SCORECARD 1
SCS 1
SCSC 1
SCSP 1
SCSS 1
SD 1
SDC 1
SDCL 1
SDDS 1
SDG4 1
SDMA 1
SDMIS 1
SDRMF 1
SEARN 1
SECL 1
SECRETARIES 1
SECTORAL 1
SEDG 1
SEG 1
SEIL 1
SENTIMENTALES 1
SERS 1
SETHU 1
SEVA 1
SEZ 1
SFD 1
SFDRD 1
SFNA 1
SFOORTI 1
SGDN 1
SGFI 1
SGL 1
SGT 1
SHAKTIH 1
SHANGHAI 1
SHARE 1
SHARMA 1
SHCIL 1
SHEIK 1
SHFJ 1
SHO 1
SHP 1
SHRC 1
SHSY5Y 1
SICA 1
SICCI 1
SICK 1
SIDCO 1
SIDE 1
SIE 1
SIEMP 1
SIENG 1
SIET 1
SIFBI 1
SIFF 1
SIG 1
SIHR 1
SIHS 1
SIIC 1
SIL4 1
SIMATS 1
SIMI 1
SINCHAYI 1
SIND 1
SING 1
SINGARSI 1
SINGCERT 1
SIR 1
SITME 1
SITTING 1
SITUATION 1
SIV 1
SIZE 1
SKAUST 1
SKICC 1
SKIFT 1
SKIMS 1
SKS 1
SLAVO 1
SLDC 1
SLDF 1
SLES 1
SLFEJF 1
SLIP 1
SLOC 1
SLP 1
SLPP 1
SLRC 1
SLRM 1
SLT 1
SMALL 1
SMAM 1
SMBH 1
SMEE 1
SMIT 1
SMNP 1
SMR 1
SMRA 1
SMT 1
SMU 1
SNECMA 1
SNF 1
SNM 1
SNPU 1
SOCSEA 1
SOE 1
SOEP 1
SOLAR 1
SOLUTION 1
SOLUTIONS 1
SOR 1
SOSAD 1
SOURCE 1
SOUTH 1
SOVERIGN 1
SPACE 1
SPARSH 1
SPE 1
SPECIALLY 1
SPECIALS 1
SPF 1
SPIEF 1
SPILL 1
SPINFED 1
SPMAA 1
SPMCIL 1
SPMU 1
SPN 1
SPO 1
SPOCS 1
SPORTS 1
SPURT 1
SPÃ 1
SRD 1
SRIMAD 1
SRM 1
SRMG 1
SRMI 1
SRPVT 1
SRTH 1
SRTMI 1
SSAB 1
SSCS 1
SSCW 1
SSDI 1
SSDM 1
SSEF 1
SSEPD 1
SSKH 1
SSLV 1
SSNNL 1
SSPL 1
SSPO 1
SST 1
STAFF 1
STAND 1
STANDARD 1
STATEMENT 1
STATES 1
STATION 1
STATS 1
STEP 1
STEPS 1
STERS 1
STO 1
STPP 1
STRAIDER 1
STRENGTHENING 1
STRIVE 1
STU 1
STUDENTS 1
STV 1
SU3 1
SUB 1
SUBMARINE 1
SUBMISSION 1
SUBMIT 1
SUBSIDY 1
SUBSTANCE 1
SUCCESS 1
SUGAM 1
SUKANYA 1
SUMD 1
SUMITRA 1
SUPER 1
SUPPLEMENTARY 1
SUPPORTS 1
SUPRA 1
SURGING 1
SURVEILLANCE 1
SUSTAINABLE 1
SUTEP 1
SVL 1
SW19 1
SWAN 1
SWAVALAMBAN 1
SWCC 1
SWD 1
SWM 1
SWMA 1
SYNDICATE 1
SYP 1
SYRIAN 1
SÑ 1
T1 1
T11 1
T35 1
T4 1
T45 1
T457 1
T56 1
T7 1
TAD 1
TAES 1
TAGORE 1
TAKES 1
TAMILNAD 1
TANSTIA 1
TARE 1
TARGETED 1
TAS 1
TASMAC 1
TATKAL 1
TBO 1
TBRL 1
TC9 1
TCAS 1
TCMS 1
TDAC 1
TDG 1
TDPK 1
TDX 1
TEA 1
TEC 1
TEE 1
TEIP 1
TELEC 1
TELECOM 1
TELUGU 1
TEMASEK 1
TERM 1
TERTIARY 1
TES 1
TESMA 1
THAAD 1
THAN 1
THANKS 1
THCRP 1
THEATRE 1
THEIR 1
THEMS 1
THERE 1
THING 1
THIRD 1
THOSE 1
TI 1
TICKET 1
TIDITSSIA 1
TIEA 1
TIEFED 1
TIH 1
TIIC 1
TIM 1
TIME 1
TIMELY 1
TIN 1
TIP 1
TIR 1
TISS 1
TIT 1
TKKR 1
TKS 1
TLA 1
TMA 1
TNAL 1
TNCSC 1
TNL 1
TNM 1
TNPCB 1
TNR 1
TODAY 1
TONNES 1
TOPS 1
TPD 1
TPG 1
TR578 1
TRACKING 1
TRADING 1
TRAINING 1
TRANSCEND 1
TRANSPARENCY 1
TRANSPARENT 1
TRAVANCORE 1
TRAVEL 1
TREASURES 1
TREATING 1
TREATMENTS 1
TRIBUNAL 1
TRICHY 1
TRIKAND 1
TRIM 1
TRIP 1
TROPHY 1
TRP 1
TRR 1
TRRN 1
TRUENAT 1
TRUNAT 1
TRW 1
TSB 1
TSNM 1
TSTO 1
TSTPP 1
TSU 1
TT 1
TTC 1
TTE 1
TTRP 1
TUBERCULOSIS 1
TUCC 1
TUFS 1
TUI 1
TURN 1
TUTICORIN 1
TUV 1
TVG 1
TVPRA 1
TW 1
TWAS 1
TWO 1
TÃ 1
U4 1
UAS 1
UASB 1
UBRD 1
UCSD 1
UCSU 1
UDC 1
UDI 1
UDISE 1
UDN 1
UDYAKUMAR 1
UE 1
UEM 1
UESTIONS 1
UFIP 1
UFJ 1
UFWO 1
UGL 1
UGMEB 1
UGV 1
UH 1
UHAVAN 1
UID 1
UIT 1
UKT 1
ULBS 1
ULU 1
UMDR 1
UMED 1
UMIH 1
UMTA 1
UNAIDS 1
UNCHR 1
UNCONDITIONALLY 1
UNCRDP 1
UNECE 1
UNEDIC 1
UNESCAP 1
UNFCC 1
UNIDO 1
UNISDR 1
UNITS 1
UNIUE 1
UNIVISION 1
UNKNOWN 1
UNLEASHING 1
UNLF 1
UNMIL 1
UNMIS 1
UNO 1
UNOTC 1
UNPKF 1
UNPOL 1
UNRC 1
UNS 1
UNSCEAR 1
UNSECO 1
UNSW 1
UPAYA 1
UPDF 1
UPE 1
UPG 1
UPHARSIN 1
URC 1
URDU 1
URL 1
URN 1
US11 1
US118 1
US135 1
US136 1
US141 1
US157 1
US16 1
US167 1
US175 1
US33 1
US356 1
US36 1
US365 1
US37 1
US38 1
US4131 1
US43 1
US457 1
US46 1
US48 1
US51 1
US53 1
US541 1
US55 1
US63 1
US64 1
US81 1
US84 1
US875 1
US88 1
US98 1
USAD 1
USAEA 1
USAIDT 1
USD1 1
USD14 1
USD15 1
USD17 1
USD18 1
USD183 1
USD33 1
USD44 1
USD6 1
USD66 1
USD69 1
USD9 1
USDOE 1
USF 1
USFDA 1
USG 1
USI 1
USN 1
USO 1
USPD 1
USR 1
USTAAD 1
USTTAD 1
UTC 1
UTI 1
UTM 1
UWF 1
UWIN 1
UYSM 1
V9 1
V94H 1
VALIDITY 1
VAN 1
VAND 1
VAP 1
VARADAR 1
VAZ 1
VB 1
VBSS 1
VCAS 1
VCC 1
VCOAS 1
VCR 1
VD 1
VDA 1
VDY 1
VE 1
VEHICLES 1
VENTILATOR 1
VERMEER 1
VESSEL 1
VFS 1
VGP 1
VHF 1
VIJAYA 1
VIKAS 1
VILAS 1
VILLAGES 1
VIMSAS 1
VINATOM 1
VIOLATIONS 1
VIOLENCE 1
VIPAREETAM 1
VIPS 1
VIRENDRA 1
VISA 1
VISHESH 1
VISION 1
VIT 1
VIVA 1
VIVADAYA 1
VIVEKANANDA 1
VJT 1
VKC 1
VKY 1
VL 1
VMY 1
VOCP 1
VOCPT 1
VOLUNTEERS 1
VOTERS 1
VPA 1
VPC 1
VPCOVID 1
VPD 1
VPG 1
VPO 1
VPW 1
VRAI 1
VRDL 1
VRV 1
VSC 1
VSENSE 1
VST 1
VT 1
VTC 1
VTMS 1
VYSYA 1
VÃ 1
W4 1
WA 1
WAA 1
WAD 1
WAG1 1
WAGES 1
WAO 1
WARDS 1
WARRIORS 1
WASMO 1
WAVE 1
WAY 1
WCCB 1
WCR 1
WDM 1
WDP 1
WEC 1
WELL 1
WESP 1
WG 1
WH 1
WHD 1
WHEELS 1
WHEN 1
WHOLE 1
WHY 1
WIC 1
WIDELY 1
WIDOW 1
WIN 1
WINDBLADE 1
WION 1
WIPRO 1
WITHOUT 1
WITSA 1
WK 1
WMO 1
WMTC 1
WNC 1
WOMENS 1
WORK 1
WPP 1
WRC 1
WRF 1
WRI 1
WRPS 1
WS 1
WSES 1
WSG 1
WSJ 1
WSK 1
WUC 1
WWJ 1
XIV 1
XX 1
Y4 1
YAK 1
YAP 1
YAS 1
YASHDA 1
YES 1
YH 1
YKB 1
YOG 1
YOJNA 1
YOUNG 1
YOUR 1
YOUTH 1
YOY 1
YSK 1
YSRCP 1
YSS 1
YTSK 1
YVK 1
YÃ 1
ZN 1
` 1
`E 1
achus 1
august 1
avery 1
bast 1
blue 1
etts 1
intendo 1
langu 1
mich 1
osaur 1
px 1
such 1
uchy 1
wh 1
when 1
 1
 1
¶ 1
» 1
Ì 1
á 1
ón 1
ğ 1
ũ 1
̧ 1
अपने 1
आचार 1
आत 1
आनो 1
आप 1
आपका 1
आयुष 1
ऐसा 1
क 1
करता 1
कुटुम 1
के 1
कोई 1
ग 1
चंद 1
चर 1
चा 1
चाय 1
चित 1
जगत 1
जगदीश 1
जनाती 1
जिसमें 1
ञान 1
णा 1
तः 1
तन 1
ति 1
तिजोधा 1
तीसंतिपरणसुखं 1
तु 1
तृष 1
थम 1
थान 1
दानामधम 1
दिव 1
दूत 1
दोस 1
धा 1
न 1
नत 1
नयन 1
नहीं 1
निहिताभियोगाः 1
परहिते 1
पैराडाइम 1
बकम 1
बीर 1
बोस 1
भद 1
भारत 1
भी 1
भेज 1
मध 1
मनसा 1
मनीषा 1
मरण 1
मादानं 1
मान 1
मानो 1
मुक 1
मुझे 1
मुद 1
मृति 1
मेधा 1
मेरे 1
मोक 1
यदिदी 1
यन 1
यम 1
ये 1
येकार 1
र 1
रतवो 1
रतिपदा 1
रद 1
रहेगा 1
रा 1
राः 1
रामीणकृषिमौसमसेवा 1
रिक 1
रेरित 1
लाए 1
लिए 1
वतः 1
वयं 1
वसुधैव 1
वागत 1
विज 1
विश 1
श 1
शान 1
शिवमय 1
शेख 1
षार 1
सकते 1
सन 1
सब 1
सबको 1
सिकलसेलअनीमिया 1
सुझाव 1
ह 1
हम 1
हसीना 1
हा 1
हितायाचा 1
हैं 1
हों 1
होने 1
ấ 1
ế 1
ễ 1
ị 1
ồ 1
• 1
‪ 1
€ 1
₹ 1
▁0, 1
▁000- 1
▁abc 1
▁acoust 1
▁acoustic 1
▁alf 1
▁andre 1
▁andrew 1
▁anglo 1
▁anne 1
▁argent 1
▁atm 1
▁austria 1
▁barb 1
▁baron 1
▁barry 1
▁benn 1
▁bible 1
▁bic 1
▁bob 1
▁bobby 1
▁boeing 1
▁caes 1
▁campbell 1
▁canyon 1
▁carl 1
▁cavalry 1
▁chapel 1
▁chel 1
▁chi 1
▁christianity 1
▁christopher 1
▁columb 1
▁cox 1
▁creek 1
▁cris 1
▁cros 1
▁diction 1
▁dioc 1
▁edward 1
▁egyptian 1
▁ernest 1
▁finnish 1
▁francis 1
▁francisco 1
▁gab 1
▁genus 1
▁geor 1
▁georgia 1
▁gib 1
▁gree 1
▁greek 1
▁guar 1
▁guitars 1
▁hawai 1
▁hebrew 1
▁ibn 1
▁iceland 1
▁ital 1
▁ivan 1
▁jane 1
▁jerusalem 1
▁jes 1
▁jimmy 1
▁joe 1
▁johnson 1
▁jones 1
▁kevin 1
▁kle 1
▁kong 1
▁kore 1
▁lanc 1
▁larry 1
▁legion 1
▁leo 1
▁libr 1
▁maced 1
▁madrid 1
▁manchester 1
▁manor 1
▁marx 1
▁massachusetts 1
▁mathemat 1
▁milan 1
▁mont 1
▁municip 1
▁nba 1
▁newsp 1
▁norman 1
▁norwegian 1
▁ontario 1
▁orig 1
▁pedro 1
▁peng 1
▁phill 1
▁phon 1
▁piano 1
▁pierre 1
▁rangers 1
▁raymond 1
▁restaur 1
▁richard 1
▁robert 1
▁roger 1
▁rome 1
▁ron 1
▁ross 1
▁sax 1
▁seattle 1
▁shakespeare 1
▁simon 1
▁stad 1
▁steve 1
▁sulf 1
▁symph 1
▁taiwan 1
▁thom 1
▁tib 1
▁toronto 1
▁vancouver 1
▁warren 1
▁welf 1
▁westminster 1
▁wides 1
▁william 1
▁xx 1
▁× 1
﻿ 1
madeupword0000 0
madeupword0001 0
madeupword0002 0
