▁ 710263
▁the 474508
▁, 334905
▁. 279569
▁of 273639
▁and 209924
▁to 183551
▁in 147454
; 118898
▁& 118847
ap 110947
os 109881
▁a 108930
s 77971
▁for 73191
▁that 71845
▁is 68208
T 67359
A 57611
I 54750
2 53149
▁on 51378
S 49270
▁with 41952
▁by 41427
he 41021
0 39360
▁as 37990
▁has 37959
▁be 36047
ing 35745
h 35041
▁was 34144
e 33361
▁have 32832
▁he 30570
▁are 29813
▁this 29511
B 29473
▁will 29215
▁it 29159
▁from 28309
P 28090
n 27894
M 27770
- 27738
ed 27456
al 26355
ar 26169
▁at 25609
C 25432
▁not 24312
i 23456
an 23409
t 23351
▁an 22796
▁his 22226
y 21944
W 21371
a 20826
▁all 20341
▁said 20223
▁government 19628
▁you 19548
▁been 19457
▁india 19118
H 19116
▁their 19098
▁minister 18663
G 18620
▁which 18465
nd 18338
at 17847
F 17631
▁also 17577
es 17400
ri 17251
er 16834
▁: 16731
R 16377
J 16083
▁they 15990
L 15689
N 15674
▁its 15563
1 15137
ra 15133
▁were 15116
E 15090
D 14912
o 14764
▁people 14764
▁we 14153
ly 14089
▁sh 13962
▁had 13834
in 13712
ers 13679
K 13290
ation 12832
▁up 12825
am 12711
▁out 12539
u 12529
ist 12502
f 12313
or 12217
ad 12169
ot 12150
▁prime 12008
▁who 11830
US 11812
▁our 11707
O 11584
▁country 11555
▁shall 11494
id 11489
▁one 11435
▁but 11217
r 11179
▁or 11070
▁them 11048
▁over 11005
ate 10943
00 10806
▁would 10700
▁there 10694
ay 10610
▁new 10372
▁under 10358
▁more 10327
re 10258
▁- 10251
qu 10186
▁n 9936
▁; 9886
th 9881
▁p 9809
p 9743
▁against 9602
l 9561
▁r 9468
▁i 9423
b 9410
5 9336
▁war 9290
j 9183
▁him 9162
ur 9099
ut 9072
▁un 9021
as 9008
▁ministry 8916
▁about 8836
▁these 8834
▁state 8832
▁your 8802
ia 8739
▁other 8726
en 8664
3 8637
▁my 8593
it 8578
▁no 8520
ment 8507
m 8393
il 8390
ak 8371
▁world 8174
w 8084
▁l 8057
▁into 8049
▁k 7994
ir 7986
k 7983
ations 7945
▁than 7925
ic 7923
▁only 7892
▁) 7637
▁years 7628
▁( 7612
ity 7566
▁can 7560
ions 7559
ism 7516
▁film 7515
on 7462
▁two 7462
▁m 7433
▁any 7389
and 7309
c 7302
is 7302
▁so 7281
▁being 7274
el 7184
d 7143
▁political 7109
▁development 7082
▁time 7043
▁made 7034
V 6997
▁b 6993
▁after 6989
. 6985
▁such 6939
U 6924
▁national 6897
ish 6885
ion 6865
▁today 6860
ash 6853
▁when 6851
▁between 6811
▁through 6790
4 6771
av 6707
▁d 6701
um 6696
ush 6694
ai 6638
ian 6636
▁year 6626
us 6590
19 6589
able 6570
art 6560
g 6560
st 6506
▁me 6482
▁president 6444
▁g 6413
har 6411
▁social 6392
od 6373
q 6373
▁s 6330
man 6311
ab 6189
▁now 6189
▁j 6170
▁day 6167
ath 6164
ated 6158
LORD 6130
et 6098
▁working 6098
▁military 6088
▁t 6064
mer 6045
▁last 6031
▁first 6013
ent 5963
om 5930
▁work 5885
ah 5854
im 5809
pe 5729
▁her 5726
▁cro 5677
ol 5638
▁workers 5593
▁health 5575
▁should 5560
▁like 5514
▁during 5466
▁union 5465
hi 5452
▁indian 5427
ive 5312
▁economic 5299
ial 5297
▁even 5261
▁do 5224
▁if 5197
▁us 5173
? 5140
ance 5113
▁well 5102
amil 5093
6 5092
ud 5086
rael 5084
ating 4986
em 4973
▁percent 4962
▁support 4951
se 4950
▁public 4932
▁every 4930
▁international 4907
▁am 4876
▁make 4873
un 4872
▁many 4862
▁she 4853
his 4847
ican 4821
up 4797
▁man 4754
ast 4751
est 4695
hen 4693
▁st 4692
▁class 4691
ank 4670
oc 4669
ow 4655
ant 4650
▁c 4642
▁those 4623
res 4599
▁w 4597
7 4596
ates 4587
▁f 4585
han 4579
▁mod 4559
▁ind 4557
ag 4476
▁h 4476
,000 4455
▁y 4452
▁some 4446
ch 4434
▁before 4414
▁countries 4412
▁including 4389
ary 4366
uro 4354
ors 4339
▁come 4307
18 4305
▁re 4294
ro 4277
ies 4274
8 4266
ings 4229
▁may 4228
▁cov 4226
▁per 4205
akh 4192
ge 4190
▁pr 4182
▁v 4182
ore 4122
▁both 4121
▁take 4086
▁where 4063
ness 4062
ks 4048
ha 4036
▁power 4025
ter 4022
▁could 4013
v 4000
▁further 3964
▁en 3962
▁states 3956
▁part 3954
▁just 3935
ul 3929
ran 3914
▁most 3906
▁right 3899
ya 3887
Y 3872
aren 3867
ens 3852
, 3832
▁what 3824
ac 3771
ind 3745
ite 3740
▁place 3737
9 3728
▁very 3725
ou 3723
our 3722
▁hand 3702
istan 3699
▁three 3699
▁down 3686
▁system 3679
▁sector 3677
ise 3675
▁because 3669
ine 3662
ts 3660
▁then 3637
▁dis 3612
ain 3599
▁administration 3573
le 3532
▁way 3532
▁capital 3511
▁role 3501
▁pm 3494
▁policy 3485
▁while 3482
▁given 3477
▁taken 3467
▁same 3466
▁days 3457
▁go 3453
rit 3450
dra 3439
ord 3437
▁came 3420
▁must 3420
▁water 3418
▁number 3403
▁children 3393
▁did 3391
▁global 3383
ised 3377
▁end 3368
als 3354
ov 3352
▁own 3347
▁office 3342
end 3334
▁high 3332
ure 3315
▁back 3312
ep 3299
ust 3293
▁con 3289
here 3272
▁major 3269
▁life 3243
15 3226
ational 3222
ana 3203
ited 3185
▁police 3174
▁technology 3167
▁land 3135
ach 3133
▁various 3117
aj 3110
▁present 3108
▁address 3106
▁security 3104
▁set 3103
▁dr 3100
▁among 3073
▁party 3069
▁cabinet 3064
▁great 3058
ev 3054
ec 3033
▁meeting 3030
age 3028
▁e 3028
all 3009
ile 3000
▁house 3000
17 2985
▁scheme 2983
ib 2979
▁far 2979
iv 2978
ith 2976
ists 2974
▁financial 2974
▁since 2963
▁need 2932
▁pro 2931
▁campaign 2929
ard 2928
▁post 2926
sh 2922
ments 2916
▁farmers 2912
▁forces 2912
▁de 2885
▁women 2885
▁called 2881
▁long 2880
ans 2877
ry 2868
▁put 2860
▁terror 2853
▁election 2852
▁good 2851
▁help 2846
▁crisis 2841
# 2836
day 2821
▁how 2813
▁areas 2812
adesh 2811
▁ch 2804
ence 2803
▁provide 2793
▁nation 2789
ong 2771
▁del 2766
▁fact 2760
z 2756
▁central 2755
▁act 2744
▁business 2741
▁cooperation 2739
▁education 2735
ill 2720
▁order 2720
▁important 2719
▁media 2711
▁off 2705
▁energy 2701
ig 2696
▁trade 2683
LTTE 2681
ocr 2680
ous 2675
ident 2661
▁held 2658
▁opposition 2639
ik 2635
▁within 2629
▁million 2625
ged 2619
▁took 2612
▁across 2596
ias 2582
▁human 2576
▁towards 2573
ely 2570
▁see 2569
▁peace 2557
▁sc 2556
▁services 2555
▁region 2546
▁get 2541
▁industry 2540
ost 2533
▁efforts 2523
▁used 2522
▁told 2521
▁already 2515
▁foreign 2513
▁economy 2507
▁son 2506
▁another 2504
▁home 2504
▁students 2495
▁members 2484
▁city 2482
▁food 2477
atic 2476
▁app 2475
ne 2465
▁special 2461
▁become 2453
▁without 2450
▁use 2449
ari 2444
ip 2439
▁rights 2439
▁se 2432
▁affairs 2431
▁friends 2422
ara 2418
▁conf 2413
ized 2403
ang 2400
▁here 2400
▁king 2393
ve 2382
op 2377
ake 2372
▁next 2371
▁pay 2370
▁defence 2368
▁based 2363
▁parties 2363
▁mass 2362
▁several 2362
ina 2346
▁family 2345
▁/ 2342
▁give 2325
ington 2322
▁films 2321
ice 2320
▁law 2320
▁leaders 2318
led 2310
▁movement 2303
ities 2302
ase 2289
▁chief 2283
▁youth 2282
▁left 2271
▁director 2269
▁ass 2266
ines 2263
▁four 2263
▁ex 2261
▁sing 2258
! 2257
▁around 2254
▁say 2253
ally 2251
▁added 2243
ma 2240
▁men 2234
▁sw 2234
▁went 2231
▁real 2229
▁total 2229
▁air 2228
▁tax 2228
▁projects 2226
▁period 2225
▁protest 2222
▁governments 2220
ce 2218
ver 2217
▁sp 2208
ting 2207
▁action 2204
ress 2202
der 2198
▁civil 2196
og 2195
its 2188
▁however 2185
▁know 2183
▁due 2182
▁vice 2178
▁saying 2176
▁measures 2172
▁society 2167
▁visit 2165
ats 2164
▁making 2164
▁project 2164
ass 2161
ie 2161
▁done 2161
▁finance 2150
▁population 2147
ok 2138
▁much 2137
ide 2129
▁past 2125
▁month 2122
ted 2120
Z 2117
uring 2117
▁ins 2114
▁bl 2113
rench 2112
▁press 2111
▁level 2105
uss 2101
ative 2100
▁report 2100
▁five 2097
ala 2096
▁service 2096
▁information 2093
▁young 2093
▁$ 2089
▁oil 2088
▁al 2085
old 2080
▁growth 2079
az 2078
▁poor 2073
▁officials 2067
▁general 2065
ater 2057
▁control 2057
ms 2053
▁together 2053
ious 2051
ub 2042
▁mission 2035
▁months 2034
▁sub 2033
▁welfare 2029
11 2027
ful 2025
les 2025
ark 2023
▁pl 2019
ose 2017
▁ra 2016
▁def 2015
▁again 2013
uc 2007
te 2000
▁increase 1998
▁process 1993
ail 1992
aw 1988
▁future 1987
▁interests 1980
▁infrastructure 1977
▁bank 1976
▁situation 1975
▁sent 1974
▁ut 1972
▁production 1969
▁research 1969
▁cut 1962
▁change 1960
▁occasion 1960
▁ensure 1956
▁sm 1956
▁brought 1955
▁best 1951
▁free 1951
▁small 1951
cc 1945
ven 1942
ob 1936
▁billion 1935
▁open 1931
ee 1920
▁bring 1919
▁different 1915
▁week 1915
14 1905
▁former 1905
▁raj 1905
▁int 1903
▁force 1902
ical 1895
und 1893
▁entire 1887
▁market 1887
▁inc 1882
iz 1881
▁anti 1881
▁each 1879
ants 1878
ister 1871
▁field 1871
▁name 1869
ll 1867
ama 1866
rance 1860
▁streng 1854
▁few 1853
▁things 1851
▁cost 1850
▁program 1850
▁away 1848
are 1846
▁father 1846
▁large 1845
ality 1843
ral 1842
▁along 1835
▁declared 1833
▁secretary 1832
16 1829
▁prov 1828
▁case 1821
▁rest 1820
▁medical 1816
▁sl 1815
▁announced 1813
▁ruling 1813
▁hero 1812
▁inaug 1812
▁agreement 1805
▁democratic 1805
▁conditions 1804
▁programme 1803
▁area 1801
ever 1798
▁inter 1796
ond 1795
ically 1789
▁form 1782
▁im 1782
▁following 1781
▁ab 1780
▁pre 1779
▁building 1778
▁struggle 1776
ians 1775
▁ur 1775
ric 1772
ling 1763
▁big 1761
▁san 1761
▁innov 1758
tal 1757
▁rural 1757
ization 1750
na 1750
▁lives 1750
▁department 1747
▁decision 1745
▁ad 1741
▁regime 1741
▁going 1740
ct 1737
▁face 1731
▁centre 1730
▁launched 1730
▁conference 1728
▁local 1728
▁itself 1725
▁demand 1722
▁living 1720
▁let 1717
ign 1713
atives 1711
ired 1710
▁according 1708
▁agriculture 1708
▁troops 1707
▁investment 1704
▁o 1702
▁second 1702
ghan 1699
▁issues 1696
isation 1693
ute 1691
▁science 1691
▁does 1687
x 1685
▁direct 1685
▁rep 1685
ability 1682
▁fight 1680
▁cities 1678
▁che 1676
▁found 1674
▁management 1674
ives 1673
air 1672
▁deep 1671
▁heart 1669
▁ent 1668
▁group 1668
▁th 1666
▁call 1664
▁possible 1664
men 1663
▁policies 1663
▁means 1659
ij 1658
uk 1658
▁army 1658
▁provided 1658
▁trans 1658
▁clear 1657
▁= 1654
ess 1653
▁received 1653
▁still 1653
▁strong 1650
gr 1648
less 1648
▁full 1642
▁too 1637
▁able 1631
▁less 1629
▁co 1627
tern 1625
▁cl 1625
the 1623
▁parliament 1620
▁private 1617
▁head 1615
▁attack 1613
91 1608
▁deal 1607
ubl 1605
ging 1604
ages 1601
▁start 1601
ified 1600
ators 1598
ention 1594
▁bh 1586
com 1585
iah 1581
ites 1581
▁care 1579
▁gu 1579
ory 1575
ham 1574
▁taking 1574
▁led 1571
▁released 1568
▁road 1568
▁issue 1559
▁port 1559
ize 1557
tar 1554
▁citizens 1554
▁story 1552
▁comp 1549
ons 1546
▁clean 1545
itation 1543
ug 1542
umb 1542
▁basis 1542
▁better 1537
▁old 1535
ss 1533
▁ag 1533
▁gas 1531
93 1530
▁top 1528
▁increased 1527
▁interest 1522
▁others 1518
▁therefore 1518
▁elections 1517
▁companies 1512
▁exp 1512
▁function 1510
▁trib 1509
▁official 1507
ld 1504
▁forward 1503
▁ever 1502
▁gave 1500
▁imp 1499
ade 1497
▁budget 1497
out 1495
bo 1492
13 1491
▁ar 1490
▁opportunity 1489
▁attacks 1487
▁progress 1487
ire 1480
▁seen 1480
down 1479
▁want 1477
▁joint 1474
aries 1471
ime 1469
ph 1468
ich 1464
▁br 1464
to 1463
▁gl 1459
▁leadership 1451
▁training 1451
SEP 1448
▁strike 1448
▁secret 1447
imes 1445
▁don 1444
▁result 1439
▁cases 1437
▁nor 1434
▁recent 1433
▁times 1433
▁vote 1433
ger 1432
▁continue 1430
▁current 1430
ration 1428
▁threat 1428
eral 1427
ets 1424
hold 1423
ork 1423
of 1422
▁leader 1420
▁institutions 1419
▁dev 1416
▁resources 1415
▁ma 1414
▁plan 1410
▁started 1409
▁themselves 1409
ivity 1408
ung 1407
▁bill 1407
ances 1406
ins 1405
ned 1403
▁available 1399
ification 1398
wing 1398
▁bo 1397
▁imperial 1397
if 1396
urs 1395
▁benefit 1394
ees 1393
▁aim 1392
▁cont 1392
▁death 1391
ani 1390
▁might 1388
▁brothers 1386
war 1385
▁question 1385
▁expressed 1383
▁growing 1383
▁activities 1379
000 1376
ured 1374
▁par 1371
▁self 1371
▁spoke 1371
▁event 1370
▁invest 1370
▁north 1363
▁pass 1362
▁commission 1361
iness 1360
▁council 1360
▁issued 1359
▁community 1357
▁sab 1355
▁account 1354
▁tal 1352
▁officers 1346
▁relations 1340
▁thousands 1340
▁district 1339
▁impact 1339
▁money 1339
ja 1338
▁ministers 1338
▁rel 1337
▁company 1336
▁employment 1335
▁common 1334
▁got 1334
▁har 1331
over 1330
ower 1330
ren 1330
▁whole 1329
▁least 1328
hem 1326
▁rate 1326
▁ago 1324
▁powers 1323
▁transport 1322
▁banks 1320
▁asked 1319
▁doing 1319
▁leading 1318
ois 1315
ures 1315
▁0 1314
▁six 1313
▁point 1312
▁earlier 1311
▁certain 1309
▁aware 1308
▁facilities 1306
▁jobs 1306
▁mant 1306
▁yet 1306
▁export 1305
▁member 1304
▁history 1303
▁upon 1303
▁response 1301
▁why 1300
ics 1299
▁ref 1299
ced 1298
▁decided 1298
▁rec 1298
▁res 1298
▁himself 1297
▁lay 1297
▁des 1296
▁environment 1293
pl 1292
▁committee 1292
ination 1290
ves 1290
▁cannot 1290
cy 1289
▁person 1289
▁hard 1288
▁show 1288
▁mother 1287
ier 1286
emic 1285
▁directed 1284
▁compl 1283
ied 1281
▁fire 1281
ps 1280
▁agreed 1280
ome 1279
ues 1278
▁families 1278
▁income 1278
▁railways 1278
▁providing 1276
ram 1275
ending 1273
ort 1273
▁once 1273
▁close 1272
▁needs 1261
▁works 1261
▁host 1260
▁nuclear 1260
▁position 1260
ising 1259
▁ram 1257
▁rem 1257
▁initi 1256
▁plans 1256
▁spread 1256
ward 1255
▁earth 1255
row 1254
▁non 1254
att 1253
oth 1252
med 1251
▁capacity 1251
▁pra 1249
bs 1248
▁court 1246
▁keep 1246
▁school 1246
▁share 1245
▁digital 1244
▁access 1243
ini 1242
▁line 1240
ati 1239
ron 1239
▁establishment 1239
▁thing 1239
ensions 1238
ica 1237
red 1237
▁short 1237
▁groups 1236
fic 1233
▁key 1233
▁statement 1230
▁cent 1229
▁foundation 1228
▁discuss 1226
els 1225
▁bour 1225
ening 1223
ber 1222
ince 1220
▁labour 1220
▁socialist 1220
ka 1219
▁met 1219
▁main 1218
une 1217
▁turn 1215
▁coming 1214
▁having 1214
▁killed 1214
▁east 1212
▁implementation 1210
ving 1208
▁half 1208
▁release 1208
▁commit 1207
▁le 1207
ressed 1202
ning 1201
ined 1200
▁cha 1199
▁prior 1197
▁elite 1196
▁senior 1196
▁reported 1195
▁related 1194
▁dem 1193
▁fl 1193
mir 1192
▁till 1192
▁transform 1192
▁meet 1190
▁prevent 1190
▁problems 1190
▁says 1190
one 1188
▁whose 1187
her 1186
ator 1184
▁nations 1183
▁inv 1182
▁march 1181
▁bi 1180
▁course 1176
▁respect 1174
▁fear 1172
lin 1171
ace 1170
▁emp 1170
▁operations 1170
▁return 1170
ify 1169
▁broad 1169
▁target 1169
▁soldiers 1168
▁appro 1167
▁approved 1166
▁border 1166
▁sur 1166
▁challeng 1165
ty 1164
ition 1163
utes 1163
▁culture 1163
▁etc 1163
▁largest 1162
▁live 1160
▁supply 1159
▁signed 1158
amp 1157
mit 1157
nn 1157
▁focus 1156
oun 1155
▁never 1155
▁significant 1155
▁throughout 1155
▁cr 1154
▁necessary 1153
▁especially 1152
▁carried 1151
ars 1147
▁armed 1147
ell 1146
▁cast 1146
come 1145
▁partnership 1145
ble 1144
▁build 1143
▁independent 1143
▁wh 1142
per 1141
▁nothing 1140
▁stand 1138
▁weapons 1138
ton 1136
ft 1135
▁success 1135
▁command 1134
▁words 1133
▁create 1132
▁summit 1132
▁created 1131
▁dec 1131
▁assistance 1130
▁early 1129
outh 1127
rist 1126
▁near 1126
▁ens 1125
▁happ 1123
ense 1121
▁majority 1121
▁expected 1120
▁lock 1120
▁bre 1118
▁det 1118
▁personnel 1117
▁saw 1117
▁milit 1116
▁always 1115
▁third 1114
▁sons 1112
▁regional 1110
▁whether 1110
ji 1109
▁developed 1109
▁offer 1109
▁serv 1109
▁tra 1108
▁south 1107
▁lo 1106
▁qu 1106
ci 1104
▁strategic 1104
▁industrial 1103
▁shooting 1102
▁potential 1101
▁thousand 1101
▁el 1100
▁known 1098
▁kind 1097
ences 1096
▁fund 1096
▁institute 1096
▁review 1094
▁step 1094
▁wel 1091
▁recently 1090
ret 1089
▁continued 1089
ear 1088
▁benefits 1088
io 1085
ril 1084
▁lead 1084
▁serious 1082
ony 1081
▁politics 1081
▁higher 1079
▁prom 1079
▁using 1079
▁fe 1077
▁popular 1077
▁talk 1077
oga 1075
ents 1073
▁ay 1073
EU 1071
▁child 1070
▁hands 1070
▁opportunities 1070
ack 1069
lo 1069
anth 1065
▁university 1064
ution 1063
▁look 1062
▁quality 1062
▁particularly 1059
▁coalition 1058
▁villages 1058
▁blood 1056
▁celebr 1056
▁demonstr 1056
ury 1055
▁reforms 1054
▁corporate 1053
▁importance 1053
▁construction 1052
ptember 1051
▁hospital 1051
▁plant 1050
UN 1047
▁natural 1044
ada 1041
ester 1041
▁comm 1041
▁modern 1041
▁space 1040
▁view 1040
▁stated 1039
▁tourism 1038
ones 1037
▁cor 1036
▁prof 1036
ancing 1035
▁prepared 1035
▁democracy 1034
ue 1032
▁product 1031
▁whom 1031
rif 1030
ped 1029
▁bar 1029
▁limited 1029
▁enh 1027
▁hon 1027
cl 1026
ises 1026
▁light 1026
zy 1024
▁bene 1023
▁gener 1023
uch 1022
▁find 1022
▁rev 1022
au 1021
ight 1021
▁strength 1020
arch 1018
ened 1018
▁mind 1018
▁products 1018
▁april 1016
▁ne 1016
▁side 1016
▁though 1016
aff 1015
▁include 1015
▁soon 1014
▁previous 1011
mun 1010
▁initiative 1010
▁nearly 1009
▁sections 1008
▁above 1006
▁connect 1006
▁laid 1005
▁behind 1003
▁urban 1003
▁run 1002
▁essential 1000
▁middle 999
ember 998
▁den 998
▁districts 997
▁pressure 996
▁prop 996
▁speak 996
way 995
gypt 994
ulated 994
▁forth 994
▁noted 994
▁occupation 994
▁govern 993
▁sup 993
ys 992
▁break 992
▁ir 992
izing 991
▁round 991
▁later 990
▁speaking 990
▁think 990
ension 988
▁reform 988
▁hours 987
▁involved 987
ered 986
▁bil 986
▁commun 985
▁nad 985
▁staff 985
employ 984
▁chairman 984
▁independence 983
ication 982
▁gr 982
▁adv 981
amm 980
▁until 980
anda 978
ched 978
aya 977
▁develop 977
▁neither 977
▁equ 976
ction 975
ront 975
▁began 975
▁vision 974
▁weeks 974
▁facilit 973
▁series 972
esh 970
me 970
▁steps 970
▁sisters 969
▁understanding 969
iy 968
so 967
▁manner 966
rep 965
▁express 965
itude 962
▁conflict 962
ams 961
co 961
▁constitution 961
▁greater 961
▁spirit 961
acy 960
ouse 959
▁job 959
eb 958
ots 958
▁imm 958
▁railway 958
▁speech 958
▁believe 956
▁team 956
▁effort 955
land 952
▁u 952
ored 951
▁persons 951
▁launch 949
▁board 948
▁responsibility 947
▁thus 947
▁dist 945
lim 944
▁legal 944
▁ground 943
▁required 943
atory 942
▁heard 942
▁won 942
▁red 941
ying 940
▁dead 940
▁mand 940
▁sustain 940
ky 938
▁reason 938
▁seven 938
▁written 938
▁music 936
▁standards 936
▁gold 935
int 934
▁accept 934
act 933
▁section 933
▁enter 932
▁final 931
▁knowledge 930
lam 929
▁move 929
▁play 929
be 927
▁intelligence 925
▁priest 925
min 924
▁mon 923
▁sect 923
mar 922
▁decades 922
▁terms 922
▁hold 921
▁mah 921
▁village 921
rid 920
▁additional 920
ship 919
▁committed 919
▁demands 918
▁huge 918
▁presidential 918
▁price 917
▁sign 917
▁word 917
▁established 916
▁mult 916
31 915
▁protect 915
▁details 914
▁em 914
then 913
▁er 913
aken 910
ict 910
uary 910
▁sea 910
é 909
▁acting 909
▁became 909
▁domestic 909
▁worth 909
rib 908
▁book 908
▁houses 908
▁mill 908
▁proposed 907
▁character 906
▁offering 906
hu 905
▁inf 905
▁produced 905
▁promote 905
aman 904
▁safety 903
hand 902
▁stri 902
ali 901
hy 901
▁low 901
▁tr 900
▁violence 900
ami 898
ann 898
▁existing 896
▁airport 895
▁increasing 895
ement 894
hed 894
▁emb 894
oy 893
▁turned 893
▁highlight 892
ible 891
▁interact 891
▁lot 891
ively 890
▁date 890
▁encoura 890
▁mob 890
▁perspective 890
rd 888
ways 888
▁data 888
▁single 888
che 887
▁age 887
▁addition 885
▁june 885
▁mad 885
JVP 884
kar 884
▁ev 884
▁example 884
▁list 884
▁love 884
▁matter 884
▁sa 884
▁amount 883
▁authorities 883
ick 882
▁similar 882
▁little 881
▁news 881
▁rule 881
arn 880
cil 880
usalem 880
▁gather 880
▁stone 880
▁places 879
▁decl 877
▁sports 877
▁mr 876
▁disc 875
▁manufacturing 875
▁rise 874
any 872
▁na 870
ours 869
▁remain 869
▁basic 868
▁century 867
▁test 867
▁cause 866
▁freedom 866
▁generation 866
ree 864
▁award 863
▁ten 862
equ 861
iance 861
▁ap 861
ays 858
ces 858
tra 858
▁lost 858
▁responsible 858
▁coal 857
▁conv 857
▁witness 856
ished 855
▁art 855
▁base 855
▁hundred 855
▁improve 855
▁candidate 854
apan 853
ately 852
▁aimed 851
▁attempt 851
▁emer 851
▁participation 850
▁personal 849
dle 846
nes 846
▁gang 846
▁massive 846
▁reports 846
▁undert 846
amb 845
▁directly 845
▁renew 845
▁car 844
▁deleg 844
▁justice 844
hn 843
▁actions 843
▁night 843
▁experience 842
▁hope 841
▁sought 841
▁eastern 840
▁article 839
▁centres 839
ained 838
▁credit 838
▁sal 838
ility 837
▁... 836
▁online 836
▁‘ 835
▁ce 834
▁likely 834
▁pan 834
▁happy 833
▁resol 833
▁built 831
▁consider 831
▁housing 831
▁value 830
ner 829
ression 827
pur 826
▁trust 826
▁und 826
▁sac 825
▁events 824
ering 823
istic 823
li 822
pir 822
▁comes 822
▁conduct 822
ef 821
sc 820
ches 819
ho 819
▁anniversary 819
▁pun 818
▁seek 818
▁treatment 818
ere 817
▁fighting 817
▁parts 816
ws 815
▁skill 814
ame 813
rad 813
▁contribution 813
ably 812
▁worked 812
▁pat 811
▁voice 811
▁complete 810
ium 809
ng 809
▁path 809
▁problem 809
▁rather 808
ards 807
▁organis 807
▁patients 807
line 806
▁aid 806
▁platform 806
▁played 806
▁organized 805
▁reach 805
▁solar 803
▁effective 802
▁nit 802
▁everyone 801
ices 800
idence 800
urity 800
▁conducted 800
▁div 797
af 796
▁gre 796
rom 795
Q 794
▁beh 794
▁paid 794
▁record 794
▁poverty 793
▁presence 793
▁almost 792
▁funds 792
▁testing 792
▁att 791
▁interv 791
▁fore 790
▁video 790
ert 789
▁contract 787
▁ro 787
▁claims 786
▁emphas 786
▁markets 786
erv 784
▁operation 784
▁protection 784
anded 783
hal 783
▁gri 783
▁prices 783
▁eat 782
▁fundamental 782
uted 781
well 781
▁cons 780
▁followed 780
▁industries 780
SPD 779
isc 779
▁jud 778
▁employ 777
▁getting 777
elled 776
▁evidence 776
▁reg 776
ata 775
ote 775
▁candidates 775
▁concerned 775
ika 774
▁latest 774
▁message 774
ains 773
▁brother 773
▁cover 773
▁wife 773
▁direction 772
▁giving 772
eth 771
â 771
▁completed 771
▁gen 770
▁opposed 770
▁vis 770
asi 769
de 769
▁eng 769
ern 768
▁fr 768
ale 767
▁bure 767
▁challenge 767
▁achie 766
year 765
▁representatives 764
aring 763
▁river 763
▁cultural 762
ining 761
ober 761
cess 759
▁approval 759
▁claim 759
▁lack 759
▁withdra 759
hood 758
75 757
ax 757
▁sides 757
▁beginning 756
▁climate 756
▁establish 756
▁allow 755
▁emergency 755
▁particular 755
▁birth 754
▁outside 754
▁immediately 753
▁organ 753
▁schools 753
▁acc 752
▁alliance 752
hes 751
▁changes 751
▁goods 750
▁pres 750
▁sure 750
pr 749
iber 748
▁daily 748
▁parliamentary 748
ave 747
▁body 747
▁poll 746
▁ant 745
▁electricity 745
▁strategy 745
based 744
inian 744
▁gra 744
▁laws 744
▁developing 743
▁reaction 742
hel 741
pect 741
wn 741
▁forced 741
agh 740
▁approach 740
▁hundreds 740
▁min 740
▁morning 740
▁positive 740
▁relief 740
gh 739
ock 739
▁supported 739
ared 738
▁employees 738
▁republic 738
▁charge 737
▁contrib 737
▁fast 737
▁ic 737
▁successful 736
▁hit 735
▁fulf 734
▁implement 734
▁seeking 734
▁calls 733
nam 732
▁concern 732
port 731
▁guid 731
▁vast 731
ta 730
▁systems 730
ural 729
▁objective 729
called 728
▁front 728
▁makes 728
▁read 728
amed 727
wa 727
▁aggress 727
ows 726
ulate 726
▁ms 726
▁suggest 726
▁amb 725
▁resolution 725
▁toward 725
ound 724
▁achieve 724
▁festival 724
oviet 723
▁produce 723
aka 722
▁destruction 722
▁informed 722
▁effect 721
ently 720
ke 717
▁despite 717
▁exchange 717
▁op 717
ek 716
▁commerce 716
vi 715
ti 713
▁claimed 712
▁mentioned 712
cing 711
cont 711
den 711
▁prev 711
▁setting 711
▁explained 710
▁estimated 708
▁session 708
aving 707
ike 707
▁alternative 707
▁prosper 707
ese 706
▁july 706
▁nature 706
▁af 705
▁regard 705
het 704
ray 704
▁shared 704
uv 703
wal 703
▁explo 703
▁framework 703
▁subject 703
iation 702
icit 702
▁answ 702
▁newspaper 702
▁reduce 702
▁organisation 701
▁econom 699
▁fall 699
▁hear 698
▁cur 697
▁di 697
▁web 697
▁facility 696
35 695
kes 695
▁affected 695
▁immediate 695
▁published 695
▁ready 695
ene 694
ishes 694
olution 694
inese 693
▁alone 693
▁january 693
▁officer 693
iting 692
▁collaboration 692
▁compared 692
▁feel 692
▁invasion 691
▁organised 691
▁something 691
▁station 691
ald 690
▁gar 690
▁ob 690
▁revolution 690
▁rich 690
▁understand 690
▁agricultural 689
▁block 689
▁eyes 688
▁presented 688
▁supporters 688
▁serve 687
▁thought 687
fore 686
cember 685
▁annual 684
▁purs 684
add 683
va 683
▁authority 681
▁either 681
▁monitor 681
ban 680
▁import 680
ously 679
▁announce 679
▁awards 679
▁fert 679
WSWS 678
ds 678
ulation 678
▁west 678
▁active 677
▁deliver 677
▁disaster 677
▁agencies 676
▁mo 676
ming 675
▁mobile 675
▁profit 675
▁island 674
▁task 674
elling 673
ented 673
yan 673
▁critical 673
▁provides 673
▁visited 673
aining 672
▁levels 672
▁lif 672
▁wor 672
pt 671
▁average 671
▁passed 671
▁safe 671
▁scale 671
▁wrote 671
ather 670
gar 670
ued 670
▁dedicated 670
▁ahead 669
▁network 669
▁united 669
▁util 669
bruary 668
▁ge 668
care 667
ther 667
▁joined 667
▁wealth 667
eds 666
pro 666
▁super 666
ona 665
▁train 664
ery 663
mission 661
▁disp 661
▁evil 661
ping 660
▁included 660
▁mark 660
▁pray 660
▁programmes 660
▁vir 660
agon 659
ries 658
▁carry 657
▁stage 657
▁str 657
▁drive 656
▁expl 656
▁jan 656
▁camp 655
▁com 655
fl 654
▁associated 654
▁extended 654
▁stop 654
empt 653
▁bet 653
▁creating 653
▁implemented 653
▁increasingly 653
▁attention 652
▁true 652
▁victory 652
ras 651
▁leave 651
▁purpose 651
▁refused 651
▁term 651
▁demon 650
▁teachers 650
ual 649
BJP 648
ls 648
▁link 648
▁od 648
iment 647
▁extra 647
▁propos 647
▁appe 646
▁beng 646
▁status 646
▁join 645
▁refuge 645
▁units 645
ugu 644
▁unit 644
ugust 643
▁avail 643
▁offered 643
▁difficult 642
▁discussion 642
rod 641
▁solution 641
▁tom 641
ler 640
aged 638
▁consult 638
▁defend 638
▁highest 638
▁survey 638
ns 637
uth 637
▁counter 637
▁expect 637
▁ph 637
enda 636
▁speed 635
oh 634
▁bur 634
hip 633
▁gone 633
▁advance 632
▁consequ 632
▁holy 632
▁mis 632
aled 631
▁discussed 631
▁shot 631
adi 630
ended 630
rises 630
▁cap 630
▁producer 630
▁raised 630
▁results 630
▁ste 630
▁afford 628
ocation 627
▁pos 627
▁smart 627
ex 626
ria 626
▁advis 626
▁bomb 626
aking 625
ause 625
back 625
▁mount 625
▁remember 625
asing 624
▁allowed 624
▁creation 624
▁editor 624
▁flag 624
▁october 624
ased 623
ection 622
▁learn 622
▁participate 622
▁spok 622
hus 621
ked 621
ull 621
▁model 621
ided 620
idents 620
▁reached 620
▁rules 620
ological 619
▁infl 618
oll 617
▁insurance 616
▁sol 616
ology 615
▁influence 615
▁regarding 615
▁sum 615
▁technical 615
▁eight 614
▁institution 614
▁keeping 614
itals 613
▁loss 613
▁unity 613
ges 612
▁guarant 612
▁organizations 612
▁ret 612
▁source 612
▁accounts 611
jan 610
con 609
▁bra 609
▁letter 609
▁memor 609
ends 608
▁pur 608
▁repeated 608
▁lab 607
▁clearly 606
▁travel 606
ez 605
ivers 605
▁organization 605
▁resource 605
uation 604
▁hosp 604
aut 603
yn 603
▁fell 603
▁processing 603
▁stay 602
hered 601
▁technologies 601
▁var 601
▁scientific 600
ont 599
▁assess 599
▁died 599
▁nam 599
▁priv 599
▁screen 599
▁none 598
▁opened 598
▁prepar 598
bu 597
▁federal 597
▁indians 597
▁chemical 596
▁distribution 596
▁temple 596
▁traditional 596
▁woman 596
tt 595
▁competition 595
▁gur 595
▁inst 595
ira 594
▁val 594
▁vi 594
Ã 593
▁excell 593
▁subsid 593
▁bus 592
▁request 592
iva 591
▁delivered 591
▁navy 591
▁tim 591
▁decisions 590
▁dep 590
▁impl 590
mal 589
ories 589
▁appeal 589
▁august 589
▁char 589
▁maintain 589
▁ties 589
▁fully 588
▁heavy 588
▁individual 588
▁planned 588
rage 587
▁currently 587
▁rising 586
▁stood 586
▁study 586
▁ven 586
▁advanced 585
▁daughter 585
▁mid 585
▁moment 585
fire 584
sm 584
▁chand 584
▁ris 584
▁concerns 583
▁ple 583
▁pol 583
▁proceed 583
▁commercial 582
▁criminal 582
▁failed 582
▁pointed 582
athan 581
pan 581
▁participated 581
itions 580
jo 580
▁scientists 580
▁coast 579
▁song 579
▁values 579
▁ways 579
▁described 578
▁km 578
▁lines 578
▁planning 578
▁send 578
▁takes 578
bi 577
ink 576
iter 575
▁collapse 575
▁laun 575
▁longer 575
▁negotiations 575
acle 574
▁attended 574
▁needed 574
▁vac 574
199 573
▁faith 573
▁forms 573
▁proposal 573
▁stock 573
we 572
▁interview 572
king 571
rem 571
▁beyond 571
▁burn 571
▁crimes 571
ient 570
unt 570
▁college 570
▁rates 570
iding 569
▁naval 569
▁phase 569
▁po 569
vin 568
▁la 568
▁lower 568
▁tre 568
eva 567
▁language 567
▁lies 567
▁save 567
▁trying 567
▁ded 566
▁ear 566
▁points 566
▁contin 565
▁fort 565
ck 564
ff 564
▁minority 563
▁voters 563
ames 562
▁enough 562
▁lord 562
▁petro 562
▁sens 562
45 561
ching 561
▁achieved 561
▁ec 561
▁mutual 561
isions 560
▁pet 560
conom 559
▁ill 559
▁late 559
▁solutions 559
▁rail 558
▁condem 557
▁revolutionary 557
▁sin 557
ga 556
▁ep 556
▁mer 556
▁numbers 556
oci 555
▁heritage 555
▁ongoing 555
▁spending 555
posed 554
▁receive 554
osh 553
▁debt 553
▁historical 553
▁net 553
▁su 553
ead 552
▁domin 552
▁november 552
▁questions 552
▁storage 552
ular 551
▁contain 551
▁kill 551
▁tw 551
isted 550
▁calling 550
▁heaven 550
▁homes 549
ency 548
ood 548
off 547
stit 547
▁assault 547
▁identified 547
▁satisf 547
▁considered 546
▁promoting 546
hab 545
▁bad 545
▁green 545
▁provision 545
anc 544
eder 544
▁trains 544
sp 543
▁fisher 542
▁hop 542
▁bringing 541
▁cooper 541
ane 540
illed 540
▁contact 540
▁religious 540
uing 539
▁abroad 539
▁fin 539
▁foot 539
▁object 539
▁opening 538
UNP 537
▁husband 537
▁opp 537
▁running 537
▁student 537
app 536
la 536
▁appl 536
▁background 536
▁below 536
▁changed 536
▁inside 536
▁vehicles 535
▁figures 534
▁follow 534
▁kept 534
▁meetings 534
▁reserv 534
ried 533
▁grand 533
▁hy 533
ional 532
ved 531
▁introduced 531
▁sat 531
▁ash 530
▁forest 530
▁remains 530
▁check 529
eter 528
▁completely 528
▁tell 528
uct 527
▁fuel 527
▁equipment 526
oe 525
ough 525
▁secure 525
eg 524
ley 524
▁expansion 524
▁impro 524
▁sil 524
ult 523
▁labor 523
▁northern 523
▁relationship 523
ides 522
iet 522
▁count 522
▁roads 522
▁integrated 521
▁waste 521
▁ban 520
▁bit 520
ift 519
▁dest 518
▁promotion 518
▁risk 518
▁shown 518
ondon 517
▁accused 517
▁deliber 517
▁firm 517
▁includes 517
▁fra 516
▁kingdom 516
▁programs 516
▁sense 516
▁sus 516
cial 515
rich 515
▁dict 515
▁measure 515
▁walk 515
▁win 515
▁goal 514
▁illegal 514
▁loan 514
pet 513
sa 513
▁ign 513
▁package 513
▁wants 513
▁diss 512
▁faced 512
▁returned 512
▁ship 512
coming 511
uel 511
▁critic 511
▁fields 511
▁truth 511
da 510
era 510
inc 510
pose 510
▁hom 510
NATO 509
dom 509
▁operational 509
ications 508
▁context 508
▁facing 508
▁registered 508
▁sri 508
▁votes 508
▁widespread 508
ao 507
rop 507
▁engaged 507
igation 506
▁bond 506
▁september 506
aly 505
ring 505
▁author 505
och 504
▁hour 504
▁journey 504
▁partner 504
▁tel 504
ect 503
▁doct 503
▁goes 503
▁regular 503
▁bangl 502
▁constit 502
▁ha 502
▁investigation 502
▁ones 502
▁regions 502
▁corpor 501
▁reality 501
▁scheduled 501
▁corruption 500
▁resistance 500
kh 499
term 499
▁defeat 499
▁rapid 499
▁supporting 499
1718 498
▁continues 498
eli 497
▁exam 497
▁mal 497
▁capt 496
▁coverage 496
▁ide 496
▁log 496
▁practices 496
cher 495
ily 495
▁learning 495
tered 494
ugh 494
▁amendment 494
▁ball 494
▁southern 494
▁stations 494
▁steel 494
▁techn 494
pre 493
ten 493
▁bodies 493
▁cou 493
▁destroyed 493
▁material 493
▁warning 492
ida 491
▁dream 491
▁supposed 491
abilities 490
ount 490
rim 490
▁becoming 490
▁consumer 490
ibility 489
iss 489
pa 489
very 489
▁disease 489
▁methods 489
▁pred 489
clus 488
eur 488
ims 488
other 488
▁answer 488
▁discip 488
▁wid 488
inent 487
▁agency 487
▁gat 487
▁helped 487
▁instead 487
▁mor 487
▁ter 487
▁wanted 487
emb 486
▁performance 486
▁reduced 486
son 485
ually 485
▁carrying 485
▁caused 485
▁expand 485
▁town 485
ifying 484
▁figure 484
▁served 484
▁cred 483
▁unique 483
mo 482
que 482
ua 482
▁confer 482
▁integr 482
▁opinion 482
▁simply 482
reen 481
▁besides 481
▁moved 481
▁nar 481
▁politicians 481
▁reflect 481
eline 480
▁plants 480
ey 479
ision 479
orm 479
▁actor 479
▁powerful 479
rol 478
▁decade 478
▁esc 478
▁twenty 478
▁viol 478
igh 477
iled 477
▁december 477
▁accepted 476
▁deaths 476
▁executive 476
▁exercise 476
▁ext 476
▁heads 476
▁ideas 476
▁note 476
▁trial 476
▁advoc 475
▁separate 475
▁wish 475
▁largely 474
▁moving 474
orge 473
racy 473
▁cat 473
▁supplies 473
arm 472
ijing 472
▁battle 472
▁comment 472
▁decline 472
▁factory 472
▁scenes 472
▁soul 472
ague 471
pos 471
▁offensive 471
▁soc 471
imate 470
org 470
▁doubt 470
▁placed 470
▁separ 470
▁skills 470
▁title 470
1819 469
▁customs 469
▁minimum 469
▁strugg 469
oke 468
oss 468
▁bound 468
▁doub 468
▁crime 467
▁prec 467
▁sun 467
ements 466
ruct 466
▁specific 466
action 465
aging 465
ayan 465
▁belong 465
▁requirements 465
by 464
▁charges 464
▁extent 464
▁gives 464
▁journal 464
let 463
▁liv 463
▁medium 463
▁polit 463
▁ton 463
use 462
▁emerged 462
▁failure 462
▁shar 462
anes 461
ctions 461
vey 461
▁biggest 461
▁headquarters 461
CIA 460
▁camps 459
▁comprehensive 459
▁electoral 459
▁raise 459
▁reb 459
cis 458
itarian 458
▁parents 458
▁seats 458
▁sources 458
▁arrest 457
▁elect 457
▁fail 457
own 456
rising 456
▁formed 456
▁costs 455
▁mort 455
▁tab 455
▁television 455
lying 454
vent 454
▁mouth 454
▁nut 454
▁bul 453
▁cruc 453
▁offices 453
▁recommend 453
▁transfer 453
aded 452
ple 452
uting 452
▁principles 452
▁tried 452
tre 451
uck 451
▁accord 451
▁murder 451
imin 450
▁combat 450
▁everything 450
▁historic 450
▁je 450
▁standard 450
form 449
iture 449
▁* 449
▁deb 449
▁educational 449
▁pip 449
eng 448
una 448
▁alleged 448
▁apart 448
ience 447
ople 447
▁divers 447
▁entered 447
▁february 447
▁looking 447
▁mar 447
▁mas 447
▁ran 447
▁rejected 447
oon 446
set 446
▁extremely 446
▁height 446
▁hol 446
▁particip 446
ither 445
oked 445
▁evening 445
▁kh 445
ollow 444
▁collabor 444
ylon 443
▁elected 443
▁incident 443
▁reject 443
▁door 442
▁euro 442
▁exper 442
▁principal 442
get 441
ris 441
▁ceremony 441
▁highly 441
▁significance 441
▁star 441
eless 440
▁killing 440
cept 439
ius 439
ract 439
▁adopted 439
▁amongst 439
▁behalf 439
▁prep 439
▁ren 439
▁universities 439
orn 438
▁avoid 438
▁black 438
▁deputy 438
▁lad 438
▁thr 438
cs 437
erve 437
▁dialogue 437
▁ordinary 437
▁prison 437
▁successfully 437
uction 436
▁constant 436
▁extrem 436
▁rapidly 436
▁spent 436
▁victims 436
▁anything 435
▁bankrupt 435
▁commanded 435
▁communication 435
▁debate 435
▁governor 435
▁physical 435
▁signing 435
di 434
iant 434
ope 434
▁connected 434
▁die 434
▁remained 434
aud 433
aza 433
mon 433
 433
▁association 433
▁dam 433
▁effectively 433
▁pul 433
▁stability 433
▁allies 432
▁civilian 432
▁complex 432
▁felt 432
gy 431
iles 430
▁forum 430
▁determined 429
▁double 429
▁guard 429
▁quite 429
▁tort 429
▁try 429
dr 428
▁document 428
▁flood 428
▁arrested 427
▁attract 427
▁cash 427
▁formal 427
▁sk 427
▁territory 427
198 426
gan 426
hr 426
inary 426
uses 426
▁insp 426
▁sav 426
▁similarly 426
▁ba 425
▁threatened 425
ids 424
ific 424
wan 424
▁id 424
▁pers 424
ctor 423
elves 423
fully 423
▁vill 423
▁closely 422
▁cross 422
▁elements 422
▁often 422
▁overall 422
▁rain 422
▁taxes 422
eda 421
oured 421
▁activity 421
▁negoti 421
▁seems 421
▁ver 421
▁theme 420
▁acts 419
▁cinema 419
▁conscious 419
▁continuing 419
▁extend 419
▁sharp 419
ror 417
udi 417
▁add 417
▁households 417
▁site 417
hor 416
my 416
ounced 416
▁arran 416
▁citizen 416
▁text 416
bed 415
▁covered 415
▁deploy 415
ior 414
▁daughters 414
▁individuals 414
▁proper 414
ums 413
ze 413
▁aviation 413
▁believed 413
▁consum 413
▁prosec 413
▁reduction 413
▁requested 413
fer 412
▁prisoners 412
▁shipping 412
▁solid 412
atically 411
▁designed 411
▁expression 411
▁metro 411
ital 410
rant 410
▁brief 410
▁duty 410
▁sword 410
agement 409
▁analysis 409
▁convention 409
▁corporation 409
▁nag 409
press 408
▁recogn 408
▁render 408
aine 407
resh 407
yl 407
▁aircraft 407
▁destroy 407
▁med 407
▁medic 407
▁recovery 407
▁diseases 406
▁flight 406
▁standing 406
oot 405
▁aspects 405
▁directors 405
▁fair 405
▁suggested 405
▁bear 404
▁investig 404
▁lie 404
ables 403
chi 403
iqu 403
right 403
sk 403
ura 403
usion 403
▁application 403
▁interaction 403
65 402
inn 402
▁arms 402
▁ask 402
▁cond 402
▁funding 402
▁passengers 402
▁showed 402
▁stands 402
▁track 402
oted 401
rap 401
▁bow 401
▁incom 401
▁shut 401
▁statements 401
▁surve 401
▁trip 401
itive 400
▁adopt 400
▁concluded 400
▁doll 400
▁fellow 400
▁idea 400
▁invited 400
▁matters 400
ially 399
▁arm 399
▁sell 399
abil 398
osp 398
▁anyone 398
▁fourth 398
▁connections 397
▁diplomatic 397
▁japan 397
▁revealed 397
▁spoken 397
▁voted 397
▁acted 396
▁completion 396
▁delivery 396
▁micro 396
go 395
itable 395
▁closed 395
▁connection 395
▁harm 395
▁helping 395
▁initiated 395
▁paper 395
▁react 395
▁really 395
▁phone 394
▁silver 394
▁stat 394
▁vig 394
ament 393
olit 393
▁appeared 393
▁confirmed 393
▁legit 393
▁mechanism 393
▁card 392
▁feet 392
▁indicated 392
itor 391
▁cra 391
▁experiences 391
▁respective 391
ju 390
▁except 390
▁kn 390
▁peoples 390
▁reasons 390
cles 389
overn 389
time 389
▁gets 389
▁inqu 389
▁willing 389
IMF 388
ena 388
▁bal 388
▁hum 388
▁linked 388
▁scene 388
enn 387
ett 387
reat 387
rel 387
▁assets 387
▁career 387
▁friendly 387
▁gate 387
▁manip 387
▁roles 387
▁sr 387
ask 386
wards 386
▁bab 386
▁property 386
▁search 386
▁shift 386
▁thereby 386
48 385
aling 385
omin 385
wise 385
▁collective 385
▁congreg 385
▁cre 385
▁cy 385
▁finally 385
gency 384
pal 384
▁communities 384
▁pill 384
▁previously 384
icts 383
▁buy 383
▁danger 383
▁fit 383
▁grant 383
▁happened 383
▁imag 383
elf 382
ulf 382
▁conservation 382
▁internationally 382
ales 381
ih 381
▁assembly 381
▁ke 381
▁kr 381
▁tro 381
▁unc 381
▁views 381
agan 380
▁begin 380
▁colonial 380
▁radical 380
▁waters 380
iers 379
▁chain 379
▁losses 379
▁neighbour 379
▁prominent 379
force 378
nal 378
▁actress 378
▁dre 378
▁fighters 378
▁involving 378
▁tradition 378
▁trav 378
nt 377
where 377
▁clos 377
▁equal 377
▁producers 377
▁regist 377
▁wonder 377
ading 376
▁borders 376
▁extension 376
▁migr 376
▁regulations 376
▁spec 376
▁streets 376
▁wrong 376
til 375
▁academic 375
▁accel 375
▁confl 375
▁maximum 375
▁thro 375
LCR 374
iry 374
omon 374
▁born 374
▁explos 374
▁friend 374
▁ii 374
▁participants 374
▁partners 374
▁quarter 374
aint 373
astern 373
ief 373
key 373
vements 373
▁assist 373
▁attend 373
▁balance 373
▁defin 373
▁filed 373
▁wars 373
▁ac 372
▁judge 372
▁applications 371
▁mos 371
▁pot 371
▁remark 371
ades 370
iction 370
ny 370
▁auto 370
▁defense 370
▁division 370
▁ja 370
▁knew 370
▁shows 370
▁farming 369
▁sam 369
▁asia 368
▁condition 368
▁drugs 368
▁profession 368
▁sym 368
chang 367
erted 367
▁ability 367
▁arrived 367
▁cell 367
▁legislation 367
▁limit 367
▁loc 367
▁primary 367
▁range 367
▁sight 367
▁appointed 366
▁dollars 366
▁injured 366
▁liberal 366
▁substantial 366
ima 365
▁bel 365
▁coordin 365
▁ethnic 365
▁household 365
▁desire 364
▁remaining 364
▁represent 364
▁soil 364
▁targets 364
▁tele 364
▁version 364
iring 363
ool 363
yr 363
▁bid 363
▁songs 363
▁warm 363
▁ww 363
isms 362
ude 362
▁collect 362
▁constitutional 362
▁dark 362
▁fat 362
▁indeed 362
▁master 362
▁practice 362
part 361
▁av 361
▁congress 361
▁internal 361
▁joy 361
▁meant 361
▁offers 361
▁processes 361
▁resulted 361
▁te 361
34 360
aches 360
estern 360
icate 360
▁bombing 360
▁bridge 360
▁delay 360
▁enthus 360
▁eth 360
▁western 360
1999 359
for 359
▁actors 359
▁ah 359
▁broken 359
▁cir 359
▁depos 359
▁encouraged 359
▁fought 359
▁isol 359
▁merely 359
▁occup 359
▁revenue 359
▁widely 359
ailed 358
ney 358
▁agree 358
▁cal 358
▁demonstrated 358
▁dra 358
▁grow 358
▁permanent 358
▁responded 358
▁wave 358
aced 357
ders 357
hing 357
igned 357
uff 357
▁backing 357
▁chosen 357
▁establishing 357
▁respond 357
▁ve 357
olk 356
▁denied 356
▁driven 356
▁holding 356
▁improved 356
▁prem 356
▁seed 356
▁wick 356
iam 355
▁motiv 355
▁propag 355
▁reducing 355
▁sec 355
▁suff 355
▁vehicle 355
▁fir 354
▁maritime 354
▁tour 354
sl 353
▁assass 353
▁concept 353
▁drink 353
▁france 353
▁hearing 353
▁instit 353
▁privile 353
▁rob 353
▁tend 353
CDU 352
eted 352
▁accompl 352
▁celebrated 352
▁combined 352
▁efficiency 352
▁length 352
▁represents 352
arian 351
gment 351
inations 351
▁appropriate 351
▁producing 351
▁touch 351
▁ts 351
gs 350
stem 350
▁cad 350
▁engineering 350
▁entry 350
▁medicine 350
▁recovered 350
▁sar 350
▁estim 349
▁positions 349
▁sharing 349
▁talent 349
ania 348
ils 348
lish 348
▁drawn 348
▁initial 348
▁li 348
▁quickly 348
▁wake 348
▁advantage 347
▁attempts 347
▁classes 347
▁hal 347
▁mel 347
▁tri 347
gent 346
oring 346
▁examination 346
▁exc 346
▁image 346
▁nine 346
▁suffered 346
iel 345
iveness 345
urday 345
▁choice 345
▁clar 345
▁honour 345
▁possibility 345
▁regul 345
▁relevant 345
0- 344
akers 344
ected 344
itar 344
▁eye 344
▁integration 344
▁ports 344
▁professional 344
alk 343
ights 343
ived 343
long 343
ru 343
▁aud 343
▁requirement 343
rog 342
▁orient 342
▁possess 342
33 341
55 341
gements 341
ni 341
▁center 341
▁contest 341
▁kar 341
▁neo 341
ö 340
▁acknowled 340
▁distrib 340
▁girl 340
▁operating 340
▁radio 340
▁z 340
hop 339
ocks 339
▁expert 339
▁extreme 339
▁fans 339
▁hur 339
▁kilomet 339
▁mention 339
▁titled 339
▁wall 339
TV 338
reme 338
▁consid 338
▁differences 338
▁enemies 338
▁headed 338
▁involvement 338
▁ord 338
▁playing 338
▁table 338
iving 337
▁memorial 337
▁pros 337
▁vital 337
encing 336
oned 336
ott 336
rupt 336
 336
¬ 336
▁aff 336
▁constructed 336
▁detailed 336
▁inspiration 336
▁via 336
37 335
gence 335
ili 335
iot 335
par 335
▁wide 335
vis 334
▁although 334
▁auton 334
▁design 334
▁hall 334
▁items 334
▁names 334
▁requires 334
▁towns 334
▁unable 334
... 333
ibilities 333
oor 333
ume 333
▁earn 333
▁principle 333
▁rival 333
ference 332
itors 332
▁beg 332
▁immigrants 332
▁rally 332
▁shah 332
197 331
enth 331
tr 331
▁china 331
▁english 331
▁settlement 331
▁mean 330
▁publicly 330
▁season 330
encies 329
ster 329
▁businesses 329
▁stories 329
aria 328
ila 328
▁criticism 328
▁ended 328
▁languages 328
▁meaning 328
▁traffic 328
oo 327
▁compet 327
▁concerning 327
▁fruit 327
▁selected 327
▁sold 327
airs 326
ele 326
ictions 326
▁comb 326
▁draft 326
▁minor 326
▁sanct 326
▁africa 325
▁else 325
▁faces 325
▁fil 325
▁named 325
▁stars 325
▁wind 325
ashed 324
ception 324
fall 324
▁boy 324
▁distributed 324
▁hub 324
▁kings 324
aked 323
esty 323
▁declaration 323
▁pack 323
▁recalled 323
▁website 323
36 322
abor 322
aq 322
ela 322
▁audience 322
▁plays 322
▁size 322
▁vul 322
▁content 321
▁goals 321
▁representative 321
▁sad 321
▁stress 321
body 320
mi 320
most 320
rary 320
▁colleges 320
▁inform 320
arent 319
▁hun 319
▁indic 319
▁recognition 319
illing 318
standing 318
▁drug 318
▁entirely 318
▁hosts 318
▁sale 318
▁turning 318
bert 317
bra 317
cast 317
▁province 317
▁sugar 317
▁virtually 317
chn 316
iary 316
though 316
▁departments 316
▁features 316
▁hind 316
aus 315
essed 315
lywood 315
van 315
xt 315
▁approximately 315
▁circumstances 315
▁employed 315
PS 314
ird 314
ores 314
▁conservative 314
▁index 314
CGT 313
▁comple 313
▁insur 313
▁opponents 313
▁suffering 313
▁uncle 313
iti 312
▁becomes 312
▁ben 312
▁drinking 312
▁external 312
▁inher 312
▁sciences 312
ession 311
lor 311
ordan 311
▁degree 311
▁normal 311
▁satellite 311
▁street 311
▁tren 311
▁wil 311
do 310
ix 310
▁administrative 310
▁deter 310
▁larger 310
▁liquid 310
▁looked 310
▁resign 310
▁restrictions 310
▁swe 310
▁transportation 310
olved 309
▁assistant 309
▁capable 309
▁compens 309
▁courts 309
▁easy 309
▁efficient 309
▁games 309
▁obvious 309
▁rein 309
▁weight 309
uit 308
▁certific 308
▁changing 308
▁core 308
▁gross 308
▁museum 308
▁universal 308
ires 307
rain 307
state 307
▁attacked 307
▁construct 307
▁contributed 307
▁era 307
▁flow 307
▁lank 307
▁milk 307
fe 306
owned 306
▁appear 306
▁autom 306
▁determin 306
▁ident 306
▁inspect 306
▁meat 306
▁northeast 306
▁observed 306
▁passing 306
▁severe 306
▁someone 306
ki 305
ops 305
urn 305
▁agre 305
▁ang 305
▁emphasis 305
▁improvement 305
▁reve 305
ases 304
▁arg 304
▁col 304
▁contributions 304
▁convers 304
▁false 304
▁mil 304
▁oppos 304
▁prot 304
▁seeing 304
PA 303
je 303
▁amend 303
▁charged 303
▁continu 303
▁forg 303
▁islands 303
▁pop 303
▁progressive 303
▁sister 303
▁structure 303
aker 302
anti 302
kel 302
▁conc 302
▁manifest 302
▁regulation 302
▁room 302
▁rose 302
▁wis 302
po 301
▁draw 301
▁removed 301
▁sit 301
▁thanks 301
▁thinking 301
▁cycl 300
▁fled 300
▁greatest 300
▁orders 300
▁tribes 300
point 299
run 299
utions 299
▁commented 299
▁coron 299
▁deployed 299
▁tru 299
▁voting 299
196 298
rest 298
▁covering 298
▁dance 298
▁feed 298
▁gun 298
▁install 298
▁teach 298
ips 297
▁ambassador 297
▁filled 297
▁spe 297
istics 296
itary 296
▁ann 296
▁bag 296
▁code 296
▁movements 296
▁ocean 296
▁praised 296
▁tree 296
▁wing 296
emen 295
icted 295
▁colle 295
▁heat 295
▁hence 295
▁impossible 295
▁lov 295
▁mess 295
▁revised 295
▁sovereign 295
cott 294
str 294
▁chair 294
▁currency 294
▁environmental 294
▁gram 294
▁intent 294
▁ordered 294
▁represented 294
▁sn 294
▁worst 294
ml 293
oura 293
▁attempted 293
▁collection 293
▁comprom 293
▁dub 293
▁exhibition 293
▁pleas 293
▁rescue 293
▁respons 293
UK 292
iling 292
▁dro 292
▁estate 292
▁miss 292
▁starting 292
▁sudden 292
▁teams 292
▁unf 292
▁virtual 292
gian 291
istry 291
rolled 291
uits 291
uration 291
▁affect 291
▁vol 291
uce 290
▁aw 290
▁rice 290
▁stones 290
▁tar 290
GOD 289
asc 289
dp 289
irect 289
lets 289
self 289
urt 289
▁bat 289
▁depend 289
▁drop 289
▁maintained 289
▁mode 289
vel 288
▁acqu 288
▁fasc 288
▁festivals 288
▁focused 288
▁rank 288
▁accident 287
▁ancient 287
▁located 287
▁maintaining 287
▁margin 287
▁organic 287
▁pit 287
▁winning 287
1617 286
▁category 286
▁immigration 286
▁sound 286
▁studies 286
asts 285
igible 285
iny 285
ols 285
▁analy 285
▁follows 285
▁god 285
▁nat 285
▁type 285
▁weak 285
aching 284
gen 284
gu 284
kan 284
▁broke 284
▁holds 284
▁require 284
▁shock 284
▁visiting 284
▁wounded 284
ae 283
etary 283
▁closer 283
▁considerable 283
▁developments 283
▁enemy 283
▁hot 283
▁initially 283
▁push 283
▁bann 282
▁begun 282
▁edition 282
▁membership 282
▁residents 282
▁ships 282
▁traditions 282
rics 281
▁cle 281
▁commissioner 281
▁cub 281
▁fresh 281
▁marked 281
▁marriage 281
▁ruled 281
▁summer 281
bur 280
oz 280
▁identity 280
▁lit 280
▁minutes 280
▁rat 280
▁reaching 280
▁trees 280
▁weekend 280
▁write 280
antly 279
ba 279
ii 279
work 279
▁bom 279
▁damage 279
▁electric 279
▁pen 279
▁raising 279
▁scen 279
▁tests 279
▁zone 279
cent 278
rin 278
▁claiming 278
▁worship 278
LSSP 277
ita 277
mine 277
zen 277
▁abd 277
▁cited 277
▁dependent 277
▁maintenance 277
▁necess 277
▁shel 277
ashi 276
held 276
ishing 276
ivals 276
▁achievement 276
▁listen 276
▁pharm 276
▁significantly 276
SLFP 275
eration 275
ught 275
using 275
▁favour 275
▁mat 275
▁overseas 275
▁stopped 275
▁coastal 274
▁dig 274
▁electronic 274
▁exceed 274
▁formation 274
▁gap 274
▁intention 274
▁mines 274
▁sid 274
▁theatre 274
▁watch 274
38 273
ano 273
clud 273
▁chance 273
▁outbreak 273
▁tact 273
cow 272
oking 272
wide 272
▁married 272
▁proved 272
▁statue 272
1998 271
atus 271
path 271
ses 271
▁appears 271
▁difficulties 271
▁documents 271
▁fill 271
▁letters 271
▁receiving 271
▁wait 271
ancy 270
rec 270
▁allied 270
▁atmosphere 270
▁commander 270
▁conclusion 270
▁numerous 270
85 269
fts 269
ques 269
▁campus 269
▁correct 269
▁distance 269
▁est 269
▁overs 269
▁respectively 269
▁cancer 268
▁comfort 268
▁favor 268
▁materials 268
▁pad 268
▁violent 268
olic 267
▁stran 267
▁vik 267
lay 266
▁arab 266
▁manag 266
▁rum 266
▁statistics 266
▁telephone 266
▁tot 266
▁tribe 266
bar 265
enant 265
ishment 265
power 265
▁breaking 265
▁diplom 265
▁gods 265
▁leaving 265
▁supreme 265
feld 264
ints 264
oard 264
omb 264
▁entering 264
▁gain 264
▁marketing 264
▁passenger 264
▁prove 264
▁sufficient 264
▁sust 264
▁thir 264
illa 263
▁animal 263
▁awarded 263
▁white 263
br 262
▁bases 262
▁exec 262
▁introduction 262
▁kid 262
▁mys 262
▁newly 262
▁peas 262
▁sack 262
pg 261
▁heavily 261
▁missile 261
▁nav 261
▁returns 261
abled 260
aland 260
sters 260
▁extensive 260
▁girls 260
▁inhabitants 260
▁regarded 260
▁tap 260
aps 259
ares 259
▁alleg 259
▁diagn 259
▁honor 259
▁links 259
▁narrow 259
▁pil 259
▁stret 259
ael 258
urb 258
▁admitted 258
▁buildings 258
▁easily 258
▁increases 258
▁intended 258
▁referred 258
▁remote 258
▁remove 258
II 257
dy 257
level 257
ole 257
onse 257
pected 257
rat 257
▁divisions 257
▁fav 257
▁isolated 257
▁magazine 257
▁presidency 257
▁serving 257
▁showing 257
▁sle 257
▁trained 257
▁vent 257
dem 256
▁budd 256
▁categories 256
▁disappe 256
▁fac 256
▁treas 256
▁weather 256
ario 255
astic 255
nan 255
play 255
ump 255
▁articles 255
▁competitive 255
▁consolid 255
▁dispute 255
▁mainly 255
▁nic 255
▁pure 255
▁signs 255
arily 254
ipp 254
oul 254
▁expanded 254
▁harvest 254
▁identify 254
▁recruit 254
▁sets 254
▁strateg 254
aph 253
atures 253
fin 253
rip 253
▁actually 253
▁commemor 253
▁consumption 253
▁elimin 253
▁farm 253
▁generally 253
▁indigenous 253
▁input 253
▁introd 253
▁sales 253
▁spiritual 253
▁strongly 253
▁submitted 253
▁aug 252
▁elder 252
▁factor 252
▁mot 252
▁notice 252
▁speaker 252
▁subsequent 252
▁temporary 252
▁valid 252
44 251
zh 251
▁evac 251
▁fee 251
▁fle 251
▁lived 251
▁massacre 251
▁strict 251
ique 250
▁alt 250
▁bas 250
▁departed 250
▁jun 250
▁latter 250
▁schedule 250
▁territories 250
▁van 250
▁vessels 250
berg 249
govern 249
▁corner 249
▁trad 249
▁useful 249
commun 248
oles 248
▁accommod 248
▁courses 248
▁cul 248
▁drivers 248
▁locations 248
▁prin 248
▁shif 248
▁writing 248
GM 247
ikh 247
ios 247
ulating 247
uts 247
▁arbit 247
▁fine 247
▁generated 247
▁register 247
▁saved 247
▁sick 247
▁tem 247
▁toll 247
▁wa 247
1991 246
95 246
bl 246
clusion 246
ordin 246
oric 246
uz 246
▁broadcasting 246
▁friendship 246
▁mud 246
▁pursue 246
▁qual 246
▁reference 246
▁religion 246
▁rock 246
▁tear 246
43 245
inted 245
iven 245
▁ending 245
▁mit 245
▁ranks 245
▁wom 245
cr 244
position 244
za 244
▁accompanied 244
▁difference 244
▁entitled 244
▁famous 244
▁fan 244
▁marks 244
▁quar 244
▁scre 244
▁singapore 244
bal 243
▁centers 243
▁corresponding 243
▁dil 243
▁easier 243
▁fate 243
▁greatly 243
▁optim 243
▁preced 243
▁tex 243
▁understood 243
iff 242
ille 242
lect 242
▁fifty 242
▁innoc 242
▁iron 242
▁jay 242
head 241
with 241
▁adding 241
▁books 241
▁channels 241
▁electronics 241
rence 240
▁attempting 240
▁lose 240
▁preparation 240
▁purposes 240
▁suicide 240
47 239
national 239
ota 239
▁agents 239
▁cutting 239
▁dial 239
▁duties 239
▁es 239
▁existence 239
▁highway 239
▁installed 239
ature 238
iji 238
now 238
▁channel 238
▁continuous 238
▁crit 238
▁images 238
▁inspired 238
▁rad 238
▁tested 238
▁thirty 238
▁vib 238
cel 237
▁aut 237
▁feature 237
▁fifth 237
ava 236
gal 236
ifies 236
▁atomic 236
▁blue 236
▁cards 236
▁driving 236
▁golden 236
▁novel 236
▁pp 236
▁route 236
▁trading 236
193 235
epend 235
▁blind 235
▁falling 235
▁mut 235
▁promoted 235
▁raw 235
▁superv 235
▁whe 235
bit 234
▁abuse 234
▁beat 234
▁eve 234
▁granted 234
▁leg 234
▁multiple 234
▁probably 234
▁repl 234
▁reservoir 234
▁trump 234
mr 233
oration 233
pm 233
rate 233
▁bed 233
▁corn 233
▁ltd 233
▁multip 233
▁symbol 233
▁wider 233
imb 232
▁bes 232
▁brand 232
▁ed 232
▁fallen 232
▁formally 232
▁grown 232
▁outstanding 232
▁pal 232
▁twelve 232
▁ug 232
ader 231
grad 231
never 231
▁aust 231
▁cattle 231
▁flights 231
▁nurs 231
▁referring 231
▁reflected 231
▁sort 231
▁wat 231
41 230
MP 230
ifications 230
ifornia 230
▁bin 230
▁dangerous 230
▁globe 230
▁ment 230
GDP 229
ander 229
oly 229
uri 229
▁associ 229
▁borrow 229
▁bu 229
▁component 229
▁cop 229
▁debut 229
▁federation 229
▁glob 229
▁rac 229
▁resort 229
▁select 229
▁upd 229
▁worldwide 229
aints 228
claimed 228
rous 228
asa 227
gress 227
ocated 227
ters 227
vers 227
▁joining 227
▁original 227
▁proced 227
▁stamp 227
rated 226
▁coup 226
▁desp 226
▁enjoy 226
▁exped 226
▁grounds 226
▁korea 226
▁mist 226
▁motor 226
▁oblig 226
▁param 226
▁rational 226
▁sy 226
▁waiting 226
aim 225
bb 225
fort 225
ject 225
mark 225
reg 225
▁assum 225
▁bottom 225
▁display 225
▁eag 225
▁perhaps 225
▁rid 225
ca 224
rav 224
▁bare 224
▁magn 224
▁nan 224
▁shoot 224
▁treated 224
BBC 223
aves 223
night 223
▁arrangement 223
▁aus 223
▁communications 223
▁hel 223
▁mining 223
▁perform 223
▁samples 223
56 222
had 222
ingly 222
organ 222
otic 222
pat 222
rian 222
¦ 222
▁apply 222
▁assemb 222
▁contrast 222
▁crew 222
▁referend 222
▁spot 222
46 221
iced 221
▁nomin 221
51 220
ails 220
ault 220
oms 220
rew 220
rose 220
▁calcul 220
▁celebration 220
▁ib 220
▁mart 220
▁pe 220
▁seat 220
▁sheep 220
UPA 219
akes 219
icip 219
may 219
reek 219
was 219
▁administ 219
▁bro 219
▁guest 219
▁israel 219
▁mountain 219
▁resulting 219
▁teaching 219
aur 218
car 218
▁audio 218
▁dim 218
▁explain 218
▁kal 218
▁mental 218
▁permission 218
▁seem 218
▁susp 218
▁wine 218
ding 217
ellor 217
pel 217
▁band 217
▁cargo 217
▁faster 217
▁option 217
▁pain 217
▁selection 217
▁simpl 217
inger 216
under 216
var 216
velop 216
vest 216
▁proof 216
▁veget 216
atch 215
olas 215
▁cit 215
▁computer 215
▁da 215
▁dominated 215
▁drew 215
▁endors 215
▁gh 215
▁heights 215
▁heroes 215
▁platforms 215
▁roll 215
▁rout 215
PSG 214
anced 214
atin 214
char 214
gl 214
ild 214
lection 214
upt 214
▁artist 214
▁quick 214
▁reportedly 214
▁sometimes 214
▁ultimately 214
▁artificial 213
▁ca 213
▁divided 213
▁exposed 213
▁internet 213
▁simple 213
▁suitable 213
ounded 212
tle 212
uster 212
▁box 212
▁didn 212
▁instruct 212
▁obtained 212
▁prohib 212
▁relatively 212
antine 211
ded 211
een 211
ule 211
▁aside 211
▁casualties 211
▁components 211
▁enc 211
▁fishing 211
▁percentage 211
▁recorded 211
▁rub 211
▁sem 211
▁sites 211
▁surrounding 211
▁upgr 211
▁upper 211
omous 210
omy 210
▁bang 210
▁cry 210
▁legislative 210
▁moral 210
▁mountains 210
▁pract 210
▁rivers 210
▁script 210
0, 209
apping 209
born 209
ography 209
▁rele 209
icated 208
lem 208
mad 208
▁belief 208
▁cold 208
▁couple 208
▁devices 208
▁judges 208
▁smaller 208
▁wheat 208
UMP 207
law 207
▁actual 207
▁medal 207
▁race 207
▁roots 207
▁spend 207
▁split 207
▁toler 207
39 206
UPFA 206
light 206
por 206
sy 206
▁abandoned 206
▁allowing 206
▁confir 206
▁purchase 206
▁recon 206
▁style 206
1997 205
mb 205
mp 205
ocracy 205
▁aspect 205
▁bore 205
▁conver 205
▁elabor 205
▁occupied 205
▁planet 205
▁suppl 205
▁terminal 205
▁tourist 205
195 204
eries 204
ieth 204
▁announ 204
▁appoint 204
▁cultiv 204
▁exer 204
▁habit 204
▁origin 204
▁polic 204
▁teacher 204
▁uns 204
igan 203
keep 203
ket 203
▁committe 203
▁diver 203
▁feeling 203
▁leaf 203
▁negative 203
▁slow 203
erated 202
ether 202
iger 202
jun 202
ym 202
▁corrupt 202
▁counsel 202
▁intellectual 202
▁judicial 202
▁municipal 202
▁recover 202
alled 201
iver 201
onic 201
oph 201
49 200
▁cum 200
▁falls 200
▁newspapers 200
▁ric 200
▁wedding 200
0. 199
1995 199
agues 199
ential 199
eria 199
gn 199
izes 199
ogy 199
othes 199
▁const 199
▁dyn 199
▁regularly 199
▁russia 199
ange 198
hl 198
place 198
ply 198
turn 198
ulations 198
▁aer 198
▁amounts 198
▁angel 198
▁asian 198
▁believes 198
▁bought 198
▁bright 198
▁captain 198
▁chancellor 198
▁dar 198
▁destination 198
▁doors 198
▁dropped 198
▁excellent 198
▁method 198
▁minim 198
▁perfect 198
UNF 197
book 197
gi 197
izer 197
onia 197
uals 197
▁centuries 197
▁map 197
▁obs 197
▁reign 197
▁starring 197
▁taught 197
▁valley 197
CPI 196
alth 196
erved 196
gments 196
▁bureau 196
▁connecting 196
▁diverse 196
▁fashion 196
▁hack 196
▁male 196
▁pull 196
▁quant 196
▁reorgan 196
oman 195
zz 195
▁dur 195
▁helicopter 195
▁substant 195
▁transferred 195
▁treaty 195
▁younger 195
63 194
ovo 194
▁alive 194
▁argued 194
▁ark 194
▁doctor 194
▁eval 194
▁leads 194
▁nearby 194
▁prompt 194
omet 193
rations 193
▁bah 193
▁cook 193
▁effects 193
▁motion 193
▁procedure 193
▁rede 193
▁reporting 193
▁reserve 193
▁secondary 193
eed 192
eters 192
rent 192
side 192
theless 192
▁argument 192
▁controlled 192
▁fel 192
▁finding 192
▁monthly 192
▁moves 192
▁observ 192
▁permitted 192
▁treat 192
▁vessel 192
NPA 191
cho 191
▁branches 191
▁choose 191
▁circ 191
▁declined 191
▁managed 191
▁mur 191
▁ol 191
▁pick 191
▁piece 191
▁sitting 191
▁sor 191
▁tong 191
64 190
74 190
enses 190
▁escape 190
▁exit 190
▁fixed 190
▁mechan 190
▁multi 190
▁subsequently 190
▁twice 190
ody 189
▁artists 189
▁counterpart 189
▁enterprise 189
▁forty 189
▁sleep 189
▁struck 189
▁trouble 189
hum 188
lands 188
rum 188
uls 188
▁bull 188
▁experienced 188
▁kan 188
▁onto 188
▁park 188
▁portion 188
▁shortly 188
archy 187
ilit 187
inder 187
outs 187
ucted 187
uy 187
will 187
▁benef 187
▁iss 187
▁occurred 187
▁options 187
▁replace 187
▁retail 187
PCF 186
riers 186
▁column 186
▁distinguished 186
▁equivalent 186
▁instrument 186
▁maur 186
▁researchers 186
▁stable 186
1989 185
73 185
hol 185
ien 185
iest 185
olf 185
▁appearance 185
▁elsewhere 185
▁functions 185
▁kit 185
▁nomination 185
▁pas 185
▁retirement 185
▁shares 185
▁smooth 185
▁stim 185
▁stra 185
erate 184
olog 184
ould 184
rans 184
sec 184
tha 184
uments 184
§ 184
ü 184
▁applied 184
▁exist 184
▁relation 184
▁stem 184
68 183
pic 183
while 183
▁curt 183
▁decre 183
▁element 183
▁examples 183
▁ox 183
▁pa 183
▁theat 183
▁thor 183
▁twent 183
▁wr 183
aro 182
how 182
prise 182
ston 182
ugg 182
▁comedy 182
▁gates 182
▁neigh 182
▁opposite 182
▁pieces 182
▁primarily 182
▁unless 182
board 181
bon 181
oper 181
▁cm 181
▁execution 181
▁journalist 181
▁tribute 181
▁weapon 181
▁wood 181
hern 180
inter 180
ula 180
▁advice 180
▁alle 180
▁caught 180
▁herself 180
▁returning 180
eman 179
rah 179
uous 179
▁afghanistan 179
▁coll 179
▁collected 179
▁crowd 179
▁female 179
▁file 179
▁gained 179
▁maj 179
▁players 179
▁preserve 179
▁publication 179
▁score 179
▁surface 179
▁tanks 179
▁writes 179
66 178
anted 178
icians 178
ilar 178
ken 178
rig 178
▁blow 178
▁cinem 178
▁der 178
▁pool 178
▁pregn 178
▁retired 178
▁software 178
▁supplied 178
X 177
inal 177
person 177
scale 177
sen 177
▁causes 177
▁invol 177
▁repe 177
▁sees 177
▁usual 177
▁venture 177
67 176
field 176
itt 176
vard 176
▁arr 176
▁camer 176
▁fish 176
▁intense 176
▁interested 176
▁lawyer 176
▁polar 176
▁professor 176
▁ps 176
▁recognized 176
▁ruth 176
54 175
ibly 175
▁detail 175
▁notes 175
▁opportun 175
▁prince 175
▁recommended 175
▁sever 175
cd 174
col 174
ensive 174
iments 174
jamin 174
▁alien 174
▁assumed 174
▁beautiful 174
▁faculty 174
▁featuring 174
▁fired 174
▁guilty 174
▁machine 174
▁pup 174
▁ranking 174
▁runs 174
▁salv 174
▁shield 174
▁tas 174
class 173
ider 173
ushed 173
Â 173
▁academ 173
▁approached 173
▁manufact 173
▁owners 173
▁protocol 173
▁sir 173
▁succeed 173
guard 172
owed 172
ross 172
▁correspond 172
▁dismissed 172
▁fly 172
▁liter 172
▁mir 172
▁replaced 172
▁stayed 172
58 171
▁academy 171
▁accessible 171
▁burning 171
▁dang 171
▁dry 171
▁grave 171
▁hang 171
▁hyp 171
▁lowest 171
▁scholarship 171
CPM 170
bor 170
case 170
orient 170
ox 170
ption 170
resp 170
▁abund 170
▁dated 170
▁exhib 170
▁mach 170
▁manage 170
▁philosophy 170
▁representing 170
▁rever 170
▁tools 170
▁wealthy 170
57 169
anna 169
itz 169
market 169
ogan 169
rup 169
 169
▁beauty 169
▁gem 169
▁hydro 169
▁manager 169
▁patient 169
▁patri 169
▁russian 169
▁selling 169
▁sweet 169
▁£ 169
cap 168
gement 168
oes 168
orts 168
pin 168
▁ak 168
▁captured 168
▁church 168
▁ends 168
▁grid 168
▁legacy 168
▁plastic 168
▁revol 168
▁usa 168
▁whereas 168
53 167
98 167
UAW 167
election 167
house 167
porter 167
uan 167
▁eventually 167
▁guer 167
▁losing 167
▁otherwise 167
▁records 167
▁trigger 167
▁winners 167
ands 166
ender 166
enged 166
jpg 166
uced 166
▁aband 166
▁abs 166
▁accum 166
▁bol 166
▁consist 166
▁conspir 166
▁factors 166
▁fame 166
▁guide 166
▁hor 166
▁legisl 166
▁patrol 166
▁stating 166
▁subsc 166
▁warriors 166
aste 165
▁bor 165
▁ceo 165
▁differ 165
▁dismiss 165
▁gro 165
▁inj 165
▁suit 165
agger 164
anim 164
atively 164
atra 164
issions 164
pc 164
▁empty 164
▁iii 164
▁layer 164
▁mag 164
▁obtain 164
▁sexual 164
▁syn 164
apt 163
enced 163
going 163
mits 163
▁avo 163
▁camera 163
▁custom 163
▁occasions 163
▁pushed 163
▁resist 163
▁restoration 163
▁sel 163
aming 162
aughter 162
cle 162
ilding 162
mm 162
oa 162
resent 162
ros 162
▁absol 162
▁cens 162
▁cher 162
▁cup 162
▁du 162
▁founding 162
▁grace 162
▁removal 162
▁storm 162
▁straight 162
▁throne 162
▁transition 162
▁yield 162
71 161
friend 161
ino 161
▁activ 161
▁combination 161
▁eg 161
▁equipped 161
▁ess 161
▁familiar 161
▁fighter 161
▁flex 161
▁ga 161
▁handling 161
▁kg 161
▁liber 161
▁prevented 161
▁provincial 161
▁squad 161
▁tool 161
▁vide 161
aster 160
front 160
gra 160
▁absence 160
▁arrival 160
▁clim 160
▁grew 160
▁ng 160
▁performed 160
▁permit 160
▁reviews 160
▁shape 160
▁subst 160
ached 159
▁campaigns 159
▁explan 159
▁heav 159
▁helps 159
▁lect 159
▁phys 159
▁tiger 159
61 158
active 158
cks 158
iller 158
teen 158
▁birthday 158
▁branch 158
▁chamber 158
▁crown 158
▁depth 158
▁engineers 158
▁explicit 158
▁flour 158
▁founded 158
▁sport 158
▁supports 158
▁writer 158
erson 157
met 157
ode 157
onment 157
thy 157
▁boat 157
▁collaps 157
▁dust 157
▁educ 157
▁grass 157
▁plus 157
▁prest 157
▁royal 157
▁scand 157
▁spect 157
▁users 157
AVM 156
chen 156
enders 156
estone 156
hall 156
iser 156
ove 156
▁adop 156
▁behaviour 156
▁cho 156
▁composer 156
▁cycle 156
▁grad 156
▁hotel 156
▁limits 156
▁mayor 156
▁mm 156
▁scar 156
▁wearing 156
entially 155
erse 155
pop 155
rise 155
▁club 155
▁displ 155
▁earned 155
▁earthquake 155
▁mac 155
▁missions 155
▁neg 155
▁rebu 155
▁reconstruction 155
▁routes 155
▁rul 155
▁vow 155
1996 154
IAEA 154
arked 154
lines 154
oslav 154
range 154
tic 154
▁frame 154
▁ho 154
▁instance 154
▁ip 154
▁iv 154
▁lic 154
▁operated 154
▁protected 154
▁reading 154
▁satell 154
▁settled 154
▁soldier 154
83 153
eding 153
▁banned 153
▁containing 153
▁intellect 153
▁machines 153
▁princip 153
▁scientist 153
▁ser 153
▁sevent 153
▁techniques 153
ache 152
cluding 152
cribed 152
ech 152
fo 152
miss 152
omm 152
pled 152
ère 152
▁composed 152
▁honey 152
▁possession 152
▁purch 152
▁serves 152
▁transmission 152
amine 151
bus 151
emed 151
free 151
ivan 151
rying 151
used 151
▁appointment 151
▁chose 151
▁dischar 151
▁excess 151
▁mine 151
▁societies 151
▁string 151
▁transit 151
▁ty 151
▁volunteers 151
agu 150
aks 150
oral 150
oti 150
rupted 150
undred 150
▁buried 150
▁contained 150
▁cow 150
▁defined 150
▁depart 150
▁drag 150
▁immigr 150
▁instruments 150
▁operate 150
▁x 150
edy 149
lar 149
raph 149
uma 149
▁driver 149
▁foc 149
▁recognised 149
▁subjects 149
mas 148
sw 148
▁closing 148
▁coc 148
▁coinc 148
▁hat 148
▁imper 148
▁location 148
▁manufacturers 148
▁moon 148
▁tank 148
▁viewed 148
aily 147
ato 147
gram 147
iders 147
ilt 147
mc 147
oud 147
pective 147
race 147
rot 147
urally 147
▁exists 147
▁floor 147
▁gift 147
▁lik 147
▁predomin 147
▁provinces 147
▁ratio 147
▁reli 147
▁scat 147
aga 146
cer 146
ills 146
lock 146
ploy 146
▁concrete 146
▁defeated 146
▁exposure 146
▁hab 146
▁indicate 146
▁indicates 146
▁logic 146
▁panel 146
▁parade 146
▁pav 146
▁personality 146
▁poss 146
▁pret 146
▁prize 146
▁seventh 146
▁somewhat 146
▁types 146
▁uses 146
59 145
amic 145
iar 145
igious 145
▁alongside 145
▁animals 145
▁broadcast 145
▁capac 145
▁chamb 145
▁finan 145
▁guests 145
▁hosted 145
▁iran 145
▁match 145
▁subs 145
▁tied 145
▁visible 145
claim 144
igen 144
ledge 144
star 144
sts 144
uda 144
zer 144
▁attending 144
▁designated 144
▁determine 144
▁fre 144
▁freight 144
▁gender 144
▁hide 144
▁literature 144
▁mig 144
▁soft 144
▁stages 144
▁usually 144
▁variety 144
1994 143
ICFI 143
abet 143
ads 143
hour 143
read 143
usal 143
▁abst 143
▁attacking 143
▁blocks 143
▁finished 143
▁fu 143
▁hair 143
▁leaves 143
▁lion 143
▁root 143
▁sand 143
81 142
appo 142
city 142
eper 142
hest 142
load 142
rick 142
▁arts 142
▁compos 142
▁gif 142
▁officially 142
▁performing 142
▁picture 142
▁ranging 142
▁tag 142
▁uk 142
▁ult 142
77 141
84 141
ady 141
gers 141
icks 141
iety 141
ker 141
▁bullet 141
▁cars 141
▁enforcement 141
▁essentially 141
▁french 141
▁liberation 141
▁lou 141
▁shops 141
▁spring 141
CWC 140
ords 140
tering 140
▁cp 140
▁departure 140
▁impris 140
▁networks 140
▁prayer 140
▁residence 140
▁rig 140
▁ring 140
▁signal 140
▁sou 140
ellig 139
isf 139
pp 139
raine 139
▁australia 139
▁congressional 139
▁embassy 139
▁game 139
▁interior 139
▁plain 139
▁tea 139
CEO 138
agn 138
eff 138
haw 138
iang 138
val 138
▁crow 138
▁dates 138
▁stream 138
194 137
hist 137
ipe 137
▁african 137
▁bay 137
▁constitu 137
▁covers 137
▁edge 137
▁models 137
▁obl 137
▁pilot 137
▁readers 137
▁sessions 137
▁window 137
1516 136
bel 136
chan 136
hom 136
iew 136
ola 136
worth 136
▁burned 136
▁customers 136
▁laboratory 136
▁passage 136
▁saf 136
hard 135
herent 135
ield 135
lant 135
▁az 135
▁bombard 135
▁capit 135
▁corps 135
▁doctrine 135
▁forests 135
▁funded 135
▁mater 135
▁mem 135
▁premier 135
▁shadow 135
▁uncertain 135
ucing 134
▁affili 134
▁bell 134
▁cant 134
▁deemed 134
▁desert 134
▁destro 134
▁devoted 134
▁enjoyed 134
▁et 134
▁evolution 134
▁exception 134
▁finds 134
▁inner 134
▁missing 134
▁mp 134
▁papers 134
▁presents 134
▁print 134
▁specified 134
▁termin 134
▁tur 134
CSU 133
ceived 133
ife 133
mid 133
nar 133
phal 133
▁acquisition 133
▁biological 133
▁carbon 133
▁dominant 133
▁fabric 133
▁hill 133
▁lyrics 133
▁quiet 133
▁simultaneously 133
▁suggests 133
▁thereafter 133
1993 132
76 132
ificant 132
ival 132
▁cells 132
▁chall 132
▁contemporary 132
▁helicop 132
▁lights 132
▁lt 132
▁photo 132
▁revival 132
▁store 132
▁succeeded 132
▁wear 132
ateg 131
eland 131
ignment 131
lan 131
unk 131
▁coun 131
▁jum 131
▁lin 131
▁miles 131
▁mineral 131
▁ownership 131
▁rot 131
▁secular 131
▁supplement 131
aces 130
gam 130
ison 130
rac 130
▁champion 130
▁cricket 130
▁earliest 130
▁episode 130
▁gradu 130
▁originally 130
▁reporter 130
▁spr 130
▁surrender 130
orship 129
osis 129
ties 129
ux 129
▁arranged 129
▁copy 129
▁damaged 129
▁equip 129
▁hav 129
▁memory 129
▁mostly 129
▁rece 129
▁tenure 129
▁thin 129
▁vic 129
▁walls 129
1947 128
cha 128
terior 128
▁haz 128
▁listed 128
▁meets 128
▁movie 128
▁saint 128
▁ther 128
▁usage 128
▁victim 128
▁wild 128
fs 127
net 127
road 127
ulus 127
▁amaz 127
▁ast 127
▁boom 127
▁rating 127
▁sixth 127
▁sponsored 127
▁trap 127
▁voc 127
87 126
iod 126
lex 126
uated 126
▁bind 126
▁clinical 126
▁concent 126
▁dram 126
▁giant 126
▁manufactured 126
▁pron 126
▁releases 126
▁restrict 126
▁situations 126
▁specifically 126
▁theory 126
▁valuable 126
▁ze 126
bing 125
eto 125
iament 125
room 125
roph 125
▁acknow 125
▁cyl 125
▁ideal 125
▁intern 125
▁lev 125
▁lim 125
▁mainstream 125
▁unex 125
PPP 124
adem 124
aped 124
apore 124
real 124
redited 124
▁bir 124
▁converted 124
▁entertainment 124
▁exclusively 124
▁executed 124
▁involves 124
▁marg 124
▁output 124
▁pair 124
▁promot 124
▁sang 124
▁suspended 124
▁tight 124
▁truck 124
▁turns 124
USSR 123
arters 123
icient 123
imir 123
ipl 123
style 123
utor 123
▁.. 123
▁adj 123
▁drawing 123
▁horn 123
▁mus 123
▁pakistan 123
▁portray 123
▁publ 123
▁saints 123
▁structural 123
▁visitors 123
▁wings 123
1948 122
1983 122
ape 122
ffic 122
greg 122
igr 122
ilities 122
last 122
orpor 122
tan 122
▁capture 122
▁flying 122
▁indonesia 122
▁interviews 122
▁isa 122
▁parad 122
▁secured 122
▁spir 122
▁tick 122
▁trail 122
86 121
FDP 121
PP 121
SP 121
aign 121
arr 121
cul 121
iki 121
jud 121
ounds 121
ulsion 121
wer 121
▁boys 121
▁crossed 121
▁cru 121
▁european 121
▁exactly 121
▁ice 121
▁lady 121
▁liberty 121
▁rav 121
▁refer 121
▁sail 121
▁square 121
▁structures 121
▁uniform 121
aba 120
fc 120
ients 120
ku 120
orous 120
▁bon 120
▁bridges 120
▁consists 120
▁describing 120
▁orbit 120
▁parks 120
▁politician 120
▁shop 120
78 119
99 119
gel 119
mor 119
ographic 119
è 119
▁annually 119
▁asc 119
▁attached 119
▁compete 119
▁flat 119
▁germany 119
▁gest 119
▁lesser 119
▁minute 119
▁muslim 119
▁peninsula 119
▁proportion 119
▁sequence 119
▁sex 119
acher 118
agre 118
ko 118
pling 118
urg 118
▁0. 118
▁begins 118
▁consistent 118
▁convinced 118
▁hung 118
▁lob 118
▁oper 118
▁oxygen 118
▁pap 118
▁pock 118
▁properties 118
▁psych 118
▁receives 118
▁ru 118
▁waves 118
▁wed 118
69 117
amps 117
burg 117
making 117
prod 117
related 117
rial 117
soft 117
▁apparently 117
▁canada 117
▁circle 117
▁comparison 117
▁displayed 117
▁kab 117
▁merc 117
▁opponent 117
▁prob 117
▁residential 117
▁retain 117
▁rooms 117
▁separation 117
▁shore 117
▁survive 117
88 116
96 116
gest 116
rell 116
rict 116
rief 116
stan 116
▁acres 116
▁affair 116
▁bc 116
▁boss 116
▁creative 116
▁flows 116
▁gulf 116
▁noise 116
▁organiz 116
▁owned 116
▁penalty 116
▁resc 116
▁sky 116
▁thailand 116
achment 115
ado 115
ette 115
ready 115
▁apparent 115
▁basket 115
▁calendar 115
▁commissioned 115
▁engine 115
▁escaped 115
▁fest 115
▁flo 115
▁fro 115
▁illust 115
▁instr 115
▁metres 115
▁monarch 115
▁neighbor 115
▁practical 115
▁remov 115
▁settlements 115
▁starts 115
alia 114
ctic 114
eing 114
round 114
step 114
urban 114
▁gir 114
▁prefer 114
▁profess 114
▁sentence 114
▁ticket 114
▁warfare 114
▁weekly 114
cluded 113
conn 113
esc 113
ission 113
ported 113
yard 113
▁brazil 113
▁constituency 113
▁cotton 113
▁emot 113
▁functional 113
▁furn 113
▁gent 113
▁opt 113
▁rare 113
▁spectrum 113
1415 112
89 112
JHU 112
amin 112
estyle 112
itch 112
lers 112
lik 112
pie 112
water 112
▁airlines 112
▁critics 112
▁difficulty 112
▁doesn 112
▁extract 112
▁historically 112
▁horses 112
▁kil 112
▁mounted 112
▁superior 112
▁va 112
▁viewers 112
TNA 111
▁abb 111
▁aver 111
▁cloud 111
▁device 111
▁discovered 111
▁economics 111
▁fig 111
▁mix 111
▁moderate 111
▁pattern 111
▁sequ 111
% 110
adian 110
eu 110
vir 110
▁allows 110
▁artillery 110
▁attracted 110
▁bott 110
▁definition 110
▁ig 110
▁rebellion 110
▁resid 110
▁seemed 110
▁serial 110
▁stick 110
▁strip 110
▁traditionally 110
1979 109
ais 109
band 109
cro 109
fit 109
ographer 109
omas 109
▁automatic 109
▁british 109
▁causing 109
▁cler 109
▁controls 109
▁marine 109
▁navigation 109
▁occur 109
▁passion 109
▁possibly 109
▁recip 109
▁ruler 109
▁tons 109
▁virt 109
CIO 108
MGR 108
din 108
ethe 108
fi 108
inte 108
kin 108
ora 108
utt 108
▁candid 108
▁cert 108
▁coach 108
▁colour 108
▁composition 108
▁kam 108
▁noble 108
▁produces 108
▁restricted 108
▁reverse 108
175 107
amese 107
cially 107
cons 107
elect 107
enez 107
gre 107
lad 107
pi 107
put 107
ternal 107
▁bod 107
▁bog 107
▁conquest 107
▁depends 107
▁expos 107
▁fa 107
▁gradually 107
▁kids 107
▁older 107
▁owner 107
▁reputation 107
▁saturday 107
▁speakers 107
▁surrounded 107
▁wal 107
1968 106
overs 106
page 106
rection 106
sch 106
▁advert 106
▁bund 106
▁cart 106
▁compar 106
▁featured 106
▁nevertheless 106
▁skin 106
▁transl 106
115 105
1971 105
FBI 105
ISSE 105
cious 105
pri 105
teenth 105
vant 105
wart 105
week 105
▁admiral 105
▁assigned 105
▁cancelled 105
▁garden 105
▁guards 105
▁ille 105
▁jam 105
▁mans 105
▁raid 105
▁relative 105
▁repair 105
▁triple 105
▁vot 105
▁walking 105
▁wheel 105
NSSP 104
atern 104
cut 104
made 104
ograph 104
olly 104
tim 104
▁contains 104
▁cust 104
▁discovery 104
▁existed 104
▁graduate 104
▁gw 104
▁handle 104
▁haven 104
▁pictures 104
▁rab 104
▁representation 104
▁roof 104
arus 103
bul 103
estab 103
forced 103
ples 103
rier 103
ysis 103
zil 103
▁boats 103
▁census 103
▁chapter 103
▁diesel 103
▁domain 103
▁entrance 103
▁ly 103
▁mc 103
▁notably 103
▁precip 103
▁stre 103
▁surviv 103
▁tob 103
▁tv 103
▁zero 103
aire 102
heart 102
inem 102
like 102
roit 102
uis 102
urch 102
win 102
▁ach 102
▁cam 102
▁deput 102
▁jury 102
▁load 102
▁passes 102
▁ped 102
▁retreat 102
▁sole 102
▁themes 102
0000 101
chers 101
edia 101
etic 101
iat 101
oning 101
ports 101
uf 101
uin 101
vision 101
▁america 101
▁behavior 101
▁cab 101
▁emotional 101
▁foster 101
▁frequent 101
▁fut 101
▁kick 101
▁learned 101
▁om 101
▁peak 101
▁recru 101
▁row 101
▁species 101
▁spons 101
▁sporting 101
▁squ 101
▁ss 101
anni 100
avel 100
engers 100
ipped 100
mann 100
more 100
ulum 100
▁athlet 100
▁cas 100
▁collections 100
▁injuries 100
▁northe 100
▁pilots 100
▁populations 100
▁preserv 100
▁resident 100
▁ri 100
▁suc 100
ago 99
alan 99
ero 99
ersed 99
hammad 99
iro 99
kir 99
occ 99
oded 99
ulous 99
ument 99
▁absolute 99
▁cand 99
▁charity 99
▁frequently 99
▁ham 99
▁incorpor 99
▁photographs 99
▁photos 99
▁plane 99
▁salt 99
▁southeast 99
▁studied 99
▁tor 99
aper 98
enge 98
rey 98
▁compound 98
▁dom 98
▁dramatic 98
▁dup 98
▁jump 98
▁mond 98
▁murdered 98
▁pla 98
▁studying 98
111 97
94 97
ason 97
bey 97
bre 97
erg 97
order 97
stone 97
▁architect 97
▁assisted 97
▁dock 97
▁founder 97
▁fun 97
▁mills 97
▁placing 97
▁vo 97
NDA 96
aught 96
awa 96
ems 96
ested 96
nic 96
pers 96
rill 96
uate 96
▁arena 96
▁concentration 96
▁fo 96
▁landmark 96
▁resp 96
▁rif 96
CCP 95
ailand 95
ico 95
no 95
ographical 95
olition 95
ucks 95
▁buddhist 95
▁conventional 95
▁describe 95
▁elementary 95
▁enforce 95
▁gear 95
▁independently 95
▁lands 95
▁marshal 95
▁ninet 95
▁pri 95
▁sant 95
▁unknown 95
▁veter 95
▁ward 95
▁ware 95
1967 94
1988 94
97 94
PSOE 94
cal 94
core 94
irt 94
las 94
oda 94
ouses 94
ün 94
ür 94
▁aar 94
▁armies 94
▁bapt 94
▁brain 94
▁dal 94
▁hidden 94
▁japanese 94
▁libert 94
▁palm 94
▁popularity 94
▁predecessor 94
▁scores 94
▁territorial 94
AFL 93
hot 93
nas 93
third 93
▁copies 93
▁degrees 93
▁hills 93
▁illness 93
▁lod 93
▁meas 93
▁ost 93
▁page 93
▁palace 93
▁picked 93
▁player 93
▁poet 93
▁resigned 93
ando 92
bour 92
estic 92
inois 92
phant 92
si 92
vious 92
wind 92
▁bears 92
▁canc 92
▁convert 92
▁harmon 92
▁horse 92
▁interpretation 92
▁italy 92
▁landing 92
▁recomm 92
▁temporarily 92
▁topics 92
▁tunnel 92
▁vas 92
1981 91
bank 91
hetic 91
iful 91
ortion 91
roll 91
ucky 91
▁battles 91
▁commonwealth 91
▁cord 91
▁database 91
▁firing 91
▁forb 91
▁kne 91
▁legislature 91
▁library 91
▁meanwhile 91
▁operators 91
▁paris 91
▁persu 91
▁separated 91
▁situated 91
▁sud 91
▁trials 91
IG 90
anish 90
ners 90
ologists 90
sel 90
serv 90
ules 90
zech 90
▁adjust 90
▁bars 90
▁ble 90
▁categ 90
▁competing 90
▁consisting 90
▁criticized 90
▁depression 90
▁educated 90
▁eliminated 90
▁engineer 90
▁inn 90
▁jos 90
▁lam 90
▁mail 90
▁neck 90
▁obt 90
▁outer 90
▁restored 90
▁scholars 90
▁segment 90
▁submarine 90
▁sweden 90
▁tracks 90
▁venue 90
▁volume 90
elected 89
pher 89
rative 89
▁approaches 89
▁architecture 89
▁arist 89
▁capita 89
▁fault 89
▁fix 89
▁flew 89
▁loyal 89
▁maintains 89
▁user 89
1956 88
clos 88
icle 88
iden 88
isa 88
mod 88
▁ax 88
▁impress 88
▁interpre 88
▁landed 88
▁luc 88
▁patent 88
▁pric 88
▁rocket 88
▁semi 88
RCL 87
enger 87
inity 87
ogue 87
omen 87
president 87
sing 87
ween 87
▁cd 87
▁charter 87
▁detect 87
▁flor 87
▁flu 87
▁friday 87
▁gaz 87
▁intellig 87
▁jew 87
▁junior 87
▁jurisdiction 87
▁measured 87
▁merch 87
▁requ 87
▁retire 87
▁whilst 87
ANC 86
EPDP 86
PDS 86
ager 86
amo 86
anning 86
fted 86
month 86
ori 86
rator 86
▁attorney 86
▁circuit 86
▁controversy 86
▁forming 86
▁myth 86
▁neutral 86
▁nominated 86
▁phenomenon 86
▁ranked 86
▁retained 86
▁sacred 86
▁sim 86
▁winter 86
▁wre 86
@ 85
G8 85
aki 85
chief 85
cted 85
don 85
olds 85
oma 85
rison 85
▁acquired 85
▁anal 85
▁appearing 85
▁classified 85
▁confeder 85
▁electrical 85
▁exclusive 85
▁landscape 85
▁pac 85
▁prim 85
▁promin 85
▁ray 85
▁rect 85
▁rod 85
▁rounds 85
▁settle 85
▁slight 85
▁stor 85
▁substit 85
▁ultimate 85
1964 84
79 84
aret 84
elle 84
even 84
fast 84
pass 84
▁accompan 84
▁birds 84
▁carries 84
▁casual 84
▁classical 84
▁dish 84
▁distinct 84
▁distinction 84
▁eff 84
▁incorporated 84
▁mete 84
▁mom 84
▁ow 84
▁regardless 84
▁republ 84
▁siege 84
▁tu 84
▁updated 84
ASEAN 83
chel 83
ext 83
isp 83
omer 83
otes 83
uge 83
▁aged 83
▁annex 83
▁discover 83
▁estates 83
▁football 83
▁frank 83
▁freed 83
▁fur 83
▁manual 83
▁mini 83
▁publications 83
▁reaches 83
▁replacement 83
▁requiring 83
▁ta 83
▁tall 83
▁tower 83
ensity 82
iop 82
stein 82
strong 82
▁ages 82
▁arriving 82
▁catch 82
▁ced 82
▁concentrated 82
▁cool 82
▁drama 82
▁eleven 82
▁fib 82
▁fleet 82
▁formula 82
▁optical 82
▁sung 82
▁typical 82
▁underground 82
AR 81
eenth 81
ellation 81
iences 81
jour 81
oys 81
▁axis 81
▁boundaries 81
▁buses 81
▁exile 81
▁explains 81
▁gall 81
▁gor 81
▁hier 81
▁ka 81
▁lamb 81
▁nerv 81
▁pages 81
▁phil 81
▁snow 81
▁statistical 81
▁tum 81
▁um 81
cript 80
iana 80
just 80
known 80
mat 80
rors 80
sat 80
sur 80
view 80
▁agent 80
▁clin 80
▁improvements 80
▁kiss 80
▁mh 80
▁oldest 80
▁perceived 80
▁plot 80
▁qualified 80
▁rap 80
▁resemb 80
▁singing 80
▁stadium 80
▁swing 80
1987 79
away 79
dam 79
eller 79
erous 79
hur 79
iac 79
stand 79
¤ 79
▁bath 79
▁cc 79
▁clock 79
▁democrats 79
▁encoun 79
▁finish 79
▁hell 79
▁jo 79
▁native 79
▁preservation 79
▁racial 79
▁relationships 79
▁survival 79
▁tone 79
▁windows 79
1978 78
ETA 78
acing 78
dd 78
eta 78
fr 78
gle 78
ground 78
hann 78
hs 78
inner 78
orter 78
umed 78
▁associate 78
▁fifteen 78
▁gospel 78
▁hits 78
▁parallel 78
▁pir 78
▁pond 78
▁portrayed 78
▁preferred 78
▁thick 78
▁ul 78
▁voices 78
itudes 77
rates 77
umin 77
¡ 77
▁ancest 77
▁circum 77
▁craft 77
▁diamond 77
▁instrumental 77
▁lac 77
▁opin 77
▁rol 77
IV 76
USA 76
cra 76
incoln 76
oven 76
▁adapt 76
▁color 76
▁cos 76
▁dir 76
▁exact 76
▁fewer 76
▁folk 76
▁gren 76
▁hired 76
▁mu 76
▁partial 76
▁sett 76
▁shell 76
▁southwest 76
count 75
fect 75
ford 75
gue 75
ighter 75
tes 75
uces 75
works 75
▁accurate 75
▁altern 75
▁civ 75
▁eas 75
▁fer 75
▁gal 75
▁humans 75
▁interstate 75
▁invent 75
▁kath 75
▁merger 75
▁modified 75
▁neighborhood 75
▁netherlands 75
▁penn 75
▁poison 75
▁purchased 75
▁quest 75
▁titles 75
▁wire 75
135 74
CNN 74
DMK 74
ador 74
closed 74
hib 74
lav 74
obile 74
pes 74
umber 74
umes 74
xim 74
▁anna 74
▁array 74
▁attendance 74
▁describes 74
▁dual 74
▁eighth 74
▁influ 74
▁korean 74
▁origins 74
▁pak 74
▁rough 74
▁successor 74
▁voiced 74
asion 73
bers 73
bro 73
gin 73
isher 73
oty 73
rie 73
sky 73
top 73
uble 73
zes 73
▁champions 73
▁commentary 73
▁contem 73
▁followers 73
▁holiday 73
▁que 73
▁shopping 73
▁tip 73
▁vietnam 73
1314 72
1945 72
aa 72
bad 72
cker 72
cos 72
def 72
dney 72
list 72
los 72
tery 72
west 72
▁adventure 72
▁fed 72
▁fortune 72
▁genetic 72
▁manufacturer 72
▁periods 72
▁slightly 72
▁tail 72
▁tun 72
▁vers 72
compass 71
enburg 71
illy 71
su 71
▁alternate 71
▁baby 71
▁ber 71
▁bot 71
▁camb 71
▁chart 71
▁conqu 71
▁conserv 71
▁dress 71
▁experien 71
▁grade 71
▁ken 71
▁lasted 71
▁martial 71
▁marvel 71
▁normally 71
▁por 71
▁portugal 71
▁writers 71
alt 70
appro 70
inning 70
isters 70
ologies 70
ribed 70
sequ 70
▁authors 70
▁characters 70
▁fm 70
▁hunt 70
▁lav 70
▁musical 70
▁palest 70
▁temperature 70
▁wag 70
1953 69
1977 69
CM 69
CPE 69
agen 69
dal 69
soc 69
▁clothing 69
▁conversion 69
▁cultures 69
▁ere 69
▁expensive 69
▁feder 69
▁fif 69
▁giants 69
▁influenced 69
▁inject 69
▁marath 69
▁relig 69
▁sen 69
▁suburb 69
▁ultim 69
▁withdrew 69
LO 68
erts 68
grade 68
heim 68
inch 68
ixon 68
uela 68
wegian 68
▁absor 68
▁adult 68
▁ambass 68
▁convicted 68
▁corp 68
▁defe 68
▁divor 68
▁extensively 68
▁formerly 68
▁hardware 68
▁lifetime 68
▁patron 68
▁suspension 68
▁thunder 68
▁veterans 68
▁volumes 68
▁wheels 68
1984 67
_ 67
amer 67
arest 67
ella 67
gate 67
idal 67
itan 67
km 67
mund 67
ucle 67
uled 67
vas 67
▁advertising 67
▁angels 67
▁bands 67
▁buddh 67
▁characterized 67
▁chronic 67
▁gig 67
▁harbour 67
▁license 67
▁pacific 67
▁printing 67
▁pu 67
▁switch 67
▁tells 67
▁theoretical 67
▁winds 67
MMA 66
PASOK 66
aven 66
fun 66
omic 66
rock 66
speaking 66
▁apost 66
▁astron 66
▁cable 66
▁communist 66
▁depict 66
▁ele 66
▁exhaust 66
▁hockey 66
▁lists 66
▁observation 66
▁poly 66
▁profile 66
▁surround 66
▁vit 66
▁winner 66
1986 65
df 65
icles 65
listed 65
medi 65
mill 65
ogle 65
rehens 65
rh 65
▁admir 65
▁colonies 65
▁designs 65
▁dog 65
▁elev 65
▁funeral 65
▁movies 65
▁pc 65
▁rings 65
▁som 65
▁stal 65
▁surgery 65
▁victor 65
311 64
CP 64
bill 64
bin 64
enh 64
ership 64
idd 64
ige 64
ilation 64
rapped 64
urer 64
vo 64
xic 64
▁arch 64
▁bypass 64
▁coff 64
▁comed 64
▁evolved 64
▁ft 64
▁influential 64
▁khan 64
▁lag 64
▁masters 64
▁maxim 64
▁mile 64
▁mixed 64
▁mun 64
▁neighboring 64
▁nom 64
▁nov 64
▁sha 64
▁survived 64
▁tam 64
▁varieties 64
▁wildlife 64
LDP 63
geon 63
human 63
igration 63
iph 63
leans 63
lie 63
mary 63
ologist 63
owski 63
sim 63
▁adaptation 63
▁advant 63
▁arsen 63
▁attraction 63
▁attrib 63
▁consort 63
▁dum 63
▁experiment 63
▁format 63
▁graph 63
▁marry 63
▁mixture 63
▁partially 63
▁performances 63
▁pow 63
▁psychological 63
▁recording 63
▁soph 63
▁spell 63
▁spl 63
1949 62
PKK 62
acts 62
amous 62
asy 62
borne 62
first 62
inct 62
ipher 62
kins 62
roe 62
▁abolished 62
▁childhood 62
▁clubs 62
▁crus 62
▁curren 62
▁europe 62
▁interface 62
▁jet 62
▁league 62
▁malaysia 62
▁notable 62
▁rit 62
▁sample 62
▁unif 62
PT 61
PTCL 61
avia 61
hill 61
maker 61
oid 61
ricult 61
weight 61
▁album 61
▁arrow 61
▁briefly 61
▁certified 61
▁competitions 61
▁depending 61
▁desc 61
▁descent 61
▁description 61
▁divine 61
▁fold 61
▁ju 61
▁painting 61
▁roughly 61
▁telev 61
▁tit 61
▁videos 61
▁visual 61
▁washing 61
▁wins 61
WMD 60
itzerland 60
left 60
link 60
minute 60
rine 60
thing 60
ui 60
ware 60
▁00 60
▁autumn 60
▁carn 60
▁cave 60
▁chinese 60
▁client 60
▁consequently 60
▁crossing 60
▁devil 60
▁esp 60
▁essay 60
▁fairly 60
▁flowers 60
▁guns 60
▁london 60
▁math 60
▁metal 60
▁meters 60
▁pione 60
▁symptoms 60
▁torn 60
1975 59
ABC 59
NASA 59
UPF 59
ante 59
bas 59
flow 59
lete 59
yer 59
▁adapted 59
▁adults 59
▁colony 59
▁consecutive 59
▁democr 59
▁donated 59
▁elevated 59
▁feat 59
▁fortress 59
▁musicians 59
▁orche 59
▁partly 59
▁philippines 59
▁publishing 59
▁quantum 59
▁rush 59
▁signals 59
▁singer 59
▁tries 59
▁vict 59
▁wit 59
PLO 58
SLMC 58
aha 58
angu 58
augh 58
istical 58
iterranean 58
itic 58
okes 58
pent 58
stream 58
sup 58
through 58
tor 58
tur 58
▁airline 58
▁ali 58
▁alter 58
▁appropri 58
▁brid 58
▁calc 58
▁cass 58
▁chron 58
▁dawn 58
▁diet 58
▁kir 58
▁legs 58
▁nas 58
▁necessarily 58
▁ny 58
▁reprod 58
▁ride 58
▁rolling 58
▁stores 58
▁stro 58
▁surf 58
▁temper 58
▁twin 58
▁webs 58
1973 57
1985 57
HIV 57
USP 57
ball 57
cre 57
door 57
iciency 57
itled 57
ivid 57
onymous 57
oons 57
uable 57
▁australian 57
▁ceased 57
▁ceremon 57
▁czech 57
▁grav 57
▁laure 57
▁lun 57
▁mild 57
▁mong 57
▁perman 57
▁references 57
▁sed 57
▁submar 57
▁tig 57
▁unlike 57
1976 56
bone 56
des 56
ergy 56
oni 56
pen 56
phe 56
profit 56
raft 56
ube 56
zing 56
▁accur 56
▁attributed 56
▁commem 56
▁credited 56
▁feud 56
▁foss 56
▁fran 56
▁hors 56
▁jour 56
▁pict 56
▁plat 56
▁sunday 56
▁therapy 56
▁vlad 56
1917 55
1938 55
DGB 55
\ 55
burgh 55
fa 55
five 55
ogen 55
orders 55
rect 55
she 55
▁bird 55
▁bonus 55
▁crash 55
▁denmark 55
▁derived 55
▁ferry 55
▁glass 55
▁infant 55
▁inhab 55
▁lux 55
▁residing 55
▁sour 55
▁subsidiary 55
▁sultan 55
IDF 54
SARS 54
alty 54
bat 54
del 54
ertain 54
foot 54
iev 54
non 54
went 54
▁additionally 54
▁administered 54
▁beaut 54
▁brook 54
▁confused 54
▁cour 54
▁declar 54
▁dire 54
▁dogs 54
▁error 54
▁eu 54
▁exclus 54
▁kap 54
▁magic 54
▁proport 54
▁replacing 54
▁slave 54
▁spaces 54
▁technique 54
▁theater 54
▁unusual 54
▁vocal 54
PML 53
bean 53
ental 53
four 53
general 53
gro 53
mates 53
onda 53
▁cloth 53
▁comput 53
▁concepts 53
▁defensive 53
▁guinea 53
▁haw 53
▁il 53
▁ku 53
▁merchant 53
▁olympics 53
▁pseud 53
▁rebell 53
▁sympt 53
▁temperatures 53
▁tie 53
▁translated 53
▁traveling 53
▁vary 53
-0 52
.0 52
1961 52
1969 52
alf 52
bound 52
lic 52
osevelt 52
space 52
thern 52
uka 52
wood 52
▁beliefs 52
▁bud 52
▁buff 52
▁characteristics 52
▁coin 52
▁controversial 52
▁dc 52
▁gust 52
▁guy 52
▁infer 52
▁injury 52
▁jordan 52
▁lieutenant 52
▁mol 52
▁ore 52
▁paul 52
▁pon 52
▁rus 52
▁signature 52
▁timber 52
▁viet 52
& 51
CPN 51
OECD 51
RSS 51
andy 51
aust 51
bell 51
isl 51
itis 51
mah 51
track 51
uese 51
vert 51
▁amph 51
▁argues 51
▁battery 51
▁circular 51
▁cogn 51
▁consisted 51
▁experiments 51
▁favorite 51
▁files 51
▁herald 51
▁infrastruct 51
▁ing 51
▁longest 51
▁loy 51
▁males 51
▁operates 51
▁preserved 51
▁printed 51
▁rom 51
▁seal 51
▁specialized 51
▁sund 51
1936 50
AIADMK 50
CFDT 50
iii 50
inth 50
orial 50
othe 50
raction 50
rus 50
sal 50
zo 50
▁afterwards 50
▁archives 50
▁ath 50
▁beach 50
▁champ 50
▁clay 50
▁computers 50
▁empire 50
▁gallery 50
▁lat 50
▁locally 50
▁objects 50
▁rang 50
▁rear 50
▁rip 50
▁slowly 50
▁synthe 50
▁translation 50
▁volunteer 50
143 49
ICRC 49
US1 49
WTO 49
japan 49
mers 49
nia 49
oba 49
ouri 49
phan 49
▁animation 49
▁belgium 49
▁brig 49
▁bronze 49
▁carrier 49
▁county 49
▁dan 49
▁define 49
▁flash 49
▁gene 49
▁hans 49
▁hindu 49
▁hunting 49
▁legend 49
▁logo 49
▁mak 49
▁mrs 49
▁nap 49
▁nights 49
▁parking 49
▁parl 49
▁phrase 49
▁prol 49
▁ratings 49
▁slavery 49
▁studio 49
▁surg 49
▁tang 49
▁thorn 49
SLMM 48
adow 48
antic 48
apes 48
aux 48
brew 48
joy 48
lings 48
nel 48
olid 48
onstr 48
stra 48
▁abilities 48
▁boundary 48
▁businessman 48
▁convent 48
▁cult 48
▁deriv 48
▁dna 48
▁flower 48
▁gy 48
▁ko 48
▁lan 48
▁manif 48
▁meg 48
▁oce 48
▁refers 48
▁shuttle 48
▁stol 48
1933 47
1951 47
FDIC 47
IT 47
cur 47
eas 47
enc 47
fran 47
hon 47
post 47
thur 47
unc 47
ée 47
▁alcohol 47
▁anc 47
▁archaeological 47
▁bald 47
▁batt 47
▁belie 47
▁caf 47
▁documentary 47
▁label 47
▁lar 47
▁mam 47
▁ni 47
▁ninth 47
▁nose 47
▁photograph 47
▁pole 47
▁somet 47
▁spin 47
▁towers 47
▁writings 47
▁yard 47
145 46
1974 46
AM 46
KS 46
NGO 46
VW 46
acon 46
hell 46
kn 46
lah 46
ogn 46
oney 46
san 46
stop 46
this 46
▁adjacent 46
▁alumn 46
▁churches 46
▁credits 46
▁decor 46
▁dipl 46
▁dissolved 46
▁erected 46
▁lane 46
▁norm 46
▁philosopher 46
▁pin 46
▁protein 46
▁settlers 46
▁teen 46
▁traveled 46
GDL 45
OCI 45
SSP 45
anian 45
box 45
chron 45
far 45
icial 45
lu 45
mos 45
nat 45
oft 45
prof 45
sey 45
utenant 45
zed 45
▁artistic 45
▁bos 45
▁bou 45
▁breeding 45
▁demolished 45
▁ger 45
▁hyper 45
▁inhabit 45
▁locomotive 45
▁lodge 45
▁mall 45
▁northwest 45
▁phot 45
▁recipient 45
▁sentenced 45
▁versions 45
▁virgin 45
▁voy 45
▁vs 45
117 44
139 44
KMT 44
NSA 44
bec 44
ennial 44
etime 44
etta 44
ifer 44
iner 44
onent 44
osen 44
ova 44
piece 44
pol 44
roy 44
ré 44
ski 44
spe 44
writ 44
▁adam 44
▁bact 44
▁bun 44
▁christ 44
▁consec 44
▁counties 44
▁dancing 44
▁democrat 44
▁dies 44
▁engines 44
▁heir 44
▁identical 44
▁ky 44
▁mainland 44
▁merged 44
▁molecular 44
▁phr 44
▁pitch 44
▁pref 44
▁senator 44
▁turb 44
1857 43
1939 43
DB 43
KRG 43
SWP 43
asia 43
aver 43
essions 43
igo 43
intend 43
lished 43
oct 43
py 43
union 43
▁appearances 43
▁basin 43
▁canal 43
▁climb 43
▁coffee 43
▁compan 43
▁conjun 43
▁danc 43
▁frontier 43
▁ghost 43
▁hybrid 43
▁mk 43
▁raf 43
▁roy 43
▁seconds 43
▁squadron 43
113 42
134 42
186 42
alph 42
forms 42
ierra 42
ilst 42
isk 42
ito 42
osa 42
ream 42
see 42
that 42
thro 42
uzz 42
ville 42
western 42
« 42
én 42
▁activist 42
▁brigade 42
▁characteristic 42
▁classification 42
▁defeating 42
▁gam 42
▁gauge 42
▁graphics 42
▁gym 42
▁israeli 42
▁kat 42
▁los 42
▁mechanical 42
▁patterns 42
▁photographer 42
▁plann 42
▁predecess 42
▁radar 42
▁radiation 42
▁regiment 42
▁romantic 42
▁tape 42
▁york 42
116 41
133 41
ESF 41
abel 41
can 41
ensed 41
fight 41
lon 41
mes 41
mond 41
onents 41
regular 41
sis 41
techn 41
▁american 41
▁belt 41
▁bent 41
▁coat 41
▁connects 41
▁dak 41
▁din 41
▁gamb 41
▁goddess 41
▁hug 41
▁kon 41
▁lords 41
▁monument 41
▁num 41
▁orange 41
▁py 41
▁renov 41
▁steam 41
▁tan 41
▁ue 41
▁vin 41
▁youngest 41
165 40
185 40
1963 40
AIDS 40
FAC 40
FO 40
GAM 40
aments 40
face 40
father 40
glas 40
hou 40
lane 40
oli 40
ovakia 40
raham 40
usa 40
▁-- 40
▁chase 40
▁filmed 40
▁frequency 40
▁historian 40
▁horror 40
▁hydrogen 40
▁knock 40
▁paintings 40
▁pod 40
▁portions 40
▁remainder 40
▁riding 40
▁scholar 40
▁spain 40
▁struct 40
118 39
151 39
181 39
AIG 39
DNA 39
ISO 39
POW 39
VHP 39
agram 39
bc 39
big 39
bow 39
cription 39
gir 39
idel 39
june 39
oust 39
riage 39
▁anch 39
▁apartment 39
▁archae 39
▁bicy 39
▁biology 39
▁cape 39
▁chang 39
▁chemistry 39
▁conn 39
▁epic 39
▁hem 39
▁inherited 39
▁kin 39
▁kur 39
▁literary 39
▁millenn 39
▁nob 39
▁oct 39
▁pairs 39
▁pom 39
▁powered 39
▁recur 39
▁rocks 39
1959 38
SS 38
azz 38
cia 38
cor 38
disc 38
du 38
eks 38
icular 38
mel 38
mic 38
onduct 38
opher 38
ounder 38
sized 38
uations 38
via 38
­ 38
ét 38
▁aqu 38
▁brick 38
▁dialect 38
▁exerc 38
▁expedition 38
▁german 38
▁horizon 38
▁hp 38
▁instruction 38
▁interpret 38
▁inters 38
▁ker 38
▁lip 38
▁os 38
▁paint 38
▁parall 38
▁patt 38
▁republican 38
▁rud 38
▁von 38
▁wells 38
1914 37
SU 37
chester 37
inet 37
mitted 37
publ 37
rast 37
tel 37
umn 37
ye 37
▁advent 37
▁alb 37
▁argentina 37
▁burns 37
▁cannon 37
▁chanc 37
▁chicago 37
▁compat 37
▁dos 37
▁housed 37
▁lake 37
▁lith 37
▁operator 37
▁renamed 37
▁slaves 37
▁swimming 37
▁swit 37
▁travels 37
138 36
144 36
173 36
DTE 36
gas 36
god 36
idden 36
ione 36
kov 36
utive 36
és 36
▁ari 36
▁benjamin 36
▁commonly 36
▁depicted 36
▁electro 36
▁finland 36
▁galax 36
▁gardens 36
▁houston 36
▁keys 36
▁langu 36
▁mary 36
▁metropolitan 36
▁parent 36
▁pioneer 36
▁symbols 36
▁univers 36
▁vertical 36
▁yellow 36
114 35
156 35
166 35
191 35
1965 35
CPA 35
cat 35
ety 35
haps 35
ician 35
oto 35
poss 35
quer 35
rium 35
▁adap 35
▁classic 35
▁dav 35
▁hole 35
▁ire 35
▁jack 35
▁locomotives 35
▁oral 35
▁pant 35
▁plains 35
▁queen 35
▁restaurant 35
▁robot 35
▁sod 35
▁ster 35
▁tow 35
▁tract 35
▁universe 35
▁yam 35
141 34
1955 34
CD 34
FN 34
HRW 34
NPT 34
SUD 34
UDF 34
apers 34
aware 34
change 34
fare 34
fly 34
graduate 34
gun 34
icut 34
ido 34
illes 34
inson 34
language 34
modern 34
mont 34
mu 34
official 34
othy 34
tical 34
¢ 34
̄ 34
▁administer 34
▁appo 34
▁butter 34
▁chick 34
▁commer 34
▁estab 34
▁inhib 34
▁intermedi 34
▁kong 34
▁libraries 34
▁observations 34
▁princ 34
▁sched 34
▁si 34
▁simultane 34
▁succession 34
▁vii 34
136 33
155 33
171 33
189 33
1944 33
1957 33
313 33
GDR 33
PDF 33
SCO 33
WHO 33
attan 33
bourne 33
comp 33
effic 33
group 33
hod 33
ighth 33
kee 33
rele 33
rob 33
uer 33
uter 33
wealth 33
world 33
▁alph 33
▁christmas 33
▁cod 33
▁colonel 33
▁dy 33
▁electron 33
▁jul 33
▁makeup 33
▁scored 33
▁sculpt 33
▁senate 33
▁sev 33
▁tokyo 33
▁tube 33
▁undergraduate 33
▁warri 33
119 32
AG 32
BLPI 32
DVD 32
KLA 32
NWFP 32
SA 32
UNEF 32
asty 32
attle 32
former 32
ocol 32
otte 32
overty 32
riend 32
two 32
▁000 32
▁ans 32
▁auth 32
▁battal 32
▁copper 32
▁dut 32
▁egypt 32
▁escort 32
▁fitted 32
▁infantry 32
▁literally 32
▁magnetic 32
▁mamm 32
▁mars 32
▁mes 32
▁mole 32
▁moscow 32
▁olympic 32
▁painted 32
▁physics 32
▁pig 32
▁poem 32
▁reed 32
131 31
154 31
161 31
178 31
MS 31
NBC 31
SJ 31
US3 31
cour 31
cover 31
from 31
iler 31
oir 31
ript 31
spec 31
speed 31
word 31
▁aux 31
▁bone 31
▁cock 31
▁comprehens 31
▁drum 31
▁earthqu 31
▁hong 31
▁lee 31
▁lingu 31
▁liver 31
▁nest 31
▁pam 31
▁portrait 31
▁resear 31
▁shan 31
▁spar 31
▁stops 31
▁theories 31
▁tub 31
▁turkey 31
137 30
163 30
164 30
BA 30
ISAF 30
JPG 30
PUK 30
SCIRI 30
bes 30
card 30
gon 30
ifically 30
july 30
master 30
oka 30
onym 30
pit 30
ricted 30
roid 30
sylvania 30
tw 30
urers 30
vd 30
▁afghan 30
▁battalion 30
▁colon 30
▁compilation 30
▁complet 30
▁distinguish 30
▁dun 30
▁fab 30
▁filming 30
▁finishing 30
▁grandfather 30
▁hood 30
▁ibm 30
▁inducted 30
▁kev 30
▁matches 30
▁municipalities 30
▁myster 30
▁niger 30
▁outdoor 30
▁pel 30
▁portra 30
▁reader 30
▁soci 30
▁springs 30
▁wet 30
▁wooden 30
.00 29
146 29
1958 29
VIP 29
after 29
aku 29
iami 29
igin 29
ingu 29
rane 29
rical 29
rift 29
type 29
ulu 29
uries 29
▁alumin 29
▁anim 29
▁ara 29
▁atm 29
▁biography 29
▁buck 29
▁compact 29
▁companion 29
▁concert 29
▁curve 29
▁dating 29
▁duke 29
▁experimental 29
▁kaz 29
▁mathematics 29
▁narrative 29
▁nobel 29
▁occasionally 29
▁random 29
▁spacecraft 29
▁township 29
▁yards 29
177 28
ADMK 28
AP 28
CBS 28
GNP 28
JPM 28
ategy 28
century 28
found 28
gor 28
idency 28
imensional 28
inum 28
lord 28
march 28
olia 28
owa 28
phone 28
riev 28
rote 28
south 28
sub 28
tem 28
uccess 28
verse 28
▁adventures 28
▁bib 28
▁brown 28
▁bug 28
▁burial 28
▁catal 28
▁coins 28
▁ethiop 28
▁fant 28
▁fiction 28
▁guardian 28
▁hein 28
▁hen 28
▁incre 28
▁individ 28
▁lud 28
▁mic 28
▁norway 28
▁originated 28
▁plate 28
▁poetry 28
▁remix 28
▁seasons 28
▁serb 28
▁sounds 28
▁strat 28
▁testament 28
▁traded 28
▁wrest 28
147 27
BAF 27
HSZ 27
SED 27
UAE 27
acc 27
bridge 27
child 27
icas 27
ichi 27
iga 27
mons 27
not 27
onto 27
unct 27
wor 27
zona 27
ör 27
▁ampl 27
▁bush 27
▁cauc 27
▁chest 27
▁colors 27
▁cryst 27
▁dat 27
▁donald 27
▁downtown 27
▁gn 27
▁honorary 27
▁hous 27
▁hud 27
▁jurisd 27
▁nord 27
▁pier 27
▁psychology 27
▁sax 27
▁shaw 27
▁shorter 27
▁sug 27
▁surviving 27
▁thomas 27
▁tournament 27
1946 26
375 26
AFP 26
CRS 26
DPJ 26
ECB 26
RP 26
SACP 26
abeth 26
adel 26
adelphia 26
aho 26
cules 26
dan 26
eld 26
icide 26
lit 26
mag 26
poses 26
station 26
▁angle 26
▁athletics 26
▁bloom 26
▁canadian 26
▁championships 26
▁christian 26
▁cousin 26
▁denomin 26
▁dictionary 26
▁eggs 26
▁entertain 26
▁habitat 26
▁han 26
▁historians 26
▁jur 26
▁las 26
▁mystery 26
▁nik 26
▁phosph 26
▁prototype 26
▁scout 26
▁sher 26
▁studios 26
▁tennis 26
▁trophy 26
▁vector 26
▁wool 26
188 25
1966 25
PMK 25
PTA 25
TDP 25
acent 25
alo 25
apse 25
ashion 25
brit 25
east 25
icien 25
isition 25
issue 25
ista 25
lived 25
mount 25
opes 25
oria 25
orus 25
oston 25
pson 25
ste 25
vement 25
wheel 25
zi 25
▁chip 25
▁concerts 25
▁diff 25
▁disorder 25
▁dynasty 25
▁elevation 25
▁empt 25
▁fifa 25
▁flav 25
▁ful 25
▁manuscript 25
▁pale 25
▁phenomen 25
▁philosophical 25
▁rarely 25
▁swedish 25
▁tissue 25
▁volunte 25
▁wrestling 25
▁ye 25
167 24
176 24
1918 24
415 24
BSP 24
COSATU 24
FATA 24
G7 24
GV 24
HRC 24
III 24
KDP 24
SAARC 24
SVP 24
TNI 24
WASG 24
amics 24
ansas 24
april 24
aska 24
assy 24
ateur 24
cin 24
gow 24
high 24
naissance 24
new 24
nor 24
utation 24
▁aboard 24
▁berlin 24
▁breed 24
▁cav 24
▁cele 24
▁density 24
▁designation 24
▁doc 24
▁dod 24
▁episodes 24
▁grey 24
▁infin 24
▁liqu 24
▁maps 24
▁mend 24
▁mi 24
▁nun 24
▁perfor 24
▁phen 24
▁probability 24
▁ranges 24
▁restaurants 24
▁sailed 24
▁strings 24
▁tropical 24
1919 23
1935 23
CBEU 23
FONT 23
ISGA 23
NC 23
acht 23
achusetts 23
ben 23
brid 23
enna 23
euro 23
fan 23
fir 23
ooth 23
oro 23
pecially 23
ridge 23
 23
▁aber 23
▁apple 23
▁championship 23
▁chile 23
▁deck 23
▁eagle 23
▁exhibit 23
▁furthermore 23
▁headqu 23
▁islamic 23
▁lunar 23
▁matt 23
▁mirror 23
▁muscle 23
▁nfl 23
▁occurs 23
▁ov 23
▁partn 23
▁poems 23
▁premi 23
▁scient 23
▁swim 23
▁switzerland 23
▁texts 23
▁unsuccessful 23
▁vel 23
▁versus 23
149 22
179 22
183 22
184 22
187 22
1931 22
CEB 22
GSEE 22
PC 22
PSA 22
TMVP 22
TULF 22
UNHCR 22
UP 22
VCD 22
WFP 22
alb 22
cht 22
craft 22
elve 22
hens 22
iko 22
jack 22
ograp 22
ser 22
sil 22
yle 22
▁anchor 22
▁anten 22
▁approxim 22
▁architectural 22
▁armen 22
▁beam 22
▁decom 22
▁designer 22
▁dj 22
▁facult 22
▁harbor 22
▁hart 22
▁hil 22
▁hurricane 22
▁ion 22
▁jesus 22
▁lakes 22
▁lap 22
▁latin 22
▁lew 22
▁ll 22
▁mg 22
▁myst 22
▁nash 22
▁ok 22
▁railroad 22
▁recept 22
▁reconstr 22
▁rib 22
▁sch 22
▁sculpture 22
▁serge 22
▁sut 22
▁tribut 22
174 21
DSP 21
HRE 21
NDP 21
NLD 21
asons 21
aters 21
bach 21
built 21
but 21
coll 21
dist 21
ersey 21
gree 21
mart 21
oker 21
olitan 21
phas 21
record 21
stad 21
town 21
▁acid 21
▁anat 21
▁animated 21
▁archive 21
▁bac 21
▁codes 21
▁compounds 21
▁controvers 21
▁couples 21
▁crosses 21
▁cuba 21
▁edited 21
▁ey 21
▁fal 21
▁hammer 21
▁ireland 21
▁kim 21
▁oak 21
▁orthodox 21
▁peer 21
▁prod 21
▁ros 21
▁starred 21
▁stored 21
▁telesc 21
▁thom 21
▁washington 21
148 20
153 20
1937 20
435 20
585 20
CMP 20
CNE 20
CSP 20
GTF 20
ICTY 20
IGM 20
ISI 20
LRU 20
MT 20
NHS 20
NPC 20
NSDAP 20
OK 20
SAC 20
SAS 20
THE 20
TR 20
US4 20
ationally 20
elli 20
enue 20
helm 20
lee 20
leg 20
olis 20
olo 20
portun 20
smith 20
which 20
▁artific 20
▁bec 20
▁behav 20
▁bowl 20
▁bulgar 20
▁caus 20
▁conductor 20
▁emperor 20
▁fc 20
▁femin 20
▁gay 20
▁golf 20
▁greece 20
▁italian 20
▁junction 20
▁landsc 20
▁municipality 20
▁prefect 20
▁redes 20
▁tours 20
▁typically 20
▁unus 20
▁vern 20
▁volcan 20
159 19
1934 19
315 19
359 19
FDI 19
NCP 19
PNG 19
PRO 19
RD 19
USFI 19
VVD 19
anne 19
base 19
ello 19
enz 19
hire 19
holm 19
idge 19
incinnati 19
life 19
odes 19
some 19
spring 19
stock 19
stood 19
wall 19
wig 19
writer 19
yon 19
▁+ 19
▁aired 19
▁alexander 19
▁chann 19
▁comic 19
▁cran 19
▁displays 19
▁dragon 19
▁dutch 19
▁genre 19
▁hypothes 19
▁indust 19
▁intermediate 19
▁leop 19
▁musician 19
▁nucle 19
▁offic 19
▁peters 19
▁radi 19
▁serbia 19
▁trek 19
▁variation 19
▁worn 19
▁writ 19
▁é 19
158 18
168 18
169 18
451 18
588 18
ACPWU 18
CMU 18
CPP 18
EDF 18
FSU 18
JP 18
KV 18
MK 18
NPD 18
PRD 18
SEC 18
SNCF 18
abama 18
break 18
dire 18
div 18
ength 18
illo 18
iques 18
november 18
ollo 18
rons 18
rub 18
stage 18
ufact 18
vol 18
winning 18
▁buc 18
▁chur 18
▁descend 18
▁disband 18
▁dise 18
▁distingu 18
▁envir 18
▁explor 18
▁grove 18
▁hut 18
▁islam 18
▁john 18
▁lor 18
▁malays 18
▁matrix 18
▁median 18
▁mexico 18
▁neuro 18
▁orb 18
▁photography 18
▁productions 18
▁rebuilt 18
▁rim 18
▁theore 18
▁trinity 18
▁variations 18
▁verb 18
1954 17
384 17
414 17
514 17
547 17
967 17
ACLU 17
CBI 17
CDA 17
DC 17
DLC 17
ICC 17
LJEWU 17
NUW 17
PATCO 17
PNV 17
RPR 17
SLCBEU 17
SPB 17
SYRIZA 17
bet 17
cop 17
haus 17
iration 17
isconsin 17
istol 17
mot 17
nik 17
size 17
written 17
± 17
▁antonio 17
▁austria 17
▁britain 17
▁cann 17
▁cham 17
▁chlor 17
▁deer 17
▁egg 17
▁font 17
▁gran 17
▁hig 17
▁influences 17
▁johnson 17
▁kay 17
▁lang 17
▁lyn 17
▁mathematical 17
▁mike 17
▁mul 17
▁nelson 17
▁nether 17
▁physician 17
▁pine 17
▁princess 17
▁racing 17
▁sket 17
▁surn 17
▁swiss 17
▁tales 17
▁transmit 17
▁trim 17
▁veh 17
1776 16
1943 16
341 16
345 16
354 16
356 16
365 16
381 16
475 16
546 16
575 16
614 16
AC 16
ADB 16
AKP 16
APHC 16
CIS 16
DIW 16
DKP 16
FEMA 16
MDMK 16
MI5 16
NLF 16
PIF 16
POTA 16
SLD 16
SPAN 16
USS 16
appe 16
ardo 16
boy 16
cell 16
dest 16
dor 16
eton 16
low 16
oren 16
rapy 16
sam 16
udes 16
▁afric 16
▁albums 16
▁bish 16
▁buffalo 16
▁chem 16
▁continental 16
▁crystal 16
▁distinctive 16
▁dor 16
▁drums 16
▁fict 16
▁george 16
▁hus 16
▁jama 16
▁johann 16
▁joseph 16
▁kw 16
▁les 16
▁louis 16
▁medieval 16
▁memb 16
▁memoir 16
▁novels 16
▁partic 16
▁plaza 16
▁publisher 16
▁races 16
▁recordings 16
▁rifle 16
▁scoring 16
▁spa 16
▁stere 16
▁subt 16
▁synd 16
▁tai 16
▁texas 16
▁tomb 16
▁torped 16
1441 15
157 15
331 15
364 15
445 15
455 15
599 15
615 15
687 15
764 15
7G 15
888 15
AU 15
CAR 15
DWC 15
FM 15
GDBA 15
GK 15
ID 15
INC 15
MI6 15
OAS 15
PDP 15
PMC 15
POTO 15
UBS 15
UML 15
allas 15
also 15
ambig 15
ample 15
apolis 15
bie 15
burn 15
die 15
ensively 15
fil 15
gart 15
green 15
itzer 15
january 15
lyn 15
north 15
oster 15
oyd 15
pread 15
rett 15
sea 15
shire 15
stre 15
ublin 15
vet 15
ylv 15
▁# 15
▁argent 15
▁atmosp 15
▁attor 15
▁avenue 15
▁chess 15
▁cot 15
▁discontin 15
▁duo 15
▁ell 15
▁females 15
▁fluid 15
▁humid 15
▁hurric 15
▁jewish 15
▁marshall 15
▁monastery 15
▁nephe 15
▁portuguese 15
▁programming 15
▁solo 15
▁southe 15
▁spanish 15
▁victoria 15
▁vincent 15
1114 14
1511 14
1915 14
1⁄ 14
363 14
369 14
393 14
419 14
448 14
485 14
631 14
685 14
ADEDY 14
BNP 14
CID 14
CWA 14
ISC 14
PLA 14
SDP 14
SIT 14
TA 14
UNHRC 14
amental 14
bol 14
common 14
december 14
esis 14
eum 14
ippi 14
lett 14
mate 14
october 14
origin 14
ovak 14
pool 14
rome 14
sex 14
sum 14
tz 14
uki 14
ymond 14
you 14
▁anth 14
▁anthrop 14
▁danish 14
▁equation 14
▁franchise 14
▁iceland 14
▁illustrated 14
▁independ 14
▁innings 14
▁iraq 14
▁jer 14
▁laser 14
▁lib 14
▁marsh 14
▁mechanics 14
▁mercury 14
▁oh 14
▁rand 14
▁recre 14
▁rh 14
▁ross 14
▁tak 14
▁tourn 14
▁toy 14
▁triang 14
▁vari 14
1941 13
314 13
317 13
319 13
334 13
343 13
355 13
357 13
358 13
447 13
477 13
497 13
556 13
688 13
695 13
769 13
846 13
917 13
9411 13
AFSPA 13
APEC 13
ARD 13
BSNL 13
CDC 13
CSP75 13
EADS 13
FARC 13
HSTUA 13
IRGC 13
JPTUC 13
KKE 13
KLM 13
KPD 13
LPF 13
NIH 13
NIS 13
PM 13
RPF 13
VEBA 13
anny 13
dou 13
gely 13
icon 13
imens 13
mingham 13
mother 13
mus 13
norm 13
obi 13
oen 13
omot 13
psy 13
ture 13
́ 13
▁agricult 13
▁antiqu 13
▁bever 13
▁broadcasts 13
▁cemetery 13
▁craw 13
▁cris 13
▁daniel 13
▁england 13
▁fox 13
▁glac 13
▁hob 13
▁intel 13
▁invented 13
▁lear 13
▁lis 13
▁mast 13
▁parish 13
▁pear 13
▁philip 13
▁publishers 13
▁renaissance 13
▁rio 13
▁syndrome 13
▁tale 13
▁tet 13
▁tibet 13
▁wolf 13
333 12
338 12
376 12
377 12
386 12
431 12
433 12
458 12
466 12
468 12
533 12
534 12
557 12
655 12
657 12
741 12
743 12
935 12
ATTAC 12
CFE 12
CITU 12
CRT 12
D66 12
FTA 12
MA 12
MARGIN 12
MDP 12
NFC 12
NLA 12
NREGP 12
OPEC 12
PO 12
RATP 12
RB 12
SPLM 12
TRIPS 12
UIA 12
UNICEF 12
US5 12
WSF 12
aser 12
berry 12
boat 12
bury 12
cycl 12
family 12
jor 12
know 12
nell 12
present 12
rete 12
ruction 12
september 12
 12
▁bachelor 12
▁botan 12
▁canton 12
▁castle 12
▁cath 12
▁datab 12
▁dean 12
▁dif 12
▁dol 12
▁equival 12
▁excav 12
▁famil 12
▁finals 12
▁gil 12
▁histor 12
▁init 12
▁iranian 12
▁len 12
▁lig 12
▁lon 12
▁loop 12
▁manor 12
▁morn 12
▁occas 12
▁oz 12
▁paren 12
▁penins 12
▁pink 12
▁proteins 12
▁quad 12
▁resour 12
▁romania 12
▁rug 12
▁server 12
▁shir 12
▁sib 12
▁slav 12
▁styles 12
▁symphony 12
00, 11
1417 11
1899 11
316 11
337 11
339 11
348 11
383 11
385 11
394 11
3D 11
417 11
441 11
465 11
467 11
498 11
535 11
543 11
584 11
595 11
636 11
647 11
675 11
717 11
777 11
811 11
875 11
988 11
AMS 11
BKA 11
CAP 11
CBO 11
CDS 11
CFTC 11
CTU 11
DAX 11
FEFSI 11
IPS 11
KB 11
PL 11
RESF 11
RTC 11
SNP 11
TARP 11
UMNO 11
VAT 11
best 11
boards 11
chell 11
cult 11
folk 11
gold 11
gus 11
iano 11
icance 11
live 11
onian 11
season 11
sterdam 11
sun 11
three 11
tom 11
uther 11
® 11
▁albert 11
▁amateur 11
▁arc 11
▁brit 11
▁cartoon 11
▁cel 11
▁charles 11
▁charts 11
▁chrom 11
▁circumst 11
▁constr 11
▁delta 11
▁editions 11
▁ern 11
▁evangel 11
▁fantasy 11
▁fem 11
▁gi 11
▁graduated 11
▁hamp 11
▁interchange 11
▁jacob 11
▁kl 11
▁locomot 11
▁mcl 11
▁michel 11
▁mov 11
▁muhammad 11
▁muslims 11
▁naz 11
▁orn 11
▁ot 11
▁painter 11
▁pic 11
▁pie 11
▁pitcher 11
▁sic 11
▁ski 11
▁touring 11
▁variable 11
▁variant 11
1416 10
1893 10
335 10
344 10
349 10
353 10
367 10
379 10
389 10
397 10
399 10
411 10
436 10
449 10
453 10
487 10
491 10
515 10
565 10
573 10
574 10
586 10
587 10
635 10
644 10
653 10
698 10
716 10
747 10
785 10
911 10
914 10
993 10
AA 10
CPT 10
CTBT 10
DLF 10
DMDK 10
DS 10
FAO 10
IRIN 10
IUSF 10
LAC 10
MEDEF 10
MR 10
MSNBC 10
NRW 10
RC 10
RNA 10
TRIM5 10
UDD 10
UNIFIL 10
US6 10
XP 10
amilton 10
cca 10
famil 10
haust 10
kshire 10
nie 10
only 10
opy 10
orph 10
reng 10
resents 10
rix 10
rogen 10
sect 10
there 10
trans 10
tv 10
ussion 10
wh 10
who 10
 10
▁arn 10
▁autobi 10
▁basketball 10
▁belgian 10
▁clan 10
▁colomb 10
▁competed 10
▁cruis 10
▁david 10
▁diam 10
▁expans 10
▁geomet 10
▁georgia 10
▁heath 10
▁hip 10
▁james 10
▁jar 10
▁jean 10
▁kos 10
▁magazines 10
▁metrop 10
▁milan 10
▁mythology 10
▁olymp 10
▁osc 10
▁psy 10
▁relocated 10
▁repr 10
▁russ 10
▁sequel 10
▁smith 10
▁sty 10
▁taiwan 10
▁toured 10
▁unsuccess 10
▁wol 10
1418 9
1789 9
1848 9
318 9
346 9
351 9
368 9
378 9
387 9
391 9
434 9
444 9
454 9
474 9
476 9
483 9
484 9
488 9
494 9
564 9
576 9
589 9
596 9
598 9
611 9
619 9
633 9
665 9
676 9
686 9
711 9
775 9
787 9
788 9
813 9
898 9
948 9
973 9
981 9
A9 9
ATS 9
CCTV 9
DL 9
EC 9
EUFOR 9
EURRF 9
FBU 9
GDF 9
IPI 9
IRA 9
ISG 9
KD 9
KP 9
MHP 9
MLA 9
MTA 9
NF 9
NT 9
OF 9
ONA 9
OSCE 9
PRC 9
RM 9
SEB 9
SM 9
SPLA 9
SÃ 9
WRP 9
about 9
aco 9
agonist 9
annel 9
atherine 9
design 9
dis 9
donald 9
gb 9
ingham 9
intern 9
iversary 9
liest 9
minster 9
music 9
odore 9
odox 9
older 9
porary 9
second 9
wick 9
ön 9
▁alco 9
▁ale 9
▁amer 9
▁andrew 9
▁austral 9
▁baker 9
▁california 9
▁cardinal 9
▁caribbean 9
▁cer 9
▁chap 9
▁charl 9
▁christians 9
▁crypt 9
▁ensemb 9
▁greek 9
▁intersection 9
▁jersey 9
▁jews 9
▁kel 9
▁lu 9
▁max 9
▁michael 9
▁monaster 9
▁motors 9
▁particles 9
▁pent 9
▁pist 9
▁pub 9
▁scott 9
▁surv 9
▁ted 9
▁typ 9
▁varies 9
▁whit 9
▁woods 9
1777 8
336 8
373 8
388 8
418 8
439 8
457 8
459 8
493 8
496 8
499 8
511 8
539 8
545 8
549 8
554 8
555 8
569 8
579 8
618 8
658 8
659 8
661 8
669 8
671 8
677 8
678 8
696 8
715 8
719 8
733 8
744 8
756 8
758 8
776 8
783 8
797 8
819 8
833 8
838 8
845 8
854 8
865 8
871 8
885 8
894 8
946 8
968 8
976 8
987 8
994 8
APRC 8
ASIO 8
ASPI 8
BVG 8
BÃ 8
CCT 8
CTSU 8
DM 8
DPP 8
EWS 8
FT 8
HAP 8
IGC 8
IIGEP 8
ITN 8
JEM 8
JUI 8
KR 8
KRL 8
LK 8
LURD 8
MTV 8
NTR 8
OEF 8
QRF 8
RK 8
RS 8
RTL 8
SLL 8
SMS 8
SRS 8
TTP 8
US7 8
US8 8
US9 8
acre 8
ahl 8
angel 8
borough 8
dale 8
eley 8
ellow 8
endar 8
fm 8
gomery 8
good 8
grand 8
iley 8
including 8
inction 8
mac 8
phy 8
sou 8
ultane 8
▁0000 8
▁alex 8
▁archbishop 8
▁butler 8
▁chi 8
▁christopher 8
▁cous 8
▁discontinued 8
▁gon 8
▁gray 8
▁harvard 8
▁linear 8
▁martin 8
▁mathematic 8
▁occ 8
▁orchestra 8
▁peter 8
▁poland 8
▁recreation 8
▁rocky 8
▁scot 8
▁soviet 8
▁stanley 8
▁stud 8
▁subdiv 8
▁violin 8
1411 7
1419 7
1517 7
1865 7
1873 7
1874 7
1894 7
1897 7
398 7
443 7
463 7
473 7
479 7
486 7
495 7
519 7
536 7
537 7
541 7
5415 7
544 7
548 7
553 7
561 7
567 7
667 7
684 7
699 7
737 7
738 7
746 7
755 7
757 7
831 7
835 7
855 7
857 7
883 7
893 7
895 7
915 7
951 7
961 7
963 7
965 7
971 7
979 7
984 7
997 7
999 7
AB 7
ACF 7
AL 7
ALP 7
AT 7
ATCSA 7
AUC 7
CEF 7
CFCM 7
CPSL 7
DIME 7
DU 7
FHA 7
FIDL 7
FRAPH 7
FY 7
GEO 7
GNR 7
GPMM 7
IBM 7
ICTU 7
ICU 7
IDP 7
IGP 7
JD 7
LA 7
LB 7
NAFTA 7
NEP 7
NGC 7
NHRC 7
OIC 7
PAS 7
PDB 7
PDVSA 7
PG 7
PNM 7
POUM 7
PR 7
RAF 7
RPG 7
SAP 7
SAV 7
SDLP 7
SEIU 7
SIS 7
SLCP 7
TADA 7
THP 7
TID 7
TM 7
TNSM 7
TRO 7
UKBA 7
UPD 7
cular 7
lou 7
nov 7
olph 7
ought 7
pres 7
respond 7
sburg 7
united 7
unte 7
what 7
wich 7
~ 7
▁atlantic 7
▁blo 7
▁caval 7
▁cliff 7
▁cole 7
▁commons 7
▁configuration 7
▁descript 7
▁egyptian 7
▁fern 7
▁fictional 7
▁florence 7
▁fried 7
▁indones 7
▁jazz 7
▁jim 7
▁kore 7
▁leban 7
▁mason 7
▁morgan 7
▁neut 7
▁nickn 7
▁norwegian 7
▁opera 7
▁phoenix 7
▁schol 7
▁sie 7
▁somers 7
▁stan 7
▁stev 7
▁ukraine 7
▁variants 7
▁venice 7
▁voltage 7
00. 6
1113 6
1311 6
1611 6
1619 6
1653 6
1786 6
1791 6
1794 6
1871 6
1884 6
1887 6
1911 6
347 6
361 6
374 6
3978 6
437 6
461 6
469 6
517 6
518 6
531 6
538 6
559 6
577 6
578 6
597 6
637 6
639 6
645 6
646 6
648 6
654 6
656 6
664 6
668 6
673 6
681 6
689 6
693 6
694 6
6949 6
697 6
718 6
734 6
739 6
748 6
765 6
768 6
773 6
795 6
815 6
818 6
841 6
859 6
864 6
874 6
879 6
891 6
899 6
933 6
936 6
937 6
939 6
944 6
953 6
957 6
958 6
975 6
985 6
995 6
A3 6
AAA 6
AK 6
AOL 6
BND 6
CFA 6
CMEV 6
CO 6
CPCT 6
CPSA 6
DK 6
DNC 6
DRC 6
DSB 6
EFC 6
ESA 6
FTAA 6
IC 6
ICJ 6
IED 6
IPCC 6
IUTUJC 6
JAC 6
JFIR 6
JIC 6
JSA 6
KK 6
MBA 6
MEK 6
MG 6
MIC 6
MPCI 6
MSZP 6
ND 6
NFCU 6
NM 6
NRF 6
NY 6
ONGC 6
OS 6
P5 6
PAM 6
PAME 6
PB 6
PJAK 6
PSSRTUC 6
QC 6
SFOR 6
SLM 6
SR 6
TF1 6
TO 6
TP 6
TRT 6
UF6 6
UFCW 6
US35 6
UTV 6
ZAAR 6
aug 6
august 6
eign 6
eric 6
final 6
gard 6
illery 6
lahoma 6
mouth 6
phil 6
plement 6
released 6
shaped 6
six 6
timore 6
univers 6
walk 6
when 6
 6
▁alfred 6
▁allen 6
▁alphabet 6
▁analog 6
▁barn 6
▁bishops 6
▁brazilian 6
▁crim 6
▁cros 6
▁dave 6
▁descendants 6
▁diameter 6
▁elizabeth 6
▁footballer 6
▁gard 6
▁guar 6
▁hay 6
▁hollywood 6
▁hungary 6
▁hunter 6
▁jac 6
▁jose 6
▁melbourne 6
▁mold 6
▁nba 6
▁nickname 6
▁oxford 6
▁peaked 6
▁pearl 6
▁philosoph 6
▁pont 6
▁prote 6
▁queens 6
▁rhythm 6
▁rober 6
▁robert 6
▁roberts 6
▁stephen 6
▁sydney 6
▁syria 6
▁terminus 6
▁tol 6
▁venez 6
▁vert 6
▁xi 6
1169 5
1618 5
1644 5
1719 5
1773 5
1775 5
1788 5
1793 5
1815 5
1817 5
1818 5
1835 5
1854 5
18571947 5
1861 5
1896 5
371 5
413 5
416 5
438 5
4555 5
456 5
471 5
4935 5
516 5
5334 5
551 5
558 5
568 5
583 5
638 5
674 5
691 5
714 5
735 5
745 5
749 5
759 5
766 5
778 5
793 5
794 5
816 5
844 5
847 5
849 5
853 5
866 5
868 5
869 5
877 5
878 5
916 5
91K 5
934 5
941 5
983 5
ABCD 5
AEG 5
AEP 5
AGS 5
AIPAC 5
AMIS 5
ANZUS 5
ASF 5
BJD 5
BP 5
BS 5
BSA 5
BTL 5
CC 5
CII 5
CNPC 5
COLA 5
CPGB 5
CPRF 5
CTV 5
DAL 5
DOJ 5
FAZ 5
FI 5
FRS 5
FSCS 5
G17 5
HSBC 5
IDU 5
IEER 5
IIP 5
INTUC 5
IS 5
JB 5
JESUS 5
JK 5
KBR 5
KC 5
KING 5
KSK 5
LCI 5
LEHI 5
LEJ 5
LPG 5
LPR 5
LÃ 5
MBBS 5
MODEL 5
MOP 5
MPR 5
MSF 5
NEJM 5
NREG 5
NRO 5
NSG 5
PD 5
PDI 5
PKI 5
PKP 5
PMO 5
POI 5
PSM 5
PTT 5
QA 5
RIA 5
RJD 5
SIAC 5
SLA 5
SOS 5
SUP 5
SUV 5
SZ 5
TELO 5
TOMS 5
TUC 5
TWU 5
UCU 5
UGT 5
UNMIK 5
UPI 5
VCK 5
VI 5
WWII 5
YG 5
YMCA 5
ZDF 5
american 5
anton 5
auge 5
bast 5
dav 5
dro 5
ensis 5
fre 5
hero 5
iants 5
ieties 5
iforn 5
lington 5
osph 5
paul 5
rastruct 5
ruit 5
screen 5
▁affiliate 5
▁alf 5
▁algorithm 5
▁barb 5
▁baseball 5
▁beer 5
▁borough 5
▁canon 5
▁cem 5
▁cort 5
▁crater 5
▁croat 5
▁dakota 5
▁eldest 5
▁encyclop 5
▁francisco 5
▁frequ 5
▁geor 5
▁gill 5
▁henry 5
▁herit 5
▁hist 5
▁hull 5
▁interp 5
▁jerusalem 5
▁jr 5
▁juris 5
▁keyboard 5
▁licensed 5
▁luther 5
▁manchester 5
▁morph 5
▁nev 5
▁og 5
▁orth 5
▁peop 5
▁ridge 5
▁ry 5
▁sche 5
▁sig 5
▁singles 5
▁sull 5
▁swed 5
▁theology 5
▁tony 5
▁toronto 5
▁unincorporated 5
▁villa 5
.. 4
1141 4
1155 4
1194 4
1359 4
1375 4
1386 4
1434 4
1464 4
1518 4
151875 4
1519 4
1671 4
1711 4
1787 4
1841 4
1847 4
1859 4
1863 4
1864 4
1877 4
1879 4
1885 4
1913 4
3568 4
366 4
395 4
396 4
4197 4
4554 4
464 4
4957 4
4995 4
4QB 4
4UK 4
513 4
566 4
5767 4
581 4
6117 4
613 4
61679 4
617 4
641 4
649 4
683 4
736 4
774 4
779 4
789 4
799 4
817 4
843 4
861 4
863 4
876 4
913 4
919 4
943 4
945 4
947 4
954 4
955 4
956 4
964 4
989 4
996 4
ABN 4
ACFE 4
ACHSU 4
AI 4
AKL 4
ANA 4
ANAP 4
AND 4
AV 4
AWACS 4
AWS 4
BDI 4
BDM 4
BMS 4
BRIC 4
CAC 4
CAE 4
CARICOM 4
CAT 4
CISL 4
CJ 4
CMC 4
CNT 4
COB 4
COPE 4
CPAC 4
CPJ 4
CPR 4
CRA 4
CRIIRAD 4
CRPF 4
CSA 4
DBV 4
DHL 4
DHS 4
DIS 4
DSS 4
DVU 4
DYFI 4
ECR 4
ELN 4
EMF 4
ENI 4
ETF 4
FTSE 4
GAL 4
GMAC 4
GNS 4
GOP 4
H1N1 4
HFEA 4
HMIEU 4
HMS 4
HÃ 4
IB 4
ICAF 4
INA 4
INS 4
IPO 4
ISP 4
ITF 4
ITV 4
IVF 4
JCP 4
JEHOVAH 4
JEWS 4
JPR 4
KADEK 4
KGB 4
KJ 4
LIBOR 4
MACDA 4
MAS 4
MDC 4
ME 4
MEP 4
MIEP 4
MIT 4
MLPD 4
MOD 4
MRAP 4
MÃ 4
NAACP 4
NAS 4
NEGA 4
NIOC 4
NRC 4
NSIDC 4
NU 4
OFS 4
PCP 4
PCT 4
PLOTE 4
PSC 4
PSD 4
PV 4
RAIL 4
RBA 4
RMO 4
RSA 4
SDPL 4
SE1 4
SL 4
SLPA 4
SSM 4
STF 4
STRATFOR 4
STWC 4
TAFE 4
TRC 4
UC 4
UIL 4
UKIP 4
ULT 4
UMWA 4
UNESCO 4
UNSC 4
UNTSO 4
UOIF 4
USAID 4
VFX 4
VRS 4
WPF 4
WWF 4
ampton 4
bishop 4
castle 4
christ 4
contin 4
enberg 4
gie 4
gio 4
history 4
icop 4
ishop 4
izon 4
love 4
ocy 4
osexual 4
otype 4
rien 4
sol 4
sv 4
they 4
▁algorith 4
▁andre 4
▁anne 4
▁arabic 4
▁athens 4
▁athletic 4
▁bened 4
▁bey 4
▁blues 4
▁brew 4
▁canad 4
▁carl 4
▁cathedral 4
▁cbs 4
▁comics 4
▁config 4
▁convin 4
▁diego 4
▁disk 4
▁emper 4
▁gib 4
▁guild 4
▁guine 4
▁heavyweight 4
▁kenn 4
▁kentucky 4
▁kra 4
▁lem 4
▁leo 4
▁lewis 4
▁maced 4
▁mcc 4
▁nbc 4
▁nick 4
▁novelist 4
▁oxy 4
▁percussion 4
▁phon 4
▁pope 4
▁q 4
▁quart 4
▁rhy 4
▁richard 4
▁rick 4
▁rugby 4
▁runner 4
▁simon 4
▁soccer 4
▁symmet 4
▁trig 4
▁turner 4
▁vienna 4
▁wales 4
▁william 4
▁winn 4
▁yan 4
0.0 3
1111 3
1133 3
1137 3
1159 3
1173 3
117A 3
1195 3
1313 3
1335 3
1347 3
1351 3
1355 3
1363 3
1385 3
13868 3
1391 3
1431 3
1433 3
1568 3
1595 3
1685 3
1715 3
1737 3
1766 3
1767 3
1781 3
1785 3
1795 3
1845 3
1846 3
1858 3
1866 3
1869 3
1875 3
1883 3
1916 3
3155 3
3487 3
3519 3
36648 3
3731 3
37465761 3
43719 3
4483 3
478 3
481 3
4831 3
4841 3
4866 3
4894 3
5419 3
563 3
591 3
594 3
616 3
634 3
6493 3
651 3
6514 3
663 3
6669 3
679 3
713 3
731 3
751 3
753 3
754 3
7579 3
761 3
763 3
767 3
7695 3
781 3
786 3
791 3
796 3
814 3
836 3
848 3
8483 3
8577 3
858 3
8835 3
884 3
886 3
889 3
896 3
9111 3
918 3
91P 3
931 3
938 3
94444 3
969 3
974 3
978 3
9851 3
991 3
A38 3
AMPTP 3
APCWU 3
APRA 3
ASEM 3
ASLEF 3
BASF 3
BC 3
BGMEA 3
BHP 3
BOU 3
BSNLEU 3
BTF 3
CACM 3
CAF 3
CCR 3
CEPAL 3
CGC 3
CGM 3
CGME 3
CIPD 3
CNBC 3
CNCI 3
CNHI 3
COTA 3
CPSU 3
CPUSA 3
CRM 3
CSL 3
CWI 3
CÃ 3
DAG 3
DAP 3
DEBKA 3
DGP 3
DIG 3
DPS 3
DTA 3
DÃ 3
EECL 3
ENA 3
ENEL 3
ENT 3
EPRLF 3
ERC 3
ESDP 3
ESMA 3
ET 3
EVKS 3
FAE 3
FEB 3
FGAAC 3
FICCI 3
FIR 3
GAIL 3
GBU 3
GCHQ 3
GPU 3
GSK 3
GST 3
HEPG 3
HERE 3
HI 3
HMC 3
IAF 3
IBN 3
ICE 3
ICT 3
IGAD 3
ILO 3
INES 3
IOM 3
IP 3
IRC 3
IRR 3
IU 3
JACTO 3
JS 3
JTAC 3
KLCC 3
KT 3
KTV 3
LDH 3
LE 3
LICRA 3
LNG 3
LOC 3
MCA 3
MDFC 3
MENE 3
MI 3
MILF 3
MJP 3
MJS 3
MN 3
MNR 3
MOU 3
MPIGO 3
MRSA 3
MSV 3
NASDAQ 3
NASSCOM 3
NBA 3
NFF 3
NFFWP 3
NOT 3
NRI 3
NS 3
NSC 3
NSW 3
NUA 3
NUT 3
NYSPC 3
OCHA 3
PAF 3
PAFFREL 3
PBS 3
PEN 3
PIPS 3
PNP 3
PQ 3
PRG 3
PRSSTUC 3
PSL 3
PSU 3
PTI 3
PTOMS 3
PW 3
QDR 3
QIZ 3
RLO 3
RMIT 3
RNC 3
RSF 3
RWE 3
SAA 3
SDAT 3
SDF 3
SFLP 3
SIEV 3
SISMI 3
SLN 3
SLPF 3
SLWJA 3
SMIC 3
SML 3
SNCM 3
SNES 3
SNS 3
SOF 3
SOMO 3
START 3
TG 3
TGB 3
TGV 3
TNT 3
TPF 3
UAA 3
UCIL 3
UCLA 3
UGC 3
UNEP 3
UNITE 3
UNL 3
UNPROFOR 3
UNRWA 3
UNSA 3
UNTO 3
US19 3
US95 3
VMC 3
VNS 3
VP 3
VV 3
WEO 3
WGA 3
YCL 3
ZDN 3
akespeare 3
ancouver 3
brook 3
ceed 3
erto 3
eston 3
ficult 3
hedral 3
incorpor 3
itect 3
john 3
original 3
pine 3
ricket 3
ricts 3
ropical 3
rovers 3
stown 3
tenance 3
whe 3
 3
▁0.0 3
▁accom 3
▁admin 3
▁alpha 3
▁angeles 3
▁bbc 3
▁behavi 3
▁berkeley 3
▁bobby 3
▁bran 3
▁campbell 3
▁catholic 3
▁chel 3
▁choir 3
▁dou 3
▁dublin 3
▁eis 3
▁epis 3
▁eric 3
▁finnish 3
▁ford 3
▁francis 3
▁freder 3
▁gab 3
▁georg 3
▁glasgow 3
▁graham 3
▁grammar 3
▁householder 3
▁howard 3
▁includ 3
▁insect 3
▁ital 3
▁jerry 3
▁julian 3
▁libr 3
▁lind 3
▁liz 3
▁manga 3
▁manh 3
▁maria 3
▁mich 3
▁ncaa 3
▁newton 3
▁palmer 3
▁phill 3
▁polish 3
▁prix 3
▁ralph 3
▁roman 3
▁romanian 3
▁rome 3
▁santa 3
▁scotland 3
▁scottish 3
▁soundtrack 3
▁stein 3
▁steven 3
▁tempor 3
▁trio 3
▁uss 3
▁vect 3
▁veloc 3
▁verse 3
▁virginia 3
▁walter 3
▁welf 3
▁wes 3
▁yug 3
▁° 3
111156 2
1115 2
1116 2
11161 2
1118 2
1149 2
1168 2
1171 2
1175 2
1177 2
1178 2
1196 2
1315 2
1316 2
13343 2
1339 2
1343 2
1345 2
134761 2
1348 2
1356 2
1361 2
1363917 2
1378 2
1379 2
1383 2
138771 2
1388 2
1394 2
1395 2
1396 2
1398 2
1436 2
1449 2
1457 2
1465 2
1468 2
1469 2
1495 2
1496 2
1533 2
15354 2
1536 2
1541 2
1545 2
1564 2
1565 2
1575 2
1577 2
1589 2
1634 2
1638 2
16394 2
16516 2
1654 2
1659 2
1661 2
1686 2
1689 2
1694 2
1717 2
1731 2
1735 2
173668 2
1755 2
1756 2
1773537 2
1774 2
1779 2
17868 2
1799 2
1811 2
181133 2
1816 2
1836 2
1837 2
1851 2
1867 2
1881 2
1886 2
1891 2
18956 2
1898 2
193668 2
19411945 2
194344 2
1986871 2
19919 2
3115 2
3144 2
3199 2
3314 2
3333 2
3355 2
3373 2
3374 2
3375 2
3384 2
34156 2
34175 2
3418 2
3451 2
3456 2
3477 2
3497 2
3498 2
3548 2
3577 2
36393 2
3656 2
369913 2
37387 2
3746 2
3769 2
3771 2
3813 2
38148 2
38158 2
3837 2
394536 2
396391 2
3965 2
3C 2
4139 2
4155 2
4189456 2
4338 2
4347 2
4433 2
4434 2
446174 2
4465 2
44848 2
4497 2
4713 2
4745 2
4777 2
4815 2
4847 2
489 2
4947 2
4K 2
5135 2
5369 2
5481 2
5556 2
5565 2
5578 2
557964 2
55854 2
55918 2
5681 2
571 2
5715 2
5719 2
5743 2
5856 2
5867 2
5913 2
59165 2
5964 2
5C 2
6139 2
6313 2
6335 2
6345 2
6354 2
643 2
6448 2
6453 2
6458 2
6459 2
6473 2
6475 2
6476 2
6477 2
6479 2
6484 2
6515 2
6519 2
6537 2
6543 2
6565 2
6568 2
666 2
671478 2
6745 2
7181 2
7358 2
7419 2
74644 2
7511 2
75169 2
7553 2
7585 2
7837 2
78914 2
796587 2
81169 2
8119 2
8178359845 2
8367 2
84868 2
851 2
8513639 2
851364 2
8535 2
8555 2
8595 2
8639 2
867 2
8747185 2
897 2
89947 2
9146 2
9158 2
91955 2
91981 2
91H 2
91M 2
91N 2
9384 2
9413 2
9444 2
9453 2
9478 2
94865 2
949 2
9553 2
95839 2
9599676953 2
9631 2
9635 2
9654 2
9656 2
9656815943 2
977 2
9816 2
9833 2
986 2
9954 2
A1 2
A8 2
AAASS 2
ACJ 2
ACT 2
ADC 2
ADF 2
AEI 2
AICC 2
AIDMK 2
AISGEF 2
AJS 2
ALL 2
AMMA 2
ANAEM 2
ANKK 2
ASBO 2
ASIS 2
ATCC 2
ATM 2
AZF 2
BBB 2
BCAM 2
BCC 2
BD 2
BE 2
BEP 2
BERD 2
BMW 2
BORDER 2
BOTTOM 2
BQ 2
BRANCH 2
CA 2
CALPERS 2
CARE 2
CAW 2
CCTF 2
CDO 2
CEC 2
CGA 2
CGIL 2
CGS 2
CGTP 2
CHUS 2
CIMADE 2
CIT 2
CMA 2
CMAG 2
CMAJ 2
CNCDH 2
CNS 2
COI 2
CONCORD 2
CPC 2
CPV 2
CPVW 2
CRB 2
CSUTCB 2
CTB 2
CURSOR 2
CVP 2
DAB 2
DARPA 2
DATA 2
DCA 2
DD 2
DDE 2
DFB 2
DGS 2
DI 2
DINA 2
DISR 2
DIY 2
DJP 2
DMO 2
DOM 2
DP 2
DPA 2
DPG 2
DPRK 2
DT 2
DWS 2
DWU 2
E9 2
EGAT 2
EGS 2
EHESS 2
EN 2
ESPO 2
ETUC 2
EUR 2
EZB 2
F4 2
FAA 2
FEWS 2
FISA 2
FMM 2
FOIA 2
FOX 2
FP 2
FPM 2
FREMM 2
FSB 2
GCMS 2
GD 2
GE 2
GEODIS 2
GEW 2
GI 2
GMMS 2
GN 2
GP 2
GPA 2
GSP 2
GSW 2
H1 2
H5N1 2
HASTE 2
HAVERI 2
HDC 2
HL 2
HMB 2
HMTA 2
HOLINESS 2
HP 2
HPC 2
HPRP 2
HQI 2
HR3447 2
IANS 2
IAS 2
ICG 2
ICIC 2
ICNU 2
IDA 2
IFTU 2
IHK 2
IMU 2
INSS 2
IOU 2
IPKF 2
IPR 2
IPSOS 2
IRO 2
IUSTU 2
JAFF 2
JSC 2
JSM 2
JUF 2
KCTU 2
KG 2
KM 2
KTVU 2
LAOS 2
LBJ 2
LDF 2
LES 2
LFEPA 2
LIC 2
LKG 2
LLC 2
LLP 2
LMU 2
M1A1 2
MAKE 2
MAM 2
MAP 2
MD 2
MEFTA 2
MIER 2
ML 2
MNEF 2
MPSC 2
MQM 2
MRC 2
MSCI 2
MV 2
NA 2
NAB 2
NAP 2
NDTV 2
NED 2
NEPAD 2
NESO 2
NHP 2
NKVD 2
NPMR 2
NPR 2
NRP 2
NSAEBB 2
NSAEBB1 2
NSS 2
NTG 2
NYSC 2
OAO 2
OCU 2
ONS 2
OPR 2
OQTF 2
OÃ 2
PACER 2
PACOM 2
PAD 2
PCA 2
PCE 2
PCI 2
PCO 2
PETO 2
PFI 2
PFP 2
PHR 2
PIA 2
PLC 2
PNA 2
PRM 2
PSOP 2
PSR 2
PTSD 2
PZRP 2
PÃ 2
QMV 2
RAI 2
RBI 2
REAL 2
REGA 2
RFC 2
RJ 2
RNCWC 2
RPCR 2
RTS 2
RWB 2
SAD 2
SAGT 2
SBB 2
SBS 2
SEAL 2
SEALS 2
SELECTION 2
SEPA 2
SFC 2
SFRY 2
SFTT 2
SIA 2
SIM 2
SIPTU 2
SK 2
SLAF 2
SLC 2
SLHRC 2
SLIIT 2
SLTMA 2
SN 2
SNJ 2
SPS 2
SRI 2
SSB 2
SSR 2
SUCI 2
SV 2
TC 2
TCC 2
TEKEL 2
THIS 2
THY 2
TK 2
TMES 2
TMS 2
TN 2
TPS 2
TRNC 2
TRS 2
TS 2
TU 2
UCIJ 2
UDEUR 2
UEC 2
UFO 2
UMEH 2
UNAMID 2
UNED 2
UNISON 2
UNMOVIC 2
UNSCOM 2
UNTAET 2
UP1 2
UPTO 2
US13 2
US14 2
US17 2
US31 2
US44 2
US45 2
US75 2
USNS 2
UTUF 2
UW 2
VC 2
VEA 2
VJ 2
VOA 2
VX 2
WAM 2
WRMEA 2
XI 2
XII 2
XIII 2
XVI 2
XVII 2
XXIII 2
ZEP 2
ZIP 2
ZSSS 2
bird 2
cem 2
died 2
europe 2
every 2
fish 2
game 2
great 2
helor 2
igenous 2
inus 2
later 2
main 2
ockey 2
ophone 2
pton 2
ranean 2
wright 2
 2
 2
Ð 2
▁abbre 2
▁abc 2
▁algebra 2
▁barry 2
▁bart 2
▁berk 2
▁bible 2
▁bic 2
▁birmingham 2
▁bishop 2
▁bob 2
▁boeing 2
▁boston 2
▁boulevard 2
▁brad 2
▁bry 2
▁chic 2
▁confederate 2
▁cox 2
▁creek 2
▁dale 2
▁dick 2
▁drummer 2
▁dvd 2
▁edward 2
▁fred 2
▁glas 2
▁guitar 2
▁guitarist 2
▁harry 2
▁hebrew 2
▁helen 2
▁holland 2
▁immedi 2
▁irish 2
▁keyboards 2
▁knight 2
▁lanc 2
▁lawrence 2
▁lett 2
▁lex 2
▁luis 2
▁mack 2
▁madrid 2
▁marc 2
▁mathemat 2
▁mediterranean 2
▁mex 2
▁michigan 2
▁miller 2
▁montreal 2
▁murphy 2
▁neil 2
▁nel 2
▁norfolk 2
▁nort 2
▁oscar 2
▁ott 2
▁patrick 2
▁perc 2
▁persian 2
▁pi 2
▁pian 2
▁pierre 2
▁portug 2
▁rhyth 2
▁robin 2
▁roger 2
▁ron 2
▁ronald 2
▁roosevelt 2
▁spider 2
▁stad 2
▁sult 2
▁susan 2
▁territ 2
▁touchdown 2
▁ukrain 2
▁vancouver 2
▁vocalist 2
▁warner 2
▁warren 2
▁williams 2
111175 1
111363 1
111785 1
1117983 1
11191 1
111955 1
1131 1
11316 1
11336 1
1135 1
1136 1
113716 1
1139 1
11417 1
1144 1
1145 1
11456 1
11458 1
1146 1
11467 1
1147 1
11477 1
1148 1
1151 1
11514 1
11518 1
1156 1
11563 1
11566 1
1157 1
11578 1
11583 1
1161 1
1163 1
1164 1
1165957 1
1167 1
11677 1
11743 1
11778 1
11783 1
117847 1
11799 1
1183 1
11834 1
1184 1
1185 1
11859 1
1187 1
11871 1
11873 1
118977 1
1191 1
11945 1
11959 1
11964 1
1197 1
11973 1
1198 1
13138 1
13151515 1
13156 1
1317 1
13176 1
13189 1
1331 1
13313 1
1336 1
13366 1
133684 1
1337 1
13376 1
1341 1
13431 1
1346 1
13461 1
134963 1
135895 1
13618 1
1365 1
1368 1
13713 1
1376 1
1377 1
13797 1
13799 1
138149 1
13819 1
138378 1
13843 1
1389 1
1391616 1
13917 1
13981 1
1399 1
13997 1
1413 1
1414 1
14145 1
1435 1
1438 1
14389 1
14433 1
14438 1
1445 1
1446 1
1447 1
144755 1
14478169 1
1448 1
14488 1
145164 1
1453 1
14543 1
14555 1
14566 1
14576 1
1461 1
14654 1
1466 1
14667 1
1467 1
14713 1
1474 1
1474518 1
147465 1
1476 1
147635 1
1477 1
1478 1
14784 1
1479 1
14817 1
148195 1
1483 1
1483165 1
14834 1
1484 1
1485 1
1488 1
14888 1
149134 1
14916 1
1493 1
14931 1
14939 1
1494 1
149568 1
1497 1
1499 1
14995 1
1513 1
1514 1
15167 1
15177 1
151956 1
1531 1
1535 1
15359 1
1538 1
15394 1
15477 1
1549 1
15495 1
1553 1
1554 1
15551 1
1556 1
1557 1
1558 1
15583 1
15584 1
1561 1
1563519 1
15661 1
15675 1
157195 1
1573 1
15733 1
1576 1
157799 1
15791 1
157996 1
1581 1
15865 1
1587 1
15915 1
15936 1
15948 1
1597 1
15976 1
15987 1
15E 1
16117 1
16133 1
1615 1
16168 1
1637 1
16384 1
1643 1
1645 1
1647 1
1648 1
1649 1
1651 1
16541 1
1655 1
165587 1
1657 1
1661173 1
1661595 1
1665 1
1666 1
16665 1
1667 1
16675 1
1668 1
16731 1
1674 1
16745 1
1675 1
167847 1
1684 1
16847 1
16857 1
1688 1
1689176 1
16947 1
1695 1
16959 1
1713 1
1714 1
17149 1
17183 1
173143 1
17317 1
1733 1
1739 1
17399 1
1741 1
17464 1
1747 1
1748 1
17486 1
17546 1
1757 1
175766 1
17588 1
1763 1
1764 1
1765 1
17651938 1
1768 1
1773941 1
177445 1
1776644 1
1778 1
1784 1
17885 1
179196 1
17953 1
1796 1
1797 1
1813 1
181375 1
18153 1
18159 1
18197 1
1831 1
18317 1
1833 1
18365 1
1838 1
18396 1
1843 1
1849 1
1855 1
1857194 1
186119 1
1861956 1
18661 1
1868 1
1876 1
1878 1
18789 1
1895 1
18971984 1
19131991 1
191534 1
19177 1
19183 1
193136 1
19354 1
193738 1
19431944 1
194345 1
194647 1
19474 1
19545 1
19636 1
1963653 1
196468 1
19676 1
19697 1
197353 1
19745 1
19764 1
197778 1
197879 1
19791985 1
19831984 1
19847 1
198687 1
198788 1
198889 1
199394 1
19973 1
19994 1
1H 1
1NEU 1
1U 1
1⁄4 1
31117 1
3117996 1
31199 1
31318 1
3133 1
31331 1
3136 1
3141 1
3146 1
315149 1
3157 1
3158 1
3159 1
3163 1
316458 1
3167 1
3169 1
31716 1
3177 1
31864 1
31889 1
3191 1
3195 1
3197 1
31993 1
33179 1
3319 1
33195 1
3335 1
33367 1
33371 1
3339 1
3341 1
3351 1
3357 1
33586 1
336416 1
3366 1
336839 1
33748 1
3376 1
3381198 1
3385 1
338954 1
339457 1
3395 1
33965 1
3398 1
339833 1
3399 1
339935 1
34131 1
3419 1
3437 1
3444134 1
34514 1
3455 1
34648 1
34659 1
34754 1
3481 1
3493 1
34933 1
3499 1
35135 1
35141 1
35153 1
3516 1
35346 1
35349 1
3537 1
3541 1
35418 1
3543 1
3545 1
355195 1
3555 1
356161 1
3565 1
3574 1
3575 1
35795 1
3584 1
3591 1
35919 1
35955 1
35994 1
3613 1
3618 1
3619 1
363363 1
3637 1
36374 1
36437 1
3644 1
36471 1
36474 1
3654 1
3655 1
36554 1
365689 1
366974 1
3681 1
3683 1
3684 1
368775 1
36918 1
3699 1
369991 1
3718 1
37198 1
3736 1
3741 1
3743 1
3755 1
3756 1
3757 1
3761 1
3763 1
37658 1
3767 1
37741 1
3785 1
3794 1
37944 1
381734 1
38184 1
381883 1
38345 1
3838 1
3843 1
38467 1
38483 1
384943 1
3858 1
3863 1
386393 1
3864 1
3867 1
3873 1
3875843 1
38774 1
3887 1
3897 1
38974 1
38975 1
38976 1
3898 1
38981 1
38983 1
38989 1
3911 1
39136 1
3915 1
3918 1
3934 1
3938 1
3945 1
3948 1
3949 1
39491 1
395483 1
39564 1
395917 1
3968 1
3969 1
3975 1
3976 1
3981 1
398475 1
398494 1
39855 1
3986 1
39869 1
3994 1
3997 1
3A 1
3M 1
3Â 1
41116 1
411859 1
413169 1
4133 1
4134 1
413537 1
4136 1
41387 1
41416 1
4144 1
4145 1
4147 1
415679 1
41577 1
4158 1
4163 1
4164 1
4171 1
4178 1
4181 1
4185 1
4187 1
4188 1
41886 1
4193 1
4194 1
4195 1
4196 1
41977 1
4315993 1
43173 1
433317 1
4336 1
43361 1
433896 1
4353 1
43633 1
4364 1
4366 1
4377 1
4378 1
4384 1
43946 1
43964 1
4414 1
44149 1
4437 1
4445 1
44477 1
4455 1
4457 1
446 1
44661 1
4471 1
4475 1
44766 1
4484 1
4486 1
4488 1
4494 1
4495 1
4514 1
4515 1
4519 1
45357 1
4543 1
4547 1
4548 1
45516 1
4559 1
4564 1
45766 1
4585 1
4586 1
4589 1
4611 1
4616 1
4617 1
4636 1
46384 1
4639 1
4655 1
4667 1
46694 1
46711 1
46845 1
4686 1
4689 1
4693 1
4698 1
4749 1
4755 1
4759 1
4765 1
47655 1
4766 1
4774 1
47844 1
4787 1
47879 1
4789 1
4794 1
4795 1
47955 1
4799 1
4811 1
4813 1
4814 1
48187 1
4819 1
4834 1
4837 1
484636 1
484865 1
4849 1
4853 1
48538 1
4855 1
4859 1
4864 1
4875 1
48764 1
4888 1
4893 1
48994 1
4915 1
491764 1
49191 1
4936 1
49366 1
493978 1
4944 1
4945153 1
49557 1
4958 1
49751 1
4976 1
4977 1
4981159 1
4983 1
4984 1
49843 1
4985 1
49863 1
4988 1
4989 1
49941 1
49981 1
4999 1
49C 1
5111 1
51174 1
5133 1
5138 1
5145 1
5151 1
5154 1
5165 1
51736 1
5178 1
5181 1
5187 1
519144 1
5194 1
5195 1
5197 1
51997 1
5315 1
53175 1
531875 1
533618 1
53383 1
53388 1
5346 1
5351 1
53544 1
5364 1
536918 1
53746 1
5375 1
538417 1
5388 1
5414 1
5416 1
5433 1
5435 1
54454 1
5458 1
5461 1
54641 1
5465 1
5469 1
5494 1
54991 1
5514474 1
5519 1
5537 1
5546 1
5548 1
5549 1
5564 1
5566 1
5577 1
55776 1
5581 1
5587 1
5588 1
5595 1
5597 1
5613 1
5638 1
563887 1
5646 1
56463 1
5667 1
5671 1
5679 1
5699 1
57131 1
5714 1
5758 1
5764 1
57684 1
5775 1
5779 1
5788 1
57884 1
5795 1
5799 1
5813 1
58134 1
5816 1
5819 1
58388 1
5853 1
585313 1
5854 1
5855 1
58768 1
5886 1
5891 1
5895 1
58D 1
5914 1
591916 1
593 1
5936 1
5938 1
5939 1
5951 1
5954 1
5956 1
5957 1
59615 1
5963 1
5975 1
59844 1
5985 1
5989 1
5Â 1
6113 1
6136 1
6138 1
6154 1
6157 1
61614 1
6168 1
6184 1
6196 1
6197 1
61989 1
6311 1
6315 1
63333 1
6359 1
6367 1
63679 1
63685 1
6376 1
6379 1
6385 1
6389 1
6394 1
6395 1
6397 1
64375 1
6443 1
6451 1
6466 1
6467 1
6469 1
6474 1
6481 1
648196 1
64839 1
6485 1
6487 1
64887 1
6494 1
6498 1
65531 1
65546 1
6557 1
6558 1
65596 1
6567 1
6574 1
6577 1
65916 1
6593 1
6594 1
6617 1
6631 1
6637 1
6641 1
6643 1
6665 1
6668 1
667186 1
6673 1
6675 1
6688 1
6695 1
6696 1
6715 1
67175 1
67179 1
6747 1
6751 1
67539 1
67543 1
6758 1
67611 1
6763999 1
6767 1
6775 1
6779 1
67833 1
6786 1
6788 1
6791 1
67935 1
6799 1
68113 1
6815 1
68169 1
68177 1
6848917 1
6851 1
68559 1
6858 1
6874 1
6875 1
6878 1
6883 1
6894 1
6896 1
6897 1
6918 1
69186 1
69414 1
6945 1
6948 1
6953 1
6973 1
6977 1
6979 1
69976 1
6999 1
7148 1
7149 1
7196 1
731915 1
7331 1
7344 1
7345 1
73458 1
7351 1
7365 1
7366 1
7374 1
73847 1
7397 1
7399 1
7437 1
7446 1
746676 1
74687 1
7474 1
7486 1
7494 1
7496 1
7514 1
7515 1
7538 1
7568 1
7573 1
75889 1
7591 1
75936 1
76349 1
7648 1
76488 1
7659 1
7661 1
7665 1
7678 1
7684 1
771 1
77313 1
7734 1
77359 1
7738 1
7745 1
7749 1
77678 1
7768 1
7771 1
7773 1
77756 1
7783 1
77986 1
7815 1
783835 1
78386 1
7839 1
784 1
78433 1
7858 1
78636 1
7877 1
7883 1
7911 1
7938 1
7953 1
79554 1
7961 1
7974 1
7979 1
7998 1
81436 1
8155 1
8161 1
8166 1
81817 1
8198 1
8333 1
8336 1
834 1
8343 1
837 1
8373 1
8384 1
839 1
84137 1
8431 1
8479 1
8496 1
8537 1
8539 1
8541 1
8545 1
8551 1
85531 1
8554 1
8585 1
8588 1
85A 1
8619 1
86197 1
8635 1
8637 1
8646 1
8663 1
86675 1
8675 1
8676 1
8679 1
8685 1
8691 1
86911 1
86F 1
8715 1
873 1
8735 1
8736 1
8755 1
8757 1
87591 1
8767 1
87687 1
8776 1
877965 1
8788 1
881 1
88116 1
8818 1
8838 1
88678 1
887 1
8873 1
8878 1
8888 1
8891 1
8898 1
8915 1
8917 1
8938 1
89444 1
8951516 1
8961 1
8973 1
8975993781 1
89859 1
8996 1
8997 1
8999 1
8B 1
8QQ 1
9111999 1
9114 1
9131 1
9137 1
9144 1
9148 1
915155 1
9166 1
9169 1
91744 1
9194355578 1
9195 1
91965 1
919717957 1
9198 1
9198118 1
91993 1
919971538681 1
91A 1
91D 1
91G 1
91S 1
91U 1
91V 1
9313 1
9314 1
9334 1
934314 1
93546 1
93639 1
9364 1
93641 1
9371 1
93731 1
9381 1
9385 1
938731 1
9399 1
93T 1
94135 1
94417 1
9444395553 1
9444396789 1
94459 1
9449 1
94497998 1
94649 1
9471 1
9473 1
9474 1
94834 1
94934 1
9495 1
94994 1
94A 1
95136 1
9538 1
9546 1
9547 1
95567 1
9559 1
9573 1
959 1
9614 1
9617 1
9619 1
961973963 1
9639 1
96444 1
9647 1
96536 1
9655 1
966 1
9674 1
9711 1
97346 1
9744 1
97456 1
9755 1
9761 1
9763 1
9767 1
9773 1
9775 1
9777 1
97936 1
9794 1
9798 1
98117 1
9815 1
9818359 1
9819 1
9834 1
98353 1
9839 1
9844 1
9845 1
9854 1
9863 1
98647 1
986889996 1
98717 1
9876 1
9884449968 1
98847 1
988996 1
9899 1
99166 1
99331 1
9943 1
99447 1
99571744 1
99646 1
9967 1
9969 1
9971 1
9976 1
9987 1
9991 1
99913 1
9994388877 1
9PR 1
A19 1
A34 1
A35 1
AAI 1
ABB 1
ABCN 1
ABM 1
ABOMINATIONS 1
ABS 1
ACEWU 1
ACTC 1
ACTU 1
ACTUF 1
ACTWU 1
AD 1
ADM 1
AFRICOM 1
AFSCME 1
AGI 1
AGP 1
AHRC 1
AIB 1
AITUC 1
AKE 1
AKM 1
ALBA 1
ALCO 1
ALG 1
AMBO 1
AMF 1
ANP 1
ANSWER 1
ANU 1
ANY 1
AOM 1
APB 1
APC 1
APCE 1
APO 1
APP 1
APRS 1
APSFA 1
AQ 1
ARI 1
ARIS 1
ARV 1
AS 1
ASCAP 1
ASG 1
ASN 1
ASP 1
ASSEDIC 1
ASX 1
ATGWU 1
ATSDR 1
AZ 1
AZT 1
B1 1
BABYLON 1
BACKGROUND 1
BALCO 1
BB 1
BBA 1
BCA 1
BDO 1
BEL 1
BGC 1
BIMSTEC 1
BIN 1
BIS 1
BJ 1
BKS 1
BLU 1
BMG 1
BN 1
BNG 1
BNS 1
BOI 1
BRILLIANT 1
BRK 1
BSF 1
BTC 1
BTEF 1
BV13 1
BVA 1
BY 1
BZÃ 1
C1 1
C1518 1
C343845 1
C7475987 1
CAFOD 1
CAFTA 1
CARECEN 1
CAVR 1
CBC 1
CBN 1
CBSC 1
CBSNEWS 1
CBU 1
CCAU 1
CCC 1
CCOO 1
CCPI 1
CDAD 1
CDI 1
CEBEU 1
CEEPA 1
CEEU 1
CEP 1
CEPA 1
CETM 1
CEWU 1
CH 1
CHIRAC 1
CIGL 1
CIU 1
CNH 1
CNI 1
CNIL 1
CNU 1
CNX 1
COAG 1
COBAS 1
COINTELPRO 1
COMUSEUCOM 1
COO 1
CORRECT 1
CPPI 1
CPUC 1
CRAZA 1
CREU 1
CRP 1
CSCNK 1
CSFB 1
CSG 1
CSIS 1
CSR 1
CUT 1
CV 1
CVID 1
CVN 1
CW 1
CWU 1
DAKE 1
DCDI 1
DDI 1
DE 1
DELIVER 1
DESTINEES 1
DFCC 1
DFFI 1
DFT 1
DGAP 1
DIA 1
DIHK 1
DIPLOMA 1
DLH 1
DMAX 1
DN 1
DNAI 1
DNO 1
DOD 1
DONE 1
DPSD 1
DRS 1
DSD 1
DSN 1
DST 1
DTH 1
DUCHAMP 1
DVDS 1
DYP 1
EA 1
EARTH 1
EB 1
EBRD 1
ECL 1
EDITIONS 1
EEC 1
EFGP 1
EH 1
EKN 1
EMS 1
EMU 1
ENRP 1
EPF 1
EPR 1
EPU 1
EROS 1
ESQUIVE 1
ESY 1
EU8 1
EURODAC 1
EVER 1
EVK 1
EVP 1
F16 1
F18 1
FAES 1
FAI 1
FAKT 1
FAMILY 1
FASB 1
FB 1
FBFC 1
FCB 1
FCS 1
FDJ 1
FEDECAMARAS 1
FEFKA 1
FEPSI 1
FERIAAM 1
FF 1
FIAP 1
FINUL 1
FIOM 1
FIRE 1
FMLN 1
FNAC 1
FNCR 1
FNME 1
FNMF 1
FNTO 1
FPD 1
FPR 1
FRA 1
FREHA 1
FRY 1
FS 1
FSE 1
FSL 1
FSS 1
FTSE1 1
FY1 1
G1 1
G13 1
G5 1
G6 1
GA 1
GAAP 1
GALP 1
GARR 1
GATT 1
GAZ 1
GBR 1
GCE 1
GCSU 1
GDBD 1
GELD 1
GFT 1
GH 1
GIR 1
GIVE 1
GLONASS 1
GMC 1
GMT 1
GMTV 1
GNU 1
GOOD 1
GPO 1
GPS 1
GREAT 1
GRT 1
GS 1
GSG9 1
GSSE 1
H3 1
HARLOTS 1
HBOS 1
HBS 1
HCA 1
HCL 1
HCTISN 1
HE 1
HECS 1
HELP 1
HF 1
HG 1
HGP 1
HHS 1
HIFS 1
HIGH 1
HIPC 1
HKMA 1
HLM 1
HM 1
HMAS 1
HMG 1
HNB 1
HOMME 1
HPSCRG 1
HR 1
HR4437 1
HSTUSA 1
HTM 1
HUAC 1
I6MJ 1
IASF 1
ICBM 1
ICCPR 1
ICFTU 1
ICM 1
ICP 1
IDC 1
IDI 1
IEEPA 1
IF 1
IFJ 1
IFOP 1
IFTA 1
IGAS 1
IHO 1
IHS 1
IHT 1
IILG 1
IIT 1
IIÂ 1
IL 1
ILP 1
IMC 1
IN 1
INF 1
ING 1
INSEE 1
IOB 1
IOC 1
IPL 1
IPSOTSL 1
IQ 1
IRNA 1
ISAP 1
ISBN 1
ITA 1
ITAK 1
ITT 1
IUFM 1
IVAW 1
IWC 1
IX 1
IÃ 1
JAAC 1
JAH 1
JC 1
JCT 1
JCTU 1
JERIE 1
JFK 1
JFRTU 1
JG 1
JGC 1
JI 1
JINSA 1
JJ 1
JKLF 1
JM 1
JMO 1
JPC 1
JPL 1
JR 1
JSR 1
JSS 1
JSTAR 1
JVC 1
JW 1
K14 1
K34 1
K5 1
KA 1
KBC 1
KBS 1
KE 1
KEEP 1
KGP 1
KINGS 1
KJVD 1
KMU 1
KN 1
KQED 1
KRJ 1
KÃ 1
L6 1
LABOR 1
LALD 1
LANKANS 1
LCD 1
LED 1
LEO 1
LFO 1
LFP 1
LH 1
LHOOQ 1
LHSADTU 1
LIBE 1
LIVE 1
LJP 1
LMM 1
LOIN 1
LORDS 1
LPM 1
LPSU 1
LR 1
LRA 1
LRT 1
LSQ 1
LUMS 1
LVMH 1
M13 1
M6 1
MACTA 1
MAD 1
MAMMA 1
MAT 1
MAX 1
MBIA 1
MCTM 1
MF 1
MFS 1
MGM 1
MH 1
MIA 1
MIB 1
MIR 1
MJD 1
MKBG 1
MKI 1
MLC 1
MLSA 1
MMG 1
MMM 1
MMS 1
MNC 1
MNF 1
MNLF 1
MOAB 1
MOE 1
MOST 1
MOTHER 1
MPA 1
MPF 1
MPLA 1
MPRI 1
MPTU 1
MRG 1
MSL 1
MST 1
MSZE 1
MTI 1
MTM 1
MY 1
MYSTERY 1
MZE 1
NACPR 1
NAME 1
NASCOM 1
NAZARETH 1
NCAR 1
NCC 1
NCO 1
NCTC 1
NDRC 1
NDU 1
NEC 1
NEET 1
NERC 1
NETPAC 1
NFA 1
NFAI 1
NFCD 1
NFDC 1
NFTE 1
NFWP 1
NHK 1
NIDDM 1
NIE 1
NIF 1
NIGE 1
NIS5 1
NIS6 1
NJ 1
NMPP 1
NORAD 1
NORTHCOM 1
NOW 1
NPWC 1
NREGA 1
NREGS 1
NSB 1
NSI 1
NSP 1
NSSE 1
NTUC 1
NTV 1
NTW 1
NYCERS 1
NYCOSH 1
NYT 1
NYU 1
NZ 1
NÃ 1
OAU 1
ODS 1
OFPRA 1
OH 1
OIL 1
OLED 1
OM 1
ONLY 1
ONU 1
OO 1
OOO 1
OPWP 1
OSS 1
OTE 1
OUR 1
OVL 1
P17 1
P3C 1
PACE 1
PAFFEREL 1
PAGN 1
PART 1
PASKE 1
PASS 1
PBHI 1
PCB 1
PCR 1
PDPA 1
PERES 1
PETN 1
PF 1
PFLP 1
PHD 1
PIB 1
PIGS 1
PIIGS 1
PKB 1
PKM 1
PLAYED 1
PMLN 1
PNAC 1
PNC 1
PNDU 1
PNL 1
PPE 1
PRAISES 1
PRCS 1
PRECONDITION 1
PREPAK 1
PRK 1
PROJECTS 1
PRT 1
PSE 1
PSTUF 1
PSYOP 1
PTO 1
PTS 1
PTV 1
PU 1
PUCL 1
PUR 1
PVC 1
PZPR 1
QBE 1
RAFA 1
RAMS 1
RAR 1
RBC 1
RBS 1
RDJTF 1
RELA 1
RENFE 1
REP 1
RER 1
REVENANTS 1
REWE 1
RG 1
RHJ 1
RIGHTEOUSNESS 1
RJN 1
RKM 1
RMBS 1
RMI 1
RMS 1
RMV 1
RNC8 1
ROTC 1
RPP 1
RSHA 1
RSK 1
RSP 1
RTUF 1
RV 1
RWC 1
SACD 1
SAFATA 1
SAFTA 1
SAG 1
SALUTE 1
SAMU 1
SANDWICH 1
SANE 1
SBI 1
SC 1
SCC 1
SCID 1
SCIR 1
SD 1
SDS 1
SE 1
SENTIMENTALES 1
SER 1
SEZ 1
SFDRD 1
SG 1
SGDN 1
SIB 1
SIDE 1
SIEMP 1
SIET 1
SIFF 1
SIIC 1
SIMI 1
SING 1
SIV 1
SIZE 1
SKS 1
SLAVO 1
SLBC 1
SLDF 1
SLFEJF 1
SLRC 1
SLS 1
SMR 1
SMU 1
SNECMA 1
SNPU 1
SOEP 1
SOSAD 1
SPE 1
SPECIALS 1
SPN 1
SPÃ 1
SRM 1
STERS 1
STO 1
STS 1
SUMD 1
SUTEP 1
SW19 1
SWIFT 1
SÑ 1
T35 1
T56 1
TAP 1
TCS 1
TD 1
TDPK 1
TDX 1
TELEC 1
TES 1
TESMA 1
THAAD 1
THANKS 1
THAT 1
THERE 1
THING 1
TJ 1
TKS 1
TMC 1
TNAL 1
TNL 1
TNM 1
TPA 1
TPG 1
TRIM 1
TRW 1
TSB 1
TSC 1
TSK 1
TSNM 1
TT 1
TUI 1
TVG 1
TÃ 1
U4 1
UAV 1
UCO 1
UCSU 1
UE 1
UEM 1
UFIP 1
UFJ 1
UFWO 1
UGL 1
UH 1
ULU 1
UMDR 1
UMIH 1
UNAIDS 1
UNCCD 1
UNCHR 1
UNCONDITIONALLY 1
UNCTAD 1
UNDP 1
UNEDIC 1
UNIVISION 1
UNKNOWN 1
UNLF 1
UNMIL 1
UNMIS 1
UPHARSIN 1
UR 1
US11 1
US135 1
US145 1
US15 1
US157 1
US16 1
US167 1
US175 1
US33 1
US356 1
US36 1
US365 1
US37 1
US38 1
US43 1
US457 1
US46 1
US48 1
US51 1
US53 1
US541 1
US55 1
US63 1
US64 1
US81 1
US84 1
US875 1
US88 1
US98 1
USAEA 1
USB 1
USDA 1
USF 1
USI 1
USO 1
USPD 1
UV 1
UWF 1
VAZ 1
VDA 1
VE 1
VGP 1
VIPS 1
VIVA 1
VJT 1
VM 1
VOLUNTARY 1
VRAI 1
VT 1
VÃ 1
W4 1
WAO 1
WB 1
WE 1
WEF 1
WELL 1
WH 1
WHOLE 1
WIC 1
WILL 1
WIPRO 1
WK 1
WORK 1
WSJ 1
WTC 1
WUC 1
WWJ 1
XIV 1
XX 1
YÃ 1
ZN 1
` 1
`E 1
achus 1
avery 1
black 1
blue 1
etts 1
german 1
gom 1
grees 1
iday 1
inals 1
intendo 1
kyo 1
osaur 1
px 1
song 1
such 1
super 1
uchy 1
william 1
xual 1
yll 1
 1
 1
¶ 1
Ì 1
̧ 1
▁0, 1
▁0.00 1
▁abraham 1
▁acoust 1
▁acoustic 1
▁alan 1
▁angl 1
▁anthony 1
▁anton 1
▁arthur 1
▁atlanta 1
▁austin 1
▁austrian 1
▁baltimore 1
▁baptist 1
▁baron 1
▁bass 1
▁bav 1
▁belg 1
▁bern 1
▁bernard 1
▁brun 1
▁caes 1
▁cambridge 1
▁canyon 1
▁carol 1
▁carter 1
▁cavalry 1
▁cdp 1
▁chapel 1
▁chris 1
▁christianity 1
▁citiz 1
▁columb 1
▁columbia 1
▁craig 1
▁denn 1
▁detroit 1
▁dioc 1
▁diocese 1
▁douglas 1
▁edinburgh 1
▁edwards 1
▁ernest 1
▁eug 1
▁florida 1
▁frances 1
▁franch 1
▁genus 1
▁gord 1
▁gree 1
▁greg 1
▁gregory 1
▁guil 1
▁guitars 1
▁hamilton 1
▁harvey 1
▁hawai 1
▁henri 1
▁hou 1
▁hu 1
▁hudson 1
▁hungarian 1
▁ian 1
▁ibn 1
▁inte 1
▁islander 1
▁jacques 1
▁jenn 1
▁joe 1
▁jonathan 1
▁juan 1
▁keith 1
▁kle 1
▁legion 1
▁leon 1
▁margaret 1
▁marie 1
▁marx 1
▁maryland 1
▁massachusetts 1
▁microsoft 1
▁monte 1
▁nasa 1
▁newsp 1
▁nich 1
▁nicholas 1
▁oliver 1
▁orig 1
▁ottawa 1
▁pedro 1
▁peng 1
▁pennsylvania 1
▁perry 1
▁philippine 1
▁piano 1
▁prede 1
▁produc 1
▁pruss 1
▁rangers 1
▁restaur 1
▁rhodes 1
▁samuel 1
▁seattle 1
▁shakespeare 1
▁sover 1
▁stevens 1
▁stuart 1
▁sulf 1
▁tay 1
▁tenn 1
▁thompson 1
▁tib 1
▁turkish 1
▁vinc 1
▁watson 1
▁wides 1
▁wright 1
▁wy 1
madeupword0000 0
madeupword0001 0
