, 292460
. 188952
▁ 131979
▁. 116946
▁மற்றும் 62113
▁ஒரு 36232
0 35429
▁இந்த 33483
▁என்று 33297
2 27814
; 26738
▁" 20139
▁அவர் 20038
▁என்ற 15342
" 15133
▁வேண்டும் 15024
▁பிரதமர் 14731
த் 14025
த்தை 13929
▁உள்ள 13507
ப் 13492
▁மத்திய 13431
: 13305
▁இது 12699
▁என 11715
▁நான் 11168
▁அமெரிக்க 10989
த்தின் 10982
- 10791
▁திரு 10786
ங்கள் 10663
▁அவர்கள் 10357
▁என்றும் 10114
▁இந்திய 9857
▁மூலம் 9658
▁( 9579
▁பல 9571
ச் 9546
▁இருந்து 9505
00 9498
1 9399
▁அது 9247
▁புதிய 9219
க் 9095
த்திற்கு 8871
ம் 8793
ல் 8505
▁' 8410
▁அரசியல் 8307
▁கூறினார் 8046
) 7985
▁தேசிய 7980
▁இந்தியா 7779
▁மக்கள் 7770
▁இருக்கும் 7721
ையும் 7636
' 7579
▁வகையில் 7568
▁அந்த 7565
▁மேலும் 7540
மான 7448
▁ஆனால் 7112
▁அரசு 7085
ங்களை 7013
ுள்ள 6997
த்தில் 6994
மாக 6943
▁பாதுகாப்பு 6920
▁அல்லது 6919
▁கடந்த 6883
3 6848
▁என்பது 6807
▁அமைச்சகம் 6781
▁முதல் 6749
▁கர்த்த 6708
▁உள்ளது 6625
▁பொருளாதார 6464
▁அதன் 6422
க்கு 6376
5 6306
▁பற்றி 6280
▁அமைச்சர் 6206
▁கொண்டு 6205
▁நாம் 6188
▁சமூக 6170
▁என் 6146
▁தெரிவித்தார் 6090
ர் 6036
▁சர்வதேச 6026
ஷ 5978
ும் 5974
▁தனது 5942
▁நமது 5897
19 5836
▁கொண்ட 5812
▁சில 5743
▁தலைவர் 5692
▁இரு 5685
▁இராணுவ 5649
▁ஆண்டு 5625
▁உலக 5618
▁கோ 5525
மும் 5514
வும் 5449
ுள்ளது 5429
ின் 5428
▁செய்த 5418
▁செய்ய 5302
▁இன்று 5265
ன 5232
▁பல்வேறு 5189
▁குறித்து 5131
ப்பட்டுள்ளது 5125
▁அனைத்து 5060
▁இரண்டு 5060
▁கீழ் 5029
ைக் 5025
▁கட்சி 5011
▁முக்கிய 5006
? 4989
க்கும் 4966
▁நிதி 4961
ச 4894
ப்பட 4868
▁என்பதை 4849
▁பெரிய 4763
ிக் 4709
ன் 4663
▁வரும் 4657
▁துறை 4641
4 4640
த்தையும் 4608
▁போன்ற 4593
ிருக்கிறது 4590
▁என்றார் 4558
▁கோடி 4511
ப்பட்ட 4495
▁அரசாங்கம் 4495
▁வருகிறது 4451
ேன் 4447
ுக்கு 4440
▁மீது 4433
▁இருந்த 4421
▁நீங்கள் 4379
ே 4372
▁அவன் 4349
வில்லை 4330
த்த 4318
▁பின்னர் 4289
தை 4282
து 4278
▁ரூ 4272
▁நாட்டின் 4260
▁கொள்ள 4259
▁தொடர்ந்து 4242
க 4234
▁எ 4230
ாத 4215
▁மிக 4212
▁'' 4211
18 4203
ப்ப 4198
வ 4194
தாக 4177
ின 4166
ிற 4149
ப்படும் 4137
ையை 4133
வர்கள் 4128
▁பற்றிய 4123
ிய 4117
ால் 4114
▁இந்தப் 4036
▁வரை 4034
ான 4027
▁நிலை 4024
▁திட்டம் 4020
▁மிகவும் 4018
ிற்கு 4015
ோ 4005
ிருந்த 4003
▁தொழில் 3978
க்க 3949
▁தான் 3945
மா 3920
▁எதிராக 3909
▁தங்கள் 3906
▁பொது 3905
▁எந்த 3902
▁புஷ் 3892
ார்கள் 3887
▁நீ 3870
▁வந்த 3868
▁பி 3851
▁ஜனநாயக 3848
▁இல்லை 3840
ோம் 3795
▁ஒவ்வொரு 3793
▁ஆகும் 3790
▁உறுதி 3776
ப 3773
▁“ 3753
ிக்க 3749
." 3738
6 3734
ிலும் 3734
▁முடியும் 3719
ந்த 3717
ங்களில் 3704
▁பெரும் 3700
விட் 3698
▁வேலை 3696
ிறேன் 3687
ிக்கும் 3681
▁ஐ 3663
▁அளவில் 3645
▁முறையில் 3640
ங்களின் 3634
வே 3624
▁என்ன 3621
▁ஐரோப்பிய 3613
▁போது 3612
ாக 3592
▁வர்க்க 3588
▁திட்ட 3585
த்துக்கு 3581
” 3577
▁சோசலிச 3577
▁எதிரான 3571
▁இந்தியாவின் 3568
'' 3564
ர்கள் 3549
▁அரசாங்க 3539
ை 3533
▁தேவ 3523
போது 3503
வை 3498
வி 3485
▁செய்து 3477
ப்பு 3476
▁மாநில 3476
ைகளை 3469
ங்களுக்கு 3463
ிக்கு 3453
▁தொழில்நுட்ப 3446
டன் 3440
▁நாங்கள் 3397
▁மீண்டும் 3397
ுடைய 3394
▁அதிக 3393
▁நிலையில் 3385
▁தன் 3369
ுள்ளார் 3354
ான் 3340
ஷ் 3338
▁குடியரசுத் 3337
ுடன் 3336
7 3323
▁கூட 3322
படி 3321
▁இருந்தது 3295
▁தேதி 3291
ஸ் 3288
▁அவரது 3288
த 3268
வது 3267
▁முதலாளித்துவ 3259
▁சேர்ந்த 3252
▁ஜன 3251
▁தற்போது 3245
பி 3234
▁சுகாதார 3228
ிலே 3225
▁செய்யும் 3211
▁குறிப்பிட்டார் 3208
▁நல 3201
ங்க 3178
ில் 3174
ிருக்கும் 3171
▁யுத்த 3145
ித்த 3140
▁இன்னும் 3132
▁சொல்ல 3116
▁ஆகிய 3114
▁அப்பொழுது 3113
▁– 3100
▁போ 3099
ி 3098
▁மோடி 3089
▁மூன்று 3087
15 3063
ட்ட 3052
▁நடைபெற்ற 3050
▁கொ 3034
8 3031
ப்படுத்த 3028
மே 3025
▁அதே 3019
▁இதில் 3014
▁போர் 3014
▁ஜனாதிபதி 3009
ல 3000
ரை 2999
▁பெற்ற 2988
▁இடையே 2982
▁நாடு 2972
▁கால 2969
ிறோம் 2953
ரின் 2943
▁பயன்படுத்த 2938
▁ஆதரவு 2928
▁குமார 2928
ரோ 2922
ிகளை 2915
▁அமைப்பு 2914
▁அத 2911
வாத 2910
▁குறிப்பிட்ட 2908
▁அடிப்படையில் 2902
ுவதற்கு 2895
▁உ 2885
▁முன் 2885
▁மேற்கொள்ள 2874
▁அமெரிக்கா 2872
▁உங்கள் 2840
ுக் 2836
ட 2828
S 2815
ிகள் 2813
▁ராஜ 2813
ாவின் 2809
▁இந்தக் 2808
ரும் 2805
ுள்ளனர் 2803
▁இருக்க 2803
▁உன் 2791
த்தான் 2790
▁உருவாக்க 2788
▁இருக்கிறது 2785
▁கல்வி 2784
▁தகவல் 2782
▁தொழிலாள 2781
17 2778
▁எதிர்ப்பு 2778
ய 2775
▁உற்பத்தி 2774
த்துடன் 2768
தான் 2765
▁தெரிவித்த 2758
▁கொடுத்த 2738
ம 2734
ியை 2732
▁லட்சம் 2731
▁அன்று 2729
ுள்ளன 2724
▁வழங்க 2719
▁அவ 2711
▁மே 2709
ுக்கும் 2708
ருக்கு 2701
▁தொழிலாளர்கள் 2694
லின் 2689
▁இதன் 2679
▁இந்தத் 2660
த்து 2650
▁வர்த்தக 2650
ப்பட்டு 2645
ங்களும் 2643
ங்களையும் 2636
▁பேர் 2628
▁ஏ 2626
▁தலைமை 2621
▁கூட்ட 2617
▁தொடர்பான 2607
▁இந்தியாவில் 2606
ரி 2604
போ 2600
▁ஏற்படுத்த 2600
▁அதிகார 2599
லை 2598
▁திட்டத்தின் 2597
▁நெருக்க 2592
▁குறித்த 2588
▁வளர்ச்சி 2582
▁மாதம் 2569
▁அதற்கு 2566
த்திற்கும் 2556
ீ 2556
ிலிருந்து 2545
ம்ப 2542
▁உள்ளன 2536
▁மட்டுமே 2536
த்துறை 2535
▁நோக்கி 2529
னா 2528
ைகளுக்கு 2524
டி 2523
ற்ற 2523
▁அரசின் 2519
▁அறிவியல் 2519
▁டாக்டர் 2513
▁ஒப்புதல் 2511
▁நிறுவனங்கள் 2498
▁நடவடிக்கைகள் 2489
ினால் 2488
▁மக்களின் 2482
ஜ 2475
▁சட்ட 2466
▁தேர்தல் 2465
▁செய்யப்பட்ட 2462
▁நடவடிக்கை 2462
▁அதிகாரிகள் 2460
ர்களே 2458
▁ஒன்று 2444
▁கூற 2443
த்தைக் 2440
ுத் 2440
▁மருத்துவ 2435
▁இஸ்ர 2433
9 2425
▁முறை 2424
▁தொழிற்சங்க 2421
ட் 2420
ிருந்தது 2419
▁நரேந்திர 2413
ுவது 2410
! 2407
▁நிர்வாக 2403
ிருக்கிறார் 2402
▁சிறந்த 2395
▁க 2390
▁வேண்டிய 2390
ப்பட்டது 2389
▁அடுத்த 2385
▁அதை 2384
▁சகோதர 2383
னாகிய 2374
▁விமான 2370
ிட 2369
▁கூடிய 2366
▁நடவடிக்க 2364
▁குழு 2363
ுகிறேன் 2362
▁சென்ற 2362
ர 2361
▁அலுவலகம் 2361
▁கே 2357
ுகிற 2351
ாய 2350
மேல் 2348
ஆம் 2346
ைப் 2346
ா 2340
ிருக்கிற 2340
▁கேட்ட 2340
▁மனித 2339
▁ஆகியவை 2327
▁கண்ட 2319
▁பங்கு 2317
▁நேரத்தில் 2315
சி 2314
▁மற்ற 2312
▁தர 2311
ப்போ 2309
▁சி 2305
▁முடிவு 2304
▁மில்லியன் 2290
ண்ண 2288
▁தன்னுடைய 2287
▁மீதான 2287
ினி 2283
ாமல் 2279
▁இத்தகைய 2276
ியில் 2275
ித்து 2272
▁விரும்ப 2269
▁பட 2264
▁மாற்ற 2264
ிகளின் 2257
▁குறிப்பாக 2253
த்தைப் 2247
▁செய்தி 2245
ப்பை 2240
▁இணைந்து 2240
வன் 2239
▁படம் 2238
▁வரி 2236
▁கட்சியின் 2235
▁போக்குவரத்து 2235
வேண்டும் 2231
ானது 2229
▁காலத்தில் 2228
ார 2223
ினார் 2219
வர் 2218
▁திறன் 2217
▁தமிழ் 2216
▁முழுவதும் 2216
▁எனக்கு 2215
ியின் 2213
C 2211
ந்து 2208
▁நாட்டில் 2208
▁தங்களது 2207
▁அல்ல 2206
▁காரணமாக 2205
▁மக்களுக்கு 2205
M 2198
▁ஈரா 2197
▁நடத்த 2195
தும் 2192
னர் 2189
▁அமைச்சரவை 2169
▁குறைந்த 2163
ைகளின் 2161
▁தமது 2161
▁மன 2159
▁ஆய்வு 2158
ரா 2152
த்திலும் 2150
ைகள் 2144
▁கொடுக்க 2143
▁நண்ப 2142
▁வர 2140
▁இப்போது 2136
மை 2135
ிருக்க 2135
▁ஒரே 2135
▁கட்ட 2135
▁ஹ 2135
க்கள் 2130
ுகிறது 2130
▁அவை 2123
▁வந்து 2120
▁ஆ 2115
▁ஷ 2108
ஐ 2107
,000 2101
தற்கு 2099
12 2095
▁விவாத 2095
▁- 2093
▁பயிற்சி 2093
▁மேம்படுத்த 2093
▁தொழிலாளர் 2092
ர்களுக்கு 2088
▁அ 2086
ுகளை 2084
▁சிறப்பு 2084
▁ஏற்கனவே 2077
▁உதவி 2075
ப்படுகிறது 2072
▁பெற 2070
வா 2069
▁, 2068
▁குடும்ப 2068
நா 2066
▁செயல்படுத்த 2059
▁நடந்த 2058
▁வ 2058
▁சா 2054
ருடைய 2052
தாகவும் 2049
ுவதற்கான 2047
▁அவருடைய 2047
▁உணவு 2045
▁நிறுவனம் 2044
▁ஈராக் 2041
▁தீவிர 2041
▁ஐக்கிய 2037
▁வரு 2035
ிகளுக்கு 2029
▁விட 2028
e 2026
▁கொள்க 2024
ையில் 2019
▁ஆக 2014
▁மேற்கொண்ட 2014
ைய 2012
ிப்ப 2009
ர்களை 2008
தா 2004
▁நீர் 2003
A 2001
னின் 2001
▁நல்ல 1999
ாலும் 1997
னை 1996
▁சதவீத 1993
▁முக்கியமான 1993
ார் 1989
▁கூறிய 1988
▁நடவடிக்கைகளை 1979
▁துணை 1974
▁எனது 1968
மோ 1965
▁தொடங்க 1964
ைகளையும் 1963
ாவ 1959
▁நிர்வாகம் 1954
ையின் 1949
▁சேவை 1949
▁அவர்களுக்கு 1947
▁தொடர்பு 1947
ள 1942
▁தனியார் 1938
▁பிறகு 1936
▁ஒத்துழை 1935
ித்துக் 1933
▁மட்டும் 1931
லா 1928
▁அறிவ 1926
▁நிதிய 1926
▁கொள்கை 1925
▁இல்லாத 1918
▁பிர 1913
▁தொடர்பாக 1911
▁தெரிவ 1910
▁உட்பட 1907
ொ 1900
ாவை 1899
▁‘ 1899
▁ந 1898
▁ஜனநாயகக் 1897
▁போல் 1897
ுக்கான 1894
தில் 1893
ைகளில் 1889
ாவில் 1887
ாகும் 1885
ோடு 1885
25 1884
▁ச 1883
▁சார்ந்த 1882
▁நிறுத்த 1882
▁காட்ட 1878
த்தால் 1877
11 1875
மாய 1875
▁அவர்களை 1872
▁இதற்கு 1865
▁துறையில் 1864
▁அளிக்க 1857
▁குறை 1855
ிட்ட 1852
▁அடிப்படை 1850
▁முழு 1850
▁ஆம் 1849
▁முடியாது 1849
ரே 1848
B 1847
▁இயக்க 1847
▁முன்னாள் 1846
ண்ட 1841
▁தொடங்கி 1839
▁பகுதியில் 1839
▁கடன் 1836
▁திட்டங்கள் 1833
ினர் 1831
▁எண்ணெய் 1831
▁நாடுகள் 1831
▁பகுதிகளில் 1831
ுவ 1828
P 1826
மானது 1823
▁பேசிய 1822
▁சுமார் 1821
▁பிரதம 1821
▁விரோத 1819
த்திலிருந்து 1810
வின் 1810
▁த 1809
▁பேச 1809
த்திற்கான 1799
▁கூட்டத்தில் 1799
ிகளும் 1795
▁ஆண்டுகளில் 1795
தன் 1794
▁அரசாங்கத்தின் 1793
▁சதவீதம் 1792
/ 1791
டே 1791
க்கான 1790
▁ஒத்துழைப்பு 1790
ுத 1789
▁ஜி 1786
த்துவ 1783
▁தேவை 1780
ியாக 1778
14 1776
▁பயங்கரவாத 1776
ர்களின் 1772
▁ஒப்பந்தம் 1770
▁சிறு 1766
▁என்னும் 1763
▁ஜ 1762
ியும் 1759
▁காண 1757
▁பணி 1754
▁நாள் 1753
ீர்கள் 1747
▁உள்ளிட்ட 1744
16 1743
ரில் 1742
▁ப 1740
▁பரந்த 1740
▁ஜேர்ம 1736
▁அறிக்கை 1735
▁உதவ 1733
▁திரும்ப 1730
▁ர 1724
▁திட்டத்தை 1722
▁நாட்ட 1715
▁ஏற்பாடு 1712
▁மொத்த 1710
ப்பட்டுள்ள 1708
▁கட 1705
▁மனு 1705
▁பே 1704
▁நம்ப 1703
▁ஏற்பட்ட 1699
▁பின் 1699
▁உள்நாட்டு 1698
▁கலந்து 1698
▁அழைப்பு 1697
த்திலே 1695
ைத் 1692
▁கிழக்கு 1692
▁ஸ் 1692
ோர் 1687
▁விவசாய 1682
ிவ 1680
▁ஆதரவ 1679
லுக்கு 1678
▁அவர்களின் 1678
▁செலுத்த 1676
’ 1675
▁சீ 1674
▁பண 1670
ிடம் 1665
▁இடம் 1664
▁தேச 1663
▁நான்கு 1663
ுகிறார் 1660
▁வருகின்றன 1657
L 1654
▁இப்பொழுது 1654
▁தொழில 1654
▁இதர 1650
வோ 1646
▁ஆளும் 1644
▁வெற்றி 1639
லில் 1638
▁யோ 1637
ையாக 1636
▁அரச 1634
▁உயர் 1632
ுக்க 1631
▁மாத 1630
▁அனைவரும் 1629
▁கொண்டார் 1629
▁நிகழ்ச்சியில் 1628
மாய் 1625
ிக்கப்பட்ட 1620
▁சிங் 1620
ருக்கும் 1615
னும் 1614
▁இட 1612
ிகளையும் 1609
▁கொண்டுள்ளது 1599
▁படத்தில் 1598
க்களை 1596
▁முக 1595
▁எப்படி 1591
▁பில்லியன் 1591
▁பயன 1589
ிக 1586
▁சட்டம் 1586
▁நியாய 1586
▁அதில் 1585
ச்ச 1583
ிடத்தில் 1583
▁ஆராய்ச்சி 1581
▁உதவும் 1581
▁முன்ன 1579
T 1577
▁துணைத் 1577
▁ஆகியவற்றை 1576
▁அளித்த 1575
▁முன்பு 1575
▁வசதி 1574
ரிய 1566
▁தக 1565
▁என்றான் 1564
▁வலது 1564
▁அளவு 1561
ுதல் 1556
▁மிகப் 1553
தே 1551
ன்று 1550
▁கொடு 1548
▁சமத்துவ 1547
▁பொ 1547
▁பதிவு 1546
ர்களும் 1544
▁சொந்த 1542
▁மார்ச் 1541
▁விடுதலைப் 1539
▁மந்திரி 1534
▁பிரச்சார 1533
பா 1532
▁வேறு 1532
▁செல்ல 1531
▁எதிர் 1530
ப்பதற்கு 1529
ஜி 1527
▁எண்ணிக்கை 1526
▁தாக்குதல் 1526
▁தேவையான 1526
▁இணைய 1524
ுகள் 1523
ட்டு 1522
விட 1521
▁எனவே 1521
ற 1520
்தான் 1520
▁ஒருவர் 1520
▁நிறுவன 1520
தோடு 1518
▁ஆயுத 1518
▁புரிந்துணர்வு 1515
▁துரு 1514
21 1510
மி 1508
▁தற்போதைய 1508
▁அமெரிக்காவின் 1507
▁கை 1503
▁செ 1503
▁தலை 1503
மு 1502
ியுள்ளது 1499
▁இவை 1495
▁பிற 1494
▁அளிக்கும் 1492
ங்கள 1491
▁கடுமையான 1487
இ 1486
▁மறு 1486
▁ஆண்டில் 1479
▁ஐந்து 1479
▁தீ 1478
▁ஒப்பந்த 1477
▁மேம்பாட்டு 1477
▁சுதந்திர 1476
▁அளவிற்கு 1475
▁அங்கு 1471
தி 1469
D 1467
னிய 1467
▁பிராந்திய 1466
▁சோ 1465
▁மூல 1464
ிகள 1460
▁இயக்கம் 1458
ுக 1456
▁எடுக்க 1456
▁சிறிய 1454
▁முக்கியத்துவம் 1454
டு 1453
▁ஏப்ரல் 1453
சே 1451
வில் 1451
▁ரயில் 1451
▁அத்தகைய 1446
▁உறுதிய 1442
▁கட்ச 1442
ப்பட்டுள்ளன 1441
=" 1439
▁பெரு 1436
▁இலங்கை 1435
▁வாய்ப்பு 1433
ாளர்கள் 1432
மாகும் 1429
க்கில் 1428
R 1427
▁ரயில்வே 1425
▁முயற்ச 1424
ாக்க 1419
▁இல்லாமல் 1414
▁நீண்ட 1414
▁மேற்பட்ட 1414
மையை 1413
லாம் 1412
ள் 1411
▁நாடாளுமன்ற 1411
▁அதாவது 1410
▁நம்பிக்கை 1406
▁கொண்டிருக்க 1405
▁பிரெஞ்சு 1405
ண 1403
▁மின் 1403
ெ 1402
▁நவீன 1402
▁முன்னணி 1401
ட்டும் 1399
13 1398
▁இதுவரை 1397
ரம் 1395
▁மாணவர்கள் 1394
▁வங்கி 1390
22 1389
F 1388
ுவதில் 1388
ாளர்களுக்கு 1387
▁வி 1387
ாவும் 1386
ரு 1384
▁இ 1383
▁உலகம் 1381
▁ஒன்றை 1381
▁சீர்திருத்த 1381
▁முடியாத 1380
▁கேட்டுக் 1378
▁இன் 1377
▁ஊடக 1370
வர்களுக்கு 1369
ையா 1368
▁அச்சுறுத்த 1366
0,000 1364
▁அவர்களது 1364
000 1362
ுவதற்காக 1362
▁பிரிவு 1362
ஆர் 1355
க்குப் 1353
o 1352
ாள 1352
▁சரி 1351
▁பார்க்க 1341
னுடைய 1340
ில 1340
ப்படுத்தும் 1338
▁விலை 1338
னுக்கு 1336
ிருப்பது 1336
▁போல 1336
த்துக்கும் 1335
▁இணை 1335
அ 1334
▁தள்ள 1334
ு 1333
▁பகுதி 1333
கா 1331
▁டி 1330
▁ஓர் 1328
பட 1327
▁பேச்சுவார்த்த 1324
▁சுய 1322
▁ம 1322
வதற்கு 1321
▁இவர் 1321
▁கா 1320
▁தலைமையில் 1319
▁வேளாண் 1319
▁சங்க 1318
▁பு 1318
▁மிகுந்த 1318
ஸ 1316
▁காரணம் 1316
▁ஜூன் 1316
▁வாழ்த்த 1315
▁இதை 1314
ங்களைப் 1313
▁எடுத்த 1312
▁ஏகாதிபத்திய 1309
▁அளவிலான 1303
▁இயக்குனர் 1302
லி 1300
▁சென்று 1300
ிருக்கின்றன 1299
ும 1299
▁புது 1299
ப்பது 1297
ைகள 1296
▁வேல 1295
▁எம் 1293
▁நாடுகளின் 1292
ுகளில் 1291
▁அதிகமான 1291
தாகும் 1290
▁கவனம் 1290
▁குறிப்பிடத்தக்க 1290
▁பாராளுமன்ற 1289
▁ஜே 1288
▁தவிர 1288
ந்திர 1287
▁நம் 1285
▁பாராட்ட 1285
டை 1282
▁முடிவ 1282
ால 1281
▁ஓ 1281
▁சந்த 1281
▁உள்துறை 1280
▁விவசாயிகள் 1280
▁எல்லா 1276
க்கப்பட்ட 1275
▁இராஜ 1275
▁சென்னை 1274
▁பயணம் 1274
▁கிராம 1271
வன 1269
▁தடை 1269
▁வெளிப்படுத்த 1269
24 1268
▁எதிர்பார்க்க 1267
▁முற்றிலும் 1267
▁என்னை 1265
▁அமைச்ச 1263
▁பெ 1263
ாவுக்கு 1258
▁மக்களை 1257
▁படத்தை 1256
ல்கள் 1255
ஏ 1254
▁வள 1254
▁கட்டுப்படுத்த 1253
▁தே 1253
ேய 1252
ையே 1252
▁அவருக்கு 1252
▁வைக்க 1249
ூ 1247
▁பிரதான 1246
ையையும் 1244
▁நாடுகளில் 1244
ட்சி 1243
▁கொண்டுள்ள 1243
▁வழங்கும் 1239
▁குற்ற 1238
▁நாட்டு 1237
▁சமுதாய 1236
▁கூட்டு 1234
சா 1232
ைகளும் 1229
▁கருத்து 1229
▁புத்திர 1228
மற்ற 1227
ுக்கள் 1227
▁அவர்களுடைய 1227
▁திட்டங்களை 1227
▁முன்னர் 1226
▁ஒட்டுமொத்த 1224
எஸ் 1222
▁பல்கலைக்கழக 1222
▁பாத 1222
▁மணி 1222
க்கூடிய 1220
▁பாதிக்கப்பட்ட 1220
ங்களுக்கும் 1219
ங்களிலும் 1218
ிக்கப்பட்டது 1218
▁அனைவருக்கும் 1217
G 1216
லும் 1215
ிறார் 1214
▁அமைப்பின் 1214
▁நிறைவேற்ற 1214
ிற்கும் 1211
▁கிடைக்கும் 1210
▁தள 1208
▁உண்மையான 1207
ப்பின் 1206
▁நா 1205
▁பொருட்கள் 1204
ுவதாக 1203
▁பங்க 1203
ியது 1201
▁சீன 1199
▁வார 1199
▁உலகின் 1198
▁ஜனவரி 1198
ாலே 1197
▁இருந்தாலும் 1197
▁எரிவாயு 1197
▁கட்டமைப்பு 1196
ாவது 1194
▁எஸ் 1194
▁தலைவர்கள் 1194
▁சதவிகித 1193
ுக்காக 1192
▁அனுமதி 1192
▁இராணுவம் 1192
ாகவும் 1191
▁ஆகியவற்றின் 1191
▁வலியுறுத்தினார் 1189
▁சுட்டிக்காட்ட 1188
▁எடுத்துக் 1186
எம் 1183
ப்பதற்கான 1182
▁அவரை 1180
வர்கள 1179
▁தலைய 1179
▁புற 1179
▁நடந்து 1178
ிருந்தார் 1177
ெல்லாம் 1176
▁வைத்த 1176
▁முயற்சி 1175
ாது 1174
ிறார்கள் 1174
▁மேம்பாடு 1174
▁சகல 1173
▁வலியுறுத்த 1173
▁செப்டம்பர் 1172
▁ஆர்ப்பாட்ட 1171
வேல் 1170
▁அவசியம் 1170
ையான 1168
▁நடத்திய 1168
▁சுகாதாரம் 1167
▁லட்ச 1167
▁உறுப்பினர்கள் 1166
யா 1165
▁இதே 1165
ிருக்கிறார்கள் 1163
s 1162
ப்படவில்லை 1161
▁இங்கு 1161
பே 1160
▁விநியோக 1160
< 1158
▁உறுதிப்படுத்த 1158
a 1157
ப்பில் 1157
▁விரைவில் 1157
▁ஏற்படும் 1156
▁உள்ளூர் 1154
வு 1153
▁உம்ம 1152
▁தொழில்நுட்பம் 1152
▁படத்தின் 1152
ங்களைக் 1150
ுகின்ற 1148
▁தன்மை 1148
▁பொறுப்பு 1148
▁ஒ 1147
▁டிஜிட்டல் 1147
▁தேர்தலில் 1147
▁பட்ட 1146
▁வெளிநாட்டு 1145
▁உயர்த்த 1144
▁கூடுதலான 1144
▁இயற்கை 1143
▁கூடுதல் 1142
▁சொன்ன 1142
▁பார்த்த 1142
▁தலைமையிலான 1141
▁ஜூலை 1140
த்தைத் 1139
்க 1138
▁செய்வது 1138
▁உரிமைகள் 1137
n 1135
ந 1135
▁ஊதிய 1135
ின்ற 1130
▁அமைச்சகத்தின் 1130
ஸ்ட 1127
▁பயன்படுத்தி 1127
▁சமாதான 1124
ாம் 1118
▁உரிய 1117
H 1116
டும் 1116
ிகளில் 1116
▁விடுத்த 1116
ப்படுகின்றன 1115
▁மிகப்பெரிய 1115
ஆ 1114
▁கேட்க 1114
▁போக 1114
ஸ்த 1112
ப்பதில் 1111
▁ஆண்டுகளுக்கு 1110
▁மற்றொரு 1109
▁பிரச்சின 1108
ிறது 1107
▁இந்தியாவ 1107
▁சக்த 1105
▁மேல் 1105
வரை 1104
▁ஊழிய 1104
▁தாக்குத 1101
▁அனுப்ப 1100
▁எரிசக்தி 1100
▁ல 1099
▁மூத்த 1097
த்தக்க 1096
▁பேர 1095
ாம 1094
ுகளுக்கு 1094
▁மின்சார 1094
▁அக்டோபர் 1093
▁ஆகியோர் 1093
▁வகை 1093
னில் 1092
ரான 1092
▁முயற்சிகள் 1092
▁நவம்பர் 1090
▁முந்தைய 1090
ளை 1089
▁சந்தை 1088
தற்காக 1087
ிகளுடன் 1087
ிரு 1087
▁ஏற்ப 1087
▁தொகை 1087
▁அதிகமாக 1086
▁கன 1086
ியா 1085
▁ஆட்சி 1085
▁இருதர 1085
▁எங்கள் 1085
▁அக 1084
▁இரண்டாவது 1084
▁படை 1083
▁பிரதமரின் 1083
▁என்றால் 1082
தால் 1081
ீர் 1081
்த 1081
▁வந்தது 1081
▁இடது 1080
▁செயலாளர் 1080
▁மாறாக 1080
டிய 1078
ாய் 1077
▁கிட்டத்தட்ட 1077
▁கொண்டது 1076
▁பெறும் 1074
வர்களை 1073
▁செயல் 1073
ராக 1072
ிக்கொண்ட 1072
ுகளையும் 1072
▁அடுத்து 1072
▁மத 1072
▁இடையிலான 1071
▁நிறைந்த 1071
▁மோ 1071
ல்ல 1070
▁இவர்கள் 1070
ந்துள்ள 1069
▁கூ 1067
▁எடுத்து 1065
▁உங்கள 1062
ற்று 1061
▁கொடுக்கும் 1061
▁ஆர் 1060
▁ஆறு 1060
▁திருமதி 1060
▁அதிபர் 1058
▁வாங்க 1058
▁கொண்டனர் 1057
▁ரஷ்ய 1057
▁ரூபாய் 1057
▁அறிவித்த 1056
▁உள்ளனர் 1056
▁வாழ்க்கை 1056
▁பெண்கள் 1055
▁நி 1054
▁வெளியிட்ட 1054
ுவதை 1051
ல்களை 1050
▁வாஷிங்டன் 1049
ய் 1048
▁பணிகள் 1048
மாறு 1047
ிருந்து 1046
▁ஏற்ற 1045
▁மேற்கு 1045
க்கட 1044
னி 1043
ுக்களை 1042
▁இதனால் 1039
▁ஊக்க 1039
▁பிறந்த 1039
ிலான 1038
ஸ்க 1037
ாவிற்கு 1037
▁இடங்களில் 1037
▁குழுவின் 1037
▁கூறியுள்ளார் 1037
▁எண்ண 1035
▁ட 1035
▁வைத்து 1035
N 1034
சாரி 1034
வர்களின் 1034
▁நடிக்க 1034
▁மா 1034
ங் 1033
▁மக்கள 1033
▁வாஷி 1033
ோபாய 1032
▁செய்தது 1031
▁வா 1031
▁தின 1030
▁மேலாக 1029
▁நிலையை 1028
▁மைய 1028
ம்தான் 1026
▁உரிமை 1026
ினார்கள் 1025
▁கிராமப்புற 1025
▁குற்றம் 1024
▁நிலைய 1024
▁விட்ட 1022
▁வேலைநிறுத்த 1022
▁நெருக்கடி 1021
▁வெட்ட 1020
> 1018
▁கொண்டிருந்த 1017
▁உடனடியாக 1016
▁நில 1016
▁உடன்ப 1015
▁சேர்ந்து 1015
▁வாய்ந்த 1015
an 1012
▁தேர்வு 1010
▁நட 1010
ந்துள்ளது 1009
▁அளவுக்கு 1009
ிகளுக்கும் 1008
▁உங்களுக்கு 1008
▁எனக் 1008
▁குடியரசு 1008
ாகிய 1007
▁இடையில் 1005
-- 1004
▁சக்தி 1003
▁பற்றியும் 1003
▁முதலீடு 1002
நிலை 1001
▁உயர்ந்த 1001
▁செல்லும் 1001
பக் 1000
ின்றனர் 998
▁நகர 998
▁வாத 998
ுகளின் 997
▁கூட்டம் 996
▁நலன் 996
ற்போ 995
▁இன 993
ரையும் 992
▁தூய்மை 992
▁நோக்க 992
▁அடை 991
▁தயாராக 989
ஜன 986
▁முன்னேற்ற 986
▁உண்டு 985
▁நோய் 983
▁பர 983
▁ஆக்கிரமி 982
ரவ 981
▁ஓய்வூதிய 981
▁கொள்ளும் 981
▁பாரம்பரிய 981
▁எதிர்கால 980
▁இளைஞர்கள் 979
▁மாநாட்டில் 979
ிருப்பதாக 978
க்கார 977
பின் 977
▁போலீஸ் 977
▁வாரம் 977
▁ஈராக்கிய 976
▁மாற்றம் 976
மாகவும் 975
▁இந்தியாவை 975
▁உண்மையில் 975
▁பங்களிப்பு 973
▁முன்பாக 972
▁தீர்வு 971
▁சு 970
▁இளைஞ 969
▁காலம் 969
▁வலு 969
▁ஆரம்ப 968
ப்பட்டன 964
▁இதோ 964
▁திற 964
▁நிறுவனத்தின் 964
▁வழி 964
▁அறிவித்தார் 963
எ 962
ங்களாக 962
▁ஆலோசனை 962
▁சிகிச்சை 962
▁தொடக்க 962
▁பயண 962
▁குறித்தும் 961
▁திட்டமிட்ட 959
▁பதில 959
▁கலாச்சார 958
மாகக் 957
▁நேரடி 957
▁குழந்தைகள் 956
▁பதிலாக 956
h 955
ங்களுக்கான 955
▁பழைய 955
ைகளைக் 954
▁இத 954
▁கூட்டணி 954
▁என்னவென்றால் 952
▁பிரான்ஸ் 952
▁பூ 952
▁விழாவில் 952
▁போய் 950
விட்ட 949
▁பெரும்பாலான 949
▁ல் 948
▁கப்பல் 947
▁ஆண்டுகளாக 946
ைக்கு 945
▁இன்றைய 945
▁கிடைத்த 945
▁வாக்க 945
▁ஆப்கானிஸ்த 944
▁கையெழுத்த 941
▁சுற்றுலா 941
▁போராட்ட 941
▁யூத 941
▁இந்தச் 940
▁ஏராளமான 940
மைய 939
ிர 939
ப்பிர 937
▁இடையேயான 937
ஹ 936
), 935
ஞ்ச 935
▁ஏனைய 934
▁விட்டு 934
்கள் 933
▁இர 933
▁விரிவான 933
▁கைது 932
மில்லை 931
▁நடைபெற 931
ுதான் 930
▁கொண்டிருக்கும் 930
ூட 929
▁எதிர்ப்ப 929
பு 928
▁நடைபெறும் 927
▁உழைக்கும் 926
▁முதலாவது 926
▁மு 925
▁வயது 925
▁அங்கே 923
▁கதை 923
▁பிரதேச 923
▁புல 923
த்தைச் 922
ித 922
▁இஸ்ரேல் 922
▁என்றாலும் 922
▁வாச 922
▁பெண் 921
னோ 920
ாவாக 920
▁எதுவும் 920
▁பரிசுத்த 920
ைக்க 919
▁0 919
▁: 919
▁அதிகரிக்க 919
▁ஆகஸ்ட் 919
▁இஸ்ரேலிய 918
▁வணிக 918
லோ 917
▁சிர 916
▁சூரிய 916
J 915
ிக்கான 915
▁ஆண்ட 915
னே 914
▁இரண்டாம் 913
▁செய்தார் 913
ப்படாத 912
▁மதிப்ப 910
▁துறைகளில் 909
▁சேவைகள் 908
ர்த 907
ங்ட 906
ப்படு 906
▁இஸ்ரே 906
ென்று 905
▁என்பதில் 905
▁வெளியே 905
ரால 902
▁முன்னோ 902
னம் 901
▁ட் 901
▁வை 901
▁ஸ்ரீ 901
ட்ச 900
▁அந்தப் 900
▁விசாரணை 900
l 899
க்காக 899
▁உச்சி 899
▁ஒருங்கிணைந்த 899
▁சோச 898
▁தொழில்துறை 898
▁நிர்வாகத்தின் 898
ிருப்ப 897
▁பகிர்ந்து 897
ஒரு 896
▁சம 896
▁நடித்த 895
▁ராணுவ 894
▁வைத்தார் 894
`` 893
▁படைகள் 893
▁மூ 893
ஷன் 890
▁நேற்று 890
▁பீ 889
▁பின்பு 888
▁மேலாண்மை 888
▁எழுதிய 887
▁ஸ்திர 887
▁செய்வதற்கு 886
▁பணம் 886
▁ஆக்க 885
▁உருவாக்கிய 885
▁வங்க 885
31 884
சார 884
▁அதிகரி 884
ப்புகள் 883
▁ஏனெனில் 883
▁அடையாளம் 882
▁அக்க 881
▁காங்கிரஸ் 881
▁சாதாரண 881
▁சே 881
▁வித 881
▁அகற்ற 880
▁தொற்று 880
▁போருக்கு 880
ப்பும் 879
▁டிசம்பர் 878
▁நிலைமை 878
23 876
▁பார 875
▁போலீ 875
▁உடைய 874
▁ஏற்படுத்தும் 874
▁கொண்டிருக்கிறது 874
▁மையம் 873
ங்களுடன் 872
▁அமைக்க 872
▁இருக்கிற 872
▁எந்தவொரு 872
▁கண்டு 872
▁பெயர் 872
த்திய 871
் 871
▁ஆண்டுகள் 871
▁ஆதரவை 870
▁இருப்பதாக 870
▁அச்ச 869
▁டாலர் 869
த்திர 868
▁போதிலும் 868
ரொ 867
ங்களால் 866
ண்டு 865
வீ 865
▁நிர்ணய 864
▁பத 864
க்கூடும் 863
ர்க்கோ 863
▁கம்யூனிஸ்ட் 863
▁சந்தேக 863
▁மின்னணு 862
▁ஏன் 861
W 860
சார் 860
▁ஆணைய 860
▁கொண்டுவர 860
▁வசதிகள் 860
த்துக் 859
▁கட்சிய 859
▁ஆசிய 858
▁மத்தியில் 858
▁விளக்க 858
▁அப்போது 856
ழ 855
▁செய்துள்ளது 855
ன்கள் 854
▁துறையின் 854
▁பாவ 854
▁மொத்தம் 853
ருடன் 852
▁ஜேர்மன் 852
▁தெற்கு 852
▁கைய 851
▁நேரம் 851
▁விருது 851
க்கள 850
▁அணு 850
▁வலுவான 849
▁நேரடியாக 848
▁மோச 848
▁அமைச்சக 847
▁பின்பற்ற 847
▁யூனியன் 845
த்தின 844
▁அதிகம் 844
▁அவர்கள 844
▁நீடித்த 844
ங்களைத் 843
டியை 843
ர்க் 843
▁இப்படி 843
▁மாற 843
ினை 841
▁செயல்பட 840
ர்களுக்கும் 839
▁மதிப்பு 839
லாக 838
▁உரை 837
▁ஊக்குவ 837
▁இதனை 836
▁வேலைவாய்ப்பு 836
▁இறுதியில் 835
▁கலை 835
▁அவனை 834
▁குறைக்க 834
26 833
▁அள 833
▁ஏற்றுமதி 832
பிர 831
▁தொடங்கிய 831
▁பொருளாதாரம் 831
▁வருக 831
er 830
ிற்கான 830
▁நேர 830
ீனிய 829
▁அர்ப்பண 829
▁மாநாடு 829
வரும் 828
▁பிரிட்டிஷ் 828
த்திற்காக 827
▁தீர்மான 827
ைகளைப் 825
▁அதனை 825
▁சாத்திய 825
▁கிடைக்க 824
I 823
▁உணர்வ 823
▁சதவிகிதம் 823
▁பாலஸ்த 823
▁நகர்ப்புற 822
▁நிறுவனங்களின் 822
▁மாநிலங்களில் 821
▁வடக்கு 821
E 820
▁அடி 820
▁இடத்தில் 820
▁ய 820
ிலேயே 819
▁சிறப்பான 818
▁தண்ணீர் 818
▁வெளியிட 818
K 817
▁அமெரிக்காவில் 817
▁சரியான 817
▁விளையாட்டு 817
▁பேச்ச 816
முள்ள 815
▁சுற்றுச்சூழல் 815
▁தா 815
த்திட்ட 814
▁நடைமுற 814
▁பொருள் 814
▁யார் 814
▁கலந்துர 813
▁பார் 813
▁வர்த்தகம் 812
▁-- 811
▁ஆகியவற்றில் 811
வான 810
ாள் 810
▁கவலை 810
▁பகுதியாக 810
▁பெரிதும் 810
பய 809
▁அவசர 809
▁மாவட்ட 809
▁மூலமாக 809
ப்பா 808
ுடனான 808
▁செயல்படும் 808
▁தடுப்பு 808
▁மேம்பாட்ட 808
▁நாட்கள் 807
▁பண்ண 807
க்கம் 806
ிருந்தனர் 806
▁இருப்பது 806
▁ஆயிரம் 805
▁நோக்கம் 805
சோ 804
ிவிட 804
▁எதிர்க்க 804
▁பட் 804
▁ஆணையம் 803
▁எடுத்துக்காட்ட 803
தாவது 801
▁உருவாக்கும் 801
ைச் 800
▁கொலை 800
▁மாநிலங்கள் 799
க்கி 798
ித்தது 798
▁அப்ப 798
▁விளைவாக 798
என் 797
▁இணைப்பு 797
▁பா 796
▁விஷய 796
ிக்கொள்ள 795
▁எவ்வாறு 795
▁விடுதலை 794
சை 793
ியான 793
▁செல 793
த்துக்கான 792
▁ஒன்றிய 792
▁பிரிவ 792
▁அதிகாரி 791
எஸ்டி 790
ரித்த 790
▁நிறைவு 790
▁வலைத் 790
ித்தார் 788
▁பணியாற்ற 787
ப்படுத்தி 786
ரக 786
▁அவனுக்கு 786
▁கவன 786
▁தூ 786
▁படி 786
▁பய 786
▁வர்க்கம் 786
மாக்க 785
▁அனைத்தும் 785
▁ஆயு 785
▁பொதுமக்கள் 785
▁முதலில் 785
▁அம 784
▁நமக்கு 783
ிவிட்டது 782
▁தன்னை 782
▁நடுத்தர 782
▁நினைவு 782
ினாலும் 781
▁உலகப் 781
▁சாலை 781
▁அறிந்த 780
▁பரிசோதனை 780
▁பிரதிநிதிகள் 780
▁வரலாற்று 780
ar 779
▁நடக்க 779
▁நன்கு 779
▁புதுதில்லியில் 779
ையுடன் 778
▁நீதி 778
▁மகிழ்ச்சி 778
▁விற்பனை 778
ிகளே 777
▁அண்மையில் 777
▁உன்ன 777
ித் 776
▁ஆகையால் 776
▁வெ 776
▁கு 775
▁பத்திரிகை 775
▁செய்யப்படும் 773
ுக்குக் 772
▁முயற்சிகளை 772
▁இறுதி 771
▁முறையை 771
▁காட்சி 770
▁சோவியத் 770
▁நடைமுறை 770
படுத்த 769
ிலுள்ள 769
▁கூடாது 769
▁துற 769
▁வருமான 769
▁உரையா 768
▁ஊரக 768
▁தங்களின் 768
▁நாளை 768
▁பென் 768
▁தவிர்க்க 767
▁நன்றி 767
தியை 766
▁அமைப்புகள் 766
▁கருத்தில் 766
▁ரோ 766
ப்பான 765
▁தொழிலாளர்கள 765
▁உண்மை 764
▁தனிப்பட்ட 764
▁அந்தக் 763
▁தெளிவாக 763
ிகா 762
▁கொடுத்து 762
ாமலும் 761
▁சம்பந்தப்பட்ட 761
▁போட்ட 761
ுகளும் 760
▁மாநிலம் 760
க்கூடாது 759
▁அளிப்ப 759
▁ஒன்றாக 759
▁உமது 758
▁கேள்வி 758
▁கள 757
▁முன்னேற்றம் 757
வார்கள் 756
▁ஆதார 755
▁மெ 755
▁யோகா 755
▁அல் 754
▁தாக்கல் 754
▁நிலக்கரி 754
▁வெளியுறவு 754
▁ஈடுபட்ட 753
▁வில 753
▁விவகார 753
▁கடற்படை 751
▁பெற்று 750
க்கை 749
▁பால 749
ங்களைச் 748
லே 748
▁தூண்ட 748
ராகிய 747
ுங்கள் 747
▁அமை 747
▁எனவும் 747
▁தேர்ந்தெடு 747
▁பரவ 747
▁பாக்கி 747
▁அலுவலக 745
i 744
ஷா 744
ிவிட்ட 744
▁செலவு 744
▁வருகின்றனர் 744
▁வேலைவாய் 744
மாகிய 743
யம் 743
ுகின்றன 743
▁குறு 743
▁புலிகளின் 743
ட்டில் 742
28 741
▁முழுமையாக 741
கு 740
ாளர் 740
▁கல 740
▁பலர் 740
ப்பதற்காக 739
▁இயக்கத்தின் 739
▁இலக்கு 739
▁மக 739
ைகளுக்கும் 738
▁இனி 738
▁உறுப்பினர் 738
▁நலத்துறை 738
75 737
சு 737
தோ 737
▁அதிகாரம் 737
▁உயிர 737
▁லே 737
▁வழ 737
றும் 736
ையொட்டி 736
▁உறுதியாக 736
▁கணிசமான 736
▁தகவல்கள் 736
▁தனி 736
', 735
ானில் 735
▁ஏழு 735
▁அடையாள 734
▁காந்தி 734
▁சீனா 734
▁தேவன் 734
▁புலிகள் 734
▁அனுமதிக்க 733
▁மண்டல 732
யில் 731
▁மீ 730
ைக்கான 729
▁அகில 729
▁சமீபத்தில் 729
ாட்ட 728
▁கி 728
▁கூடுதலாக 728
▁விண்ணப்ப 728
வர்களும் 727
▁அடிப்படையிலான 727
▁சோதனை 727
▁விசாரண 727
▁தயாரிப்பு 726
▁மிக்க 725
வாக 724
▁அதிகரித்து 724
▁ஒப்புக் 724
▁தங்க 724
தற்கான 723
▁தாக்க 723
▁திருந 722
▁தெரிவித்தனர் 722
▁வழங்கப்படும் 722
மிக்க 721
ர்களாக 721
▁ஒன்றும் 721
▁கோட 721
▁சிலர் 721
... 720
ுக்குத் 720
▁அடைய 720
▁நாட்டை 720
▁பார்த்து 720
▁கணக்க 719
▁சார்பில் 719
▁தீவிரவாத 719
▁டால 718
டியின் 717
▁அமைக்கப்பட்ட 717
▁ஜோ 717
டைய 716
ிக்கப்பட்டுள்ளது 716
மான் 715
▁இருக்கின்றன 715
ளித்த 714
▁உருவாக்கப்பட்ட 714
▁நிராக 714
மையான 713
ாகக் 713
ிப்பது 713
▁இல் 713
▁திட்டத்தில் 713
▁குஜராத் 712
▁ராஜா 712
▁உயர 711
▁யூரோ 711
ட்டிய 710
▁கிள 710
▁தொடர்புடைய 710
க்குச் 709
ையிலும் 709
ள்ள 708
ிக்கப்படும் 708
▁ஏற்பட்டுள்ள 708
▁வீட்ட 708
▁தயார் 707
▁தாங்கள் 707
▁விருப்ப 707
இந்த 706
▁அவற்றின் 706
▁அவற்றை 706
▁டைம்ஸ் 706
▁தசாப்த 706
▁மிகக் 706
▁முழுவதிலும் 706
▁முன்னதாக 705
y 704
மீ 704
ாக் 704
ாவுடன் 704
▁ஈரான் 704
▁சத 704
▁தயாரிப்ப 704
▁வட 704
னையும் 703
▁அப்படியே 703
▁பசு 703
▁மகத்தான 703
டிக்கு 702
▁அனுபவ 702
▁இழ 702
▁அறிமுகப்படுத்த 701
▁போட்டி 701
▁வலுப்படுத்த 701
டா 700
ப்பதை 700
▁இதுபோன்ற 700
க்கணக்கான 699
ும்ப 699
▁பத்து 699
▁அத்துடன் 698
▁தொழிலாளர்களை 698
▁நாடுகளுக்கு 698
27 697
▁விழா 697
▁எதிர்கொள்ள 696
▁பிடித்த 696
முறை 695
▁அமையும் 695
▁உடல் 695
▁பொருட்களை 695
▁விடு 695
த்தி 694
ையைக் 694
▁நலன்களை 694
▁வாக்கு 693
ப்படுவது 692
▁என்பதால் 692
▁முறையாக 692
▁ரா 692
▁விமானப் 692
▁வீட்டு 692
▁வே 692
ப்புக்கள் 691
ற்றிய 691
தையும் 690
த்தினால் 690
ின்படி 690
ேச 690
ையைப் 690
▁உடன்படிக்க 690
▁எமது 690
▁பூகோள 690
மின் 689
ருக்க 689
▁சொல்லி 689
▁தீர்க்க 689
▁பணிகளை 689
மீது 688
டுக்க 687
▁அர 687
▁உறுப்பின 687
▁தொழிலாளர்களின் 687
▁போலவே 687
▁வேட்ப 687
▁கட்சிகள் 686
▁நாட்களில் 686
O 685
▁எடு 685
▁தரு 685
▁தெரிவிக்க 685
▁புரிந்து 685
▁கட்டளைய 684
▁செலுத்துவ 684
29 683
▁பகிரங்க 683
ட்டின் 682
▁இசை 682
▁கிடையாது 682
எல் 681
வுள்ள 681
▁அரசாங்கத்தை 681
▁இலாப 681
▁அப 680
▁செலவின 680
▁நிகழ்ச்சி 680
▁மிகப்பெரும் 680
▁க்கு 679
ுக்கொண்ட 678
▁அதிகரித்த 678
▁திறந்து 678
▁பிரதிநித 678
ின்றன 677
▁போரை 677
ட்டி 676
படிய 676
ாதம் 676
▁உலகில் 676
▁செயல்பட்டு 676
▁நீதிமன்ற 676
▁நே 676
▁வெற்றிகரமாக 676
பல 675
ஜே 674
ிருப்பத 674
ுக்குப் 674
ுள்ளதாக 674
▁சம்பவ 674
▁ஹீரோ 674
▁உதவிய 673
▁காட்டிய 673
▁பயன்படுத்திக் 673
ப்படுத்தப்பட்ட 672
வதாகவும் 672
▁ஒதுக்க 672
▁அணி 671
▁முதலீட்ட 671
டுத்த 670
த்துவம் 670
▁காட்டுகிறது 670
▁சப 670
f 669
▁வாகன 668
ையோ 667
▁ஆயிரக்கணக்கான 667
▁எட்ட 666
▁திர 666
▁தொடர்ப 666
ர்க்க 665
ின்றது 665
▁அந்நிய 665
▁கடல் 665
▁வேண்டியது 665
ப்பாட்டை 664
மைக் 664
▁பாதுகா 664
▁ஸ்த 664
லிஸ்ட் 663
▁உணர்வு 663
▁எச்ச 663
▁கரு 663
▁சமீபத்திய 663
▁மையங்கள் 663
ண்ணி 662
ஸ்கி 662
ிகளால் 662
ந்தர 661
ுற 661
▁பதில் 661
▁வெள்ள 661
று 660
விய 660
ிவிடும் 660
▁ஏற்க 660
▁தாம் 660
▁முற 660
▁ஒபாமா 659
▁குழுக்கள் 659
▁பட்டண 659
▁மருந்து 659
▁மேற்கொண்டு 659
க்கிய 658
ரியா 658
ைக 658
▁இளம் 658
▁நடக்கும் 658
▁கட்டுப்பாட்ட 657
▁செல் 657
க்த 656
ப்பத 656
▁இலக்க 656
▁ஒப்ப 656
▁நடைபெற்றது 656
▁படப்பிடிப்பு 656
▁பால் 656
▁மேலாதிக்க 656
▁தரும் 655
▁வடகிழக்கு 655
▁வளர்ந்து 655
▁வழங்கிய 655
க்குக் 654
ுவதற்கும் 654
▁கடந்து 654
த்தம் 653
▁என்பதையும் 653
▁செய்யப்பட்டது 653
ஈ 652
பூ 652
ப்படுவதை 652
▁ஒன்றில் 652
ிக்கொண்டு 651
▁ஏழை 651
▁கெ 651
▁மோசமான 651
▁விரிவுபடுத்த 651
நாத் 650
▁போக்க 650
▁கவ 649
▁குரு 649
▁நாணய 649
▁வருவதாக 649
க்குள் 648
திய 648
ுவேன் 648
▁அமைதி 648
▁அளித்துள்ளது 648
▁பணியில் 648
▁முடிந்த 648
▁தொ 647
ிவரும் 646
▁நாட 646
▁பதவி 646
in 645
படியே 645
▁ஈ 645
▁உட்படுத்த 645
▁நடத்தி 645
35 644
ரிக்க 644
ிக்கவும் 644
▁தந்த 644
▁வெளிப்படையாக 644
டுவதற்கு 643
▁எச்சரிக்க 643
▁ஏழ 643
▁தடுக்க 643
▁நிலவ 643
▁முழுமையான 643
▁ஹோ 643
கே 642
ண்ட் 642
▁உடன் 642
▁சிறப்பாக 642
▁து 642
▁நடந்தது 642
▁பெருந்த 642
▁வரையிலான 642
▁நாள 641
▁சட்டத்தின் 640
▁போராட்டம் 640
▁அதி 639
▁இருந்தார் 639
▁குவ 639
▁போன 639
▁வருகிறார் 638
▁வெள்ளை 638
போல 637
▁உச்ச 637
▁செய்கிறது 637
ுடனும் 636
▁அவள் 636
▁தலைவர்களும் 636
▁அதிகரிக்கும் 635
▁அரசுகள் 635
▁இருவரும் 635
ஜ் 634
ுகிறார்கள் 634
▁இருந்தன 634
▁இஸ்லாமிய 634
▁குறுகிய 634
வுடன் 633
வோம் 632
▁ஆனாலும் 632
▁இந்தியப் 632
▁தாராள 632
▁தொழிற்க 632
▁விவகாரங்கள் 632
▁அறிக்கையில் 631
▁அல 631
▁கருத்த 631
ங்களது 630
பவர்கள் 630
ிருந்தன 630
▁அதிகரித்துள்ளது 630
▁ஈரான 630
▁காவல் 630
▁வங்கிகள் 630
▁ஹெ 630
▁கூடும் 629
▁தய 629
▁மோத 629
கம் 628
ர்கள 628
▁கணக்கான 628
▁உலகளாவிய 627
▁தட 627
▁தட்ட 627
ங்கு 626
லையும் 626
▁உர 626
ுவார்கள் 625
▁ஆழ்ந்த 625
▁சேவ 625
▁தடு 625
▁நிறுவ 625
▁வார்த்த 625
வான் 624
ிப்போ 624
▁அடைந்த 624
▁தொலை 624
▁எடுக்கப்பட்ட 623
▁வந்துள்ளது 623
▁விதத்தில் 623
பிய 622
வதில் 622
ித்துவ 622
ுக்கொண்டார் 622
▁காண்ப 622
▁நடிகர் 622
▁முக்கியத்துவ 622
ப்பிற்கு 621
ிருக்கிறேன் 621
▁கட்டாய 621
▁நம்முடைய 621
வதற்கான 619
▁எதிர்த்து 619
▁ஏற்றுக் 619
▁பிரச்சினை 619
ஓ 618
மையாக 618
ிப் 618
ுகின்றனர் 618
ங்கம் 617
▁குற்றச்சாட்ட 617
▁யின் 617
▁சவால 616
▁டன் 616
வேன் 615
்ச 615
▁கிலோ 615
ளவில் 614
▁அச 614
▁தினம் 614
▁போரில் 614
ுவிட்ட 613
▁ஊ 613
▁திருத்த 613
▁தொற்ற 613
ுவரும் 612
▁தேர்த 612
▁முதலீட்டு 612
▁வசதிகளை 612
▁வாக்கள 611
ராஜ 610
விட்டது 610
▁இராணுவத் 610
▁தில்லி 610
▁மதிப்பீடு 610
▁வெளி 610
த்திற்குள் 609
▁இருப்பு 609
▁தீர்வ 609
▁உட்பட்ட 608
▁வீடுகள் 608
டிக்க 607
▁போரா 607
▁விவசாயிகளின் 607
ந்தது 606
▁அவனுடைய 606
▁எதிர்ப்பை 606
▁குறிப்பிட 606
▁நெடுஞ்சாலை 606
▁விழ 606
en 605
உ 605
ோட 605
▁குண 605
▁நம்பிக்க 605
க்கின் 604
மன் 604
▁மரண 604
ட்டை 603
▁அறிந்து 603
ந்துள்ளனர் 602
▁திரைப்பட 602
▁போதுமான 602
ாளர்களும் 601
▁எல் 601
மைச்சர் 600
▁ஆய 600
லாத 599
▁ஜப்பான் 599
▁பொறுப்ப 599
▁வாய்ப்புகள் 599
தில்லை 598
ுகிறோம் 598
ையைத் 598
▁அழுத்த 598
▁மகளிர் 598
ற்ச 597
ாரத்தில் 597
▁குண்டு 597
▁தொடர் 597
▁நன்ற 597
▁புதிதாக 597
்களை 596
▁உண்ட 596
▁கட்டண 596
▁பிரச்சாரம் 596
▁முன்னிட்டு 596
▁அரசாங்கத்திற்கு 595
▁உங்களது 595
▁ஊழியர்கள் 595
▁எதிர்கொண்ட 595
▁சக 595
▁சேர்க்க 595
▁நிற்க 595
ராஜ் 594
▁ஆசாரிய 594
▁ஒப்பு 594
▁குடியரசுக் 594
▁நெருக்கமான 594
▁பெருநிறுவன 594
னு 593
ர்களுடன் 593
ித்தனர் 593
▁கால் 593
▁பாரத் 593
▁முடிவுகள் 593
கோ 592
▁ஜெனரல் 592
0- 591
▁எப்போதும் 591
▁எல்லை 591
▁செல்வந்த 591
▁பங்களிப்பை 591
▁சும 590
▁பாதிப்பு 590
▁வருகை 590
▁விட்டது 590
▁உத்தரவ 589
▁தன்மையை 589
▁பாதுகாக்க 589
ங்கி 588
▁சதவீதமாக 588
▁சம்பள 588
▁செய்தனர் 588
▁மந்த 588
ர்களையும் 587
▁அடிக்கல் 587
▁அளித்து 587
▁ஆஸ்திரேலிய 587
▁தனக்கு 587
▁நிறைய 587
ஜீ 586
பர் 586
ஸ்தான 586
ெடு 586
▁தக்க 586
▁யூ 586
u 585
ப்போல 585
ஷ்ட 585
▁அதனால் 585
▁கட்டுப்பாட்டு 585
▁கிர 585
▁சிங்கள 585
▁தாக்குதலை 585
▁உன்னை 584
▁கண்காணிப்பு 584
▁கார் 584
▁தடுத்து 584
▁விகிதம் 584
▁அமைந்த 583
▁செலுத்தும் 583
▁கடுமையாக 582
▁கண்டன 582
▁ஜம்மு 582
ில்தான் 581
▁அங்க 581
▁கொள்கையை 581
▁நடத்தப்பட்ட 581
வர்களில் 580
ையானது 580
▁அனைவரையும் 580
▁ஆண்டின் 580
▁பாதுகாப்புப் 580
தாகக் 579
வேண்டிய 579
▁இதற்காக 579
▁ஓய்வு 579
▁முதல 579
", 578
த்திற்குப் 578
ஸின் 578
ாளர்களை 578
்த்த 578
▁ஆக்கிரமிப்பு 578
▁உடை 578
▁என்பதற்கு 578
▁ரீ 578
▁விசார 578
▁வெறும் 578
துடன் 577
ினான் 577
ுகள 577
▁சால 577
▁செயலகம் 577
▁வாய்ப்ப 577
ப்புகளை 576
ாகப் 576
▁கடைசி 576
▁சாட்ட 576
▁செய்வதற்கான 576
▁ஜீ 576
▁பங்கேற்ப 576
▁மகாத்மா 576
▁மாநிலத்தில் 576
ிகளாக 575
▁பாரத 575
▁விவசாயிகளுக்கு 575
ாளிகள் 574
்த் 574
▁ஆரோக்கிய 574
▁காலை 574
▁சமூகப் 574
ப்போம் 573
ிட்டது 573
▁உருவாக்கி 573
▁கோரிக்க 573
▁திறனை 573
▁நினைக்க 573
▁முன்னுரிமை 573
டுவது 572
தின் 571
ஸ்ப 571
▁அனைத்தையும் 571
▁ஆற்றிய 571
▁குறைவான 571
▁கூறி 571
▁மூலதன 571
▁வாழ்த்து 571
ைகளைத் 570
▁பேரில் 570
▁வந்துள்ள 570
▁ஹூ 570
டுகிற 569
▁அனை 569
▁இதுதான் 569
▁கொள்கைகள் 569
ுகையில் 568
▁வளர்ச்சியை 568
▁கொள்கைகளை 567
▁டெ 567
▁வாழும் 567
பொ 566
மையில் 565
▁ஆத்திர 565
▁ஜாத 565
▁பாதுகாப்புத் 565
▁பேசினார் 565
ரால் 564
ல்களுக்கு 564
ிப்பதற்கு 564
▁உள்ளடக்கிய 564
▁வைரஸ் 564
▁ஸ்ட 564
ராம் 563
ைகளிலும் 563
ைகளுக்கான 563
▁சரக்கு 563
▁தாய் 563
▁தீர் 563
ப்படுவதற்கு 562
வர 562
ிருந்தால் 562
▁தோ 562
▁இருப்ப 561
▁பெருக 561
▁வீடு 561
▁கோப 560
▁நீண்டகால 560
ரிடம் 559
விற்கு 558
ஸில் 558
ுத்த 558
ும்போது 558
▁குண்ட 558
▁கொள்முதல் 558
திக்கு 557
▁கிடை 557
▁குடிமக்கள் 557
▁தகவல்களை 557
▁பார்வ 557
▁பெயரில் 557
▁விரைவாக 557
▁முன்ப 556
▁மேம்ப 556
வதை 554
்களுக்கு 554
▁வைக்கப்பட்ட 554
த்தோடு 553
▁அடங்கும் 553
▁எங்களுக்கு 553
▁திட்டத்திற்கு 553
▁நாம 553
▁பேச்சு 553
சிய 552
பீ 552
▁நடவடிக்கைகளில் 552
▁மால 552
ுவிட 551
▁இயக்குநர் 551
▁நினை 551
▁மாதத்தில் 551
ையாகும் 550
▁அமைச்சரவ 550
▁அழுத்தம் 550
▁இயக்கத்தை 550
▁உயிர் 550
▁உறவுகளை 550
▁திவ 550
▁ரொ 550
▁வலியுறுத்திய 550
▁வெளிப்படையான 550
0, 549
லைப் 549
வ் 549
ப்புக்கு 548
ிகளுக்கான 548
ுவதன் 548
▁பிரச்சன 548
யூ 547
ரவாத 547
▁எவ்வித 547
▁பெருமை 547
ியாய 546
▁அறிய 546
▁இல்ல 546
ப்புத் 545
வர்களாக 545
ிடும் 545
ேக 545
▁ஆலோசன 545
▁உங்களை 545
▁தாக்குதல்கள் 545
▁வீரர்கள் 545
லிய 544
ித்தல் 544
▁ஏதும் 544
▁தலைவரான 544
▁விஞ்ஞான 544
லான 543
▁இருந்தால் 543
▁உறவுகள் 543
▁சிக்க 543
▁தெளிவான 543
▁பொதுவான 543
▁வருவாய் 543
மய 542
ளிப்ப 542
ியே 542
▁மட்டுமின்றி 542
தம் 541
▁சொல் 541
த்தினர் 540
▁உட 540
▁உணவுப் 540
▁உரிமைகளை 540
▁ஒருவன் 540
▁மறை 540
▁முட 540
▁விவர 540
r 539
தற்கும் 539
▁அப்படி 539
▁இங்கே 539
▁பூர்த்தி 539
▁வகையிலும் 539
ட்சிய 538
▁அனைத்துலக 538
▁கூட்டமைப்பு 538
▁நகரில் 538
ுவார் 537
▁ஆயுதங்கள் 537
▁உற்பத்திய 537
▁சவு 537
▁தொலைபேசி 537
▁மாற்று 537
ப்புக் 536
ரீ 536
▁அருகில் 536
▁சபை 536
▁துறைமுக 536
திர 535
தைப் 535
னால் 535
▁எல்ல 535
▁கலந்துரையாட 535
▁நிறுவனங்களுக்கு 535
▁பங்கேற்க 535
▁பாதிப்ப 535
▁பின்ன 535
▁விஷயம் 535
ருவ 534
▁உத்தியோகபூர்வ 534
▁தி 534
▁பாரிய 534
▁போராட்டத்தில் 534
45 533
ண் 533
▁அறிக்கையை 533
▁நாடாக 533
ஃப் 532
ாகவே 532
▁கத 532
▁குடி 532
▁நாயுடு 532
தலை 531
ையெல்லாம் 531
▁அமெரிக்கப் 531
▁எல்லாம் 531
ுகளைப் 530
▁அவன 530
▁மாதங்களில் 530
▁வரவு 530
வதற்காக 529
▁காரிய 529
▁தயாரிக்க 529
▁மீட்டர் 529
விட்டு 528
▁அமல்படுத்த 528
▁ஆத 528
▁கிழக்கில் 528
▁சுயாதீன 528
▁தீவிரமாக 528
▁பாராட்டினார் 528
ிக்கப்படுகிறது 527
ிற்காக 527
▁அறிக்க 527
▁உறுதியான 527
▁மசோதா 527
▁மீதும் 527
▁முயற்சியில் 527
ிட்டு 526
▁ஆசிரியர் 526
▁உற்பத்தியில் 526
▁கருத்தை 526
▁சிந்த 526
▁செயல 526
▁செயல்ப 526
▁தெளிவ 526
▁பகுதிகள் 526
on 525
ிக்கிறது 525
ையிலிருந்து 525
▁அவர்களே 525
▁ஏற்றுக்கொள்ள 525
▁மாபெரும் 525
▁மிகச் 525
▁வரையில் 525
," 524
ிருக்கின்றனர் 524
ஸ்ட் 523
▁அளிக்கிறது 523
▁இருந்தும் 523
▁பட்டியலில் 523
▁மாற்றத்தை 523
▁வெகுஜன 523
ிருப்பதை 522
ேந்திர 522
▁ஒட்டி 522
▁தேவைப்படும் 522
▁பிரிவுகள் 522
▁யுத்தம் 522
▁வீ 522
▁வெளிப்பட 522
▁இலக்கை 521
▁தங்களை 521
▁நோ 521
▁பிணை 521
▁வகுப்பு 521
னாக 520
ருக்கான 520
ிம 520
▁ஒன்றியம் 520
ிடமிருந்து 519
்ட 519
▁அன்ப 519
▁எச்சரிக்கை 519
▁கண 519
▁செய்தல் 519
▁லா 519
▁வீர 519
சன 518
▁ஆப 518
லைக் 517
ைத்த 517
▁உன 517
▁உனக்கு 517
▁போன்று 517
▁மாதிரி 517
யின் 516
ல்க 516
▁மூன்றாவது 516
▁யா 516
சன் 515
ந்தார் 515
ிடையே 515
▁குடிநீர் 515
▁வருவது 515
▁வான 515
னைய 514
▁சுங்க 514
▁தங்களுடைய 514
▁மகா 514
▁மேற்கொள் 514
டியில் 513
ர்களில் 513
▁இன்னொரு 513
▁ராம் 513
க்கிற்கு 512
நாள் 512
▁அதிகாரத்துவ 512
▁அத்தியாவசிய 512
▁திரட்ட 512
டக 511
மையின் 511
ிற்குள் 511
▁அனுப்பி 511
▁அமைப்ப 511
▁பதிவ 511
▁போட 511
▁மகிழ்ச்ச 511
ப்படி 510
▁நுகர்வோர் 510
▁பத்திரிக 510
▁பாராட்டு 510
▁மருத்துவமன 510
ாவே 509
ைகளால் 509
▁சூழல் 509
▁தரம் 509
▁நடத்துவ 509
▁விஜய் 509
▁இந்து 508
▁கொண்டுவ 508
▁சுதந்திரம் 508
▁வழிகாட்ட 508
32 507
p 507
ித்துள்ளது 507
▁உடன்பாடு 507
▁காத்த 507
▁காப்பாற்ற 507
▁கூறியுள்ளது 507
▁திருப்பி 507
▁தெ 507
▁தொட 507
▁நீக்க 507
▁பெறுவதற்கு 507
▁மின்சாரம் 507
ந் 506
ன்ம 506
மாறும் 506
▁கூறுகிறது 506
▁செய்யவும் 506
▁தலைவராக 506
டைந்த 505
ாரி 505
ித்தன 505
▁எவ்வளவு 505
▁சுத 505
▁தமிழீழ 505
னார்கள் 504
ீட்டை 504
▁அறிவுறுத்த 504
▁இந்தியாவுக்கு 504
▁திட்டமிட 504
▁மேற்க 504
▁விரிவாக்க 504
ப்பி 503
ாட்டை 503
▁அடங்கிய 503
▁உடன்படிக்கை 503
▁குறைந்து 503
▁ரீதியான 503
ஷம் 502
ாளர்களின் 502
ிகளைப் 502
ிற்க 502
ுக்குள் 502
▁குமாரதுங்க 502
▁திட்டங்களுக்கு 502
▁நிரூப 502
▁போதும் 502
ிகளைக் 501
▁இவ 501
▁தொலைக்காட்சி 501
▁பிராந்தியத்தில் 501
த்தின்கீழ் 500
ர்வ 500
ாச 500
▁சத்த 500
▁தொடர 500
▁நகரங்களில் 500
செ 499
▁ஆய்வ 499
▁நடைபெற்று 499
▁ஆவண 498
▁இளைஞர் 498
▁பெருமளவில் 498
▁முஷ 498
ஷின் 497
▁அறிவிப்பு 497
▁இருதய 497
▁நிறை 497
ஜா 496
த்தார் 496
ர்தான் 496
ாங்க 496
▁உள்ளார் 496
▁நிதியா 496
▁பிரச்சினைகள் 496
த்தா 495
ப்பட்டனர் 495
முடியாத 495
ிப்பதற்காக 495
▁அதைப் 495
▁ஜெ 495
▁நின்று 495
▁அணுசக்தி 494
▁ஆற்றல் 494
▁இருப்பதை 494
▁கணக்கில் 494
▁சட்டத்தை 494
▁சூழ்நிலையில் 494
▁சேர் 494
▁தாவீது 494
▁வல்ல 494
மேலும் 493
றி 493
▁என்பதே 493
▁காலத்திற்கு 493
▁நடவடிக்கையை 493
மாகப் 492
ாகி 492
ொரு 492
▁அறிவு 492
▁எட்டு 492
▁ஒதுக்கீடு 492
▁கோரிக்கை 492
▁பணியாளர் 492
த்தோ 491
▁இணைந்த 491
▁சுற்று 491
▁நான்காம் 491
▁வேலைகள் 491
t 490
▁of 490
▁வழியாக 490
ணம் 489
ழு 489
▁அழை 489
▁இதற்கான 489
▁உளவு 489
▁தமிழ்நாடு 489
▁நிதியமைச்ச 489
▁பிப்ரவரி 489
வாதிகள் 488
▁இந்தியாவும் 488
▁இயேசு 488
▁ஊர 488
▁என்பதுதான் 488
▁சாவ 488
▁ஞான 488
▁நாடுகளும் 488
▁படுகொலை 488
▁பேச்சுவார்த்தை 488
▁முன்வை 488
தைத் 487
ென 487
▁எண் 487
▁குரல் 487
ந்துள்ளன 486
ப்புப் 486
ுவிட்டது 486
▁$ 486
▁சாதனை 486
▁தூய் 486
▁பயணிகள் 486
மையையும் 485
▁கழகம் 485
▁சலுக 485
▁தளபதி 485
▁போய 485
▁மும்பை 485
ன்க 484
▁ஆல 484
▁இனவாத 484
▁கண்டனம் 484
▁கவுன்சில் 484
▁புறப்பட்டு 484
வுள்ளது 483
ால்தான் 483
▁கூறியது 483
▁சொ 483
▁நூற்றுக்கணக்கான 483
ல்லா 482
▁தொடர்ச்சியான 482
கால 481
மானால் 481
வச 481
▁உள்பட 481
▁எதையும் 481
▁கருத்துக்கள் 481
ப்பின 480
மட்டும் 480
▁உறவ 480
▁சிற 480
▁தொகுப்பு 480
▁மாணவர் 480
▁மேற்கொள்ளப்பட்ட 480
▁விண்வெளி 480
வனும் 479
ிப்பை 479
▁ஒருங்கிணை 479
▁பணியாளர்கள் 479
▁விசுவாச 479
▁” 479
om 478
ிருந்தாலும் 478
▁இயக்கத்தில் 478
▁பொதுத்துறை 478
ணி 477
த்தது 477
த்திடம் 477
மள 477
ிப்பதற்கான 477
▁இரகசிய 477
▁உரிம 477
▁கொள் 477
▁தரமான 477
▁தொடக்கத்தில் 477
▁பற்றிக் 477
செய்ய 476
மர் 476
▁நடத்தும் 476
▁வழக்கு 476
▁ஷா 476
தியான 475
▁அம்பல 475
▁ஆரம்பத்தில் 475
▁எரிபொருள் 475
▁சங்கம் 475
▁அழ 474
▁இந்தியக் 474
▁வேளாண்மை 474
மைக்கு 473
▁எரிச 473
▁தவ 473
▁தெரிய 473
டோ 472
னான 472
ுகளைக் 472
▁இருக்கிறார் 472
▁டாலர்கள் 472
▁நிவாரண 472
▁பிரதேசம் 472
▁ஊழல் 471
▁சிவ 471
▁சுட்டிக் 471
▁வழியில் 471
ாவோ 470
▁உள் 470
▁கருத்துக்க 470
▁காரண 470
▁சீர 470
▁தளம் 470
▁தாக்குதலுக்கு 470
▁மானிய 470
et 469
ப்படவேண்டும் 469
ப்பதாக 469
ரைப் 469
▁அடிப்படையாகக் 469
▁விடுக்க 469
.) 468
ரமாக 468
ாரும் 468
ுமாறு 468
▁அறிவிக்கப்பட்ட 468
▁இன்னமும் 468
▁குறைந்தது 468
▁குறைந்தபட்ச 468
▁சந்திர 468
▁சமாள 468
▁சென்னையில் 468
▁நடிக்கிறார் 468
▁நிகழ்ச்ச 468
▁பிந்தைய 468
▁மருந்துகள் 468
▁வட்ட 468
▁வாய்ப்புகளை 468
லு 467
வித 467
▁எனப்படும் 467
▁பாடு 467
▁ஆப்கானிஸ்தான் 466
▁ஒன்றியத்தின் 466
▁செலவில் 466
▁மருத்துவக் 466
ங்கிய 465
▁ஆட்சிக்கு 465
▁இரா 465
▁நாடுகளுக்கும் 465
▁பட்டய 465
▁வன்முறை 465
ப்படலாம் 464
மைப் 464
வார் 464
▁அரசாங்கங்கள் 464
▁எதிர்கொள்ளும் 464
▁மூடி 464
ாவையும் 463
▁ஒழுங்கு 463
▁காய 463
▁நிலைக்கு 463
▁புதுப்பிக்க 463
▁ரி 463
▁வாழ்க்கையை 463
தான 462
போதும் 462
ப்படுத்திய 462
ர்க 462
வாதம் 462
ாயிர 462
▁செயலர் 462
▁தவறான 462
▁நாளில் 462
▁பங்கேற்ற 462
▁பணியை 462
▁பிரச்ச 462
▁புதுப்ப 462
னான் 461
மின்றி 461
▁சந்தோ 461
▁தொடங்கியது 461
▁நிலையங்கள் 461
▁படங்கள் 461
▁பொதுவாக 461
இது 460
ந்த் 460
றிவ 460
▁இவ்வாறு 460
.... 459
த்தன்மை 459
▁அம்சங்கள் 459
▁கர 459
▁காஷ்மீர் 459
▁பாடல் 459
▁மந்திர 459
▁வருகிறார்கள் 459
மன 458
ேயும் 458
▁கொல்லப்பட்ட 458
▁மேம்பாட்டுத் 458
▁மேற்கொள்ளும் 458
▁ஹர் 458
ட்டர் 457
வதாக 457
ாவிற்கும் 457
▁கருத்துக்களை 457
▁பிரிவில் 457
▁வழங்கி 457
▁வாய்ப்பை 457
இல் 456
▁வேகமாக 456
ன்ஸ் 455
▁எது 455
▁கடும் 455
▁சாதன 455
▁தேசத்தின் 455
▁பாகிஸ்தான் 455
▁பிரிவின 455
சின் 454
சியின் 454
லைத் 454
ோன் 454
▁அமைச்சர்கள் 454
▁இரவு 454
▁கட்டுப்பாட்டில் 454
▁மாலை 454
z 453
க்குவ 453
▁அக்கறை 453
▁அணுக 453
V 452
▁கட்சியை 452
▁சந்தர்ப்ப 452
ண்டில் 451
ப்படுத்துதல் 451
மையும் 451
ரமான 451
▁ஆட்ட 451
▁ஜோன் 451
▁பள்ளி 451
▁வருங்கால 451
மைகள் 450
▁பை 450
▁போன்றவை 450
▁ரஜ 450
த்தலைவர் 449
ப்போல் 449
ெய 449
▁அற 449
▁மட்டுமல்ல 449
sp 448
ியையும் 448
்கள 448
▁அடிய 448
▁எகிப்த 448
▁என்னுடைய 448
▁எளி 448
▁ஒன்ற 448
▁கொண்டிருந்தது 448
▁தயாரிக்கும் 448
▁பிரச்சனை 448
▁வருகிற 448
வுத் 447
ிக்கப்பட 447
ிருந்தார்கள் 447
▁ஐரோப்பா 447
▁குறைவாக 447
▁தொழில்நுட்பத் 447
▁நிலைமையை 447
▁பெய 447
▁மாநிலத்தின் 447
▁முடிந்தது 447
▁வறுமை 447
▁வழக்க 447
42 446
வெ 446
▁நிலைநாட்ட 446
▁பேரழிவ 446
▁வகையிலான 446
க்களின் 445
ுவதும் 445
▁ஆட்சியை 445
▁குறைப்பு 445
▁தொழில்முனை 445
▁நாட்களுக்கு 445
▁பரஸ்பர 445
▁பொன் 445
▁பொறுத்தவரை 445
▁வாழ்க்கைத் 445
▁விரைவு 445
00,000 444
1718 444
ஸ்திர 444
▁இதுவே 444
▁இலங்கையில் 444
▁ரீதியாக 444
▁வன 444
▁வாழ்க்கையில் 444
▁வெறு 444
▁வேட்பாளர் 444
ப்பதன் 443
வர்களுக்கும் 443
வுக்கு 443
▁இவற்றில் 443
▁தேசியவாத 443
▁பங்களிப்ப 443
▁பணியாற்றி 443
▁முனை 443
199 442
னியின் 442
னுக்கும் 442
யோ 442
▁இறக்குமதி 442
▁கையில் 442
▁நப 442
▁பூச 442
▁மூட 442
த்தின்படி 441
த்துக்க 441
ன்ப 441
▁ஆள 441
▁ஏற்பட்டது 441
▁சவால்களை 441
▁சுக 441
▁வேளையில் 441
தைக் 440
போல் 440
▁அறிவிக்க 440
▁அளிக்கப்பட்ட 440
▁உத 440
▁எந்தவிதமான 440
▁சட்டவிரோத 440
▁பிரகடனம் 440
▁வளர்ச்சிக்கு 440
ப்பிரதேசம் 439
ரத் 439
▁கட்டாயம் 439
▁செயல்பாடுகள் 439
▁தீர்ப்பு 439
▁புக 439
▁முறைய 439
▁வெளியேற்ற 439
க்களில் 438
ுறை 438
ுவோம் 438
▁கொள்ளலாம் 438
▁முயற்சிய 438
▁ராஜ் 438
▁வரலாறு 438
▁விஷயங்கள் 438
▁இப்ப 437
▁நேட்டோ 437
▁பருவநிலை 437
தியில் 436
▁உயர்மட்ட 436
▁தனிமை 436
▁நாட்டுக்கு 436
முய 435
ரச 435
▁சற்று 435
▁சேன 435
▁திருப்ப 435
▁புலனாய்வு 435
▁முகாம 435
▁வளர்ச்சிக்கான 435
▁அமெரிக்கத் 434
▁பிள 434
▁மீற 434
▁விழிப்புணர்வு 434
த்துப் 433
பை 433
ுவத 433
▁அபிவிருத்தி 433
▁உத்தர 433
▁எதிர்த்த 433
▁கீ 433
▁குடிய 433
▁தெரியும் 433
▁மிருக 433
▁வகையான 433
ளிக்கும் 432
ூட்ட 432
▁அமைந்துள்ளது 432
▁இத்த 432
ப்படை 431
மில்லாத 431
ளவு 431
▁கற்ப 431
▁செயல்பட்ட 431
▁விவரங்கள் 431
பெ 430
வத 430
ாண 430
ாலா 430
▁ஆசிரியர்கள் 430
▁திட்டங்களின் 430
▁நிபுண 430
▁மெட்ரிக் 430
▁வணிகம் 430
த்துக்காக 429
வராக 429
ாதி 429
▁தண்டனை 429
▁பங்கை 429
▁மனதில் 429
டித்த 428
தொரு 428
மூ 428
மெ 428
▁கணக்கு 428
▁கொடுக்கப்பட்ட 428
▁சூ 428
▁தேவைகளை 428
▁பேருக்கு 428
▁மோசே 428
ாராம் 427
ுகளைத் 427
▁அவர்களில் 427
▁ஆலய 427
▁இராணுவத்தின் 427
▁என்பதாகும் 427
▁கெர் 427
▁நின்ற 427
▁நெ 427
▁நோய்த் 427
▁பெற்றது 427
டியாக 426
த்தல் 426
மைக்க 426
ிவை 426
▁அளிக்கப்பட்டது 426
▁புலம்பெயர்ந்த 426
▁மூன்றாம் 426
▁வைக்கும் 426
க்கொ 425
ஜெ 425
ஜெட் 425
ிருப்பதாகவும் 425
▁உம 425
▁பிரிட்டன் 425
▁பிளேயர் 425
▁வங்கியின் 425
▁அமைப்பை 424
▁ஓடி 424
▁செய்யப்பட்டு 424
▁பாதுகாப்ப 424
▁ரஷ்யா 424
சம் 423
நே 423
ையால் 423
ொள்க 423
▁அடிக்கடி 423
▁இருக்கிறார்கள் 423
▁செல்வ 423
▁தொடர்ச்சியாக 423
▁பாலஸ்தீன 423
▁விளக்கம் 423
நல 422
▁உயிரி 422
▁உள்கட்டமைப்பு 422
▁எல்லாரும் 422
▁கட்டுரை 422
▁குழாய் 422
▁சேவைகளை 422
▁நாடுகள 422
▁பற்றாக்குறை 422
த்தில 421
▁ஆர்வம் 421
▁குடியரச 421
▁திறந்த 421
▁நட்பு 421
▁ஊடகங்கள் 420
▁ஏற்படுத்தி 420
ருமான 419
▁ஜேர்மனி 419
▁தயார 419
▁மட்ட 419
▁மாற்றி 419
▁ரூபாய 419
el 418
it 418
ுக்கொள்ள 418
▁மெட்ரோ 418
▁அடல் 417
▁காட்டும் 417
▁பொருள்கள் 417
▁வேண்டாம் 417
ற்கு 416
வேல 416
ுதலை 416
▁ஆழமான 416
▁கொல்ல 416
▁தூய்மையான 416
▁பொருளாதாரத்தை 416
▁மடங்கு 416
▁விளக்கினார் 416
▁அச்சுறுத்தல் 415
▁அருகே 415
▁ஆதரவாக 415
▁ஆன்லைன் 415
▁உட்க 415
▁உரையாற்றினார் 415
▁ஏற்படுத்திய 415
▁குழந்தை 415
▁நடிக்கும் 415
▁பிரிவினை 415
▁பொலி 415
▁வாயிலாக 415
▁விமானங்கள் 415
▁இப்பட 414
▁தெலுங்கு 414
▁பசுமை 414
▁வரவேற்க 414
▁வருட 414
▁வீத 414
க்கோ 413
சிக்க 413
னியில் 413
▁ஆபத்து 413
▁குமார் 413
▁நிலையான 413
▁பாக்கிஸ்தான் 413
▁ரச 413
▁வேண்டுகோள் 413
ளின் 412
▁கடை 412
▁சுற்ற 412
▁செய்யப்பட 412
▁தூர 412
▁முடக்க 412
ப்பதற்கும் 411
ம்ம 411
▁* 411
▁ஆகியவற்றுக்கு 411
▁இளைய 411
▁ஏதாவது 411
▁தலைப்பில் 411
▁தில்லியில் 411
▁பத்திர 411
▁பிரான்சின் 411
▁முடியாமல் 411
பட்ட 410
ரோன் 410
ளிக்க 410
ாரம் 410
▁கூறு 410
▁தங்களுக்கு 410
▁நியூ 410
▁படங்களில் 410
ont 409
ம்ச 409
ிக்கப்பட்டு 409
▁கட்டி 409
▁குட 409
▁சேமிப்பு 409
▁பெருகிய 409
▁பேரழிவு 409
▁முடியவில்லை 409
ew 408
கர் 408
த்தன 408
▁அம்ச 408
▁உத் 408
▁எனும் 408
▁ஏனென்றால் 408
▁சத்து 408
▁பக 408
▁பாதுகாப்பை 408
▁வாழ் 408
ச்சு 407
ப்பன் 407
▁கொல 407
▁புறக்கண 407
▁பெற்றுள்ளது 407
▁போக்கு 407
▁போராட்டத்தை 407
▁மரியாதை 407
▁லி 407
▁வழிவக 407
ர்களிடம் 406
லிஸ் 406
▁எதிர்பார் 406
▁செய 406
▁தெரிந்த 406
▁மி 406
▁ஹெல 406
▁இந்தியத் 405
▁இழந்து 405
▁இழப்பு 405
▁தலைவர்கள 405
▁தென் 405
▁தொழிற்சாலை 405
art 404
▁கட்சியும் 404
▁காலகட்டத்தில் 404
▁தெரிந்து 404
es 403
பாத் 403
பான் 403
முதல் 403
ிருந்தான் 403
ோருக்கு 403
▁அர்த்த 403
▁ஈராக்கின் 403
▁தொழில்கள் 403
▁முழுக்க 403
or 402
ங்களுக்குச் 402
ங்கும் 402
டைந்து 402
த்திலுள்ள 402
ரித்து 402
▁அதிகாரத்தை 402
▁அறிவித்தது 402
▁ஏழைகள் 402
▁கொண்டாட்ட 402
▁சின்ன 402
▁பழங்குடியினர் 402
▁பிரதிநிதி 402
▁வம்ச 402
ல்களின் 401
ின்றி 401
ையிலே 401
▁ஒற்றுமை 401
▁சந்தித்த 401
▁தற்காலிக 401
▁ஸ்தா 401
லுக்கான 400
ுகளுக்கான 400
▁எனினும் 400
▁பாதுகாப்பான 400
▁மறுக்க 400
b 399
வாய் 399
ிருக்கின்றது 399
▁அரசியலில் 399
▁ஆயத்த 399
▁ஆயினும் 399
▁கருத 399
▁கொண்டுள்ளன 399
▁தேர்தல்களில் 399
▁வேலையில் 399
] 398
ட்டுக் 398
மிகு 398
ினரின் 398
▁அமைப்புக்கள் 398
▁இரத்த 398
▁ஏற்பட்டுள்ளது 398
▁சாக 398
▁விதி 398
▁வெளியிடப்பட்ட 398
திகள் 397
த்திற்க 397
மென்று 397
▁அதற்கான 397
▁கீழே 397
▁பக்கம் 397
▁பொதுத் 397
▁மக்களிடையே 397
ுகொண்ட 396
▁அடக்க 396
▁அனைத்துப் 396
▁உற்பத்தித் 396
▁கட்டு 396
▁கருவிகள் 396
▁கையாள 396
▁சார் 396
▁பரிந்துரை 396
▁புனித 396
▁புரட்சிகர 396
▁பொறு 396
▁முடி 396
▁விலக 396
▁வெளிநாட்ட 396
லிக்க 395
▁அரபு 395
▁இருக்கலாம் 395
▁உக்கிர 395
▁எளிதாக 395
▁செய்துள்ள 395
▁தடைய 395
▁திண 395
▁மாவட்டங்களில் 395
▁ரே 395
த்தான 394
லால் 394
▁அவரின் 394
▁தவற 394
க்குற 393
▁அனுப்பு 393
▁இருப்பதால் 393
▁இருப்பினும் 393
▁என்கிற 393
▁நடிக 393
▁பராமரிப்பு 393
▁பொறுத்தவரையில் 393
▁வெளியிட்டுள்ள 393
ஒ 392
சித்த 392
▁கொழும்பு 392
▁சந்திக்க 392
▁நடைமுறைகள் 392
▁பழங்குடியின 392
ுகளுக்கும் 391
ைகளுடன் 391
▁அழைக்க 391
▁உழை 391
▁தாக்குதல்களை 391
க்கூட 390
ங்களுக்காக 390
தல்ல 390
திரு 390
▁இறப்பு 390
▁ஐரோப்ப 390
▁மல 390
க்களும் 389
ையைச் 389
▁உகந்த 389
▁எழுப்ப 389
▁தகுதி 389
▁நீதிமன்றம் 389
▁நொ 389
▁பன்முக 389
▁பிரப 389
▁முடிவை 389
வுக் 388
ாளரான 388
▁பாரதம் 388
▁வங்கிய 388
▁வெளியிட்டார் 388
▁ஷ் 388
ப்பே 387
▁ஆழ 387
▁சமர்ப்ப 387
▁சினிமா 387
▁செலுத்தி 387
▁பிரபல 387
ந்துகொண்ட 386
மைகளை 386
ோடும் 386
▁தம்முடைய 386
▁நிரந்தர 386
▁மாநிலங்களுக்கு 386
ினேன் 385
ீட்ட 385
▁அரசியலமைப்பு 385
▁இணையதள 385
▁கேட்டு 385
▁தயாரிப்பாளர் 385
▁மாதங்களுக்கு 385
▁மொ 385
▁வெளியில் 385
ம்பு 384
ைகளைச் 384
▁உறவு 384
▁கார 384
▁சாலைப் 384
▁சுரங்க 384
▁டு 384
▁தூதரக 384
▁பெரும்பாலும் 384
▁முடித்த 384
▁வன்முற 384
க்களுக்கு 383
வள 383
▁அப் 383
▁கும்ப 383
▁நடைமுறையில் 383
▁பிரவே 383
▁மையமாக 383
▁விளைவு 383
கி 382
டுத்து 382
தன 382
தார 382
நோக்கு 382
வார 382
ினதும் 382
ிலோ 382
▁அமெரிக்காவிற்கு 382
▁ஆண்டுக்கு 382
▁ஆரோ 382
▁என்பதும் 382
▁எவரும் 382
▁சிறை 382
▁சிவில் 382
▁பிரதிபல 382
▁வக 382
▁வட்டார 382
▁வரவேற்பு 382
1819 381
வரு 381
▁இன்ன 381
▁என்பத 381
▁பேரிடர் 381
▁மக்களுக்கும் 381
▁மாகாண 381
▁யோக 381
▁விடுத்தார் 381
Z 380
ிழ 380
▁உற்சாக 380
▁கல்லூரி 380
▁சாத 380
▁சேர 380
▁பாதிக்க 380
▁ரீதியில் 380
▁விரும்பும் 380
U 379
re 379
முடியும் 379
ிவி 379
▁செய்வதில் 379
▁தெரிகிறது 379
▁நிறுவனங்களில் 379
▁நிலையம் 379
▁மருந்த 379
▁முன்னெடுத்துச் 379
▁வந்தார் 379
ங்களே 378
▁ஆண 378
▁நடத்தப்படும் 378
▁போட்டியில் 378
க்குத் 377
பத 377
லுக்கும் 377
ல்களில் 377
▁அரசுக்கு 377
▁பார்வை 377
▁பொருத்த 377
▁வருமாறு 377
டியான 376
நான் 376
ப்பட்டார் 376
முற 376
ியைத் 376
▁அட 376
▁அதைக் 376
▁ஆணையத்தின் 376
▁உப 376
▁உரையில் 376
▁உறுப்பு 376
▁சந்தித்து 376
▁சமயம் 376
▁செய்வதை 376
▁தயாரித்த 376
▁நடு 376
▁பாட 376
தாய 375
த்துற 375
ரன் 375
லர் 375
▁எவ்வாற 375
▁சென 375
▁தற்போதுள்ள 375
▁பிரதேசத்தில் 375
192 374
மயமாக்க 374
▁அந்தத் 374
▁அளிக்கப்படும் 374
▁கட்டுமான 374
▁கண்காண 374
▁கிழ 374
▁பணத்தை 374
▁முதலாள 374
▁ரெயில் 374
▁வார்த்தை 374
சார்பு 373
ப்படுகிற 373
▁இயங்கும் 373
▁இறங்க 373
▁குற 373
▁கொள்வது 373
▁சந்தையில் 373
▁நடைமுறைப்படுத்த 373
▁நிறுத்தி 373
▁பிரான் 373
▁புரி 373
▁பொதுமக்கள 373
த்தைய 372
ானிய 372
ோக் 372
▁ஆச 372
▁உயர்வ 372
▁ஜோர்ஜிய 372
▁பணிய 372
al 371
சக்த 371
ன்களுக்கு 371
வுகளை 371
வேகம் 371
ுவை 371
▁ஆகியன 371
▁உரையாற்ற 371
▁ஊதியம் 371
▁கொண்டாட 371
▁தொகையை 371
▁வளம் 371
த்திலேயே 370
த்தும் 370
ர்ம 370
ியல் 370
்வ 370
▁அழிவ 370
▁இணைக்க 370
▁சுற்றி 370
▁திரும்பி 370
▁வல்லரச 370
சம 369
பேர் 369
ப்புடன் 369
ீஸ் 369
▁அழைத்து 369
▁இலவச 369
▁ஐரோப்பாவில் 369
▁ஒழ 369
▁சமுதாயத்தின் 369
▁ஜோர்ஜ் 369
▁தெளிவுபடுத்த 369
▁பெற்றுள்ள 369
▁மருத்துவமனை 369
▁வழங்கப்பட்ட 369
▁வெகு 369
65 368
ற்கும் 368
ைத்தான் 368
▁இறுதியாக 368
▁கட்சிக்கு 368
▁சமையல் 368
▁திராட்ச 368
▁நல் 368
▁நிறுவனமான 368
▁புத்த 368
▁வழங்கியுள்ளது 368
c 367
ங்களுக்குப் 367
த்துக்குப் 367
மடை 367
ியுள்ள 367
▁ஏர் 367
▁நிலையத்தில் 367
▁முத 367
ட்டா 366
ற்க 366
▁ஒத்த 366
▁பயன்படுத்தும் 366
▁பாதையில் 366
▁ம் 366
▁விடைய 366
▁விநியோகம் 366
பூர்வமான 365
ிட் 365
▁அஞ்ச 365
▁அமைப்பில் 365
▁ஆதரி 365
▁ஆபிரிக்க 365
▁ஆயுதங்களை 365
▁எடுத்துச் 365
▁சமரச 365
▁சாலைகள் 365
▁தலி 365
▁நீட்ட 365
▁புள்ளி 365
▁விஞ்ஞானிகள் 365
ஆவது 364
ங்கா 364
லுடன் 364
ளையும் 364
ஷர் 364
ியன் 364
▁அடித்த 364
▁இடம்பெற்ற 364
▁கொடூரமான 364
▁தமிழில் 364
▁தினத்தை 364
▁பெண்களுக்கு 364
ியாய் 363
்களின் 363
▁இளைஞர்களுக்கு 363
▁சீனாவின் 363
▁தலைமைய 363
▁துன்ப 363
▁தேசம் 363
▁பதவியில் 363
▁புரட்சி 363
▁மாற்றிய 363
▁வங்கிக் 363
ரிக்கப்பட்ட 362
ாண்ட 362
ிகளிடம் 362
ுறு 362
ொண்டு 362
▁ஆற்ற 362
▁கட்டுப்பாடு 362
▁கப்ப 362
▁கிளர்ச்ச 362
▁சேர்த்து 362
▁ஜனாதிபத 362
▁தொக 362
▁நாட்டிற்கு 362
▁நானும் 362
▁நெருங்கிய 362
▁போரின் 362
▁வறு 362
ch 361
றிய 361
விடும் 361
▁அதேவேளை 361
▁குடிமக்கள 361
▁கூறும் 361
▁பிரபு 361
▁மணிக்கு 361
▁ரெ 361
▁வீட்டில் 361
▁வென்ற 361
அமெரிக்க 360
ன்ன 360
ராய 360
ளில் 360
ானா 360
▁சராசரி 360
▁தரத்தை 360
▁முதன்மை 360
▁முறையான 360
▁வழங்கினார் 360
டிகள் 359
பன் 359
ப்பாட்ட 359
ாவிலும் 359
ாஸ் 359
▁எத்தனை 359
▁காலமாக 359
▁தனிநபர் 359
▁திசை 359
▁பாக 359
▁மாநாட்டின் 359
▁மாற்றங்கள் 359
க்கப்பட்டு 358
ிகளான 358
ுகளால் 358
ென் 358
▁உயர்வு 358
▁கோர 358
▁சவால் 358
▁நோக்கமாகக் 358
▁புகழ் 358
▁பொருளாதாரத்தின் 358
▁முடிக்க 358
▁வல 358
கத்தில் 357
ப்படாமல் 357
மிய 357
்தன் 357
▁இவன் 357
▁எதிர 357
▁கவுரவ 357
▁கூறப்படுகிறது 357
▁தேசியக் 357
▁நியூயோ 357
▁மகன் 357
▁வருமானம் 357
டியும் 356
விக 356
ஹா 356
▁அடைக 356
▁எளிதில் 356
▁ஒது 356
▁கட்டத்தில் 356
▁செய்வதற்காக 356
▁தொடர்ந்த 356
▁த் 356
▁பிரிய 356
▁மேம்படுத்தும் 356
▁மொழி 356
டுகிறது 355
னைப் 355
ிக்குப் 355
்க்க 355
▁அன 355
▁கங்கை 355
▁தாவ 355
▁தீர்க்கதரிச 355
▁பிரான்சில் 355
▁மய 355
▁முக்கியமாக 355
▁வரலாற்றில் 355
▁விஜய 355
125 354
கிற 354
பார 354
ிவைக்க 354
ுவதுடன் 354
▁அறிமுகம் 354
▁ஒப்பந்தத்தில் 354
▁குழுவில் 354
▁சர்வ 354
▁சூழலில் 354
▁நகரங்கள் 354
▁ன் 354
▁மாணவர்களுக்கு 354
▁வர்ண 354
த்தனமான 353
ன்கள 353
மாகவே 353
ருக்குப் 353
ொண்ட 353
▁பெரும 353
▁உற்பத்திப் 352
▁உள்நாட்ட 352
▁ஏற்றும 352
▁கூட்டாக 352
▁நக 352
▁நிலவும் 352
▁பெட்ரோலியம் 352
▁மறுத்த 352
டிவ 351
ளித்தார் 351
ியால் 351
▁ஆகியவற்ற 351
▁இருந்தனர் 351
▁ஊக்கம் 351
▁ஒருமுறை 351
▁கலாச்சாரம் 351
▁பல்கலைக் 351
▁வழிவகுக்கும் 351
ப்பிய 350
▁அரை 350
▁அவ்வாறு 350
▁இயக்குன 350
▁சூழ்நிலை 350
▁தகவ 350
▁வருகின்ற 350
▁விருப்பம் 350
". 349
▁காட்டிக் 349
▁செயலி 349
▁தண்ட 349
▁தன்ன 349
▁நடத்தியது 349
▁மூன்ற 349
▁விளங்க 349
▁ஷெ 349
is 348
ற் 348
ாரர்கள் 348
▁அங்கீக 348
▁ஒன்றுக்கு 348
▁கோத்திர 348
▁சூழலை 348
▁பாஸ் 348
▁பின்னணி 348
▁பிரச்சினைகளை 348
▁மன்ற 348
▁விர 348
நாள 347
நோ 347
்க்கு 347
▁அலுவல 347
▁அளித்தது 347
▁ஆவார் 347
▁எழுந்த 347
▁சமூகத்தின் 347
▁தளத்தில் 347
▁திருமணம் 347
▁நோக்கமாகும் 347
▁முடிய 347
▁முழ 347
செய்த 346
திகளை 346
த்துள்ளது 346
மைப்ப 346
ஷ்மீ 346
▁அவைகள் 346
▁இருப்பதாகவும் 346
▁ஈடுபட 346
▁உதாரணமாக 346
▁கொடுத்தது 346
▁நிறுவனங்களை 346
▁பங்கேற்றனர் 346
▁படைகளை 346
▁பணிக்கு 346
▁பாதை 346
▁மதிப்பிட 346
▁மாவட்டத்தில் 346
▁முடிவுகளை 346
▁முயன்ற 346
▁வெளியேற 346
ol 345
தாம் 345
பர 345
ப்படுவதாக 345
ம்க 345
ெல்ல 345
▁அஞ்சல் 345
▁எடுத்துரை 345
▁கட்சியினர் 345
▁கைப்பற்ற 345
▁நசுக்க 345
▁நம்பிய 345
▁வருவதை 345
▁விமர்சன 345
▁ஹை 345
ப்பார் 344
ரிட 344
ருக 344
வையாக 344
ாவிட்டால் 344
ிக்காக 344
்ச் 344
▁அரசாங்கத்தில் 344
▁தன 344
▁பரிசீ 344
▁பொதுக் 344
▁பொதுச் 344
198 343
வேண்டு 343
▁அரசாங்கமும் 343
▁அவற்றில் 343
▁உற்பத்தியை 343
▁கூடார 343
▁கோரிய 343
▁செய்திகள் 343
▁செய்திய 343
▁பிறப்ப 343
▁மேலான 343
( 342
னது 342
ுக்குள்ளே 342
ுக்கே 342
▁இராணுவப் 342
▁ரசிக 342
ro 341
டுவதை 341
நி 341
போய் 341
ிகளைத் 341
▁ஆதரவாளர்கள் 341
▁குழுவ 341
▁கொன்று 341
▁தாக்கத்தை 341
▁நன 341
▁பொறியியல் 341
▁மாநாட்ட 341
▁ராம 341
▁வட்டி 341
▁வீட்டுவசதி 341
52 340
ாகத் 340
ார்ட் 340
ிரி 340
ுகளுடன் 340
▁அணுகுமுறை 340
▁அதற்குப் 340
▁அளிப்பது 340
▁உற்பத்த 340
▁எடுக்கும் 340
▁காட்டி 340
▁குறைந்தபட்சம் 340
▁சபையின் 340
▁திகதி 340
▁படையின 340
▁இடை 339
▁எந்தப் 339
▁குறிப்பு 339
▁செல்வாக்கு 339
▁தயாரிப்பாளர்கள் 339
▁தல 339
▁நம்மை 339
▁பகுதியை 339
▁படையினர் 339
▁பிரகாஷ் 339
▁பெட்ட 339
▁ப் 339
▁விளைவ 339
க்காரர்கள் 338
க்குழு 338
த்தீ 338
மாகத் 338
ுக்கொண்டு 338
▁அலுவலர்கள் 338
▁காக்க 338
▁காதல் 338
▁கூறுகையில் 338
▁படைத்த 338
▁விதிகள் 338
டர் 337
டினார் 337
ாரண 337
ூற 337
ையு 337
▁இந்தி 337
▁கழக 337
▁காச 337
▁கொண்டுள்ளனர் 337
▁பயங்க 337
▁பிரிவின் 337
▁ராஜஸ்தான் 337
▁வறிய 337
▁வளர்ச்ச 337
பால 336
றை 336
ாட 336
ுகின்றது 336
▁சுவ 336
▁துவக்கி 336
▁நம்பிக்கையை 336
▁நம்ம 336
▁புரட்ச 336
▁பேசும் 336
▁லீ 336
▁லோ 336
▁வரவேற்ற 336
▁வருகின்றது 336
தினால் 335
ிக்குமாறு 335
▁அட்ட 335
▁அதிப 335
▁இடைக்கால 335
▁கட்சிகளும் 335
▁கட்டமைப்பை 335
▁கொண்டதாக 335
▁நியாயமான 335
▁பொறுப்பை 335
▁மனதின் 335
▁விமானப்படை 335
ப்ட 334
வேண்டாம் 334
ியோ 334
்க் 334
▁ஆத்து 334
▁இல 334
▁உண்மையிலேயே 334
▁உயிரிழ 334
▁உருவாக 334
▁என்பதற்காக 334
▁சமீப 334
▁சம்பந்த 334
▁செயல்பாடு 334
▁புலிகளுக்கு 334
▁வயதான 334
▁வாரிய 334
▁விய 334
▁ஸ்பெயின் 334
1999 333
கங்கள் 333
ங்கை 333
ருங்கள் 333
ையின்மை 333
▁அரசுகளின் 333
▁ஒப்புக்கொண்ட 333
▁டோ 333
▁நடைமுறைகளை 333
▁பாரு 333
▁பொருளாதாரத்தில் 333
▁வழிவகை 333
▁விமானம் 333
▁வேண்ட 333
மதிப்ப 332
ளி 332
ாவிலிருந்து 332
ுப்பு 332
ையற்ற 332
▁கடிதம் 332
▁நிகழ்வு 332
▁படுத்த 332
▁வரம்ப 332
at 331
ங்களிலிருந்து 331
செல 331
பூர் 331
▁உரிமையை 331
▁எண்ணிக்கையை 331
▁தொழிற் 331
▁யெ 331
▁விடும் 331
▁வில் 331
சக்தி 330
நாயகம் 330
ப்படுவார்கள் 330
ற்றும் 330
▁ஆண்டுக்கான 330
▁ஆன 330
▁ஏதோ 330
▁ஒளி 330
▁திட்டங்களில் 330
▁பணியாற்றிய 330
▁விளைவுகள் 330
ie 329
யல் 329
ஷி 329
ஸி 329
▁இந்தியாவிற்கு 329
▁இவற்றின் 329
▁ஈரானிய 329
▁கருதுக 329
▁கிரு 329
▁தீர்மானம் 329
▁நினைவ 329
▁நோக்கிய 329
▁பிரமுக 329
▁வாக்குகளை 329
▁விகித 329
களில் 328
வாய 328
▁அனுப்பிய 328
▁இயக்கும் 328
▁குர்த 328
▁ராஜ்ய 328
▁வசிக்கும் 328
▁விளைவுகளை 328
▁வீடுகளில் 328
ராமன் 327
ிருந்தும் 327
▁இயக்கிய 327
▁கழிப்ப 327
▁செயற்கை 327
▁பேராசிரியர் 327
▁வலி 327
ing 326
கார 326
பன 326
போக 326
ானின் 326
ைகளாக 326
▁இஸ் 326
▁எந்தவித 326
▁கடன 326
▁காட்டினார் 326
▁பிரத 326
ந்தி 325
ித்தான் 325
ிருக்கலாம் 325
்களும் 325
▁அதேபோல் 325
▁ஆதரிக்க 325
▁கண்டறிய 325
▁சுரண்ட 325
▁தாக்கம் 325
▁தாமத 325
▁நூற்றாண்டு 325
▁பகுதிகளிலும் 325
▁பின்னால் 325
வருக்கு 324
ிக்கை 324
▁அமைய 324
▁அறி 324
▁ஆச்சரிய 324
▁சக்திகள் 324
▁நீதிபதி 324
▁நெருக்கமாக 324
▁மட்டுமல்லாமல் 324
▁முறையின் 324
▁வளர்த்த 324
▁வேற 324
ப்பையும் 323
வுகள் 323
ூர் 323
▁அனுபவம் 323
▁கட்டமைப்ப 323
▁கமல் 323
▁கிலோமீட்டர் 323
▁குறைக்கும் 323
▁தேதியன்று 323
▁பயன் 323
▁பராமரி 323
▁மனிதவள 323
▁மையத்தில் 323
▁வழங்குவது 323
▁விளை 323
LCR 322
சுவ 322
ழுவ 322
ிப்பு 322
▁ஈடுபடுத்த 322
▁உதவியுடன் 322
▁கடின 322
▁கிட 322
▁கூர் 322
▁கோவிந்த் 322
▁நடுத்த 322
▁நபர் 322
▁நிற்கும் 322
▁மனைவி 322
▁மோட்டார் 322
▁வருவதற்கு 322
▁வியாபார 322
▁வோல் 322
55 321
ன்த 321
முடியாது 321
வோர் 321
ிகளிலும் 321
்களையும் 321
▁ஆசீர்வ 321
▁சேர்த்த 321
▁தொடங்கப்பட்ட 321
▁பிட 321
▁புத 321
▁பெருக்க 321
▁முயற்சிகளுக்கு 321
m 320
டுதல் 320
நில 320
வதன் 320
ெடுக்க 320
ேற்ற 320
▁அக்கற 320
▁காலனித்துவ 320
▁பரி 320
▁வாரியம் 320
நாடு 319
ும்கூட 319
ுவதாகவும் 319
▁ஊடகம் 319
▁ஏக 319
▁கூட்டுறவு 319
▁சட்டபூர்வ 319
▁சர்வாதிகார 319
▁பதவிக்கு 319
▁மாறி 319
▁வாய் 319
▁வெளிவ 319
படியால் 318
பின்பு 318
மையுடன் 318
விடு 318
ாதே 318
்சி 318
▁இன்றி 318
▁கவச 318
▁செய்தித் 318
▁தங்கள 318
▁தொழிற்சால 318
▁படங்களை 318
▁பூமியின் 318
▁மன்ன 318
த்தினை 317
ிருக்கு 317
ிலிருந்தும் 317
ிவிட்டு 317
ுகா 317
ுடனே 317
ெடுப்ப 317
ையின 317
▁அளவ 317
▁ஆட்ச 317
▁ஊக்குவிக்கும் 317
▁திகழ்கிறது 317
▁நிகழ்ச்சிகள் 317
▁நிருப 317
▁பற 317
▁பல் 317
CIA 316
im 316
த்தே 316
மார் 316
ரான் 316
ிக்கொள் 316
ோரின் 316
▁ஆசிரிய 316
▁ஒற்று 316
▁சம்மந்த 316
▁தோல் 316
▁பயில 316
▁பழ 316
▁பிள்ள 316
▁முடிவுக்கு 316
▁மூலமும் 316
▁வலிமை 316
▁வாங்கிய 316
▁வெங்க 316
வாறு 315
ுதிய 315
ையாடல் 315
▁அதிகாரிகளுக்கு 315
▁அவசிய 315
▁இத்திட்டம் 315
▁கொள்கையின் 315
▁பக்க 315
▁பிரிட்டனின் 315
▁மக்களும் 315
த்துக்கொண்ட 314
ராம 314
ர்களுக்கான 314
வருக்கும் 314
வருமான 314
ில்லை 314
▁அண்டை 314
▁இரண்டும் 314
▁காண்க 314
▁கால்நடை 314
▁குழந்தைகளுக்கு 314
▁கோரி 314
▁சந்திப்பு 314
▁சிந்தனை 314
▁தங்கிய 314
▁தரப்பு 314
▁திங்கள 314
▁தொடங்கும் 314
▁முறைகள் 314
ri 313
பட்டு 313
ியாகவும் 313
ுவா 313
▁அதுவும் 313
▁இடங்கள் 313
▁இடதுசாரி 313
▁உணர்வை 313
▁நடவடிக்கையில் 313
▁பண்டிக 313
அரச 312
தியும் 312
ப்படுத்தவும் 312
ொட்டி 312
▁எழு 312
▁சூர்யா 312
▁திக 312
▁தொடரும் 312
▁நேபாள 312
▁பயன்பாடு 312
▁வைத்திருக்க 312
37 311
பண்ண 311
ப்பேன் 311
றுப்பு 311
வரி 311
ிக்குள் 311
▁அப்பால் 311
▁அளவை 311
▁உடனடி 311
▁எதிர்க 311
▁காணும் 311
▁தியாக 311
▁தோட்ட 311
▁நிதியம் 311
▁பலிபீட 311
▁பிடித்து 311
▁மாளிகை 311
▁முடிந்து 311
▁வலியுறுத்தி 311
▁விதிமுற 311
▁வெளியுற 311
னைக் 310
ுவதிலும் 310
▁ஆட்சிய 310
▁ஊக்குவிக்க 310
▁கட்சிகளின் 310
▁கிராமங்களில் 310
▁சிரம 310
▁தாக்குதலில் 310
▁நிதியுதவி 310
▁பிரெ 310
▁வழிய 310
ப்படுகின்றனர் 309
ப்பாக 309
ியுள்ளன 309
ுகளாக 309
▁இவற்றை 309
▁குறிப்ப 309
▁நகரம் 309
▁வெளியிட்டது 309
33 308
தீ 308
தூ 308
தேசிய 308
மல்ல 308
மாட்ட 308
ிலா 308
ுவின் 308
▁அதிகாரிகளும் 308
▁கிடைத்தது 308
▁கிறிஸ்தவ 308
▁கீழ 308
▁தேர்வ 308
▁முன்கூட்டியே 308
▁வின் 308
ன்மை 307
ற்ப 307
ுவிடும் 307
ைகளுக்காக 307
▁கடினமான 307
▁கண்காணிப்ப 307
▁சொந்தமான 307
▁பரிமாற்ற 307
▁பிரகடன 307
▁போட்டிய 307
▁போதிய 307
he 306
ஜன் 306
நாட்ட 306
ரிடத்தில் 306
ரைக் 306
வரின் 306
ிக்கப்பட்டுள்ளன 306
ிக்கொ 306
▁ஆதிக்க 306
▁ஆவர் 306
▁உதவித் 306
▁உருவாக்குவது 306
▁ஏற 306
▁கூட்டாட்சி 306
▁கொந்த 306
▁சர் 306
▁சார 306
▁தோல்வி 306
▁நன்மை 306
▁பற்றாக்குற 306
▁பல்லாயிர 306
▁பின்பற்றி 306
▁மதிப்புள்ள 306
▁வாழ 306
d 305
ந்தன 305
ுவதோடு 305
்தா 305
▁உரங்கள் 305
▁எண்ணிக்கையில் 305
▁ஒவ்வொருவரும் 305
▁கிளின் 305
▁திருப்த 305
▁படத்துக்கு 305
▁பின்னணியில் 305
▁முக்கியமானது 305
▁விரும்பவில்லை 305
ணக்கான 304
பான 304
ளிப்பு 304
▁அங்கீகாரம் 304
▁அணிவகு 304
▁இலக்குகளை 304
▁உத்தரவு 304
▁எனக்குத் 304
▁என்ப 304
▁சரிவு 304
▁துர 304
▁யாரும் 304
CGT 303
SPD 303
ட்டத்தில் 303
பக 303
ப்படுத்துவது 303
ப்பற்றி 303
மைக்கும் 303
ர்களான 303
ாளர்கள 303
▁உடனே 303
▁தந்திர 303
▁நூறு 303
▁பொய 303
▁முன்பே 303
▁வைத்துக் 303
,0 302
நாட்டில் 302
▁உதவியாக 302
▁எஃகு 302
▁ஏற்று 302
▁தலைமுறை 302
▁பேரின 302
▁முக்கியப் 302
▁முன்னரே 302
வாச 301
விர 301
ிட்டார் 301
▁lang 301
▁ஆவ 301
▁உம்மை 301
▁ஊட்டச்சத்து 301
▁ஒடுக்கு 301
▁ஜம்ம 301
▁தெரிவித்துள்ளது 301
▁நடி 301
▁முயற்சியை 301
ம்ஸ் 300
ரத்தில் 300
ரித்தார் 300
ரெ 300
ளுக்கு 300
▁இரண்ட 300
▁இவரது 300
▁உணர்ந்த 300
▁எதிர்காலத்தில் 300
▁சுட்ட 300
▁நவ 300
▁மண் 300
▁முன்னால் 300
▁வளர்ச்சித் 300
▁விஷயத்தில் 300
டுகளுக்கு 299
ப்பார்க்க 299
ஸ்ட்ட 299
▁அடிப்படையாக 299
▁இப்படிப்பட்ட 299
▁உறுத 299
▁ஏறத்தாழ 299
▁ஒருங்கிணைப்பு 299
▁ஓய்வூதியம் 299
▁காப்பீட்டு 299
▁தீவிரமான 299
▁பொருத்தமான 299
▁வாய 299
▁வாரண 299
க்கே 298
ாப் 298
ிரம 298
▁அவசரகால 298
▁இடத்தை 298
▁எதிர்பார்த்த 298
▁கையெழுத்திட்ட 298
▁புதுமை 298
▁போராள 298
▁மருத்துவப் 298
▁வளரும் 298
துக 297
மத 297
மையன்று 297
ையாளர்கள் 297
▁அமலாக்க 297
▁எல்லைப் 297
▁கடல்சார் 297
▁கவுன்சில 297
▁கூறினர் 297
▁கேட்டுக்கொண்ட 297
▁பணிகளில் 297
▁முடிவில் 297
▁முஸ்லிம் 297
▁வழங்கியது 297
▁வெளியான 297
ir 296
த்துக்கொள்ள 296
ர்த்த 296
ஸ்தான் 296
▁அரேபிய 296
▁அவைகளின் 296
▁எதிர்கொள் 296
▁எழ 296
▁ஒழுங்குமுறை 296
▁கல்விக் 296
▁கொண்டே 296
▁ஜெய 296
▁நூற்றாண்டின் 296
▁வாக்குகள் 296
▁விருதுகள் 296
னுடன் 295
முன் 295
வாங்க 295
ொட 295
▁அதைச் 295
▁ஒழுங்க 295
▁பாதுகாப்புக் 295
▁பிழை 295
▁வாக்குற 295
▁வெற்ற 295
பாக 294
ரீதியான 294
ல்ப 294
ஹ் 294
ுமே 294
ெல் 294
▁அப்படிய 294
▁எழுத்து 294
▁க் 294
▁நடத்தப்பட்டது 294
▁மூன்றில் 294
▁ரயில 294
▁வச 294
யிற்று 293
ர்களைப் 293
ஷிய 293
ீடுகளை 293
ோட்ட 293
▁அதைத் 293
▁அறிவித்துள்ளது 293
▁குழுக்கள 293
▁சக்தியை 293
▁தடுக்கும் 293
▁திட 293
▁படுகொல 293
▁பருவ 293
▁பிளவு 293
▁பெரும்பான்மை 293
▁முடிகிறது 293
▁மோதல் 293
▁வின 293
▁விவசாயம் 293
▁வேண்டுமென்று 293
ிடப்பட்ட 292
▁அடைந்து 292
▁ஆராய 292
▁எழுச்ச 292
▁குறைக 292
▁சுதந்திரமான 292
▁நிபுணர்கள் 292
▁நிலம் 292
▁மண 292
▁வெற்றிய 292
த்ரா 291
ராவும் 291
வழ 291
▁ஆண்டவர் 291
▁இந்தியர்கள் 291
▁இலங்கையின் 291
▁எழுந்து 291
▁செயல்திட்ட 291
▁தானிய 291
▁துறைகள் 291
▁தோன்றிய 291
▁நடை 291
▁பாபிலோ 291
▁பிரதிய 291
▁பேசி 291
▁போஸ்ட் 291
▁வழக்கமான 291
▁வெட்க 291
ஃ 290
சீ 290
முக 290
ாவுக்கும் 290
ியுடன் 290
▁அய 290
▁ஆட்சியின் 290
▁இருக்காது 290
▁ஈடுபட்டுள்ள 290
▁குழுவினர் 290
▁கோரிக்கையை 290
▁செலவ 290
▁துண்ட 290
▁தெரிவி 290
▁மக்க 290
▁மத்தியப் 290
▁முயன்று 290
▁வரவிருக்கும் 290
ist 289
ந்திய 289
ைக்கும் 289
ையிட்டு 289
▁அதிகரிப்பு 289
▁அறிவிப்ப 289
▁கண்டுபிடிப்பு 289
▁கொள்ளவும் 289
▁தலையீடு 289
▁பழங்குடி 289
▁மட்டு 289
▁முதலமைச்சர் 289
▁ரத்து 289
[ 288
க்கல் 288
ழை 288
ினுடைய 288
▁குடும்பங்கள் 288
▁கொல்லப்பட்டனர் 288
▁சின 288
▁சீதா 288
▁தப்ப 288
▁திருத்தம் 288
▁துவக்க 288
▁வழங்கப்பட்டது 288
48 287
ப்படுவத 287
ளா 287
ேயின் 287
’’ 287
▁உம் 287
▁உரிமைய 287
▁கூறப்பட்ட 287
▁சம்ப 287
▁துப்பாக்கி 287
▁நம 287
▁நிலைப்பாட்ட 287
▁மகி 287
ழி 286
வற்றை 286
ிக்கப்பட்டுள்ள 286
▁இழந்த 286
▁உள்ளே 286
▁ஒருபோதும் 286
▁ஓட்ட 286
▁குறிப்பி 286
▁குறைவு 286
▁சான்ற 286
▁தாங்க 286
▁நிறுவனங்களும் 286
▁பெயரை 286
▁வளாக 286
▁வாழ்ந்து 286
WSWS 285
ங்களுக்குள் 285
திப்ப 285
ப்பார்கள் 285
மயமாக்கல் 285
ற்றை 285
ழைக்க 285
▁அனைத்துத் 285
▁சாதகமான 285
▁சித்த 285
▁ஜல் 285
▁துருக்கி 285
▁நடப்பு 285
▁நித்த 285
▁பூமிய 285
▁போராட 285
▁வாகனங்கள் 285
▁வீதம் 285
மித் 284
ருகிறது 284
ழ்த்த 284
ினம் 284
ீடு 284
▁அனுப்பின 284
▁அல்லாத 284
▁ஆக் 284
▁உத்த 284
▁என்பதற்கான 284
▁சண்ட 284
▁சர்தார் 284
▁சேர்ந்தவர்கள் 284
▁தமிழக 284
▁திரும்பப் 284
▁பெறு 284
us 283
க்குமாறு 283
ம்பே 283
வகையில் 283
▁எருசலேம 283
▁எழுத 283
▁குடியேற்ற 283
▁தெரிவித்தது 283
▁பரிசோதன 283
▁பிரிவுகளில் 283
▁மழை 283
▁முன்னேற 283
▁வய 283
▁வழங்கப்படுகிறது 283
▁விவாதம் 283
34 282
தியின் 282
த்துக்குள் 282
யும் 282
விருக்கும் 282
▁அமைத்த 282
▁உத்தரப்பிரதேச 282
▁உந்த 282
▁உயர்ந்து 282
▁எல்லாவற்ற 282
▁கண்காட்சி 282
▁கம்பென 282
▁குறைத்து 282
▁பரிசீல 282
▁முடிவிற்கு 282
▁விலையில் 282
கொ 281
சரி 281
வையும் 281
▁அடையும் 281
▁அத்த 281
▁ஈடுபட்டு 281
▁உயர்ந்துள்ளது 281
▁என்பதைக் 281
▁ஒப்பந்தத்தை 281
▁குற்றஞ்சாட்ட 281
▁கொடுத்தார் 281
▁செய்கிற 281
▁தலைமுற 281
▁போகும் 281
▁மாற்றுத் 281
▁முன்னே 281
▁விலக்க 281
). 280
le 280
டிக் 280
டுகிறார் 280
பாம 280
ப்பண 280
்கா 280
▁எப்பொழுதும் 280
▁ஏற்கெனவே 280
▁சரியாக 280
▁சேமி 280
▁தொடர்ந்தும் 280
▁வேறொரு 280
▁வைக்கிறார் 280
ணை 279
தெல்லாம் 279
ந்தா 279
ல்களையும் 279
ளவ 279
ியம் 279
▁இடைவெளி 279
▁இத்திட்டத்தின் 279
▁ஒன்றாகும் 279
▁கொழும்பில் 279
▁பின்வருமாறு 279
▁புவி 279
▁பொறுத்த 279
▁விதமாக 279
▁விழிப்புணர்வை 279
த்திரம் 278
மையைக் 278
வதற்கும் 278
ெட் 278
▁ஆதரவுடன் 278
▁ஆப்பிரிக்க 278
▁எடுத்துரைத்தார் 278
▁எழுச்சி 278
▁தேவையை 278
▁தொடர்வ 278
▁நீர்வ 278
▁போலி 278
▁மாநிலங்களின் 278
லன் 277
லாமல் 277
ித்துப் 277
▁ஃப 277
▁ஐநா 277
▁சூழ 277
▁சூழ்நில 277
▁திறமை 277
▁துறைக்கு 277
▁தேர்ந்தெடுக்க 277
▁நிகழ்ந்த 277
▁நிரு 277
▁நோயாள 277
▁மருத்துவர்கள் 277
▁முரண் 277
▁வெளிநாடுகளில் 277
ed 276
டங்கு 276
திப்பு 276
பற்றி 276
்த்து 276
▁அமு 276
▁ஆசியா 276
▁உறுதிமொழ 276
▁எரிவாய 276
▁கண்டுபிடிப்ப 276
▁பாள 276
▁மாளிகையில் 276
▁மிகத் 276
த்தாலும் 275
மக்களை 275
வரையும் 275
ிலிருந்த 275
ுட 275
ொள்ள 275
▁அநேக 275
▁அரங்க 275
▁கொடிய 275
▁செய்வ 275
▁டைம் 275
▁நகரத்தில் 275
▁நிற்ப 275
▁பணியாற்றும் 275
▁பொய் 275
▁லு 275
▁வசன 275
te 274
லைய 274
ித்துறை 274
ிருப்பதால் 274
ுவிட்டன 274
▁அம்ம 274
▁அவசியத்தை 274
▁இருந்தபோதிலும் 274
▁எனத் 274
▁செய்யவில்லை 274
▁சேவையை 274
▁தோன்ற 274
▁பயன்படுத்திய 274
▁பார்க்கும் 274
▁மக்களில் 274
ur 273
தொ 273
ரூ 273
ெட்ட 273
▁காவ 273
▁சிறிது 273
▁தேர்தல்கள் 273
▁தொலைநோ 273
▁வழிமுற 273
▁வீழ்ச்சிய 273
எஃப் 272
ப்பன 272
மாத 272
ஸ்ஸ 272
ானி 272
ேர் 272
▁இருக்கு 272
▁இருபது 272
▁உருவாகும் 272
▁கட்டமை 272
▁கட்டுப்பாட்டை 272
▁கற்பனை 272
▁கூறுவது 272
▁க்கும் 272
▁சமாளிக்க 272
▁பேட்டி 272
▁போக்குவர 272
▁விதிமுறைகள் 272
நான 271
▁கட்சித் 271
▁கட்டிய 271
▁கொண்டுவரு 271
▁சமுத்திர 271
▁சேத 271
▁டே 271
▁பஞ்சாப் 271
▁வாக்களித்த 271
▁வெளியிட்டுள்ளது 271
டல் 270
ப்போக 270
ர்களா 270
லிச 270
▁அதிருப்த 270
▁எகிப்து 270
▁ஒருங்கிணைந்து 270
▁ஜோடியாக 270
▁தேவைப்படுகிறது 270
▁நாடுகளுடன் 270
▁நிராகரிக்க 270
▁பயன்படுத்துவது 270
▁மரியாத 270
▁யு 270
▁வந்தன 270
▁விவரங்களை 270
▁வேறுபாடுகள் 270
▁ஸ்தாப 270
é 269
க்கியுள்ளது 269
சும் 269
வல் 269
ிக்கலாம் 269
ிக்கின்றனர் 269
ிப்பாக 269
்டர் 269
▁அடிப்பட 269
▁அரங்கில் 269
▁இருந்தே 269
▁ஊழ 269
▁ஒலிபரப்பு 269
▁குடும்பத்தின 269
▁குண்டுவீ 269
▁கோடிக்க 269
▁செயல்பாடுகளை 269
▁நிர 269
▁பல்கலைக்கழகம் 269
▁பிளேய 269
▁மறைமுக 269
k 268
தியாக 268
த்துடனும் 268
மடைந்து 268
▁அமைந்துள்ள 268
▁ஆதிக்கம் 268
▁உருவாக்குதல் 268
▁ஐய 268
▁கடித 268
▁தெரி 268
▁தேடி 268
▁பதவ 268
▁மீன் 268
▁வசத 268
'. 267
36 267
சால 267
தாகத் 267
மாய்க் 267
யை 267
ர்களால் 267
விழ 267
ுக்கி 267
ுக்கோ 267
▁அஞ்சலி 267
▁இவ்வித 267
▁கடமை 267
▁செயல்பாட்ட 267
▁தளத்தை 267
▁தோற்றுவ 267
▁நம்மால் 267
▁நிச்சயமாக 267
▁ரசிகர்கள் 267
▁வசதியை 267
▁வீடுகள 267
62 266
மடைந்த 266
மித 266
யி 266
ரப் 266
லம் 266
வந்த 266
ஸை 266
ாளி 266
ியுள்ளார் 266
▁அதன்படி 266
▁ஆசியாவில் 266
▁உண்மைய 266
▁கலக 266
▁கழிவ 266
▁கூறுகிறார் 266
▁சட்டங்கள் 266
▁சந்திப்ப 266
▁சாய 266
▁சினிம 266
▁செய்க 266
▁நாடுகளிலும் 266
▁பாதுகாக்கும் 266
▁பிரிட்ட 266
▁யாக்கோ 266
▁ரூபா 266
72 265
ard 265
எதிர் 265
த்தனர் 265
னல் 265
னைத் 265
ராவ 265
▁அகதிகள் 265
▁அடித்தள 265
▁அளித்தார் 265
▁இப்போ 265
▁உண்மையை 265
▁குழப்ப 265
▁சாட்சிய 265
▁சிக்கன 265
▁நிலைத்த 265
▁நேர் 265
▁நோயாளிகள் 265
▁புகார் 265
▁வியட்நாம் 265
▁வெடித்த 265
ப்பினை 264
ப்பூர்வமான 264
முத 264
ய்வ 264
வனை 264
வைப் 264
ிரை 264
ுகளிலும் 264
்கு 264
▁இதன்மூலம் 264
▁இய 264
▁ஒடுக்க 264
▁காற்று 264
▁கொரிய 264
▁சீர்திருத்தம் 264
▁சூப்பர் 264
▁செயல்பாட்டு 264
▁நடத்துவதற்கு 264
▁நியமிக்கப்பட்ட 264
▁நோக்கத்தை 264
▁மர 264
▁வளர் 264
▁வழங்குகிறது 264
▁வானிலை 264
▁விரிவாக்கம் 264
1998 263
ut 263
ங்கின் 263
த்திட்டம் 263
ாட்டு 263
ெடுத்து 263
ேல் 263
▁அவர்களைப் 263
▁உறுப்பினராக 263
▁ஊக 263
▁கொண்டிருப்ப 263
▁ஜெய் 263
▁நபர்கள் 263
▁நான்காவது 263
▁நிறுத்தம் 263
▁பலரும் 263
▁புர 263
▁வரவே 263
▁வேலைகளை 263
ig 262
களின் 262
▁அரசியல்வாத 262
▁இத்திட்ட 262
▁இரட்டை 262
▁கட்டணம் 262
▁காட்டு 262
▁குறிக்கும் 262
▁கைவிட 262
▁சவ 262
▁சிந்தன 262
▁செய் 262
▁செய்வத 262
▁தணிக்கை 262
▁தலைவரும் 262
▁திருமண 262
▁மேலதிக 262
▁விப 262
நாம் 261
நாயக 261
றிக்கை 261
ிப்பதாக 261
▁அளவிலும் 261
▁ஆதாரங்கள் 261
▁ஆபத்தான 261
▁கதையை 261
▁குடியரசின் 261
▁சனிக்கிழமை 261
▁சவுதி 261
▁துரித 261
▁நகர் 261
▁பலன் 261
▁வெளியி 261
▁வேளை 261
.'' 260
as 260
w 260
பொழுது 260
மில்லாமல் 260
ிவைத்தார் 260
ுக்களின் 260
ொழ 260
▁அவைகளை 260
▁இருக்கவேண்டும் 260
▁என்பதுடன் 260
▁கட்சியில் 260
▁குடும்பம் 260
▁கைதிகள் 260
▁தள்ளுபடி 260
▁திறன 260
▁நடவடிக்கைகளின் 260
▁நய 260
▁பரிசு 260
▁பரிமாற்றம் 260
▁மறுபடியும் 260
▁விற்க 260
ுக்கள 259
▁ஆசார 259
▁ஆர்ப்பாட்டம் 259
▁உத்தரவாத 259
▁கூட்டத்தை 259
▁பகுதிகளை 259
▁பிரதிநிதித்துவ 259
▁வேத 259
க்குவது 258
சூ 258
டான 258
தின 258
யிர 258
ானால் 258
ுள்ளே 258
▁அரசும் 258
▁அறிக்கைகள் 258
▁கருத்தரங்க 258
▁கூற்ற 258
▁கேரள 258
▁தனிப்ப 258
▁நாயக 258
▁புதுமையான 258
▁மார்க 258
▁மீட்ட 258
▁ரு 258
▁லெபனான 258
---- 257
.' 257
1617 257
டுக 257
த்துறையில் 257
னார் 257
ரைத் 257
வேலை 257
ாட் 257
▁அமைக்கும் 257
▁அர்ப்பணிப்பு 257
▁ஒன்பது 257
▁கட்டள 257
▁கொண்டுவந்து 257
▁சிறையில் 257
▁தேதிய 257
▁பங்காள 257
▁பொருட்களின் 257
▁ரயில்கள் 257
ண்டா 256
தல் 256
நெ 256
போதிலும் 256
ரிக்கும் 256
ரியின் 256
▁ஆசியான் 256
▁ஆட்சியில் 256
▁உத்தேச 256
▁கண்ண 256
▁கிமீ 256
▁சமூகம் 256
▁தகவலை 256
▁நடத்தினர் 256
▁நிர்மலா 256
▁பாதிக்கும் 256
▁பிரத்யேக 256
▁மருத்துவமனைகள் 256
▁ரத்த 256
▁வகுப்ப 256
▁வந்தனர் 256
▁வீடுகளை 256
▁வெளிவந்த 256
க்களையும் 255
த்துறையின் 255
பாய் 255
ரண 255
ிடு 255
▁எதிர்காலம் 255
▁எய் 255
▁காப்பீடு 255
▁சீற்ற 255
▁தேசத்தில் 255
▁நிலைமைகள் 255
▁பங்கள 255
▁படைகளின் 255
▁பட்டியல் 255
▁பாபா 255
▁பின்தங்கிய 255
▁பொருள 255
▁மாண்பு 255
கத்தின் 254
ிற்குப் 254
▁ஆண்டுக்குள் 254
▁ஆலை 254
▁கடத்த 254
▁கிரேக்க 254
▁திருப்தி 254
▁தொடங்கியுள்ளது 254
▁நிபந்தன 254
▁பாரம்பரியம் 254
▁முறைக்கு 254
ட்க 253
பாத 253
ியு 253
ீட்டு 253
▁இங்கிலாந்து 253
▁உணர 253
▁உண்டாக்க 253
▁எட்டிய 253
▁கடலோர 253
▁கொள்கையில் 253
▁செல்வாக்கை 253
▁சொல்லிய 253
▁பின்னும் 253
▁பெற்றார் 253
▁மக்களிடம் 253
▁மாணவர்களின் 253
▁வாழ்வில் 253
▁ஸ்க 253
g 252
ல்கள 252
வழி 252
ார்ந்த 252
ென்ற 252
▁இரயில் 252
▁இற 252
▁ஒப்பிடுகையில் 252
▁குவி 252
▁சாரா 252
▁தடுத்த 252
▁தன்மைய 252
▁தொழில்நுட்பத்தை 252
▁நிர்ப 252
▁மீறி 252
▁வந்தபோது 252
▁வாக்களிக்க 252
தந்திர 251
திக்க 251
ப்பாய 251
ரல் 251
ழ் 251
ாரின் 251
ாவி 251
ிருக்கவில்லை 251
ீட் 251
▁அஜித் 251
▁ஆரம்பித்த 251
▁உத்திர 251
▁எங்கே 251
▁கழகத்தின் 251
▁கொண்டுள்ளார் 251
▁சம்பளம் 251
▁செய்தியை 251
▁டொ 251
▁நிறுவனத்தில் 251
▁பின்னரும் 251
▁மாதங்கள் 251
▁ரஜின 251
197 250
ச்சி 250
நோக்கிய 250
வரே 250
வாக்க 250
ாட்டில் 250
ாளர்களில் 250
ுவோர் 250
▁அமைப்பான 250
▁குஷ் 250
▁சுத்திகரிப்பு 250
▁பரவலாக 250
▁பாசிச 250
▁யூதா 250
ul 249
கைய 249
செய்து 249
▁கச 249
▁கலைஞ 249
▁சம்பவங்கள் 249
▁பறிமுதல் 249
▁பிரே 249
▁பொருள்களை 249
▁மாறிய 249
▁மாற்றும் 249
▁யோசன 249
▁வளர்ச்சியில் 249
▁விரிவாக 249
▁வைப்பு 249
il 248
க்கப்பட்டது 248
போர்ட் 248
மிர 248
வர்களையும் 248
▁அடிப்படைக் 248
▁அட்டை 248
▁அஸ்த 248
▁இக்க 248
▁ஈடுப 248
▁எதிர்க் 248
▁எதிர்த்துப் 248
▁ஒடுக்கப்பட்ட 248
▁கடன்கள் 248
▁கண்டுபிடி 248
▁சொன்னார் 248
▁நிதியை 248
▁நினைவில் 248
▁நினைவுகூர் 248
▁நிலைப்பாடு 248
▁நீடிக்க 248
▁பள்ளிகள் 248
▁மாநாட்டை 248
▁முனைய 248
▁மேம்படுத்தவும் 248
▁வலை 248
தைய 247
ன்ச 247
ர்ட் 247
ெய்த 247
▁ஆகியவற்றிற்கு 247
▁ஆதலால் 247
▁கம்பெனி 247
▁கொண்டுவந்த 247
▁சுமத்த 247
▁நேச 247
▁பற்ற 247
▁முக்கியம் 247
▁முழுவதையும் 247
க்கூ 246
நீ 246
ப்பட்டிருந்தது 246
லக 246
ளம் 246
ளும் 246
வியை 246
ிகரமாக 246
ிட்டனர் 246
ிப்பில் 246
▁அதற்காக 246
▁அறிமுக 246
▁இப்போதும் 246
▁இறக்கு 246
▁உபகரண 246
▁உருவ 246
▁எதிர்க்கும் 246
▁காட்டுகின்றன 246
▁கொண்டிருந்தார் 246
▁செலுத்திய 246
▁டிரில்லியன் 246
▁திரும 246
▁புதுதில்லி 246
▁மாறுபட்ட 246
▁முதல்வர் 246
▁வடிவமைப்பு 246
▁விடுவ 246
em 245
os 245
டுகளும் 245
டுகள் 245
த்தள 245
ரக் 245
வல்ல 245
ிருத்த 245
▁அதிகாரிகளின் 245
▁அவ்வ 245
▁இடங்களிலும் 245
▁இரக்க 245
▁ஏவுகணை 245
▁கவனத்தை 245
▁கோரிக்கைகளை 245
▁சமயத்தில் 245
▁தேதிகளில் 245
▁நிலைம 245
▁மீட்பு 245
▁முன்வைக்க 245
Y 244
டையும் 244
ிவிட்டார் 244
▁and 244
▁அதிகபட்ச 244
▁அமைக்கப்படும் 244
▁இடைய 244
▁இத்தனை 244
▁இயங்க 244
▁உள்நாட்டில் 244
▁காலத்தை 244
▁சிரிய 244
▁சுற்றுச்சூழ 244
▁செயலாள 244
▁ஜப்பானிய 244
▁திட்டமிட்டு 244
▁நிகழ்வுகள் 244
▁பற்றிப் 244
▁பெற்றுக் 244
▁போட்டு 244
▁போத 244
▁மாற்றங்களை 244
▁வருமானத்தை 244
▁வாரங்களில் 244
ங்கில் 243
தாவ 243
த்துச் 243
்ட்ட 243
▁ஆற 243
▁இந்நிகழ்ச்ச 243
▁கற்றுக் 243
▁சிறுபான்மையினர் 243
▁செய்யவேண்டும் 243
▁தடைகள் 243
▁தெரிவித்து 243
▁படையின் 243
▁பிரதி 243
▁பீகார் 243
▁பெறுவது 243
▁விரைந்து 243
▁ஹே 243
செய்யும் 242
டம் 242
ன்ட் 242
ல்களும் 242
▁இடத்திற்கு 242
▁இரட்ட 242
▁சிறப்புமிக்க 242
▁தனிமைப்படுத்த 242
▁தெரிவிக்கும் 242
▁தேர்தலுக்கு 242
▁தேவையில்லை 242
▁நீதித்துறை 242
▁பலவீன 242
▁பாரிஸ் 242
▁பிடிக்க 242
▁பேட்டியில் 242
▁பொழுது 242
▁மாளிக 242
▁மிர 242
▁வருடம் 242
▁விரைவான 242
ers 241
ந்தை 241
ுவதே 241
ையினர் 241
▁குழ 241
▁கைவிட்ட 241
▁சீனாவில் 241
▁செல்வாக்க 241
▁டேவிட் 241
▁தூத 241
▁தெரியாது 241
▁நட்சத்திர 241
▁நோய 241
▁பாதையை 241
▁முன்னணியில் 241
▁வளர்ச்சிய 241
▁வாக்காளர்கள் 241
▁வீண 241
38 240
ங்களான 240
த்தன்மையை 240
ப்படுத்தல் 240
ப்போடு 240
ாந்த 240
ாயிற்று 240
ாளிகளுக்கு 240
▁அணுவாயுத 240
▁ஆண்டும் 240
▁ஒடிசா 240
▁ஒட்டு 240
▁கட்சியான 240
▁சட்டத்தில் 240
▁சித்திரவதை 240
▁சொத்து 240
▁டய 240
▁திரும்பிய 240
▁நீதிமன்றத்தில் 240
▁பொருளாதாரத் 240
▁லிமிடெட் 240
டுவதற்கான 239
ார்த்த 239
ாலோ 239
▁அப்பா 239
▁அமைப்புகளின் 239
▁இவருடைய 239
▁உபகரணங்கள் 239
▁ஊழியர் 239
▁எடுக்கப்படும் 239
▁ஒத்து 239
▁கருத்துக் 239
▁கூட்டாள 239
▁செனட் 239
▁தானே 239
▁நலனுக்காக 239
▁பிரிவினர் 239
▁போராட்டத்தின் 239
▁முன்மொழ 239
SEP 238
மாவ 238
ல்லாத 238
வைக் 238
ென்றும் 238
▁ஆரோக்கியமான 238
▁ஆலோசனைகள் 238
▁இந்நிலையில் 238
▁இயக்குனர்கள் 238
▁ஏதேனும் 238
▁கூறப்பட்டது 238
▁தூதர் 238
▁நாடுகளை 238
▁நாத் 238
▁புய 238
▁பெரும்பான் 238
▁பொன்ன 238
▁ரிசர்வ் 238
▁விஷயங்களில் 238
இடது 237
க்கால 237
டுத 237
ன்களை 237
மூட்ட 237
ய்வு 237
ினும் 237
ில்ல 237
ீக 237
ையாள 237
்களில் 237
▁அதிநவீன 237
▁கல்ல 237
▁கிருமி 237
▁பெண்களின் 237
▁வீழ்ச்சி 237
▁வேண்டியுள்ளது 237
▁ஹு 237
85 236
ைக்காக 236
ொடு 236
▁இதய 236
▁என்றே 236
▁ஒதுக்கப்பட்ட 236
▁ஒப்பந்தங்கள் 236
▁கலைஞர்கள் 236
▁களில் 236
▁குறிப்பிட்டது 236
▁கெட்ட 236
▁சலுகை 236
▁திடீர் 236
▁நடிகை 236
▁நாச 236
▁போக்கை 236
▁போன்றவற்றை 236
▁முயற்சியாக 236
▁மையத்தின் 236
▁வரிகள் 236
ah 235
x 235
ங்களோடு 235
ப்பட்டிருக்கும் 235
▁அவசியமாகும் 235
▁உடன்பாட்ட 235
▁எதிராகவும் 235
▁என்கிறார் 235
▁ஒருவரும் 235
▁கொண்டுவரும் 235
▁சந்தைகள் 235
▁நாடும் 235
▁பூமி 235
▁மாசு 235
▁மீட்க 235
▁முகம் 235
▁முன்னேறி 235
▁வடகிழக்குப் 235
▁வழிமுறைகள் 235
▁வழிவகு 235
▁விவரம் 235
▁வேக 235
95 234
டுகளின் 234
போன 234
ப்பதும் 234
ர்ந்து 234
ாளராக 234
ுவதையும் 234
▁ஆகியவற்றுடன் 234
▁ஆயிர 234
▁உணர் 234
▁காட்டியது 234
▁கிரிய 234
▁கிழமை 234
▁சபையில் 234
▁செய்யலாம் 234
▁தொடங்கப்பட்டது 234
▁பெட்ரோலிய 234
▁பெறுவதற்கான 234
▁மாவ 234
▁முகாம் 234
▁மேல 234
▁வளங்களை 234
▁விதமான 234
ad 233
ia 233
க்கத்தை 233
தரு 233
பில் 233
மது 233
ின்றார்கள் 233
ிராத 233
ூரில் 233
ெனினும் 233
▁அதேபோல 233
▁அளித்தல் 233
▁உருவாக்கவும் 233
▁உலகிலேயே 233
▁ஏற்பாடுகள் 233
▁கண்காட்ச 233
▁குர 233
▁குழுவை 233
▁தெரிவிக்கிறது 233
▁தொழிற்சாலைகள் 233
▁நடிப்ப 233
▁நிலையங்களில் 233
▁பதவியை 233
▁பாராட்டிய 233
▁பெர் 233
▁வடகொ 233
▁வானொலி 233
▁வாழ்வாதார 233
▁வீடியோ 233
ினது 232
ிஸ்த 232
்கூட 232
▁அறக்கட்டளை 232
▁இடம்பெற 232
▁கண்டது 232
▁காலங்களில் 232
▁காவலில் 232
▁சமமான 232
▁சீர்குலை 232
▁சுத்த 232
▁நகரத்தின் 232
▁பங்குதார 232
▁பங்கெடுத்த 232
▁மதிப்பீட்ட 232
▁மருத்துவமனையில் 232
▁முன்னெடுக்க 232
▁விக்ரம் 232
▁விஜயம் 232
▁விமர்ச 232
▁வெள 232
முழ 231
ிக்கார 231
ுக்காகவும் 231
ொல 231
▁அரசை 231
▁ஆந்திர 231
▁இட்டு 231
▁இருக்கிறேன் 231
▁காட்சிகள் 231
▁கோரும் 231
▁சக்தியாக 231
▁சங்கில 231
▁சமூகத்தில் 231
▁செயல்பாடுகள 231
▁நாக 231
▁வது 231
▁வாரத்தில் 231
92 230
சில் 230
நாங்கள் 230
யில 230
ரும 230
ுக்குச் 230
▁இணைக்கும் 230
▁ஏற்பட 230
▁காணப்படும் 230
▁குடியிருப்பு 230
▁கூட்டமைப்பின் 230
▁தாக்கிய 230
▁பலத்த 230
▁வாஜ் 230
க்காரர் 229
டிப்பு 229
போன்ற 229
▁அசாம் 229
▁அம்மா 229
▁இரங்கல் 229
▁சங்கத்தின் 229
▁டை 229
▁நிர்வாகத்தில் 229
▁நேரில் 229
▁பில்லிய 229
▁வாங்கும் 229
ace 228
க்கா 228
டுகள 228
மித்த 228
ானை 228
ாலம் 228
ுறையில் 228
▁அலை 228
▁ஆர்வ 228
▁கொன்ற 228
▁பயிற்சிய 228
▁வரவேற்ப 228
▁வெற்றியை 228
1991 227
கன் 227
க்கக் 227
சில 227
மாகி 227
ளவிற்கு 227
ுதே 227
▁உள்நாட்டுப் 227
▁என்னிடம் 227
▁எழுதி 227
▁ஒட்ட 227
▁கட்டிட 227
▁கணிப்பு 227
▁குழுவின 227
▁சம்பாத 227
▁தங்கம் 227
▁தரை 227
▁திட்டவட்ட 227
▁தோல்விய 227
▁படத்திற்கு 227
▁படித்த 227
▁விஷயங்களை 227
எப் 226
ங்கோ 226
சிவாஜி 226
ட்டல் 226
தர 226
த்துக்கொண்டு 226
ன்களைப் 226
லிருந்து 226
ஸ்கோ 226
ாட்டி 226
▁அனுமத 226
▁ஆவிய 226
▁உடன 226
▁உருவாக்குவதற்கு 226
▁எத்தகைய 226
▁கர் 226
▁குறைந்துள்ளது 226
▁செலவழ 226
▁தயாரிக்கப்பட்ட 226
▁தொகையில் 226
▁தொழிற்துறை 226
▁நீதிய 226
▁பிரிக்ஸ் 226
▁முதலீட்டாளர்கள் 226
▁மொபைல் 226
▁மோதல்கள் 226
▁வந்துள்ளன 226
▁வலுவ 226
▁வாங்கி 226
▁விளையாட்ட 226
▁வைத்திருக்கும் 226
ent 225
id 225
டுகிறார்கள் 225
னைகள் 225
ற்றுப் 225
லனை 225
ஸ்தானின் 225
ிகு 225
ிருக்கின்ற 225
▁அடக்கு 225
▁இச்ச 225
▁உண்டான 225
▁என்னைப் 225
▁கான 225
▁கொள்கைகளுக்கு 225
▁துறையை 225
▁நிகழ்ச்சியின் 225
▁நிச்சய 225
▁முழுவத 225
▁மையங்களில் 225
▁வலைதள 225
▁வாழ்க்க 225
▁வாழ்க்கையின் 225
▁வெளியுறவுத்துறை 225
உலக 224
க்கியது 224
ப்பட்டிருக்கிறது 224
வைகள் 224
ிதான் 224
ினின் 224
ேயாகும் 224
▁அந்தச் 224
▁உறவை 224
▁குழந்தைகளின் 224
▁சம்பவம் 224
▁செலவிட 224
▁தற்கொலை 224
▁தலா 224
▁பட்டம் 224
▁பாதிப்பை 224
▁பெற்றோ 224
▁போவதில்லை 224
▁மனிதாபிமான 224
▁மறுசீரமைப்பு 224
▁மாட்ட 224
▁மாணவர்கள 224
சியா 223
செய் 223
டுத்தப்பட்ட 223
தைச் 223
த்தோடும் 223
ந்தர் 223
பார் 223
வனுக்கு 223
விட்டன 223
▁ஒருங்கிணைக்க 223
▁காலத்தின் 223
▁கூடி 223
▁கொள்வதற்கு 223
▁தன்னாட்சி 223
▁நடுவே 223
▁நிறுத்துவ 223
▁பாக்தா 223
▁மண்ட 223
க்குரிய 222
ங்களுடைய 222
டுகின்ற 222
ணிய 222
த்தில்தான் 222
த்தையே 222
பட்ச 222
பாய 222
ப்பதோடு 222
மதி 222
ராத 222
ிக்கொள்ளும் 222
ிவு 222
ீடுகள் 222
ெடுக்கும் 222
▁ஆதரித்த 222
▁இவருக்கு 222
▁உருவாக்குவதில் 222
▁கடு 222
▁கட்சியுடன் 222
▁காணாமல் 222
▁சந்தித்தார் 222
▁சாத்தியமான 222
▁தொலைத்தொடர்பு 222
▁நிலையிலும் 222
▁நுழை 222
▁படிப்பின 222
▁பரிச 222
▁பாலியல் 222
▁போருக்குப் 222
▁முயற்சிகளில் 222
▁வளங்கள் 222
ஜோ 221
புதிய 221
ப்பாடு 221
முறையின் 221
ல்த 221
ிருக்கையில் 221
ிருப்பார்கள் 221
▁ஆகியோரும் 221
▁எந்தக் 221
▁ஏற்றுக்கொண்ட 221
▁கிராமங்கள் 221
▁சரிய 221
▁சிங்க 221
▁தேசியப் 221
▁நடிகர்கள் 221
▁படிக்க 221
▁பல்ல 221
▁புத்தி 221
நிலையில் 220
ன்ற 220
வதோடு 220
ையினால் 220
▁அமெரிக்காவும் 220
▁உதவியை 220
▁உலகெங்கிலும் 220
▁கோட்ட 220
▁டிர 220
▁தயாரித்து 220
▁தியாகம் 220
▁தொடர்புகள் 220
▁பட்ச 220
▁பொய்ய 220
▁மகள 220
▁மகாராஷ்டிரா 220
▁விற்ப 220
அரசியல் 219
ய்ய 219
ர்ப 219
ுமா 219
▁ஆளுநர் 219
▁இயலாத 219
▁உத்தியோக 219
▁உள்ளதாக 219
▁எப்பட 219
▁கடைசியில் 219
▁கருவி 219
▁சுற்றிலும் 219
▁ஜப்பான 219
▁ஜூ 219
▁தளர்த்த 219
▁தள்ளி 219
▁தோன்றுகிறது 219
▁நான்க 219
▁பராமரிக்க 219
▁பிரச்சனைகள் 219
▁புருஷ 219
▁பேண 219
▁மக்களவையில் 219
▁முறைகளை 219
▁மோசமாக 219
▁வளர்ச்சிப் 219
▁வெவ்வேறு 219
ran 218
நாட்டின் 218
ப்பதுடன் 218
ரீதியாக 218
ஸ்தானிய 218
▁அங்கீகரிக்க 218
▁அதுதான் 218
▁அரசாங்கத்தால் 218
▁ஆராய்ச்ச 218
▁ஈரானின் 218
▁ஏல 218
▁ஒருவரை 218
▁கனவு 218
▁கருதி 218
▁கல்வித் 218
▁தாய 218
▁தொடு 218
▁தோற்ற 218
▁படிப்படியாக 218
▁படையெடுப்ப 218
▁பார்த்தால் 218
▁புகழ 218
▁மறுசீர 218
▁முன்னேறிய 218
▁விலைகள் 218
▁விளங்கும் 218
கை 217
டுகளை 217
மார்க்க 217
லீ 217
ல்படுத்த 217
ளு 217
ியாகிய 217
▁அஜ 217
▁அணுகுமுற 217
▁அதிகமாகும் 217
▁அமல் 217
▁ஆவது 217
▁இதைத் 217
▁உத்வேக 217
▁உலகத் 217
▁கூறப்படும் 217
▁கைவினை 217
▁கோரிக்கைகள் 217
▁சார்பு 217
▁தாண்டி 217
▁திட்டமி 217
▁நதி 217
▁நோக்கில் 217
▁பட்டுள்ளது 217
▁மறைக்க 217
▁விளங்குகிறது 217
▁வீரர்களின் 217
▁வெடிப்பு 217
▁ஹரியானா 217
த்திற்குத் 216
ந்தனர் 216
மாண 216
முறையில் 216
ரைச் 216
ர்களைக் 216
ிப்பதில் 216
▁அபி 216
▁அற்ற 216
▁ஆழமாக 216
▁தப்பு 216
▁தெரியவில்லை 216
▁நடவடிக்கையாக 216
▁நடைமுறைக்கு 216
▁நூற்றாண்டில் 216
▁பள்ள 216
▁பிரதிபலிக்கிறது 216
▁யார 216
▁வான் 216
▁வெளிய 216
CDU 215
நாட்டு 215
னியா 215
மைப்படுத்த 215
ராகவும் 215
வில்ல 215
ாவிடம் 215
▁f 215
▁ஆலோசகர் 215
▁உருவாக்கப்படும் 215
▁உறுப்பினர்களை 215
▁எதிராகப் 215
▁ஏமாற்ற 215
▁கப்பல்கள் 215
▁சான்றிதழ் 215
▁சுர 215
▁தடைகளை 215
▁தேவைகள் 215
▁பயணத்தின் 215
▁புகழ்பெற்ற 215
▁ரவி 215
▁வகித்த 215
▁வளாகத்தில் 215
மர 214
▁உதவுகிறது 214
▁கஷ்ட 214
▁சமுதாயம் 214
▁செல்வதற்கு 214
▁தலைமைச் 214
▁பெருமளவு 214
▁போலந்து 214
▁முன்னோடி 214
▁முஸ்லீம் 214
▁வரிவி 214
▁விளம்பர 214
த்தினாலும் 213
பால் 213
ிவைத்த 213
ையிட்ட 213
ையோடு 213
▁அருவ 213
▁அவர்களும் 213
▁சக்திவாய்ந்த 213
▁சண்டை 213
▁சமுக 213
▁சென்றது 213
▁செய்துள்ளனர் 213
▁தர் 213
▁தளத்தின் 213
▁நடத்துவது 213
▁நுட்ப 213
▁நேரங்களில் 213
▁மலையாள 213
▁ரசாயன 213
▁ற 213
▁வீழ்ச்ச 213
▁வெடி 213
▁ஸ்மார்ட் 213
டுகளையும் 212
பெய 212
மிட 212
மேக் 212
றைகள் 212
ளான 212
ாட்டின் 212
ிக்கப்பட்டன 212
ினருக்கு 212
ின்கீழ் 212
ுறுத்திய 212
▁அரசிய 212
▁அழைத்த 212
▁அவனைக் 212
▁ஈடு 212
▁உறு 212
▁என்றுதான் 212
▁ஏற்பட்டு 212
▁கண்க 212
▁கேட்டார் 212
▁சட்டங்களை 212
▁ஜீவன் 212
▁தண்ணீ 212
▁தம 212
▁தினசரி 212
ற்றி 211
▁the 211
▁காத 211
▁காந்தியின் 211
▁சாட்ச 211
▁சினிமாவில் 211
▁சுவாமி 211
▁சூழ்நிலையை 211
▁செய்யப்பட்டுள்ள 211
▁தானியங்கள் 211
▁தெரிவு 211
▁பஞ்ச 211
▁பயணத்தை 211
▁பரப்பு 211
▁பேச்சாளர் 211
▁மகிழ்ச்சிய 211
▁விதை 211
▁வெப்ப 211
கத்தை 210
சர் 210
டுகின்றனர் 210
ட்டுப் 210
ன்களின் 210
ரிடையே 210
வர்களுடன் 210
ஸ்ரீ 210
ோக 210
▁அவர்களைக் 210
▁இதைச் 210
▁உரு 210
▁தப்பி 210
▁நடுவில் 210
▁பின்வரும் 210
▁பில் 210
▁புரிந்த 210
▁முற்பட்ட 210
▁ரக 210
▁வார்த்தைகள் 210
▁வேறுவ 210
ay 209
கூ 209
ட்டம் 209
ப்படுகிறார்கள் 209
ற்றம் 209
வைத் 209
ையாவது 209
▁அன்றைய 209
▁இறந்து 209
▁எடுத்துக்கொள்ள 209
▁எளிய 209
▁கண் 209
▁குற்றங்கள் 209
▁திரையிட 209
▁தூக்கி 209
▁நிர்வாகத்தை 209
▁பில 209
▁புறப்பட்ட 209
▁முத்த 209
▁விக்கிர 209
193 208
சாமி 208
சிங் 208
த்தியம் 208
ளத்தில் 208
ாத் 208
ுவந்த 208
ெர் 208
▁அனைத்துக் 208
▁அமெரிக்காவை 208
▁ஆகியோரின் 208
▁எங்கும் 208
▁கடன்களை 208
▁கட்டுரையில் 208
▁சாதனைகள் 208
▁தற்ச 208
▁தீவின் 208
▁நிலுவையில் 208
▁பரப்ப 208
▁புலி 208
▁மோகன் 208
ங்களோ 207
ட்சியின் 207
ணியில் 207
மைப்பை 207
வணிக 207
ாதிப 207
்டோ 207
▁அமெரிக்காவ 207
▁என்னால் 207
▁கட்டளை 207
▁கேள்விக்கு 207
▁கொள்கைக்கு 207
▁கொள்ளவில்லை 207
▁செவ்வாய 207
▁தேசத்தை 207
▁பகுதியின் 207
▁பூட்டோ 207
▁பெறப்பட்ட 207
▁பொதுப் 207
▁மசோ 207
▁மும்பையில் 207
▁மேம்பட்ட 207
▁மேலே 207
▁வழியை 207
▁வெளிச்ச 207
ation 206
ond 206
un 206
னாய 206
பெற்ற 206
ர்களிடையே 206
வின 206
ஸ்தல 206
ுக்களில் 206
ெக் 206
▁அந்தமான் 206
▁அபாய 206
▁அமர்த்த 206
▁ஆசை 206
▁ஆயுதம் 206
▁இதன்படி 206
▁இலட்சம் 206
▁ஈட்ட 206
▁ஒப்பந்தத்தின் 206
▁கிராமத்தில் 206
▁கிறிஸ்துவ 206
▁செல்வம் 206
▁தலைவரின் 206
▁நடித்து 206
▁நீங்க 206
▁மூழ்க 206
▁மேற்கொண்டார் 206
▁ரம் 206
▁வழக்கில் 206
இந்திய 205
ஜேபி 205
ப்படுகின்ற 205
முன்ன 205
லியை 205
ிகளைச் 205
ிக்கப் 205
ீய 205
ென்றால் 205
▁அரசியல 205
▁அழைக்கப்படும் 205
▁இருப்பதுடன் 205
▁கொஞ்சம் 205
▁கொள்ளுங்கள் 205
▁சந்நித 205
▁சர 205
▁சொல்லும் 205
▁ஜாக் 205
▁தமிழ்நாட்டில் 205
▁நடத்தப்பட 205
▁நோக்கமாக 205
▁பகுதிகளுக்கு 205
▁பதப்படுத்துதல் 205
▁பரவல் 205
▁பொதுமக்களின் 205
▁பொலிவ 205
▁முற்ப 205
▁வெற்றிகரமான 205
அது 204
சத 204
த்திற்குரிய 204
லைவர் 204
ிலீ 204
ீம் 204
ுவதால் 204
▁இதுவும் 204
▁குற்றவாள 204
▁தேர்தலை 204
▁தொழில்துற 204
▁தொழில்நுட்பக் 204
▁நியமி 204
▁பயிற்ச 204
▁மனைவிய 204
▁முன 204
▁யில் 204
▁வகுக்க 204
▁வளமான 204
▁விசாரணைக்கு 204
தர் 203
த்துக்குத் 203
பாட்ட 203
ப்பட்டிருந்த 203
மையைப் 203
ாலி 203
ியைச் 203
ைக்கப்பட்ட 203
▁அல்லாமல் 203
▁உதவிகள் 203
▁எங்கு 203
▁ஒப்படைக்க 203
▁கண்டுபிட 203
▁குற்றவியல் 203
▁சட 203
▁சதி 203
▁சுற்றுச் 203
▁ஞாயிற 203
▁பயன்கள் 203
▁பான 203
▁பிஎஸ் 203
▁மறுத்துவ 203
▁மையத்தை 203
▁வகிக்கும் 203
▁வரலாற்றுச் 203
▁வைத்திய 203
ill 202
ரிக்கு 202
ருவது 202
ிக்கிறார் 202
ேஷ் 202
▁ஆல் 202
▁இருந்தார்கள் 202
▁உயிரியல் 202
▁எங்க 202
▁எதிரொல 202
▁காணப்பட்ட 202
▁கூறுகின்றனர் 202
▁செயற்ப 202
▁தடவையாக 202
▁தம்மை 202
▁தயாரிப்பில் 202
▁தீவு 202
▁துருக்கிய 202
▁துறையினர் 202
▁தொடர்புகளை 202
▁பாத்திர 202
▁பெய்ஜிங் 202
▁போர்க்கு 202
▁மாண 202
▁மீள 202
▁முறையே 202
▁வசனம் 202
▁வழங்குதல் 202
▁வாயு 202
ரங்க 201
ல்ட் 201
ாரை 201
ிரா 201
ிவா 201
ுக்களையும் 201
‌ 201
▁அளிப்பதாக 201
▁அழிக்க 201
▁இயலாது 201
▁உழைப்பு 201
▁குறிப்பிட்டு 201
▁குழுக்களின் 201
▁தவறாக 201
▁திறமையான 201
▁நிக்கோ 201
▁பயனுள்ள 201
▁பலம் 201
▁பிராண 201
▁மணிப்பூர் 201
▁மாவட்டங்கள் 201
▁முடியுமா 201
▁லண்டன் 201
▁விலையை 201
த்தாக்க 200
பாடுகள 200
மயமா 200
மாக்கும் 200
முட 200
▁ஆகியோ 200
▁இதைப் 200
▁இழப்ப 200
▁எழும்ப 200
▁சத்திய 200
▁தற்காலிகமாக 200
▁தாக 200
▁பகுதிகள 200
▁பட்சம் 200
▁பத்திரிகையாளர் 200
▁பலிய 200
▁பிரான்ச 200
▁மாஸ்கோ 200
▁மேன்மை 200
▁விழுந்து 200
?" 199
க்கிறது 199
தென்று 199
நூ 199
மளிப்பு 199
ம்போ 199
ியாகும் 199
ுறையின் 199
ுவதில்லை 199
ொலி 199
▁அரிசி 199
▁ஆணை 199
▁இவர்களில் 199
▁கம்ப 199
▁சட்டமன்ற 199
▁சந்தைகளில் 199
▁தலைமையின் 199
▁திரை 199
▁நடத்தினார் 199
▁நன்றாக 199
▁நெடுஞ்சாலைகள் 199
▁பங்கேற்பு 199
▁பழமைவாத 199
▁பிரித்தானிய 199
▁போராளிகள் 199
▁மிச்ச 199
ine 198
சல் 198
தாய் 198
ப்பகுதியில் 198
முனை 198
யாக 198
லுக்குப் 198
ஷ்வ 198
ிகை 198
ுதலுக்கு 198
▁அடிக்க 198
▁இவற்ற 198
▁உரையை 198
▁கருதப்படும் 198
▁கர்நாடக 198
▁குடியரசுத்த 198
▁செய்யப்படுகிறது 198
▁ஜவுளி 198
▁துக்க 198
▁துரோ 198
▁நட்புற 198
▁நண்பர்கள் 198
▁நிகழ்ச்சியை 198
▁நோக்கத்துடன் 198
▁பொருட்டு 198
▁மரணம் 198
▁மறந்து 198
▁வளர்ச்சியின் 198
▁வளர்ப்பு 198
▁விட்டன 198
▁விவாதங்கள் 198
ங்டனில் 197
சிவ 197
டுகளில் 197
திலிருந்து 197
ரேட் 197
ர்வு 197
ினா 197
ியர் 197
▁அதிர்ச்ச 197
▁அமைந்தது 197
▁இணைப்பை 197
▁இவ்வ 197
▁உள 197
▁ஐம்பது 197
▁கேரளா 197
▁கொடூர 197
▁சமய 197
▁சமுதாயத்தில் 197
▁செய்தியாளர் 197
▁செய்வதன் 197
▁தகுதிய 197
▁துண்டு 197
▁தொலைபேச 197
▁நீக்கம் 197
▁பலன்கள் 197
▁மாநிலங்கள 197
▁முன்னெடுத்த 197
▁வந்தார்கள் 197
▁விக்கிரமசிங்க 197
▁விடய 197
▁வேறுபட்ட 197
▁வைர 197
all 196
சொ 196
ஜாத 196
டனும் 196
ணர்வு 196
மிடம் 196
ாவைப் 196
▁இன்ற 196
▁இயக்கமாக 196
▁எருசலே 196
▁காங்கிர 196
▁கிளர்ச்சி 196
▁கூட்டணியில் 196
▁கொழும்ப 196
▁சுபாஷ் 196
▁தீப 196
▁துண 196
▁தெஹ் 196
▁பகை 196
▁புயல் 196
▁வாடிக்க 196
ian 195
imes 195
த்தின்போது 195
மளிக்க 195
மாகச் 195
ல்ஸ் 195
ீர 195
▁அடிக்கோ 195
▁அரசால் 195
▁அழைத்துச் 195
▁உற 195
▁உள்ளாட்சி 195
▁ஒருவ 195
▁கர்நாடகா 195
▁சிறப்புப் 195
▁சென்றார் 195
▁தொடர்பை 195
▁பணக்கார 195
▁பயிர 195
▁முதன்முறையாக 195
▁வண்ணம் 195
▁வருத்த 195
▁வாக்கெடுப்பு 195
▁விருதுகளை 195
UMP 194
um 194
இன் 194
த்தினதும் 194
த்திற்குக் 194
னைச் 194
போன்று 194
ர்ந்த 194
ளைப் 194
ாசியில் 194
ாயனம் 194
ிட்டுள்ளது 194
ிலும 194
ெடுத்த 194
ையாகவும் 194
▁அதிகாரிகளை 194
▁அன்பு 194
▁அன்றாட 194
▁அருண் 194
▁ஆயுதப் 194
▁ஆஸ்திரேலியா 194
▁இருப்பத 194
▁இறந்த 194
▁சந்திக்கும் 194
▁சாதனங்கள் 194
▁சியோ 194
▁டா 194
▁தீர்மானத்தை 194
▁பகிர்ந்த 194
▁படு 194
▁பாதி 194
▁மியான்மர் 194
▁முகாமில் 194
▁மேற்கோள் 194
▁விளக்கிய 194
▁வெளிப்ப 194
ங்கொ 193
ப்பகுதி 193
ப்பர் 193
ப்பான் 193
வில 193
்குமார் 193
▁ஆள் 193
▁இணைத்துக் 193
▁எண்ணெய 193
▁காட்டிலும் 193
▁சாதகமாக 193
▁டிசம்பரில் 193
▁தலைவர்களை 193
▁தொகுப்ப 193
▁தொழிற்ச 193
▁பரவலான 193
▁பாடல்கள் 193
▁பிரதிபலிக்க 193
▁புற்றுநோய் 193
▁வளர்ந்த 193
▁ஸ்வ 193
82 192
ங்கர் 192
டிப்ப 192
டுவதில் 192
டெ 192
பவர்களுக்கு 192
புற 192
மக்கள் 192
ருக்குக் 192
விழா 192
ிவிட்டன 192
▁அடிப்படையான 192
▁ஆகியோருக்கு 192
▁இதற்கிடையில் 192
▁உருவான 192
▁எதிர்ப்புக் 192
▁என்பதைப் 192
▁எழுப்பிய 192
▁ஒருவேளை 192
▁கணினி 192
▁கண்ணோட்ட 192
▁கருதப்படுகிறது 192
▁காணொள 192
▁கான் 192
▁காரணங்கள் 192
▁கிடைத்துள்ளது 192
▁சிரியா 192
▁தவறு 192
▁நிரப்ப 192
▁நோயாளிகளுக்கு 192
▁பகுதிக்கு 192
▁பாதுகாப்புச் 192
▁மனோ 192
▁மாறும் 192
▁முதலீ 192
▁மெய்ய 192
▁ஸ்பெய 192
க்குள்ள 191
ங்களுக்குத் 191
ட்ஸ் 191
பதி 191
ப்பிலும் 191
யின 191
ானுக்கு 191
ினிய 191
ுதல்கள் 191
ையின்படி 191
▁அல்க 191
▁அழைப்ப 191
▁ஆப் 191
▁ஏற்படுத்திக் 191
▁கழிவு 191
▁சன் 191
▁சிக்கலான 191
▁செயல்படுத்தி 191
▁பதவிய 191
▁வந்திருந்த 191
▁வளைகுடா 191
▁வியாழ 191
▁விலகி 191
▁விஷ 191
43 190
ot 190
திலும் 190
த்துள்ள 190
லோக 190
ாளர்களிடம் 190
▁அமைத்து 190
▁இத்தாலி 190
▁இருக்கின்றனர் 190
▁இறுத 190
▁எப்போது 190
▁எல்லாவற்றையும் 190
▁கடற்படையின் 190
▁கவனத்தில் 190
▁சிங்கப்பூர் 190
▁சுத்திக 190
▁தஞ்சம் 190
▁நாளைக்கு 190
▁நியமன 190
▁பகுதிய 190
▁பன்னாட்டு 190
▁பள்ளிகளில் 190
▁பொருந்தும் 190
▁மடி 190
▁வீடுகளுக்கு 190
▁வேண்டி 190
▁வேண்டுமென்றே 190
▁’ 190
196 189
ic 189
டிக்கும் 189
த்தலை 189
நிலையை 189
ந்தும் 189
ர்ட 189
ுவிட்டு 189
▁அம்பேத்கர் 189
▁இயற்ற 189
▁என்பதோடு 189
▁ஒழிப்பு 189
▁கச்சா 189
▁சலுகைகள் 189
▁செலுத்து 189
▁செல்வது 189
▁சேரும் 189
▁ஜன் 189
▁பஞ்சாய 189
▁பாதுகாப்பாக 189
▁பிடி 189
▁பிரிந்து 189
▁முன்னெச்ச 189
▁யதார்த்த 189
1995 188
1997 188
ஞ 188
ப்பட்டால் 188
மையானது 188
ருக்காக 188
ாமின் 188
ுக்களுக்கு 188
▁அங்குள்ள 188
▁அனைவரின் 188
▁எந்திர 188
▁சர்க்கரை 188
▁சுற்றுப்புற 188
▁ஜார்க்கண்ட் 188
▁ஜென 188
▁தலைமைப் 188
▁பவு 188
▁பிரச்சினையை 188
▁வர்த்த 188
▁வார்த்தைகளை 188
44 187
56 187
91 187
ag 187
ணிக்கு 187
ப்படுவர் 187
ரியில் 187
ர்த் 187
ாரோ 187
ியைக் 187
ூல 187
ோரை 187
▁அதிகரிக்கவும் 187
▁அன்றி 187
▁அமைப்புக்கள 187
▁அழைக்கப்பட்ட 187
▁ஆகியவற்றால் 187
▁உயிரிழந்த 187
▁ஊடகங்களில் 187
▁எல்லையில் 187
▁ஏப்பிரல் 187
▁ஒலி 187
▁களின் 187
▁காணொளி 187
▁குடிமக 187
▁சத்ய 187
▁சுரேஷ் 187
▁சுற்றுலாத் 187
▁செய்வோம் 187
▁தனியாக 187
▁தமக்கு 187
▁தருணத்தில் 187
▁நலம் 187
▁நிகழ்வ 187
▁பின்னே 187
▁பிரசாத் 187
▁வீச 187
கட்ட 186
க்கியா 186
ட்டன் 186
ட்டிங் 186
தாம 186
ம்த 186
வர்களே 186
ாயா 186
ாரர் 186
ாளர்களால் 186
ின்றார் 186
ிப்பதை 186
ுவில் 186
்துறை 186
▁அமீ 186
▁இடங்களை 186
▁இணையதளம் 186
▁இயந்திர 186
▁இலாபம் 186
▁இளைஞர்களை 186
▁என்பவர் 186
▁ஒட்டுமொத்தமாக 186
▁கிட்ட 186
▁குழந்தைகளை 186
▁சிம்ப 186
▁சை 186
▁டெல்லி 186
▁தரப்பின 186
▁தேர்ந்தெடுத்த 186
▁தொழிலில் 186
▁நித்திய 186
▁நிறுவனத்தை 186
▁நோய்கள் 186
▁பசிபிக் 186
▁பயிர் 186
▁பெய்ஜி 186
▁மண்டலத்தில் 186
▁மனம் 186
▁முதன் 186
▁வரவில்லை 186
▁விழுந்த 186
▁வேறுபாடு 186
▁வேலைக்கார 186
தேச 185
பொது 185
ப்படுகின்றது 185
மளிக்கும் 185
மைக்கப்பட்ட 185
ஷ்க 185
ின்றோம் 185
ிவான 185
▁align 185
▁அண 185
▁அந்தந்த 185
▁ஓராண்ட 185
▁காணிக்க 185
▁சிதை 185
▁தனிநப 185
▁தாவீதின் 185
▁நடக்கிறது 185
▁பத்ம 185
▁புத்தக 185
▁மட்டுமன்றி 185
▁வந்திருக்கிறது 185
சங்க 184
த்தீவு 184
பவர் 184
ப்படுத்திக் 184
ப்படுத்துகிறது 184
ப்பெ 184
ரிக 184
லிலும் 184
ானே 184
ிக்கக் 184
ுமான 184
▁அநே 184
▁அவர்களால் 184
▁இவ்வளவு 184
▁எப்படிய 184
▁ஏகாதிப 184
▁ஏழைகளுக்கு 184
▁கண்டிப்பாக 184
▁கல்விய 184
▁காசா 184
▁கேட்ப 184
▁தீர்க்கத 184
▁நடைபெறுகிறது 184
▁நிலைநிறுத்த 184
▁பயன்படும் 184
▁போராடி 184
▁மேம்படுத்துதல் 184
▁மோசடி 184
▁வரைவு 184
▁விலக்கு 184
என்எஸ் 183
ட்டுகள் 183
ணர்வ 183
ழிவ 183
ாடு 183
ேற்ப 183
▁அவளை 183
▁ஆகவே 183
▁ஆய்வுக் 183
▁சென் 183
▁தகவல 183
▁தலைவர்களின் 183
▁தூண 183
▁தொலைவில் 183
▁மாற்றுத்திறன 183
▁முன்னணியின் 183
▁முறிய 183
▁மேத 183
▁யாவரும் 183
▁விதிமுறைகளை 183
லாள 182
லைக்க 182
ழிந்த 182
ஷீ 182
▁அரசியல்வாதிகள் 182
▁அரி 182
▁ஆசன 182
▁இருக்கின்றது 182
▁இலக்குகள் 182
▁உண 182
▁உணர்வுகளை 182
▁ஒன்றியத்தில் 182
▁கனடா 182
▁கருவ 182
▁காக்கும் 182
▁காயமடைந்த 182
▁கொடுக்கப்படும் 182
▁சிகிச்ச 182
▁சுன்னி 182
▁நிகழ்வில் 182
▁நினைத்த 182
▁படைய 182
▁பிரதேசங்களில் 182
▁முறையும் 182
▁மொழிகளில் 182
▁வங்கிகளின் 182
▁வருடாந்திர 182
▁வரும்போது 182
▁விதிகளை 182
▁விருந்தின 182
1989 181
ev 181
இந்தியா 181
த்திலான 181
நிறுத்த 181
ந்துகொண்டு 181
மானிய 181
ரோடு 181
ுவதாகும் 181
்து 181
▁s 181
▁அனும 181
▁இத்தாலிய 181
▁இரசாயன 181
▁இள 181
▁ஊடாக 181
▁கலந்த 181
▁கவல 181
▁கையெழு 181
▁சுதந்திரப் 181
▁சொத்துக்கள் 181
▁சௌ 181
▁தலைநகர் 181
▁தெளிவு 181
▁நிகழ் 181
▁புகைப்பட 181
▁மானியம் 181
▁மார் 181
▁மார்க்க 181
▁மாற்றிக் 181
▁மிரட்ட 181
▁மொத்தத்தில் 181
▁வங்காள 181
▁விமானத்தில் 181
▁வேண்டுமென 181
and 180
ஞ் 180
ன்களையும் 180
ப்பணி 180
ராக் 180
ருக்குத் 180
ரேய 180
ள்களை 180
விக் 180
விலே 180
ையிட 180
▁அழைப்பை 180
▁ஆலோச 180
▁இரும்பு 180
▁எஞ்சிய 180
▁ஐசி 180
▁கட்டும் 180
▁கர்ப்ப 180
▁கொண்டாடும் 180
▁கொல்கத்தா 180
▁தமிழ 180
▁துன் 180
▁நடைபெற்றன 180
▁நாளும் 180
▁பாசன 180
▁மலை 180
▁முடிவெடுத்த 180
▁வழங்குவதற்கு 180
▁வித்தியாசமான 180
▁வேகம் 180
▁வைத்துள்ளது 180
41 179
BJP 179
ap 179
க்கப் 179
ச்சார் 179
நட 179
னையில் 179
மூட்டும் 179
ர்டி 179
ளவிலான 179
வரான 179
ுக்கொள் 179
ைக்குற 179
▁அவரிடம் 179
▁அவர்களைத் 179
▁இரத்தம் 179
▁ஏதுவாக 179
▁கூட்டத்தின் 179
▁கையாள் 179
▁சகா 179
▁ஜெப 179
▁தற்பொழுது 179
▁பிளாஸ்டிக் 179
▁போக்குவரத்துத் 179
▁மாய 179
▁முதலீடுகள் 179
▁முத்திரை 179
▁வரிசையில் 179
▁வைத்திருந்த 179
▁ஸ்ரீலங்கா 179
49 178
ow 178
ஐடி 178
சமூக 178
சான் 178
பவ 178
பொருளாதார 178
வால் 178
வேண்டியது 178
▁அவரவர் 178
▁ஆதாய 178
▁இன்றைக்கு 178
▁இயக்குனராக 178
▁இலக்காக 178
▁எப்போதுமே 178
▁கடைசியாக 178
▁கண்டுபிடிக்க 178
▁கவனமாக 178
▁குளிர் 178
▁கேள்வ 178
▁சமத்துவம் 178
▁நாட்களாக 178
▁நிச்சயம் 178
▁போட்டிகள் 178
▁மோவா 178
▁வெறுப்பு 178
▁வேட்பாளராக 178
39 177
க்கிர 177
ங்களின்படி 177
டுவதாக 177
ண்ணும் 177
மோன் 177
ரியாவின் 177
ருக்குச் 177
வதையும் 177
வியின் 177
ாண்டு 177
ிருப்பதற்கு 177
ுக்குள்ள 177
▁அமைதியான 177
▁ஆதரவையும் 177
▁ஆதாரம் 177
▁ஆலோசக 177
▁இருந்தபோது 177
▁இலக்காகக் 177
▁உயரும் 177
▁உள்கட்ட 177
▁கருவியாக 177
▁காலக்க 177
▁கிராம் 177
▁சரக்குப் 177
▁செய்யு 177
▁துயர 177
▁தெரியாத 177
▁நீர்வள 177
▁முப்பது 177
▁மொத்தமாக 177
▁வாயில 177
▁விசாரிக்க 177
▁விருப்பத்தை 177
▁வெள்ளிய 177
org 176
நிதி 176
பாடுகளை 176
மையாக்க 176
லைகள் 176
ுள்ளதாகவும் 176
▁அங்கமாக 176
▁அடித்து 176
▁உதவிகளை 176
▁உறுதிமொழி 176
▁கணிப்ப 176
▁கொள்ளை 176
▁செயல்படுத்தும் 176
▁செய்யப்பட்டன 176
▁டாலர்களை 176
▁தாழ் 176
▁தெலுங்கில் 176
▁நிகழ்த்த 176
▁நிவாரணம் 176
▁நெரு 176
▁பருப்பு 176
▁மஹி 176
▁மூலமான 176
46 175
am 175
எஸ்எம் 175
ச்சல் 175
ணுவ 175
ப்பல் 175
மாட்டேன் 175
மானம் 175
முயற்சி 175
ல்தான் 175
ிப்போக 175
ிரம் 175
ூர 175
்களைக் 175
▁அரசுகளுக்கு 175
▁அறை 175
▁ஆண்டை 175
▁உணர்ந்து 175
▁எதிர்ப்புத் 175
▁கட்டுப்பாடுகள் 175
▁கணிசமாக 175
▁குழுக்களை 175
▁கொஞ்ச 175
▁சிவாஜி 175
▁தீர்த்த 175
▁தென்கொ 175
▁நாடுக 175
▁நாயகன் 175
▁நிதிநிலை 175
▁நிபந்த 175
▁பந்த 175
▁பப் 175
▁புத்தாக்க 175
▁புரட்சியின் 175
▁புள்ளியியல் 175
▁பேரை 175
▁முந்திய 175
▁வளை 175
▁விழாவை 175
▁வெளிநாடு 175
LTTE 174
ச்சல 174
மானதாக 174
மைக்காக 174
ாவால் 174
ியைப் 174
ிவிடு 174
ூட்டும் 174
▁அடைவதற்கு 174
▁அவர்களிடம் 174
▁ஆகியவற்றுக்கான 174
▁இப்படத்தின் 174
▁உதாரண 174
▁எதிர்கொண்டு 174
▁ஏறக்குறைய 174
▁கன்ன 174
▁குறைபாடு 174
▁கொடுக்கிறது 174
▁சிலி 174
▁செய்தால் 174
▁தந்தை 174
▁தொட்ட 174
▁தொண்டு 174
▁நேரமும் 174
▁பங்குகள் 174
▁படகு 174
▁பத்திரிகையாள 174
▁பிரமாண்டமான 174
▁புறநகர் 174
▁பெற்றுள்ளனர் 174
▁பொறுப்பான 174
▁மின 174
▁முற்றுப்புள்ளி 174
▁வசூல் 174
▁வழங்குவதற்கான 174
▁வெளிப்படுத்தும் 174
▁வேட்பாளர்கள் 174
ணியை 173
தவிர 173
ப்பதில்லை 173
ரங்கு 173
ர்தன் 173
ுவி 173
ைகளின்படி 173
ோபா 173
▁அங்கீகார 173
▁அமைப்பது 173
▁ஆகவும் 173
▁இப்பிர 173
▁இல்லையா 173
▁என்கிறார்கள் 173
▁எளிதாக்க 173
▁செய்தார்கள் 173
▁ஜனாதிபதியின் 173
▁தமிழர் 173
▁துறைகளிலும் 173
▁துறையின 173
▁பத்த 173
▁பிற்ப 173
▁பொருளாதாரக் 173
▁மனிதகுல 173
▁மேட 173
▁மையங்களை 173
▁யோர்க் 173
▁ரஷ்யாவின் 173
▁விண்வெள 173
▁ஸ 173
டிக்கொண்ட 172
தாஸ் 172
ன்பே 172
ன்றி 172
ப்படுக 172
மைத் 172
லங்க 172
லிசம் 172
ாமி 172
ில்லாத 172
ிஸ் 172
ீப் 172
▁ஆய்வுகள் 172
▁உயர்த்தி 172
▁உள்ளவர்கள் 172
▁எழுதினார் 172
▁கடவுள் 172
▁கலந்துகொண்டனர் 172
▁கழ 172
▁காந்த 172
▁செயல்படு 172
▁செயல்படுகிறது 172
▁ஜோடி 172
▁திறக்க 172
▁நடவடிக்கைகளும் 172
▁நாலு 172
▁நிர்வாகக் 172
▁நிலவர 172
▁பின்வாங்க 172
▁பெப்ரவரி 172
▁பெற்றான் 172
▁வணக்கம் 172
▁வரவேண்டும் 172
▁வாக்குப்பதிவு 172
▁வாரங்களுக்கு 172
▁விண்ண 172
ich 171
ra 171
க்கீ 171
டுக்கு 171
ப்பாய் 171
ர்களோ 171
வியல் 171
ிப்பத 171
ிப்பா 171
ுட் 171
ைக்குத் 171
▁அனுபவங்களை 171
▁ஆண் 171
▁இருக்கின்ற 171
▁உலகத்தின் 171
▁எவ்வ 171
▁ஒதுக்கி 171
▁கல் 171
▁கொண்டிருப்பது 171
▁கோபம் 171
▁செய்துள்ளார் 171
▁செய்யாத 171
▁செலவை 171
▁ஜப்பானின் 171
▁தோழ 171
▁நியமிக்க 171
▁நூற 171
▁பகுதியிலும் 171
▁பொருளாதாரப் 171
▁மற 171
▁மாற்றியமை 171
▁முத்திர 171
▁முன்னிலையில் 171
▁முறைகே 171
▁யோசனை 171
▁வழக்குகள் 171
▁வழங்கு 171
▁வழிகாட்டுத 171
▁விரு 171
▁விரும்பிய 171
▁வேடத்தில் 171
ab 170
ஃப 170
இஸ் 170
க்கொண்டு 170
ங 170
திக 170
ந்தம் 170
ந்திரா 170
பம் 170
ப்படுவதில்லை 170
ழிய 170
ஸ்தானில் 170
ிப்புகள் 170
ெயின் 170
▁அச்சம் 170
▁அவனைப் 170
▁உணவ 170
▁எஜ 170
▁எடுத்துக்கொண்டு 170
▁கற்பன 170
▁கற்ற 170
▁குல 170
▁சோசலிசக் 170
▁திடீரென 170
▁திரைப்படம் 170
▁துரத்த 170
▁நவம்பரில் 170
▁நிறுவனத்திற்கு 170
▁பயங்கர 170
▁பயன்பாட்ட 170
▁பரிவர்த்த 170
▁பெற்றனர் 170
▁வசதிய 170
▁வசூல 170
▁வழிமுறைகளை 170
▁வெளிநா 170
▁ஹெக்டேர் 170
0. 169
51 169
EN 169
GB 169
de 169
ht 169
க்கப்பட்டுள்ளன 169
ப்படைகள் 169
ப்போவதாக 169
மறை 169
வியா 169
ஸா 169
ித்திர 169
ிரியான 169
ிலிய 169
ேத 169
்களுக்கான 169
▁அடைந்தது 169
▁அபிவிருத்த 169
▁அமர்ந்த 169
▁இற்கு 169
▁இஸ்லா 169
▁உரையின் 169
▁எப் 169
▁ஏற்படுத்தியது 169
▁காப்பீட்டுத் 169
▁கொண்டன 169
▁கொண்டவை 169
▁சிம் 169
▁செய்வதாக 169
▁டிரை 169
▁தத்துவ 169
▁தொடங்குவதற்கு 169
▁பரிவர்த்தனை 169
▁மறக்க 169
▁மீட்ப 169
▁மெகாவாட் 169
▁லெ 169
▁வசதியாக 169
▁வந்தால் 169
▁வரம்பு 169
த்திற்குள்ள 168
ந்துகொள் 168
மிட்ட 168
ாரில் 168
ுவருக 168
ைத்தவிர 168
▁h 168
▁அனுப்பப்பட்ட 168
▁அம்சங்களை 168
▁ஆஃப் 168
▁ஆகியவையும் 168
▁இருக்கக் 168
▁ஈர்க்க 168
▁ஒன்றுதான் 168
▁கருவிகளை 168
▁கார்ப்ப 168
▁கிடைக்கிறது 168
▁குடியிருப்ப 168
▁சந்தேகம் 168
▁சராசரியாக 168
▁செய்துள்ளன 168
▁திசையில் 168
▁தேவர 168
▁தொலைத் 168
▁தோட்டத் 168
▁போர்க் 168
▁மீன 168
▁வாலி 168
▁வில்ல 168
▁வேகத்தில் 168
ize 167
ung 167
ப்பட்டவர்கள் 167
மிக 167
ினரை 167
ேயா 167
▁அறிக்கைகளை 167
▁ஆராய்ச்சிக் 167
▁ஒப்புக்கொள்ள 167
▁கிடைக்கவில்லை 167
▁குறிக்கோ 167
▁கோல் 167
▁செள 167
▁பிராந்தியம் 167
▁மன்னர் 167
▁மாணவ 167
▁வாழ்ந்த 167
▁விவரித்தார் 167
▁வெளிப்படுத்திய 167
பாடு 166
ப்படுத்தியது 166
றுக்க 166
ஹி 166
ேயே 166
ைகளே 166
▁அனு 166
▁அப்பாஸ் 166
▁அலுவலகத்தில் 166
▁இந்தியன் 166
▁இரங்க 166
▁இறங்கிய 166
▁எந்தத் 166
▁கம 166
▁காட்ச 166
▁கிற 166
▁கூறியுள்ளனர் 166
▁சமுதாயத்தை 166
▁சாய் 166
▁செலுத்தினார் 166
▁சேர்த்துக் 166
▁திட்டமான 166
▁துறைமுகம் 166
▁நடவடிக்கையின் 166
▁நாடுகளைச் 166
▁நானோ 166
▁நுண்ணறிவு 166
▁பரிமாறிக் 166
▁பழக்க 166
▁பார்க்கும்போது 166
▁பிராந்தியத்தின் 166
▁பிரிட்டனில் 166
▁பெற்றுள்ளன 166
▁போராடும் 166
▁மருத்துவம் 166
▁மாணவர்களை 166
▁முன்னேற்றத்தை 166
▁வலிமையான 166
▁வலிமையை 166
▁வாரணாசி 166
▁வெளியிட்டு 166
▁வேலையை 166
63 165
டுகின்றன 165
ட்சியம் 165
ண்டி 165
தீவிர 165
மிதா 165
ஷ்ட் 165
ார்பு 165
ிக்கத் 165
ிப்பதற்கும் 165
ிற்குக் 165
ுகோ 165
▁அதிகாரப்பூர்வ 165
▁அவர்களுக்குப் 165
▁இணைக்கப்பட்ட 165
▁இருந்ததை 165
▁உரையாட 165
▁ஊட்ட 165
▁எச் 165
▁காஷ்மீரில் 165
▁கீழ்கண்ட 165
▁குஜராத்தில் 165
▁சமூகத் 165
▁சற்றே 165
▁சாசன 165
▁சாம 165
▁சுற்றியுள்ள 165
▁செய்கிறார் 165
▁தடுப்பூசி 165
▁தெருக்களில் 165
▁நீண்டகாலமாக 165
▁பங்கேற்கும் 165
▁பங்கேற்று 165
▁பார்த்துக் 165
▁பியூ 165
▁புரிய 165
▁பெற்றுக்கொள்ள 165
▁மறைந்த 165
▁மீறிய 165
▁வகைகள் 165
▁வாக்கில் 165
▁விளையாட்டுப் 165
▁வேலைக்கு 165
ou 164
டாக 164
ப்புச் 164
ரவு 164
ர்தல் 164
ற்றது 164
லானது 164
லாய 164
வோருக்கு 164
ாரே 164
ாலான 164
▁அலுவலகங்கள் 164
▁ஆராய்ச்சிய 164
▁இடம்பெறும் 164
▁இராணுவத்தில் 164
▁எழுதப்பட்ட 164
▁குடிமக்களின் 164
▁கைகளில் 164
▁சட்டத்திற்கு 164
▁சிவப்பு 164
▁செய்திகளை 164
▁செய்துகொண்ட 164
▁செய்வதற்கும் 164
▁தனுஷ் 164
▁தலைமைத் 164
▁தென்கிழக்கு 164
▁பஞ்சாயத்து 164
▁பிரச்சனைகளை 164
▁முனைவோர் 164
▁மெய்நிகர் 164
▁யாத 164
▁ரூப 164
▁விஜ 164
▁விருந்த 164
▁விவரி 164
▁ஸ்ரீகாந்த் 164
73 163
ஸ்பெ 163
ாட்சி 163
ாளர்களுக்கும் 163
ுவிடு 163
ைகளிலிருந்து 163
▁அஞ்சலக 163
▁அந் 163
▁அவருடன் 163
▁அவரைப் 163
▁ஆன் 163
▁ஆலைகள் 163
▁இதனைத் 163
▁இருக்கவில்லை 163
▁ஒருவன 163
▁கல்வியை 163
▁காமெ 163
▁சிதற 163
▁சூர்ய 163
▁சொத்துக்களை 163
▁தடுப்பதற்கு 163
▁துருவ 163
▁தூக்க 163
▁நன் 163
▁பலன 163
▁பாழ 163
▁மறுத்து 163
▁ரீதியிலான 163
▁லாப 163
▁வருவதால் 163
▁வழங்கப்பட 163
▁வெளியிடப்பட்டது 163
▁ஹரி 163
சித்து 162
ண்டர் 162
திகார 162
நமது 162
ப்பால் 162
மணி 162
மாட்டார்கள் 162
முயற்சிய 162
லாக்கம் 162
வதாகக் 162
வையாகும் 162
ாரையும் 162
ாவைச் 162
ுத்துறை 162
▁ஆட்சே 162
▁இழக்க 162
▁ஊழியர்களின் 162
▁எரி 162
▁ஒன்றையும் 162
▁கருத்துத் 162
▁கற்றல் 162
▁காணலாம் 162
▁கிராமப் 162
▁கிழக்குப் 162
▁கூட்டணியின் 162
▁கையை 162
▁சிங்கா 162
▁சிந்திக்க 162
▁படைகளுக்கு 162
▁மாவட்டம் 162
▁முதலாவதாக 162
▁முன்க 162
▁முயற்சியின் 162
▁வருவாயை 162
▁வைக்கப்பட்டுள்ள 162
காசம் 161
க்கப்பட்டன 161
க்குழுவ 161
டுகிறோம் 161
திகளின் 161
னால்தான் 161
னிச 161
மாற்ற 161
மாஸ் 161
மிடையே 161
வர்ட் 161
ிக்கும்போது 161
ியர்கள் 161
ிருக்கிறான் 161
▁அதிவேக 161
▁அறிகுற 161
▁அவர்களுக்குக் 161
▁ஆகியவற்றைக் 161
▁இரயில்வே 161
▁உய 161
▁உலகத்தில் 161
▁ஒருமித்த 161
▁கங்க 161
▁கவனிக்க 161
▁கோடிய 161
▁சேரு 161
▁தலைப்ப 161
▁தியேட்ட 161
▁பகுத 161
▁படங்களுக்கு 161
▁பணிகளுக்கு 161
▁மட்டத்தில் 161
▁மன்றம் 161
▁மேய 161
▁மை 161
▁லண்டனில் 161
▁வழிகளில் 161
▁விரிவ 161
▁விவகாரம் 161
▁வீரர் 161
▁வெட்டி 161
ref 160
ud 160
ஆக 160
ணிகள் 160
புத்திர 160
ப்டர் 160
ப்பைக் 160
ப்போவதில்லை 160
ிரிய 160
ிவருகிறது 160
ீச 160
ீட 160
▁அண்மை 160
▁அன்ன 160
▁அறியாத 160
▁அறுவடை 160
▁இணைப்புகள் 160
▁இன்னுமொரு 160
▁உத்தரப் 160
▁உருவாகிய 160
▁எடுத்துக்கொண்ட 160
▁எண்ணிக்க 160
▁குட்டி 160
▁சமாதானம் 160
▁சார்பாக 160
▁செல்கிறது 160
▁தருகிறது 160
▁தேவைகளுக்கு 160
▁பலமுறை 160
▁பெறுகிறது 160
▁மாறியுள்ளது 160
▁வடிவ 160
▁விட்டார் 160
ov 159
ஊ 159
எச் 159
க்கட்ட 159
சமான 159
சார்ந்த 159
ணா 159
தாகவே 159
த்தன் 159
ற்கான 159
ற்றின் 159
ாரா 159
ுக்களும் 159
ுடா 159
ுவான் 159
▁அடக்குமுறை 159
▁அண்மைய 159
▁அவசியமான 159
▁அவரும் 159
▁இணைப்ப 159
▁இராணுவத்தினர் 159
▁உறுப்பினர்களின் 159
▁கடலில் 159
▁கண்டறியும் 159
▁கருணா 159
▁கூறவில்லை 159
▁கொண்டால் 159
▁கோவா 159
▁சின் 159
▁சுனாமி 159
▁செய்யுமாறு 159
▁ஜல 159
▁தகுத 159
▁தவறிவ 159
▁நியமனம் 159
▁பட்டியல 159
▁பணியாளர்கள 159
▁பிரிவுகளை 159
▁பூர் 159
▁பெற்றவர்கள் 159
▁போட்டிகளில் 159
▁மழ 159
▁மாதங்களாக 159
▁முடிவடைந்த 159
▁முன்னுரி 159
▁வருவாய 159
▁வளர்க்க 159
▁வெளியேறும் 159
64 158
sw 158
குற 158
சேன் 158
மனித 158
ர்ச்ச 158
ிகளுக்காக 158
ிவந்த 158
ைகளான 158
ையிட்டார் 158
ையிலான 158
▁அதிலும் 158
▁அப்போ 158
▁ஆதரவைப் 158
▁இயலும் 158
▁உயர்கல்வி 158
▁உறுப்பினர்களும் 158
▁உலகை 158
▁கட்டப்பட்ட 158
▁காலக்கட்டத்தில் 158
▁கொள்ளப்பட்ட 158
▁சுதந்திரக் 158
▁சுற்றுலாப் 158
▁செயல்கள் 158
▁துறைமுகங்கள் 158
▁நல்லிண 158
▁நோக்கு 158
▁படையெடுப்பு 158
▁பாச 158
▁பிரிவை 158
▁மூடப்பட்ட 158
▁மேக் 158
▁வங்கதேச 158
▁விமானத் 158
97 157
man 157
க்ஷ 157
டைந்துள்ளது 157
ப்படுவதுடன் 157
மாக்கப்பட்ட 157
மைப்பு 157
லாக்க 157
ழிவு 157
ஷ்ய 157
ிவ் 157
ீர்ப்பு 157
ேட் 157
”, 157
▁அசீ 157
▁அப்துல் 157
▁கட்டம் 157
▁கற்க 157
▁குறியீடு 157
▁குறைப்பது 157
▁குறையும் 157
▁திறன்களை 157
▁தீய 157
▁தீர்வை 157
▁தொலைக்காட்ச 157
▁நல்லது 157
▁நிகழ்ச்சிகளை 157
▁நிதியுத 157
▁நிறைவேற்றும் 157
▁பக்கத்தில் 157
▁பாகிஸ்தான 157
▁போகிறது 157
▁மின்சக்தி 157
▁முகா 157
▁மேற்பார்வ 157
▁வாசக 157
▁விக 157
▁விசாரணையில் 157
▁விஜயகாந்த் 157
▁வைத்தது 157
ion 156
கூட 156
ங்கால 156
சாரா 156
த்தொகை 156
ம்கூட 156
ரள 156
ரஸ் 156
லாகும் 156
ிறான் 156
ுவதற்க 156
ைகளுக்குத் 156
▁அமீர் 156
▁இந்தியர்களின் 156
▁இரத்து 156
▁ஈடுபடும் 156
▁கலந்துகொண்ட 156
▁காலகட்ட 156
▁கேள் 156
▁சிறிதும் 156
▁சிறுபான்மைய 156
▁செயற்கைக்கோள் 156
▁செய்கின்றன 156
▁சேவையில் 156
▁மேம்படுத்தி 156
▁யாழ்ப்பாண 156
▁ரமேஷ் 156
▁ரைஸ் 156
▁வைக்கப்பட்டது 156
▁ஷேக் 156
www 155
சர்வதேச 155
சின 155
டிகளை 155
டுவதற்காக 155
த்துக்கள் 155
னிடம் 155
பாதுகாப்பு 155
ப்பகுதிகளில் 155
ப்பதிலும் 155
ப்பவர்கள் 155
மிரு 155
மையுள்ள 155
வதற்க 155
வதும் 155
ாதது 155
ிருப்பார் 155
ூக 155
▁அணுகுமுறையை 155
▁அறிக்கையின் 155
▁அற்புத 155
▁அவர்களுடன் 155
▁அவ்வப்போது 155
▁இக 155
▁இவ் 155
▁உந்துதல் 155
▁குடிமக்களுக்கு 155
▁குரோ 155
▁குற்றம்சாட்ட 155
▁கேந்திர 155
▁கொடுப்பது 155
▁சென்றனர் 155
▁தவறிய 155
▁திரைக்கதை 155
▁நிறுவப்பட்ட 155
▁போராட்டங்கள் 155
▁மிகச்சிறந்த 155
▁முதலாம் 155
▁மேற்கோ 155
▁லங்கா 155
▁வடக்கில் 155
▁வருடங்களாக 155
அனை 154
டான் 154
ண்டன் 154
தாலும் 154
பிட 154
லர்கள் 154
▁அதிகரிப்பது 154
▁அதிகாரபூர்வமான 154
▁அந்தஸ்த 154
▁அப்படிப்பட்ட 154
▁இருப்பவர்கள் 154
▁உலகச் 154
▁என்பதைத் 154
▁ஒருவரான 154
▁கட்டமைக்க 154
▁கூட்டுற 154
▁கைக்க 154
▁கையாளும் 154
▁சகாப்த 154
▁சிறுபான்மை 154
▁தாக்கும் 154
▁துணி 154
▁நடாத்த 154
▁பிரித்த 154
▁பூண்ட 154
▁பேட்ட 154
▁மீனவர்கள் 154
▁முற்றிலுமாக 154
▁ராக 154
PSG 153
க்கத்தில் 153
ந்தான் 153
ன்னா 153
ப்படுத்தினார் 153
ஹே 153
ாட்டுக் 153
ாதா 153
ியாவின் 153
ிருக்கக் 153
ுக்குரிய 153
ூன் 153
ையாகக் 153
▁அடுக்க 153
▁அமெரிக்கர்கள் 153
▁அழகு 153
▁ஆணையர் 153
▁இப்படம் 153
▁இறக்க 153
▁எண்ணிக்கையிலான 153
▁கருதிய 153
▁குரலில் 153
▁செம்ம 153
▁தனித்த 153
▁நானே 153
▁நிக 153
▁நிகழ்த்திய 153
▁நிலத்தை 153
▁பங்குச் 153
▁பதிலளிக்க 153
▁பத்திரிகையில் 153
▁பின்தொட 153
▁பெரும்பான்மையான 153
▁போட்டியிடும் 153
▁மதிப்பை 153
▁மற்றம் 153
▁மற்றவர்கள் 153
▁முன்னைய 153
▁லாபம் 153
▁வாழ்வை 153
ன்களில் 152
ப்பினால் 152
ப்போன 152
முடைய 152
முறையை 152
லையை 152
ல்லி 152
வாமல் 152
ில்லா 152
▁for 152
▁அழக 152
▁இயல்பான 152
▁உள்ளடக்க 152
▁கட்டுமானப் 152
▁கீழ்க்கண்ட 152
▁கைச்சாத்த 152
▁கொள்ளப்படும் 152
▁செய்யப்பட்டனர் 152
▁தகுந்த 152
▁தபால் 152
▁தாக்கி 152
▁தினமும் 152
▁தெற்காசிய 152
▁தேர் 152
▁நிர்ப்ப 152
▁நிலவரப்படி 152
▁பீட்டர் 152
▁பெல 152
▁மக்களையும் 152
▁மாகாணத்தில் 152
▁மாற்றுவதற்கு 152
▁மிகப்பெ 152
▁மூலதனம் 152
▁லடாக் 152
▁லூ 152
▁வாய்ப்பாக 152
▁விசா 152
.. 151
47 151
டியே 151
புர 151
ப்படுதல் 151
ப்படுவதால் 151
மடைய 151
ழும் 151
வக 151
ஷே 151
ாட்சியில் 151
ுதலில் 151
▁இவர்களுக்கு 151
▁எரே 151
▁கடிதத்தில் 151
▁கட்டுப்பா 151
▁கண்கள் 151
▁கார்த்த 151
▁குடிநீ 151
▁கேள்விகள் 151
▁கைக 151
▁கொரியா 151
▁செவ்வாய் 151
▁ஜனவரியில் 151
▁ஜா 151
▁திறன்கள் 151
▁தைரிய 151
▁தொடர்பாகவும் 151
▁நீதிமன்றத்தின் 151
▁நுகர்வ 151
▁பதக்கம் 151
▁பாக்தாத் 151
▁பெயர்ந்த 151
▁பெருமளவிலான 151
▁முறையிலான 151
▁முழக்க 151
▁வீரர்களுக்கு 151
▁வெடிப்ப 151
▁வெள்ளிக்கிழமை 151
ang 150
az 150
செய்யப்பட்ட 150
த்துத் 150
நகர் 150
நிலைய 150
நூறு 150
ரியும் 150
ிகே 150
ினரும் 150
ெடுக்கப்பட்ட 150
ொள் 150
▁அங்கிருந்து 150
▁அணை 150
▁அமைந்து 150
▁அமைப்பாக 150
▁அலி 150
▁ஆபத்தை 150
▁ஆரோக்கியம் 150
▁இசைய 150
▁இதேபோன்ற 150
▁இராணுவக் 150
▁உருவாக்கப்பட்டு 150
▁ஒடி 150
▁ஒருமை 150
▁காரியம் 150
▁கொள்வதற்கான 150
▁டொல 150
▁தவிர்த்த 150
▁தூரம் 150
▁தெரிவிக்கின்றன 150
▁நிர்வாகிகள் 150
▁பதப்படுத்தும் 150
▁பயணத்தில் 150
▁புள்ளிவிவர 150
▁மறைத்து 150
▁மாதிரியான 150
▁முடுக்க 150
▁முட்ட 150
▁வழக்கை 150
▁• 150
articles 149
è 149
டுகையில் 149
த்தக்கது 149
ப்படும்போது 149
ராது 149
ராய் 149
லங்கள் 149
வசம் 149
விச 149
விலான 149
ாக்கள் 149
ாதிபத 149
ாராக 149
ிக்கப்பட்டார் 149
‘ 149
▁அனுமதிக்கப்பட்ட 149
▁அமைப்பதற்கு 149
▁அம்சம் 149
▁அரசுத்த 149
▁அவரால் 149
▁ஆதாரங்களை 149
▁ஆனது 149
▁இருப்பதற்கு 149
▁எழுதியுள்ளார் 149
▁கரீ 149
▁காட்சியை 149
▁குழந்த 149
▁கைத 149
▁சகோதரர் 149
▁சந்ததிய 149
▁சாட்சி 149
▁சீரிய 149
▁சுவாச 149
▁செய்யத் 149
▁தலைசிறந்த 149
▁துப்புரவு 149
▁நியாயம் 149
▁நிற 149
▁நிலவிய 149
▁பகுதியான 149
▁பழமையான 149
▁பிறகும் 149
▁போதை 149
▁மது 149
▁வரலாற்றை 149
▁விழிப்பு 149
▁வெளியீட்டு 149
▁வைத்துள்ள 149
▁ஸ்ட்ரீட் 149
., 148
195 148
op 148
இந்தியாவில் 148
கடந்த 148
க்கத்தின் 148
ங்களிடம் 148
த்தினரின் 148
னப் 148
ன்றும் 148
பணி 148
பிக்க 148
ரிக்கை 148
ஷ்டம் 148
்கோ 148
▁அன்ற 148
▁அமைத்தல் 148
▁அறு 148
▁இன்றும் 148
▁இப்பகுதியில் 148
▁இப்படத்தில் 148
▁எண்ணம் 148
▁ஏறி 148
▁ஒருபுறம் 148
▁ஒளிப்பதிவு 148
▁குறிக்கோள 148
▁குறுக்க 148
▁செயல்முறை 148
▁டீ 148
▁தந்து 148
▁தளமாக 148
▁தளவாட 148
▁நடிகைகள் 148
▁நாயகி 148
▁நிர்வக 148
▁நிற்கிறது 148
▁பாரம்பரியத்தை 148
▁பிரதிபலிக்கும் 148
▁போக்குவரத்தை 148
▁போட்டியை 148
▁மரப 148
▁மாட்டார்கள் 148
▁மாதத்திற்கு 148
▁மாநிலங்களிலும் 148
▁மூலமாகவும் 148
▁மேற்கொண்டது 148
▁யும் 148
▁வணங்க 148
▁வருடங்களுக்கு 148
▁விரிவு 148
74 147
PS 147
சட்ட 147
சுவா 147
ச்சே 147
தொழில 147
நாளை 147
ர்கோ 147
லெ 147
வித்த 147
ாலத்தில் 147
ிருப்பு 147
ிலி 147
ுதா 147
ுள்ளார்கள் 147
▁அதிகாரங்களை 147
▁ஆண்டுதோறும் 147
▁ஆராய்ந்து 147
▁ஆலோசனைக் 147
▁இப்படிச் 147
▁இயக்குந 147
▁எழுதியது 147
▁ஒருவருக்கு 147
▁கிளி 147
▁கிளை 147
▁கொண்டிருந்தனர் 147
▁சிலை 147
▁சுருக்க 147
▁ஜீவ 147
▁டோனி 147
▁தந்துள்ள 147
▁தமிழர்கள் 147
▁தாய்லாந்து 147
▁தேட 147
▁நஷ்ட 147
▁நான 147
▁புதுச்சேரி 147
▁பெருகி 147
▁பொருட்படுத்த 147
▁வரையறை 147
▁வரையிலும் 147
▁வாடிக்கையாள 147
▁விபத்து 147
ac 146
uv 146
த்துக்குக் 146
படுத்தும் 146
பவர்கள 146
ள்க 146
ாண்டில் 146
ொழுத 146
▁அந்தஸ்து 146
▁அனுமதிய 146
▁ஆட 146
▁ஆராய் 146
▁இந்தியில் 146
▁இயக்கத்திற்கு 146
▁இரகசியமாக 146
▁இல்லைய 146
▁உயர்ந்தது 146
▁உலகளவில் 146
▁ஒன்றான 146
▁கட்டுமானம் 146
▁கழுத 146
▁சதுர 146
▁திருச்சி 146
▁தொடங்குகிறது 146
▁நேரத்தை 146
▁பர் 146
▁புள்ளிகள் 146
▁போட்டியி 146
▁மண்ண 146
▁மலிவான 146
▁முயல்க 146
▁முற்போக்கான 146
▁யாவ 146
▁வாழ்க 146
▁விபத்தில் 146
ட்ப 145
தற்க 145
பிசி 145
மின்மை 145
வர்களால் 145
வர்த்த 145
வேலர் 145
ாட்டம் 145
ாதான் 145
ித்துக்கொண்ட 145
ினோ 145
ிவிட்டனர் 145
ீன் 145
ீல் 145
▁d 145
▁இழிவு 145
▁உருவாக்கம் 145
▁எளிதான 145
▁கண்களுக்கு 145
▁கண்காணிக்க 145
▁சஞ்சய் 145
▁சுதந்திரமாக 145
▁செயல்களை 145
▁டூ 145
▁தட்டு 145
▁தொடர்கிறது 145
▁நிறுத்திய 145
▁நிறைவேற 145
▁நூற்றாண்ட 145
▁பயந்து 145
▁பாட்ட 145
▁பெருங்கடல் 145
▁போராட்டத்திற்கு 145
▁மக்களால் 145
▁மனா 145
▁மருந்துகளை 145
▁மறுநாள் 145
▁மாவோயி 145
▁முகமது 145
▁வற்புறுத்த 145
▁வார்த்தைகளில் 145
UPA 144
ork 144
ter 144
ட்களை 144
ண்டை 144
ப்பதாகவும் 144
மற 144
லத்தில் 144
விடாமல் 144
ாகம் 144
ாலின் 144
ிக்கின்றது 144
ிடமும் 144
ுக்கென 144
ெடுப்பு 144
▁அறிவுசார் 144
▁அவச 144
▁அவ்வளவு 144
▁ஆந்திரப் 144
▁ஆய்வில் 144
▁இத் 144
▁இந்தியாவிற்கும் 144
▁இருப்பதாகக் 144
▁இறங்கி 144
▁கண்டேன் 144
▁கருது 144
▁கூட்டணியை 144
▁கெடு 144
▁கெளரவ 144
▁கொய 144
▁சந்தையை 144
▁சர்மா 144
▁தர்க்க 144
▁தாய்மா 144
▁திருப்பு 144
▁துறைகளின் 144
▁நாடான 144
▁நிறுவனமும் 144
▁நேரு 144
▁பிடிக்கும் 144
▁பிரக 144
▁பிரிக்க 144
▁பிரிவுகளின் 144
▁பெற்றிருந்த 144
▁முன்வ 144
▁முறைப்படி 144
▁மூங்கில் 144
54 143
58 143
tr 143
காவ 143
க்தி 143
சுதந்திர 143
டைக 143
போன் 143
மில்லா 143
ரையில் 143
லாந்து 143
ளைய 143
வதில்லை 143
வாசி 143
▁அமைச்சராக 143
▁அமைப்புகளை 143
▁அம்ப 143
▁அறியும் 143
▁அற்ப 143
▁இணைத்து 143
▁இயேசுவ 143
▁இலவசமாக 143
▁உணவுத் 143
▁உருவாகி 143
▁கரை 143
▁காசி 143
▁காணப்பட்டது 143
▁சம்பந்தமான 143
▁சேகரி 143
▁ஜுன் 143
▁தகர்க்க 143
▁தவிர் 143
▁தீட்ட 143
▁தீர்வுகள் 143
▁தொடங்கினார் 143
▁படமாக்க 143
▁பரிசோதனைகள் 143
▁பலமான 143
▁பாதித்த 143
▁பாதுகாத்து 143
▁பார்வையை 143
▁பிரேசில் 143
▁புரு 143
▁மனிதர் 143
▁மற்றைய 143
▁முன்னதாகவே 143
▁முரண்பாடுகள் 143
▁மேற்கொள்வது 143
▁வடிவமை 143
▁வரிசை 143
▁வாழ்வின் 143
ஞ்சி 142
ண்ப 142
தைவிட 142
பார்க்க 142
ப்பட்டபோது 142
மாக்கி 142
முறையும் 142
மூலம் 142
ரியம் 142
ர்களைத் 142
றியது 142
ளவும் 142
வனோ 142
வளம் 142
▁அந 142
▁அரேபியா 142
▁இடங்களுக்கு 142
▁இடைவிட 142
▁இயக்கி 142
▁குப்ப 142
▁கூறுகின்றன 142
▁கைகளை 142
▁சரக்குகள் 142
▁சரிந்து 142
▁செயலாற்ற 142
▁ஜவ 142
▁தன்னார்வ 142
▁திருவிழா 142
▁நாற்பது 142
▁நினைத்து 142
▁நிலையத்தை 142
▁பங்காற்ற 142
▁மதுரை 142
▁மெல்லிய 142
▁யூனிய 142
▁வடிவமைப்ப 142
▁வயதில் 142
▁விண்வெளித் 142
''. 141
53 141
68 141
ak 141
ச்சார 141
ச்செ 141
ட்டோ 141
ன்னை 141
பவர்களின் 141
ப்பாட்டில் 141
ப்பெற 141
ரிங் 141
ரியை 141
ரைய 141
வூ 141
ாமல 141
ுவே 141
▁அவரைக் 141
▁அவள 141
▁ஆய்வாளர்கள் 141
▁இருப்பார்கள் 141
▁உயர்நிலை 141
▁ஒழுக்க 141
▁கடத்தல் 141
▁கருணை 141
▁காரணமாகும் 141
▁காலனி 141
▁காவல்துறை 141
▁காஷ்மீ 141
▁கூட்டமைப்ப 141
▁கொண்டவர்கள் 141
▁சங்கங்கள் 141
▁சொத்துக்க 141
▁தலைப்பு 141
▁தாங்கிய 141
▁நிரம்பிய 141
▁பழுது 141
▁பாசா 141
▁புத்து 141
▁மீத 141
▁முடிந்ததும் 141
▁வறுமையில் 141
▁வழங்கல் 141
▁வழியே 141
▁விவாக 141
67 140
ee 140
தாக்க 140
நாட்டை 140
ன்ட 140
வாகும் 140
ஸார் 140
ாவிலுள்ள 140
▁அனைத்துமே 140
▁ஆவணம் 140
▁ஐரோப்பாவின் 140
▁கஜ 140
▁கல்யாண் 140
▁காப்ப 140
▁குற்றங்களை 140
▁குள 140
▁கூட்டங்கள் 140
▁கோதுமை 140
▁சஞ்ச 140
▁தங்கி 140
▁தருவதாக 140
▁திரிபுரா 140
▁தொழிலாளி 140
▁நிலவுகிறது 140
▁நூற்ற 140
▁நெற 140
▁பகுப்பாய்வு 140
▁படேல் 140
▁பத்திரிகையின் 140
▁பார்க்கவும் 140
▁பிரபலமான 140
▁மித 140
▁மெகா 140
▁ஷங்கர் 140
1996 139
என்ன 139
க்கலை 139
ஜூ 139
ணத்தில் 139
தொடர் 139
நாளில் 139
போதே 139
ப்படுவார் 139
ராக்க 139
ராமல் 139
ழிந்து 139
ஸும் 139
ாகியுள்ளது 139
ித்தும் 139
ிப்பார் 139
ிற்குரிய 139
ுகிறான் 139
ெங்கிலும் 139
்களைப் 139
▁அடையாளமாக 139
▁ஆதரிக்கும் 139
▁ஆர்வத்துடன் 139
▁இடைவெளியை 139
▁எஃப் 139
▁ஒன்றின் 139
▁கலாச்சாரத்தை 139
▁கிரிம 139
▁கூட்டுப் 139
▁கொண்டா 139
▁கொண்டாடு 139
▁சக்கர 139
▁சித்திர 139
▁தத்த 139
▁தென்னிந்திய 139
▁தேவாலய 139
▁நகரமான 139
▁நண்பர் 139
▁நம்பக 139
▁நாடக 139
▁நிதிச் 139
▁நிலையத்தின் 139
▁பணியிட 139
▁பண்ட 139
▁பத்தாண்ட 139
▁பின 139
▁புறம் 139
▁பொருட்கள 139
▁லக்னோ 139
▁வயத 139
▁விடை 139
▁வேண்டுமெ 139
NPA 138
nd 138
ne 138
ங்களாகும் 138
ச்சொ 138
டின 138
நீதி 138
மானவை 138
ரித்தது 138
வனாக 138
வெளி 138
ஸ்க் 138
ியூ 138
ிரே 138
ுதி 138
ுவோ 138
ோத 138
▁அரசுத் 138
▁அரிய 138
▁ஆதரித்து 138
▁ஆற்றலை 138
▁எடை 138
▁எதிர்பார்ப்பு 138
▁எல்லாப் 138
▁ஒன்றிற்கு 138
▁கட்டுப்பாடுகளை 138
▁கண்டறிந்து 138
▁கமிஷன் 138
▁கறுப்பு 138
▁கலவர 138
▁கழிவுநீர் 138
▁குடும்பத்தினர் 138
▁கைபேசி 138
▁சத்யராஜ் 138
▁செயல்திறன் 138
▁டாக்ட 138
▁திகழ் 138
▁திருத்தங்கள் 138
▁தீவில் 138
▁நேரத்திற்கு 138
▁பயன்பாட்டை 138
▁மதிப்பில் 138
▁மனிதன் 138
▁மாநாட்டு 138
▁மாநிலங்களவையில் 138
▁மாற்றுவது 138
▁முதலமைச்ச 138
▁முயல 138
▁ரவ 138
▁ரை 138
▁லெபனான் 138
▁வாக்காளர் 138
▁வாழ்வு 138
▁வினியோக 138
▁விவக 138
அவர்கள் 137
ண்க 137
ண்மை 137
த்தொட 137
ந்துள்ளார் 137
ந்தோ 137
போம் 137
யர் 137
ரவை 137
ர்த்து 137
ற்காக 137
ளோ 137
வாலை 137
ுக்காகப் 137
ெழ 137
▁அட் 137
▁அதிகாரியாக 137
▁அதிருப்தி 137
▁அமைப்பும் 137
▁அற்புதமான 137
▁அஸ் 137
▁ஆகியோருடன் 137
▁இரட்ச 137
▁உபயோக 137
▁எனப் 137
▁எருசலேமின் 137
▁கட்டட 137
▁கணக்கெடுப்பு 137
▁கண்டறிவ 137
▁குற்றச்ச 137
▁கேட் 137
▁கொண்டிருந்தன 137
▁செயல்பாட்டில் 137
▁செய்தான் 137
▁சேது 137
▁சொன்னால் 137
▁தளங்கள் 137
▁தவிர்த்து 137
▁நாட்டிலும் 137
▁நுழைந்த 137
▁பதவியிலிருந்து 137
▁பாரா 137
▁பாலா 137
▁பேசுவ 137
▁போனது 137
▁போர்ட் 137
▁முற்ற 137
▁விரோ 137
% 136
66 136
71 136
98 136
GM 136
our 136
v 136
த்தக்கதாக 136
ப்பதையும் 136
ப்பிரதேச 136
மாம் 136
மாயிற்று 136
ரிலிருந்து 136
லினில் 136
வல 136
ிங் 136
ுகளைச் 136
ெய் 136
ையாய் 136
▁அகல 136
▁அணிவகுப்பு 136
▁அனுப்பும் 136
▁அபிவிரு 136
▁அபு 136
▁அம் 136
▁அழுத்தத்தை 136
▁இயன்ற 136
▁உதவிக்கு 136
▁கார்ட 136
▁கூறப்பட்டுள்ளது 136
▁கொண்டிருப்பதாக 136
▁செய்தித்தாள் 136
▁செல்வத்தை 136
▁தரப்பில் 136
▁தரவு 136
▁துய 136
▁தோன்றியது 136
▁படிப்ப 136
▁படைப்பிரிவ 136
▁பயன்களை 136
▁பயன்படுத்துதல் 136
▁பெறுவதற்காக 136
▁மரிய 136
▁முன்வந்து 136
▁முறையிலும் 136
▁மொழியில் 136
▁யாக்கோபு 136
▁வகிக்கிறது 136
▁வந்தாலும் 136
▁வளர்ந்துவரும் 136
▁விதிக்க 136
1994 135
tp 135
ஆய 135
க்குகள் 135
னிலும் 135
பவர்களை 135
ப்த 135
ர்க்கும் 135
ல்களைத் 135
வதால் 135
வற்ற 135
ாவிட்டாலும் 135
ிகார 135
ெதிரான 135
ொள்கை 135
▁அக்கால 135
▁அடித்தளமாக 135
▁அமைப்புகளுக்கு 135
▁ஆக்கிர 135
▁ஆதி 135
▁ஆவணங்கள் 135
▁இடைவெள 135
▁இடைவெளிய 135
▁இப்படத்தை 135
▁உடன்படிக்கையின் 135
▁ஊர் 135
▁எக்க 135
▁ஓரளவு 135
▁கட்டுர 135
▁கணக்குகள் 135
▁கண்டுள்ளது 135
▁கண்ணிய 135
▁கொண்டும் 135
▁சம்மேள 135
▁தெரு 135
▁நடத்துகிறது 135
▁நடுவர் 135
▁நாட்டிலுள்ள 135
▁நிதித் 135
▁பாகமாக 135
▁புகை 135
▁மில்லிய 135
▁மேய் 135
▁மைக்கேல் 135
▁ராணுவம் 135
▁வழங்குவதில் 135
▁விளையாட்டுத் 135
▁வீட்டை 135
▁வெளிப்பாடு 135
▁வெள்ளி 135
57 134
டித்து 134
டிப்பை 134
டுகளுக்கும் 134
டுவதன் 134
தெ 134
நக 134
ந்துக 134
னெ 134
லாவ 134
லின 134
வில்லைய 134
ாக்களை 134
ாடுகள 134
ாளரும் 134
ிகளோடு 134
ிக்ஸ் 134
ித்தார்கள் 134
ினல் 134
ுக்காட்ட 134
▁அதற்கும் 134
▁அதிகரித்துக் 134
▁அமர்வ 134
▁அறிக்கையின்படி 134
▁அவனைத் 134
▁இவர்கள 134
▁எகிப்திய 134
▁ஒன்றரை 134
▁கடற்கரை 134
▁கட்டமாக 134
▁கண்டுபிடித்த 134
▁கழுவ 134
▁காணப்படுகிறது 134
▁காயமுற்ற 134
▁குறிக்கிறது 134
▁சமரசம் 134
▁சமூகத்தை 134
▁சோதனைகள் 134
▁தணிக்க 134
▁திறனாள 134
▁தொடக்கம் 134
▁தோன்றும் 134
▁பண்டிகை 134
▁பள்ளிக் 134
▁பஸ் 134
▁பிள்ளைகள் 134
▁பெளத்த 134
▁பொதுமக்களுக்கு 134
▁மதிப்பீட்டு 134
▁மீன்வள 134
▁முகத்தை 134
▁வளர்ச்சிக்கும் 134
▁வழக்கமாக 134
Q 133
st 133
னீ 133
பிஎஸ் 133
ப்படுவதாகவும் 133
ர்ஸ் 133
ழ்ச்ச 133
ஷியா 133
ஷ்டவச 133
ாரணம் 133
ிகளுக்குப் 133
ெய்ய 133
▁அதிர் 133
▁அமைக்கப்பட 133
▁அலங்கார 133
▁இணங்க 133
▁இணையாக 133
▁இந்நாள் 133
▁உதய 133
▁ஐயோ 133
▁ஒன்றிணை 133
▁ஒப்பிடும்போது 133
▁கட்சியாக 133
▁கன்சர் 133
▁கருதுகிறது 133
▁கிழக்க 133
▁குறைக்கவும் 133
▁குழுவிற்கு 133
▁கையாண்ட 133
▁கொள்ளவேண்டும் 133
▁சாதனைகளை 133
▁செக் 133
▁தடையை 133
▁தாக்குதலின் 133
▁தீபாவளி 133
▁தோற்றுவித்த 133
▁பணிபுரியும் 133
▁பராக்கிரம 133
▁பிரித்து 133
▁பெரும்பான்மைய 133
▁மதிப்பீட்டில் 133
▁மாண்ட 133
▁மாற்றியமைக்க 133
▁மிஸ் 133
▁முடிவாக 133
▁வகுத்த 133
▁வல்லமை 133
▁வழங்கவும் 133
▁வழிக 133
▁விசேஷ 133
▁விட்டுக்கொ 133
▁ஸ்டுடியோ 133
ans 132
up 132
பிடித்த 132
ப்பெற்ற 132
மாற 132
லாகாது 132
ளன 132
ுவருகிறது 132
ைகளுக்குப் 132
▁அனுமதிக்கும் 132
▁அலுவலர் 132
▁அல்லவா 132
▁அழித்து 132
▁ஆகாய 132
▁இக்கூ 132
▁இந் 132
▁இயங்கி 132
▁எகிப்தின் 132
▁என்பவர்கள் 132
▁ஏற்படுகிறது 132
▁கமா 132
▁கவிழ் 132
▁காமெடி 132
▁காவல்ப 132
▁குழாய 132
▁கொடுத்துள்ளார் 132
▁சான்றுகள் 132
▁ஜீவா 132
▁டாங்க 132
▁தாக்குதல்களில் 132
▁திட்டமும் 132
▁தீர்வுகளை 132
▁நகரின் 132
▁நெறிமுற 132
▁பச 132
▁படுக்கைகள் 132
▁பண்ப 132
▁பன்னிரண்டு 132
▁பிரசு 132
▁புதன் 132
▁புரட்சியை 132
▁மத்தியதர 132
▁மந்திரியாக 132
▁மஹ 132
▁முன்னெடுத்து 132
▁மெள 132
▁லொ 132
▁வலியுறு 132
▁விச 132
▁விட்டனர் 132
ணிப்பு 131
ப்பிற்கான 131
மிடத்தில் 131
ளைத் 131
விகள் 131
ிவருக 131
ுதல 131
ும்பி 131
ுவர் 131
ொன்று 131
▁& 131
▁அதிகளவில் 131
▁அதிகாரத்தில் 131
▁அப்புற 131
▁அவர்களைச் 131
▁ஆப்கானிய 131
▁இதற்குப் 131
▁ஐடி 131
▁கலா 131
▁குடும்பத்தின் 131
▁குறைத்தல் 131
▁சுனாம 131
▁சூழ்ச்ச 131
▁செய்தன 131
▁செல்வதற்கான 131
▁திடீரென்று 131
▁பகிர்வு 131
▁பாத்திரம் 131
▁புத்தகம் 131
▁புலனா 131
▁புலம் 131
▁மதிப்பீ 131
▁முந்த 131
▁விகிதத்தில் 131
சேக 130
டுதான் 130
ட்டார் 130
ந்தேதி 130
ப்பதால் 130
ப்பிரிவு 130
யான் 130
வண 130
ாளர்களாக 130
ீட்டின் 130
ூட்டி 130
ெரி 130
▁அரசியலை 130
▁அறிவித்து 130
▁ஆய்வகங்கள் 130
▁இசையமைப்பாளர் 130
▁எடுக்கப்பட்டு 130
▁எண்ணற்ற 130
▁கலந்துகொண்டு 130
▁காட்சிகளை 130
▁குண்டுகள் 130
▁கைப்பற்றிய 130
▁கொண்டதாகும் 130
▁சான் 130
▁சான்று 130
▁செயற்பட்ட 130
▁செல்வா 130
▁சோதனைய 130
▁ஜோர்ஜியா 130
▁துல்லியமாக 130
▁துவ 130
▁தென்னாப்பிரிக்க 130
▁தென்ப 130
▁தேடுதல் 130
▁நட்ப 130
▁நாட்கள 130
▁நிஜ 130
▁நியம 130
▁நிறுத்து 130
▁நூ 130
▁பங்கினை 130
▁பயங்கரமான 130
▁பயனுள்ளதாக 130
▁பெப்ருவரி 130
▁மட 130
▁மறைந்து 130
▁வழங்கப்பட்டன 130
61 129
ost 129
ஜித் 129
த்திற்குச் 129
பர்கள் 129
வர்களாகவும் 129
வீர 129
ாட்ச 129
ாவள 129
ிக்குத் 129
ுவிட்டார் 129
ொழுதும் 129
▁de 129
▁அதனுடைய 129
▁அதிகரிக்கச் 129
▁அதிர்ச்சி 129
▁அளிக்கப்பட 129
▁அவளுடைய 129
▁ஆகியோரை 129
▁உடல்நல 129
▁உதவியது 129
▁உந்து 129
▁ஊற்ற 129
▁எழுதுக 129
▁ஒருநாள் 129
▁ஒற்றை 129
▁கடனை 129
▁கடினமாக 129
▁கதாபாத்திர 129
▁கிர்க 129
▁கொடி 129
▁கொள்ளுதல் 129
▁சர்வாத 129
▁டன்ன 129
▁தளபத 129
▁தெளிவாகத் 129
▁படங்களின் 129
▁படுக்க 129
▁பரபர 129
▁பாதைகள் 129
▁பாத்திரத்தை 129
▁பிரி 129
▁பெரி 129
▁மின்னஞ்சல் 129
▁முன்மாதிர 129
▁ராஜீவ் 129
▁வலுவாக 129
▁வாரியத்தின் 129
▁வித்தியாச 129
▁வீட்டுக்கு 129
▁வெட்டு 129
1516 128
ternational 128
குமார 128
ண்டும் 128
த்துடனான 128
நோக்க 128
ன்புரி 128
ப்புறம் 128
மைத்த 128
றிக்க 128
வாடி 128
விக்க 128
ாண்டுகளில் 128
ாவ் 128
ியாகக் 128
ீட்டில் 128
▁அங்கத்த 128
▁அடித்தளத்தை 128
▁அட்டைகள் 128
▁அமைதியின் 128
▁அழிந்து 128
▁அவரே 128
▁ஆண்டுகால 128
▁ஆளுமை 128
▁இருக்கும்போது 128
▁இருப்பார் 128
▁உற்ச 128
▁என்பதன் 128
▁கடைப்பிட 128
▁கவு 128
▁காள 128
▁குறிப்பிடுகிறது 128
▁கேட்கும் 128
▁கொள்கைகளின் 128
▁கொள்ளப்பட்டது 128
▁சிக 128
▁சிறப்புக் 128
▁சுதந்திரத்தை 128
▁செயலாக்க 128
▁தன்மையில் 128
▁தாம 128
▁திகழும் 128
▁திறமையை 128
▁தீவுகள் 128
▁தேர்தலின் 128
▁தை 128
▁தோல்வியை 128
▁நடத்தப்பட்டு 128
▁நலத்திட்ட 128
▁நாட்களுக்குள் 128
▁நெறிமுறைகள் 128
▁பகுதியாகும் 128
▁பங்களாதேஷ் 128
▁படக 128
▁பதாக 128
▁பலக 128
▁பலன்களை 128
▁புலன் 128
▁புளோரிடா 128
▁புவியியல் 128
▁பூஜ 128
▁பூர்வ 128
▁போன்றவற்றில் 128
▁மரபு 128
▁முகாம்களில் 128
▁வகிக்க 128
▁விலகிய 128
▁வெற்றிபெற்ற 128
ach 127
இரா 127
கிர 127
படியும் 127
பூர்வ 127
ப்படக் 127
மாற்றம் 127
ராஜா 127
ராள 127
ரியல் 127
ற்றியது 127
ளித்து 127
வைகளை 127
ாயிரம் 127
ாவர் 127
ொடுக்க 127
▁அதிகாரபூர்வ 127
▁அமைக்கப்பட்டது 127
▁அறிவார்ந்த 127
▁அறுவை 127
▁இதனையடுத்து 127
▁உரையாடல் 127
▁என்னவெனில் 127
▁ஏற்பட்டால் 127
▁ஏற்றுமதிய 127
▁ஒப்புக்க 127
▁கட்டுரைகள் 127
▁கொள்கிறது 127
▁கொள்ளைய 127
▁சுவி 127
▁செய்யப்பட்டார் 127
▁ஜனதா 127
▁தற்கால 127
▁திரையரங்க 127
▁தீர்த்து 127
▁நகரங்களிலும் 127
▁பாலம் 127
▁பிய 127
▁பொருட்களுக்கு 127
▁போவதாக 127
▁மக்களுடன் 127
▁மன்னிப்பு 127
▁மாற்றாக 127
▁முன்னிலை 127
▁முன்வைத்த 127
▁மேடையில் 127
▁யோசேப்பு 127
▁லியோ 127
▁வடிவில் 127
▁வண்ண 127
▁வராத 127
▁வாரங்கள் 127
▁விருந்து 127
▁ஹார் 127
▁ஹி 127
DE 126
utsch 126
அந்த 126
துகள் 126
நேர 126
னிட 126
போர் 126
ப்பதற்க 126
ப்புற 126
மளித்த 126
யு 126
ரிட்ட 126
ரிலும் 126
ற்பு 126
ல்லை 126
வாழ் 126
விட்டனர் 126
வுள்ளன 126
ுடையது 126
ையார் 126
்களுக்கும் 126
’, 126
▁அமைக்கப்பட்டு 126
▁அமைப்புகளும் 126
▁அரசுக்கும் 126
▁ஆய்வக 126
▁ஆலயத்தின் 126
▁இடமாக 126
▁இந்தியாவிலும் 126
▁இம் 126
▁ஈடுபடு 126
▁உருவாக்கியது 126
▁ஏற்பாடுகளை 126
▁ஏழ் 126
▁கருதுகின்றனர் 126
▁கலங்க 126
▁கலாசார 126
▁கவி 126
▁குற்றச்சாட்டு 126
▁கோயில் 126
▁சரத்குமார் 126
▁சிந்தனைகள் 126
▁சிறப்ப 126
▁தருவ 126
▁நாய 126
▁நிர்மாண 126
▁நெடுஞ்சால 126
▁படமும் 126
▁படிவ 126
▁பரிமாண 126
▁பள்ளத்தாக்க 126
▁பாரதிய 126
▁பார்வையாள 126
▁பிரதமராக 126
▁பேரணி 126
▁மகிமை 126
▁மாற்றீடு 126
▁முகாம்கள் 126
▁முடியாதது 126
▁மூடிய 126
▁மேற்கத்திய 126
▁யோசே 126
▁ரீதியாகவும் 126
▁வாதம் 126
▁விண்ணில் 126
▁விதிக்கப்பட்ட 126
▁விமானங்களை 126
▁வெறுமனே 126
cial 125
eb 125
qu 125
கரமான 125
க்கர் 125
க்குழுவின் 125
ச்செய்த 125
டியா 125
ண்டோ 125
திவ 125
த்துவது 125
மில் 125
யுத்த 125
லாத் 125
வீன 125
ிகளாலும் 125
ையம் 125
்ச்ச 125
“ 125
▁அடைந்துள்ளது 125
▁அமைதிய 125
▁இந்தோனேசிய 125
▁உறவின 125
▁ஊக்குவித்து 125
▁எசே 125
▁ஏலம் 125
▁ஒன்றுபட்ட 125
▁கவர் 125
▁கூடியது 125
▁கொடுக்கப்பட 125
▁சட்டபூர்வமான 125
▁சொன்னது 125
▁தொகுப்பை 125
▁தொண்ட 125
▁நிறுவனங்கள 125
▁நீதிபதிகள் 125
▁பாக்கிய 125
▁பாரி 125
▁புனே 125
▁பெட்டிகள் 125
▁பென்ன 125
▁பெறப்படும் 125
▁பெறலாம் 125
▁மென்பொருள் 125
▁மோசம 125
▁வளர்ச்சிக்காக 125
▁வழங்குவதை 125
▁வாக்கெடுப்ப 125
▁வேட 125
59 124
CPM 124
கமும் 124
கர 124
கள் 124
ட்கள 124
பெரும் 124
ப்பொ 124
மட்ட 124
முக்கு 124
ஸீ 124
ஹூ 124
ுக்கட்ட 124
ுதலின் 124
ுல் 124
ுள்ளும் 124
▁அடித்தளம் 124
▁அப்பட 124
▁அயல் 124
▁இணையவழி 124
▁ஈசா 124
▁உள்ளார்ந்த 124
▁எத 124
▁எழுது 124
▁ஐந்தாண்ட 124
▁கதாநாயக 124
▁காணாத 124
▁கொண்டார்கள் 124
▁கோடை 124
▁சந்தையின் 124
▁சீரமைப்பு 124
▁சோதன 124
▁ஜொ 124
▁தகவல்களின் 124
▁திரண்ட 124
▁துடிப்பு 124
▁துணைக் 124
▁தொடங்கின 124
▁தொழிலை 124
▁நடத்து 124
▁நிபுணர் 124
▁நிர்ம 124
▁நேர்மையான 124
▁பாதுகாக்கவும் 124
▁பின்னடை 124
▁பூம 124
▁பெட்ரோ 124
▁பெல் 124
▁பேரும் 124
▁போன்றே 124
▁மகள் 124
▁மதம் 124
▁ராய் 124
▁ரொக்க 124
▁வலைத்தள 124
▁விசேட 124
▁வெளியிடப்படும் 124
▁வெளியிடும் 124
1947 123
ண்டின் 123
ப்படல் 123
ர்ஜ 123
வதுடன் 123
வருடைய 123
ஸ்டர் 123
ாதார 123
ாரிய 123
ிதமான 123
ுவதைத் 123
்கர் 123
▁அடிமை 123
▁அரசியலமைப்புச் 123
▁அர்ஜ 123
▁ஆகியவற்றைப் 123
▁இந்தியாவுடன் 123
▁உறுப்பினரான 123
▁எலி 123
▁எளிமையான 123
▁ஓராண்டு 123
▁கண்டறிதல் 123
▁குறி 123
▁கைவிட்டு 123
▁கொண்டாடி 123
▁கோரு 123
▁செயற்கைக் 123
▁செய்கிறார்கள் 123
▁தருவது 123
▁தாங்கி 123
▁தாயின் 123
▁தேக்க 123
▁தொடர்பில் 123
▁நடத்தப்பட்டன 123
▁நடன 123
▁பகவான் 123
▁பக்த 123
▁பார்வைக்கு 123
▁பிபி 123
▁பெற்றிருக்க 123
▁மாதிரிகள் 123
▁லட்சத்து 123
▁வெடித்து 123
▁வேடம் 123
1993 122
IAEA 122
ue 122
ட்சியான 122
த்ய 122
நம்பிக்க 122
நாத 122
நித 122
னுக்குப் 122
பின 122
பேர 122
யே 122
ர்கு 122
விக்கு 122
வேட்ட 122
ானவர் 122
ுறிப்பு 122
ோல் 122
▁அக்கினி 122
▁அச்சு 122
▁அடிப்படையை 122
▁அதிகப்படுத்த 122
▁அன்னை 122
▁அமைகிறது 122
▁அவருக்குப் 122
▁ஆகியவற்றையும் 122
▁ஆளு 122
▁இச 122
▁இயல்ப 122
▁இல்லாததால் 122
▁இழு 122
▁உண் 122
▁ஊர்க 122
▁காரணத்தால் 122
▁குறிப்பிட்டுள்ள 122
▁கூறியதாக 122
▁கொட 122
▁சார்ப 122
▁சிக்கல் 122
▁சேர்வ 122
▁தண்ணீரை 122
▁தார் 122
▁திறம்பட 122
▁தொலைதூர 122
▁நட்புறவு 122
▁நல்வாழ் 122
▁நிமிட 122
▁நிலைகளில் 122
▁பலவித 122
▁பிரதேசத்தின் 122
▁பெண்கள 122
▁பெயர 122
▁பெறுதல் 122
▁போட்டியிட 122
▁போஸ் 122
▁மசூ 122
▁மனிதநேய 122
▁மாணவர்களும் 122
▁மொரீ 122
▁வெண்கல 122
▁வெளியீடு 122
▁வெளியேறிய 122
ber 121
ep 121
ier 121
ort 121
இரு 121
ஞ்ச் 121
தாது 121
த்துக்களை 121
நிதிய 121
ன்களைக் 121
ப்படம் 121
மியா 121
ரம்ப 121
ஷை 121
ாயின் 121
ிக்கின்றன 121
ைகு 121
ையுமே 121
▁+ 121
▁அடங்குவர் 121
▁அணிய 121
▁அனுபவத்தை 121
▁அமைதியாக 121
▁அமைப்புக்களின் 121
▁அலுவலகத்தின் 121
▁அவ்விட 121
▁ஆதாரமாக 121
▁இடைப்பட்ட 121
▁இணையான 121
▁இதற்குக் 121
▁இம்மாதம் 121
▁இரண்டுமே 121
▁ஈடுபட்டனர் 121
▁உச்சநீதிமன்ற 121
▁உதாரணம் 121
▁உயரிய 121
▁ஏஜென் 121
▁ஒலிம்பிக் 121
▁ஒழுங்குபடுத்த 121
▁கட்டிடம் 121
▁கண்காணித்து 121
▁கிரி 121
▁குழுவும் 121
▁கூடவே 121
▁சகோத 121
▁சுட 121
▁தரப்பினரும் 121
▁தானியங்கி 121
▁திட்டமிடப்பட்ட 121
▁திருத்தப்பட்ட 121
▁திரைப்படங்கள் 121
▁தீர்ப்பை 121
▁துறையிலும் 121
▁தொலைக்க 121
▁நம்பகத்தன்மை 121
▁நிகர 121
▁நிரந்தரமாக 121
▁நிறைவேற்றி 121
▁நேரிடும் 121
▁நோக்கங்களை 121
▁படப்பிடி 121
▁பரிசோ 121
▁பாராளுமன்றம் 121
▁பாலின 121
▁புகா 121
▁மனிதர்கள் 121
▁மரி 121
▁மார்க் 121
▁மேடை 121
▁வரவ 121
▁வருங்காலத்தில் 121
▁வார் 121
au 120
ஐபி 120
சல 120
ஜென் 120
த்ச 120
னிலிருந்து 120
மென் 120
ிலை 120
▁அதிலிருந்து 120
▁அப்படியான 120
▁இதுவரையில் 120
▁இருப 120
▁உணர்த்த 120
▁உன்னத 120
▁உறுதிப்பாடு 120
▁உலகெங்கும் 120
▁என்பவை 120
▁கடலோரப் 120
▁கணவர் 120
▁கலந்தாலோ 120
▁கல்லூரிகள் 120
▁கார்பன் 120
▁கைத்தறி 120
▁சமசமாஜக் 120
▁செறிவ 120
▁செல்வதை 120
▁சேர்க்கும் 120
▁ஜெயம் 120
▁நிகழ்ச்சிக்கு 120
▁நியமித்த 120
▁நேதாஜி 120
▁படுக 120
▁பத்திரங்கள் 120
▁பாரிசில் 120
▁பார்வையில் 120
▁போக்கில் 120
▁மதிக்க 120
▁மான 120
▁மேஜர் 120
▁யோச 120
▁வடி 120
▁வனம் 120
▁வழங்கப்பட்டு 120
▁வாய்ந்தது 120
▁வாழ்க்கைத்த 120
PCF 119
end 119
html 119
ob 119
ச்செய 119
தற்காகவும் 119
பாக் 119
புள் 119
பெரிய 119
பெறும் 119
ப்பட்டாலும் 119
ப்பூர்வ 119
ப்பொழுது 119
மயமாக்கப்பட்ட 119
மீன் 119
ரிசிய 119
ரிப்பு 119
ரியால் 119
வாரம் 119
ஸ்டில் 119
ாக்கில் 119
ியிலும் 119
ிருக்கவேண்டும் 119
ிருந்தபோது 119
ீன 119
ுதலும் 119
▁அட்டவணை 119
▁அதற்க 119
▁அதிகரித்தது 119
▁அதிகாரியான 119
▁அத்தோடு 119
▁அறைகூ 119
▁அழித்துவ 119
▁இடர் 119
▁இதைக் 119
▁உழைக்க 119
▁எட்டும் 119
▁கண்டித்து 119
▁காட்சியில் 119
▁காற்ற 119
▁கூறினால் 119
▁கூலி 119
▁கொள்கிறார்கள் 119
▁கொள்வதற்காக 119
▁சம்பிரதாய 119
▁சிப்பாய 119
▁செயலக 119
▁செயல்பாடுகளில் 119
▁ஜவு 119
▁டொலர் 119
▁தப்பிய 119
▁தினத்தில் 119
▁தீவுகளில் 119
▁நிர் 119
▁பகுதிகளின் 119
▁பகுதியினர் 119
▁பயன்ப 119
▁பயன்படுத்தப்பட 119
▁பயன்பாட்டு 119
▁மறுக 119
▁மேன 119
▁மைக்ரோ 119
▁ரயில்வேயின் 119
▁வடிவேலு 119
▁வளத்தை 119
▁விடுமுறை 119
▁விழாவ 119
▁விவரிக்க 119
▁வெற்றிக்கு 119
00- 118
எந்த 118
ங்களுக்குக் 118
ஜர் 118
தென்ன 118
பிஐ 118
பொரு 118
ப்பொருட்கள் 118
மாநில 118
முற்ற 118
ம்மு 118
ற்றில் 118
ாளர்களுடன் 118
ிருப்பினும் 118
ேலின் 118
ையுள்ள 118
▁அகமதாபாத் 118
▁அக்டோபரில் 118
▁அடிப்படையிலும் 118
▁அறியப்பட்ட 118
▁ஆவே 118
▁இடதுசார 118
▁ஓய்வ 118
▁கனரக 118
▁குடும்பத்தில் 118
▁குழுக்களுக்கு 118
▁சகோதரிகள் 118
▁சணல் 118
▁சரண 118
▁சவாலாக 118
▁செப்டம்பரில் 118
▁செலுத்தப்படும் 118
▁செழு 118
▁திரவ 118
▁தோற்றம் 118
▁நாடாளுமன்றம் 118
▁நிறைவேற்றிய 118
▁நிலத்தில் 118
▁படிக்கும் 118
▁பயிற்சிகள் 118
▁பற்றித் 118
▁பாரதீய 118
▁பூரி 118
▁பெறவில்லை 118
▁பெறுவதை 118
▁பொதுநல 118
▁பொறுப்பேற்ற 118
▁முயற்சிக்க 118
▁மூர்க்க 118
▁மேற்கோள 118
▁லை 118
▁வக்க 118
▁வந்துவிட்டது 118
▁விட்டுப் 118
▁விற்று 118
▁வெளிப்படுத்தி 118
▁ஹஜ் 118
▁ஹிட் 118
_ 117
ate 117
io 117
und 117
சலோ 117
சியல் 117
சுக 117
டுவத 117
த்தர 117
த்துக்கொள் 117
ன்தாரா 117
பாடுகள் 117
ப்படையின் 117
ப்போகும் 117
மேல 117
ளித்தது 117
ாரப் 117
ிக்கொண்டது 117
ுகை 117
ைக்கார 117
▁அசுத்த 117
▁அபராத 117
▁அமெரிக்காவிலும் 117
▁அறிவுரை 117
▁அவதூ 117
▁ஆடு 117
▁இண்ட 117
▁இன்றியமையாத 117
▁இவற்றிற்கு 117
▁உடனான 117
▁உயிரை 117
▁எதிர்பாராத 117
▁என்றழைக்க 117
▁ஏக்கர் 117
▁ஒழிய 117
▁கருண 117
▁காட்சிய 117
▁கூடியதாக 117
▁செயற்கைக்கோ 117
▁சொத்த 117
▁துவங்க 117
▁தூரத்தில் 117
▁தெரிந்துகொள்ள 117
▁நிறைவே 117
▁நிறைவேற்றப்பட்ட 117
▁பங்கேற்றார் 117
▁பணியாளர்களின் 117
▁பத்திரிகைகள் 117
▁பிறகே 117
▁பேதுரு 117
▁போதைப் 117
▁போய்வ 117
▁மதிப்பீடுகள் 117
▁மன்றத்தின் 117
▁மறுவாழ்வு 117
▁மேயர் 117
▁வாழ்நாள் 117
▁வெற்று 117
▁வெளிச்சம் 117
▁வெளிவரும் 117
1948 116
உத 116
கையில் 116
ங்கத்தில் 116
தாவின் 116
பிடி 116
ப்பற்ற 116
மனைய 116
ரியான 116
ற்த 116
லாளர்கள் 116
ளவுக்கு 116
ழ்க்க 116
வர்க்க 116
வெறி 116
ஸ்வர 116
ார்களோ 116
ிர் 116
ுகொள்ள 116
ுவதற்காகவும் 116
ேட்ட 116
ையினரின் 116
ோவின் 116
▁அமைந்துள்ளன 116
▁அமைப்புகளில் 116
▁ஆலையில் 116
▁இப்போதைய 116
▁இருப்பதோடு 116
▁ஈடுபட்டுள்ளது 116
▁உண்ம 116
▁உல 116
▁எக்ஸ்பிரஸ் 116
▁எழுச்சிய 116
▁ஏற்றுக்கொள் 116
▁கலந்துகொள்ள 116
▁களத்தில் 116
▁கேமரா 116
▁கொட்ட 116
▁சாதக 116
▁சிறப்புத் 116
▁செலவுத் 116
▁ஜய 116
▁ஜூலையில் 116
▁தரி 116
▁திட்டங்களும் 116
▁தினத்தன்று 116
▁தீர 116
▁பணவீக்க 116
▁பண்டாரநாயக்க 116
▁பாரசீக 116
▁பாராட்டி 116
▁போர 116
▁மக்களே 116
▁மட்டும்தான் 116
▁மாண்ப 116
▁மேன் 116
▁வழக்கறிஞர் 116
▁விரை 116
▁வெற்றிக 116
1983 115
IMF 115
se 115
டுப்பு 115
த்தாக 115
நிறை 115
னத்தின் 115
னாய் 115
பஸ் 115
ப்பாட்டு 115
மலை 115
மைச் 115
யாண 115
வருடன் 115
வள் 115
வுக்கும் 115
ாண்டுகளுக்கு 115
ித்தால் 115
ுண்ட 115
ுள்ளேயே 115
ையாக்க 115
ையில்தான் 115
▁அக் 115
▁அடுக்கு 115
▁அதற்குக் 115
▁அதுவே 115
▁அறிகுறிகள் 115
▁அழித்த 115
▁இங்குள்ள 115
▁இதையடுத்து 115
▁இரண்டாவதாக 115
▁இரவில் 115
▁உணர்வுகள் 115
▁உலகிற்கு 115
▁எல 115
▁ஐந்தாவது 115
▁கடி 115
▁கமிஷ 115
▁காட்டினர் 115
▁கிடைப்பது 115
▁கிரிக்கெட் 115
▁கிரே 115
▁குறைய 115
▁கொழு 115
▁சாதாரணமாக 115
▁தம் 115
▁துத 115
▁நினைவுச் 115
▁படிப்பு 115
▁படைப்பு 115
▁பயிற்சியை 115
▁பரவும் 115
▁பரிந்துர 115
▁பிலிம் 115
▁மாச 115
▁முற்போக்கு 115
▁லண்ட 115
▁வகு 115
▁வடிவமைக்கப்பட்ட 115
▁வடிவம் 115
▁வனத்துறை 115
▁வழிகாட்டி 115
▁விகிதத்தை 115
76 114
77 114
81 114
ight 114
ஆனால் 114
ங்கொண்ட 114
சீன 114
ட்சியை 114
ட்டியின் 114
ணைய 114
தார்த்த 114
த்தியது 114
த்துக்குச் 114
த்தொ 114
ப்பட்டதாக 114
ப்பினர் 114
ப்போக்கு 114
மையா 114
வம் 114
ாததால் 114
ாலேயே 114
ிப்படுத்த 114
ுள் 114
ுவதைக் 114
ெனில் 114
ொருவர் 114
▁அகற்றும் 114
▁அதிகாரப் 114
▁அனைவருமே 114
▁அரசுப் 114
▁ஆண்டுகளுக்கும் 114
▁ஆபிரகாம 114
▁இட்டுச் 114
▁இணையதளத்தில் 114
▁இணையம் 114
▁இதேபோல் 114
▁இருந்தான் 114
▁உறை 114
▁ஊக்குவிப்பு 114
▁என்பதாக 114
▁என்பவ 114
▁எல்லோரும் 114
▁ஏற்படுத்துதல் 114
▁கம்யூனிச 114
▁கருதும் 114
▁காப்பு 114
▁குறிப்பிட்டனர் 114
▁கூட்டணிய 114
▁கூறியிருந்தார் 114
▁கொள்வதில் 114
▁சக்திகளை 114
▁செய்தித்தாள 114
▁செய்யப் 114
▁தகர்த்த 114
▁தந்தது 114
▁தளங்களை 114
▁தாங்களே 114
▁தூது 114
▁நம்பி 114
▁நிகழ்ச்சிகளில் 114
▁நிறைவ 114
▁நீரிழிவு 114
▁நூல் 114
▁நோர்வே 114
▁பிலிப்பைன்ஸ் 114
▁புரிந்துகொள்ள 114
▁மாதவன் 114
▁மியான் 114
▁முன்னேற்றங்கள் 114
▁லால் 114
▁வரலாற்றின் 114
▁வர்த்தகத்தை 114
▁வீர் 114
▁வெறுக்க 114
▁வைத்தனர் 114
▁வைப்பது 114
இடி 113
ட்சிகள் 113
பொன் 113
ப்பதே 113
மால 113
ரசு 113
ரத்தை 113
றிந்து 113
வர்த 113
ாசிய 113
ியலின் 113
ுகொண்டு 113
ொள்ளும் 113
▁0. 113
▁அமைதியை 113
▁அருங்காட்சியகம் 113
▁அர்த்தம் 113
▁ஆப்கான் 113
▁இழை 113
▁உட் 113
▁உத்தரவிட்ட 113
▁உரைக்க 113
▁எலியா 113
▁ஏற்படக்கூடிய 113
▁ஒளிபரப்ப 113
▁கட்டாயமாக 113
▁கட்டுமானத் 113
▁காமன்வெல்த் 113
▁காலத்துக்கு 113
▁கிருஷ்ண 113
▁கூறியுள்ள 113
▁சரத் 113
▁சுந்தர் 113
▁சுரங்கங்கள் 113
▁சுற்றில் 113
▁தடுக்கவும் 113
▁தன்மையைக் 113
▁தீங்கு 113
▁நிறுவிய 113
▁நீடிக்கும் 113
▁நுழைய 113
▁நெடு 113
▁நோக்கிக் 113
▁படப்பி 113
▁பட்டியலை 113
▁பட்டு 113
▁பரிந்துரைகள் 113
▁பறந்து 113
▁பாடல்களை 113
▁பாணியில் 113
▁பாதுகாப்பது 113
▁பெண்ண 113
▁பெற்றுக்கொண்ட 113
▁பேரா 113
▁போற்ற 113
▁மன்றத்தில் 113
▁மாற்றத்திற்கான 113
▁முதிய 113
▁முறி 113
▁முற்றுக 113
▁மைல் 113
▁விமர்சனம் 113
▁வேதனை 113
▁ஷியா 113
est 112
ry 112
க்காரன் 112
ங்கே 112
சாட் 112
பேர்ட் 112
ப்படுவதில் 112
ப்போர் 112
மாண்ட 112
மையால் 112
மையே 112
யன் 112
ரிஷ 112
லத்தின் 112
ாதிபதி 112
ாளரை 112
ினுள் 112
ிருப்பதாகக் 112
ுகால 112
ெதிராக 112
ைட் 112
ையிலுள்ள 112
▁அதிகாரங்கள் 112
▁அரசியலமைப்ப 112
▁இடு 112
▁இணையக் 112
▁இந்திர 112
▁இம்மா 112
▁இயக்கங்கள் 112
▁ஈரானில் 112
▁உணர்க 112
▁உரி 112
▁ஏவ 112
▁கற்பித்த 112
▁கூட்டங்களில் 112
▁சிக்கிம் 112
▁சிறுவ 112
▁செட்ட 112
▁தடையாக 112
▁நம்பிக்கையுடன் 112
▁நீள 112
▁படுகிறது 112
▁பிரதானமாக 112
▁பெட்ரோல் 112
▁பெருகும் 112
▁பேருந்து 112
▁மரபணு 112
▁மீள் 112
▁முழுவது 112
▁யூதர்கள் 112
▁யூரியா 112
▁விடிய 112
▁விடுகிறது 112
▁வேள 112
") 111
j 111
ஐரோப்பிய 111
ஒவ்வொரு 111
ச்சர் 111
திக்கும் 111
திற்கு 111
நோக்கி 111
மளிப்ப 111
மியோபதி 111
ருளும் 111
வரைய 111
விடக் 111
விட்டார் 111
ஸ்வ 111
ாக்களின் 111
ாக்கின் 111
ாவான 111
ேசன் 111
▁அமெரிக்கக் 111
▁அரசாங்கப் 111
▁ஆகா 111
▁ஆண்கள் 111
▁உறுப்பினர்களாக 111
▁எதுவுமில்லை 111
▁ஏழாம் 111
▁ஒள 111
▁கண்ணீர் 111
▁களை 111
▁கிருஷ்ணா 111
▁குணம் 111
▁கூறுவத 111
▁கேச 111
▁செஞ்சிலுவைச் 111
▁செய்துகொள்ள 111
▁ஜோஸ் 111
▁தரப்பட்ட 111
▁தாழ்த்த 111
▁திரும்பவும் 111
▁தீவ 111
▁துணிச்ச 111
▁நிறுவனங்களுடன் 111
▁படையினரின் 111
▁பட்சத்தில் 111
▁பண்ணை 111
▁பள்ளிக்கூட 111
▁பொக்கி 111
▁போனால் 111
▁மத்தியிலும் 111
▁மாநிலமான 111
▁மேற்பார்வை 111
▁மையமாகக் 111
▁வலியுறுத்தும் 111
▁விவேக் 111
▁வீரர்களை 111
!" 110
1992 110
78 110
சியை 110
த்தோட்ட 110
னியாவில் 110
பேச 110
மாட்டாது 110
மார 110
ரது 110
ராலும் 110
வட 110
ஸுக்கு 110
ிடப்பட்டது 110
ியிலிருந்து 110
ிற்குத் 110
ுகளிலிருந்து 110
ுகூட 110
ுமோ 110
ேகா 110
▁அழிவு 110
▁ஆயுர்வேத 110
▁ஆவி 110
▁இயல்பு 110
▁ஏற்படுத்தப்பட்ட 110
▁ஐஸ்வர்யா 110
▁ஒப்பிடும் 110
▁கழகத்தில் 110
▁கிராமம் 110
▁குறைப்பதற்கு 110
▁கெல்ல 110
▁கொடுக்கப்பட்டது 110
▁கோடியில் 110
▁சிப்பாய்கள் 110
▁சூடான் 110
▁சூழ்நிலைய 110
▁செய்யக் 110
▁சேவையா 110
▁ஜோசப் 110
▁ஜோதி 110
▁தம்ப 110
▁தரிசன 110
▁திரும்பும் 110
▁நாடி 110
▁நிதான 110
▁நிர்ணயம் 110
▁பணவீக்கம் 110
▁பிசி 110
▁பெறவும் 110
▁மருத்துவத் 110
▁மார்ஷல் 110
▁வசதிகளும் 110
▁வசூ 110
▁வர்த்தகத்தில் 110
▁வழங்குவதற்காக 110
▁வாங்குவதற்கு 110
க்ஸ் 109
னுக்குக் 109
பரி 109
பாண 109
புக 109
பூர்வமாக 109
மூல 109
மென 109
யத்தில் 109
ளாக 109
வதே 109
வாதி 109
ஸ்தா 109
ாகச் 109
ாளரின் 109
ிகோ 109
ிக்கப்பட்டனர் 109
ுக்கொ 109
ுதவி 109
ுப்புற 109
ெழுத்துக்க 109
ேயான 109
ையிடம் 109
ையிலேயே 109
▁அகற்றி 109
▁அபிஷேக 109
▁அமைத்துக் 109
▁அஹ 109
▁ஆக்கிரம 109
▁ஆரம்பித்து 109
▁ஆராதனை 109
▁இயக்கப்படும் 109
▁இருக்கையில் 109
▁இருபதாம் 109
▁உருவாகியுள்ளது 109
▁ஊடகத்தின் 109
▁ஊடகத்தில் 109
▁எப்பொழுது 109
▁எம 109
▁எழுப்பு 109
▁ஏற்றி 109
▁ஒலிவ 109
▁ஓட 109
▁கதவ 109
▁குதிர 109
▁குறிக்கோள் 109
▁குறித்துப் 109
▁கூடுத 109
▁கூட்டண 109
▁சட்டப்படி 109
▁சுத்தமான 109
▁செயல்பாட்டை 109
▁செய்யாமல் 109
▁ஜுலை 109
▁தலைநகரான 109
▁திட்டமிடல் 109
▁தேசியத் 109
▁தொடுக்க 109
▁நிபந்தனை 109
▁நீடித்து 109
▁நீதிபத 109
▁பகுப்பாய்வ 109
▁படுகொலைகள் 109
▁பயணிகளுக்கு 109
▁பரிந்துரைகளை 109
▁பெற்றோர் 109
▁முகமை 109
▁முன்த 109
▁யை 109
▁ரெட்டி 109
▁வஞ்ச 109
▁வழக்குகளில் 109
▁வழிநடத்த 109
▁விரட்ட 109
▁விவசாயத் 109
▁வீச்ச 109
▁வெளியாக 109
83 108
UAW 108
சாவ 108
டித்தான் 108
டிப் 108
டுகளைக் 108
நாம 108
நீக்கம் 108
பாலான 108
ப்பிங் 108
ப்போதும் 108
யான 108
ற்றார் 108
லாமா 108
லுக்காக 108
வைக்க 108
வைய 108
ிக்கொண்டார் 108
ுகளுக்காக 108
ுள்ளதால் 108
ொடுத்த 108
ொள்கிறார் 108
▁அகத 108
▁அசாதாரண 108
▁அதனுடன் 108
▁அந்நாட்டு 108
▁அந்நாள 108
▁அரசிற்கு 108
▁அரண 108
▁ஆங்கில 108
▁ஆதரவான 108
▁ஈடுபாடு 108
▁உண்டாகும் 108
▁உள்ளிட்டோர் 108
▁உஸ்பெ 108
▁கடற்படைய 108
▁கன்னட 108
▁கல்லூர 108
▁காணவில்லை 108
▁குடித்த 108
▁குத 108
▁குதிரை 108
▁குழப்பம் 108
▁கேரளாவில் 108
▁சந்தித்தனர் 108
▁சனிக்கிழ 108
▁சப் 108
▁செல்லு 108
▁தகரா 108
▁தடுப்பது 108
▁தன்னல 108
▁தாண்ட 108
▁திருத்திய 108
▁தேதியில் 108
▁தொடுத்த 108
▁நடிப்பு 108
▁நிதிக்க 108
▁நின்றது 108
▁பருவத்தில் 108
▁பாடத்திட்ட 108
▁பாடலை 108
▁பாதுகாப்பில் 108
▁பிள்ளை 108
▁மஹா 108
▁மாக 108
▁வடிவத்தில் 108
▁வரியை 108
▁வழிகளை 108
▁வழிமுறை 108
▁வாகனம் 108
▁விட்டுக் 108
▁விற்ற 108
▁வைக்கப்படும் 108
EU 107
la 107
அமெரிக்கா 107
கல் 107
க்கொண்ட 107
சாலை 107
சிங்க 107
ச்சா 107
ச்சென்ற 107
ஜியின் 107
ணங்கள் 107
பாதுகா 107
மையாகவும் 107
யிலிருந்து 107
ர்ப்பு 107
வற்றில் 107
வார்ட் 107
ிகளிடையே 107
ிறீ 107
▁அமைத்துள்ளது 107
▁அளிக்கப்பட்டு 107
▁அளிப்பு 107
▁அவரைத் 107
▁ஆரம்பிக்க 107
▁இந்தோனே 107
▁இனம் 107
▁உத்தி 107
▁உழைத்து 107
▁எடுப்பதற்கு 107
▁எழுதியுள்ள 107
▁எவர் 107
▁கடிதங்கள் 107
▁கல்விக்கான 107
▁காலத்திலும் 107
▁கிரெ 107
▁குழந்தைகளும் 107
▁குழுக்களும் 107
▁கூட்டுக் 107
▁கேள 107
▁கையெழுத்து 107
▁சிதைந்து 107
▁செலவுகள் 107
▁செல்கிறார் 107
▁சேரன் 107
▁தனித்துவமான 107
▁தனிமனித 107
▁தழுவிய 107
▁திண்ட 107
▁தேர்வுகள் 107
▁தேவையாக 107
▁நாயகனாக 107
▁நாளுக்கு 107
▁நோயால் 107
▁படமாக 107
▁பட்டுள்ளன 107
▁பாக் 107
▁பிரகாச 107
▁பெண்களை 107
▁பெறுகின்றனர் 107
▁பொற 107
▁போரி 107
▁மக் 107
▁மண்டலம் 107
▁மவு 107
▁மாறிவிட்டது 107
▁முதலாளி 107
▁முன்வர 107
▁யாராவது 107
▁வசந்த 107
▁வருமானவரி 107
▁வழிகள் 107
▁வாதி 107
▁விழு 107
▁வெற்றிபெற 107
▁வெளிக்காட்ட 107
▁ஷோ 107
ge 106
அதிக 106
அவர் 106
கம்ப 106
க்ட 106
சைன் 106
மக 106
மத்திய 106
முறைகள் 106
ராட்ட 106
ரிடமிருந்து 106
லையில் 106
ளிக்கப்பட்ட 106
ிட்டம் 106
ுவீ 106
ெற 106
ையில 106
்கார 106
▁அதிர 106
▁அதேசமயம் 106
▁அத் 106
▁அம்சமாக 106
▁அருங்காட்சியக 106
▁ஆட்க 106
▁உட்பட்டு 106
▁ஊட்டச்ச 106
▁எடுத்தது 106
▁எதை 106
▁எரிக 106
▁எல்லைகளை 106
▁எல்லையை 106
▁ஏற்கும் 106
▁ஐந்த 106
▁கதாநாயகனாக 106
▁கல்லூரியில் 106
▁கிறிஸ்து 106
▁கொண்டிருப்பத 106
▁சத்தம் 106
▁சில்லறை 106
▁செய்வேன் 106
▁செவில 106
▁சேகரிக்க 106
▁தற்கா 106
▁தாலி 106
▁தெரியவ 106
▁தேவையற்ற 106
▁தொழில்களை 106
▁நேபாளம் 106
▁புத்துயிர் 106
▁பெள 106
▁போராட்டங்களை 106
▁முடித்து 106
▁மோதலில் 106
▁வாகனங்களை 106
84 105
ational 105
aw 105
od 105
கமான 105
சந்த 105
செய 105
டிக 105
ணியும் 105
த்தினுள் 105
த்ரி 105
ப்பதாகும் 105
முறைக்கு 105
ம்பி 105
ர்க்கில் 105
லைகளை 105
ாடுகள் 105
ினராக 105
ியுள்ளனர் 105
ிறன் 105
ுகளான 105
ெஸ் 105
ையி 105
ொண்டார் 105
்டா 105
▁அனுபவங்கள் 105
▁அவரோ 105
▁ஆயுள் 105
▁ஆளுநர்கள் 105
▁இயற்க 105
▁இருந்ததால் 105
▁உருவெடுத்த 105
▁எடையுள்ள 105
▁ஏப்ரலில் 105
▁ஏவி 105
▁கள்ள 105
▁கவனித்து 105
▁காத்திருக்க 105
▁கொள்வார்கள் 105
▁கோட்டை 105
▁சரண் 105
▁சிபிஐ 105
▁டாலருக்கு 105
▁டிக்க 105
▁டீசல் 105
▁தடுப்பதற்காக 105
▁தனிய 105
▁தன்னார்வல 105
▁தன்மையையும் 105
▁தருண 105
▁தான 105
▁தோல்வ 105
▁நகரங்களுக்கு 105
▁நம்பிக்கையில் 105
▁நாமம் 105
▁நியூஸ் 105
▁நிலையங்களை 105
▁நோய்க்கு 105
▁பங்குகளை 105
▁பதி 105
▁பயணிகளின் 105
▁பிண 105
▁பிரதேசங்கள் 105
▁பூஜை 105
▁பெற்றோர்கள் 105
▁பொறுப்பில் 105
▁போன்றவற்றின் 105
▁மகேஷ் 105
▁மடங்க 105
▁மடங்காக 105
▁மாதத்தின் 105
▁மாஸ்டர் 105
▁முதன்மையான 105
▁மேலை 105
▁வந்துள்ளனர் 105
▁வற 105
▁வல்லுன 105
▁வாசல் 105
▁விவேகானந்தர் 105
▁விஷால் 105
▁வேண்டுமா 105
▁வேறுபாடுகளை 105
1415 104
ff 104
ity 104
கமாக 104
ந்தின் 104
பூரில் 104
ப்படுவதையும் 104
மற்றது 104
மார்கள் 104
மாவது 104
ர்ப்ப 104
வர்களைக் 104
ஸ்டன் 104
ஹோ 104
ிஸ்தான் 104
ீடாக 104
ும்பு 104
ூக்க 104
ைகளினால் 104
ையின்போது 104
▁அமலுக்கு 104
▁அருங்காட்சிய 104
▁அறிவிய 104
▁ஆயின 104
▁ஆயிற்று 104
▁இடம்பெற்றுள்ள 104
▁இயந்திரங்கள் 104
▁ஈர்க்கும் 104
▁உன்னதமான 104
▁எழுத்தாளர் 104
▁ஒருங்கிணைத்து 104
▁ஓட்டு 104
▁கடைபிடிக்க 104
▁கல்வியில் 104
▁கழித்து 104
▁கவுத 104
▁கூடங்கள் 104
▁கேள்விகளுக்கு 104
▁சட்டரீதியான 104
▁சமூகக் 104
▁சாம்ப 104
▁டெல்லியில் 104
▁தக்கவை 104
▁தயாரிக்கிறது 104
▁தலைவி 104
▁தூண்டும் 104
▁தொகுப்பில் 104
▁நதிகள் 104
▁நாடெங்கும் 104
▁நேரத்திலும் 104
▁நோயாளிகளின் 104
▁பர்வத 104
▁பிசா 104
▁புனிதமான 104
▁பொறுப்பாக 104
▁போட்டுக் 104
▁போயிற்று 104
▁மதிப்புக் 104
▁மாதிர 104
▁முரண்ப 104
▁மேற்பட்டவர்கள் 104
▁மேற்பட்டோர் 104
▁விசாரித்த 104
▁வெளிநாட்டில் 104
▁வெள்ளம் 104
▁ஹீ 104
ain 103
com 103
ice 103
காச 103
க்குவரத்து 103
ச்சியில் 103
ட்ரோ 103
த்துவிடும் 103
நாடுகளின் 103
நாடுகள் 103
நிறுவன 103
ந்தைய 103
பெற 103
ப்படாது 103
ப்படுவதன் 103
ப்பதிவ 103
ப்பிரிவ 103
மனை 103
மென்ற 103
ர்களோடு 103
லாக் 103
வரது 103
வரிடம் 103
வர்களுக்கான 103
வீத 103
வெள 103
ஷியஸ் 103
ார்கள 103
ாவைக் 103
ையிழ 103
ோடி 103
▁அதிரடி 103
▁அரசுடன் 103
▁ஆன்மிக 103
▁இடையூற 103
▁இதற்க 103
▁உத்தரவிட்டார் 103
▁எடுக்கப்பட்டது 103
▁ஏற்படுத்துகிறது 103
▁ஒருவரின் 103
▁கடைபிட 103
▁கண்காட்சியில் 103
▁கருத்துப்படி 103
▁காண்பது 103
▁காயம் 103
▁குஜராத்தின் 103
▁குடும்பமும் 103
▁குழந்தைகள 103
▁கொடுத்தனர் 103
▁சத்தீ 103
▁சாகுபடி 103
▁சாத்தியம் 103
▁சென்ன 103
▁செயல்படுகின்றன 103
▁செலுத்துவது 103
▁தலையிட 103
▁திறந்தவெளி 103
▁தொங்க 103
▁நல்வாழ்வு 103
▁நிதிப் 103
▁நிலத்தடி 103
▁நிலைத்தன்மை 103
▁படையை 103
▁பறக்க 103
▁பலவீனமான 103
▁பிரயோக 103
▁புரியும் 103
▁பெறாத 103
▁பேசும்போது 103
▁பேர்கள் 103
▁பொருளாதாரச் 103
▁போலிய 103
▁முன்பதிவு 103
▁வளாகம் 103
▁ஹாலிவுட் 103
175 102
BBC 102
ai 102
ors 102
க்குழ 102
ங்குகள் 102
சிடி 102
சினி 102
சியில் 102
ஜிய 102
டுத்தார் 102
ட்லி 102
தற்குப் 102
னமான 102
னுக்கான 102
பின்னர் 102
ப்பூர் 102
ப்போக்க 102
முட்ட 102
லினால் 102
ழுவின் 102
வாதக் 102
ஸ்தர் 102
ாதிபதிய 102
ாவதாக 102
ிட்டுக் 102
ிலில் 102
ிவரை 102
ுவதற்குத் 102
்களைத் 102
▁அட்மிரல் 102
▁அதிகரித்தல் 102
▁அமைந்திருந்தது 102
▁அறிவை 102
▁அலங்க 102
▁அவர்களுக்குத் 102
▁ஆசியாவின் 102
▁ஆதரவும் 102
▁இடி 102
▁இருவர் 102
▁ஈர்த்த 102
▁உரிமம் 102
▁உறவினர்கள் 102
▁கைக்கொள்ள 102
▁சதவீதமும் 102
▁செயல்படுவது 102
▁செலவுகளை 102
▁சேமிக்க 102
▁தருகின்ற 102
▁தர்ம 102
▁தார 102
▁பச்ச 102
▁பது 102
▁பத்திரிக்க 102
▁பள்ளியில் 102
▁பெயரிட 102
▁பெரும்ப 102
▁பெறுவதில் 102
▁போக்குகள் 102
▁மரு 102
▁வகைப்படுத்த 102
▁வயதுக்கு 102
▁வரலாற்றுப் 102
▁வரையறுக்கப்பட்ட 102
▁வழித்தட 102
▁விமர்சித்த 102
▁விருத்த 102
▁விலைக்கு 102
▁விள 102
▁விளையாடு 102
▁விழாவின் 102
▁வேலைக்க 102
▁ஹா 102
JUSTIFY 101
bert 101
ement 101
ens 101
இலங்கை 101
சாக 101
திட்ட 101
த்துவத்தை 101
போகும் 101
ப்பாத 101
மக்கள 101
மொன்றை 101
ர்ட்ட 101
ழிப்பு 101
வனே 101
வர்களிடம் 101
ஸ்ச 101
ாளருக்கு 101
ாளர்களையும் 101
ிகாரி 101
ிக்கள் 101
ிக்குச் 101
ினில் 101
ூம் 101
▁அமைப்புக்களை 101
▁இடத்தைப் 101
▁இலட்ச 101
▁இவர்களின் 101
▁இவர்களை 101
▁உணர்ச்ச 101
▁உறவுகளின் 101
▁என்பதையே 101
▁எல்லாக் 101
▁கட்டாயப்படுத்த 101
▁கருத்துகளை 101
▁கருத்துகள் 101
▁கருவூல 101
▁காட்டுகின்றது 101
▁காவலர் 101
▁கைப்ப 101
▁கொச்சி 101
▁கொடுத்தான் 101
▁கொல் 101
▁கொள்ளாமல் 101
▁சூரியன் 101
▁செய்வார்கள் 101
▁சேகரிப்பு 101
▁திரும்பத் 101
▁நகருக்கு 101
▁நடத்தை 101
▁நிதிக் 101
▁நிலக்க 101
▁நுக 101
▁நுகர்வு 101
▁நை 101
▁பதவியேற்ற 101
▁பழைமை 101
▁புதியதொரு 101
▁புல் 101
▁பெரும்பகுதி 101
▁பெற்றன 101
▁மலிவு 101
▁மீண்டு 101
▁மேற்குக் 101
▁வசதியான 101
▁வந்தவர்கள் 101
▁வராமல் 101
▁வழக்கம் 101
▁வழிகாட்டுதல் 101
▁வழிநட 101
▁விடுவிக்க 101
▁வீடுகளின் 101
▁வீட்டிற்கு 101
▁ஸ்டார் 101
ze 100
க்கிலும் 100
ச்சுவ 100
ஜின் 100
ஞ்சீ 100
ணு 100
த்தட்ட 100
த்திலிருந்த 100
நகரில் 100
பியா 100
ப்படுகிறார் 100
ப்பரி 100
ம்பர 100
ரியன் 100
ரையை 100
லாவை 100
ல்களுக்கும் 100
ழ்ச்சி 100
வாய்ந்த 100
விஸ் 100
வெளிய 100
ில்லியன் 100
ீத 100
்களாக 100
்கிறது 100
▁அழிக்கப்பட்ட 100
▁ஆன்மீக 100
▁இண 100
▁இவரை 100
▁ஈர் 100
▁எதிர்க்கட்சி 100
▁கங்கா 100
▁கருவிய 100
▁கவர்னர் 100
▁காகித 100
▁சம்ம 100
▁சாட்டினார் 100
▁சாதி 100
▁செலுத்துகிறது 100
▁தீர்மானித்த 100
▁தீவிரவாதிகள் 100
▁தெளிவாகக் 100
▁தோல்வியடைந்த 100
▁நிறுத்தும் 100
▁பிணைய 100
▁பிலிம்ஸ் 100
▁போய்விட்டது 100
▁மதிப்புமிக்க 100
▁மருத்துவமனைக்கு 100
▁மாநிலத்திற்கு 100
▁மாற்றத்தின் 100
▁முறியடிக்க 100
▁மைல்க 100
▁வகுப்பின 100
▁வல்லுனர்கள் 100
▁விஞ்ஞ 100
▁விடுவி 100
▁வெளியாகும் 100
▁வேண்டுமென்ற 100
1968 99
ce 99
ong 99
அதாவது 99
காதல் 99
ங்காய் 99
டைந்தது 99
தானது 99
த்திறன் 99
நாதன் 99
படும் 99
பாட 99
மிட்டு 99
ம்பெ 99
யார 99
ர்த்தி 99
ல்டு 99
வியும் 99
ாவா 99
ியாக்க 99
ிவே 99
ுக்கிடையில் 99
ோரும் 99
▁அதேநேரத்தில் 99
▁அனல் 99
▁இடம்பெற்றுள்ளன 99
▁இம்முறை 99
▁ஈடுக 99
▁உபதேச 99
▁உற்பத்தியின் 99
▁எதிர்வ 99
▁எழுதுகிறார் 99
▁ஒட்டிய 99
▁ஒர் 99
▁கட்டத்தை 99
▁கட்டுப்பாட்டின் 99
▁கருதப்பட்ட 99
▁கலைக்க 99
▁காக 99
▁காரணமான 99
▁குடா 99
▁குடியே 99
▁சம்மதி 99
▁சிங்களப் 99
▁சீட்டு 99
▁ஜேம்ஸ் 99
▁டார் 99
▁தயாரிக்கப்படும் 99
▁தளத்திற்கு 99
▁துல்லியமான 99
▁தேவி 99
▁பட்டேல் 99
▁பயன்படுத்துவதை 99
▁பரிமாற 99
▁பிரமி 99
▁பிறந்தநாள் 99
▁பென 99
▁பெருந்தோட்ட 99
▁பேசினர் 99
▁போர்வ 99
▁மண்டலங்களில் 99
▁மாற்றத்திற்கு 99
▁முன்கூட்ட 99
▁முன்னோடியாக 99
▁ரியல் 99
▁லிருந்து 99
▁லெப 99
▁வந்தான் 99
▁வல்லுந 99
▁வழிவகுத்தது 99
▁ஸ்கொட் 99
..... 98
ash 98
ism 98
க்கப்பட்டார் 98
ஞர்கள் 98
டுவதற்கும் 98
திர் 98
த்தனமாக 98
த்தவர் 98
நாட 98
ந்துள்ளதாக 98
மல 98
ர்களுடைய 98
ல்களால் 98
வினை 98
வியர் 98
ிருக்கும்போது 98
ிலிருந்தே 98
ெங்கும் 98
ொட்ட 98
▁அன் 98
▁அபாயம் 98
▁அரங்கு 98
▁அறிந்துகொள்ள 98
▁அவமான 98
▁ஆனந்த 98
▁ஆர்க 98
▁ஆளுகை 98
▁இருந்தவர் 98
▁இவைய 98
▁கட்டியெழுப்ப 98
▁கண்காணிக்கும் 98
▁கப்பலில் 98
▁கவிஞர் 98
▁காந்திய 98
▁கோர் 98
▁சல் 98
▁சாலையில் 98
▁சென்றடைய 98
▁சேர்க்கப்பட்ட 98
▁ஞாயிறு 98
▁டோக்கியோ 98
▁தடய 98
▁தாரா 98
▁திட்டமாகும் 98
▁துறைமுகத்தில் 98
▁தொகுதி 98
▁நவ் 98
▁நிபந்தனைகள் 98
▁நிறுவனமாக 98
▁நீல 98
▁நோக்கங்கள் 98
▁பணியின் 98
▁பாய் 98
▁பிரம்மாண்டமான 98
▁பெண்களும் 98
▁பொரு 98
▁மக்களைக் 98
▁மில்லியனுக்கும் 98
▁முடிவுக்குக் 98
▁முறைகளில் 98
▁மேல்முறைய 98
▁வடிவமைக்க 98
▁வரிகளை 98
▁வாக்குகளைப் 98
▁வெளியேறு 98
1971 97
1979 97
CIO 97
ell 97
ert 97
ip 97
க்குறை 97
த்தூ 97
த்தொக 97
நீக்க 97
ப்போட்ட 97
ரைன் 97
ர்வ் 97
லான் 97
லைச் 97
ல்களைக் 97
விதமான 97
ஹாரி 97
ானோ 97
ிகளுடனும் 97
ிக்கா 97
ெழு 97
ேகன் 97
▁அடைத்து 97
▁அதிசய 97
▁அத்தனை 97
▁அனைத்திலும் 97
▁அரசுகளும் 97
▁அவற்ற 97
▁ஆட்டம் 97
▁ஆண்டிற்கு 97
▁இணக்க 97
▁இல்லாம 97
▁இழப்பீடு 97
▁உடைத்து 97
▁உறுப்பினரும் 97
▁என்டி 97
▁கரும்பு 97
▁காட்டவில்லை 97
▁காலையில் 97
▁குடியுரிமை 97
▁குடியேறிய 97
▁கொழ 97
▁சிபி 97
▁சில்ல 97
▁சீரான 97
▁சுமை 97
▁டன்கள் 97
▁தலையை 97
▁திரையுலக 97
▁தேவைகளைப் 97
▁நிலைகள் 97
▁பங்கா 97
▁பன 97
▁பாகு 97
▁பார்வையாளர்கள் 97
▁புள்ளிவிவரங்கள் 97
▁பொறிய 97
▁போடு 97
▁மட்டுமல்லாது 97
▁மீரா 97
▁வங்கம் 97
▁வரக்கூடிய 97
▁வளர்த்துக் 97
▁வாய்வ 97
▁விருதை 97
▁விரும்பினால் 97
▁வெகுவாக 97
mun 96
ust 96
குரு 96
ங்கல் 96
ங்களிலேயே 96
த்ர 96
னால 96
னிக் 96
பங்க 96
பாரி 96
ப்பார்த்த 96
மைப்புத் 96
ரியாக 96
ழிப் 96
வாள 96
ஸிற்கு 96
ிகளிடமிருந்து 96
ிகொண்ட 96
ியலில் 96
ிலின் 96
ுட்படுத்த 96
▁(" 96
▁அசாதாரணமான 96
▁அதோடு 96
▁அமைப்புக்கு 96
▁ஆந்திரா 96
▁ஆவணங்களை 96
▁இருமட 96
▁உடனடிய 96
▁எடுப்பது 96
▁எல்லைகள் 96
▁எவருக்கும் 96
▁ஒன்றிணைந்து 96
▁கந்த 96
▁கல்த 96
▁கார்கில் 96
▁கிழக்கிலும் 96
▁குத்த 96
▁குறைத்த 96
▁கொண்டுவரப்பட்ட 96
▁சத்தீஸ்கர் 96
▁சமநிலை 96
▁செய்திக் 96
▁செய்யப்படவில்லை 96
▁தடையின்றி 96
▁துடி 96
▁தேவ் 96
▁தொடரில் 96
▁தொற்றுநோய 96
▁நடத்தின 96
▁நிரப்பு 96
▁நிலையிலிருந்து 96
▁நீக்கப்பட்ட 96
▁நீர்ப்பாசன 96
▁பயனற்ற 96
▁பலனை 96
▁பல்ப 96
▁மாற்றப்பட்ட 96
▁முதுநிலை 96
▁மூலமே 96
▁மேக 96
▁யுக 96
▁ரஹ்மான் 96
▁வரலாற்ற 96
▁வருவதற்கான 96
▁விவசாயி 96
▁வைரச 96
0000 95
87 95
ass 95
av 95
tamil 95
க்களால் 95
ங்களாலும் 95
தாக்கும் 95
திகா 95
ந்தீ 95
னியும் 95
புரி 95
ப்படுவதற்கான 95
ம்பிய 95
ய்யா 95
ரிக் 95
விரோத 95
வுகளில் 95
வுப் 95
ாடி 95
ாதிக்க 95
ான்ஸ் 95
ிடவும் 95
ிருப்பவர்கள் 95
ிவர 95
ுகொள் 95
ுக்கிடையே 95
ுய 95
ென்ன 95
ெள 95
ைகளோடு 95
ொற்ற 95
▁அறிவிக்கும் 95
▁அளித்தனர் 95
▁அவற்றிற்கு 95
▁ஆடை 95
▁ஆண்டுகளுக்குப் 95
▁ஆய்வுக்கூட 95
▁ஆர்ட 95
▁இந்தோ 95
▁இயை 95
▁இவர்களுடைய 95
▁உண்மையாக 95
▁உத்தராக 95
▁உயரமான 95
▁உயர்த்திக் 95
▁உருவாக்கிக் 95
▁உலகக் 95
▁உள்ளதாகவும் 95
▁என்பன 95
▁ஏற்றத்தாழ் 95
▁கடைப்பிடிக்க 95
▁கதா 95
▁காயமடைந்தனர் 95
▁கிடைக்காத 95
▁குண்டுவெ 95
▁சில் 95
▁சுரங்கத் 95
▁சூறையா 95
▁சென்றடையும் 95
▁செயல்படத் 95
▁செய்கின்றது 95
▁சொற்கள் 95
▁சொல்வத 95
▁தலைமுறையின 95
▁தளபதிகள் 95
▁தாண்டிய 95
▁திங்கள் 95
▁துணைப் 95
▁தெள 95
▁நன்ம 95
▁நல்லெண்ண 95
▁நிகழ்வுகளை 95
▁நிறுவனத்துடன் 95
▁நிலையத்திற்கு 95
▁பச்சை 95
▁பருத்தி 95
▁பற்றியது 95
▁பலியான 95
▁பிரசுரிக்க 95
▁பிரார்த்த 95
▁மன்மோகன் 95
▁மருந்துப் 95
▁ரகசிய 95
▁ரவீ 95
▁ரீதிய 95
▁வகித்தார் 95
▁விதம் 95
▁வினா 95
▁வியத்தகு 95
▁விழை 95
▁வெளிப்பட்ட 95
86 94
CSU 94
ast 94
ern 94
th 94
கன 94
சேஷ 94
ட்கள் 94
ட்டர்கள் 94
தக 94
தயா 94
தார் 94
துக்க 94
த்திற்காகவும் 94
த்தொழில் 94
மேம்ப 94
வராய 94
வைக்கும் 94
ஸாக 94
ாக்கள 94
ாடும் 94
ிகளோ 94
ித்துள்ளார் 94
ுடை 94
ூரின் 94
்தாம் 94
▁அநேகமாக 94
▁அப்பகுதியில் 94
▁அழகான 94
▁ஆயிரத்து 94
▁ஆழ்த்த 94
▁ஆஷா 94
▁இந்திரா 94
▁இருந்ததாக 94
▁இல்லாதது 94
▁உரிமையாளர்கள் 94
▁உறுதிபடுத்த 94
▁எல்லாவ 94
▁ஒவ்வொன்றும் 94
▁கட்டுரையை 94
▁கதைகள் 94
▁காங்கிரசின் 94
▁குறைவாகவே 94
▁கூற்றை 94
▁கொள்வதை 94
▁செய்கின்ற 94
▁ஞானம் 94
▁டிரம் 94
▁டொனால்ட் 94
▁தரக்கூடிய 94
▁திருச்ச 94
▁துறையும் 94
▁நலன 94
▁நாடுகளிலிருந்து 94
▁நாளே 94
▁நேரடியான 94
▁படைக்க 94
▁பரம்ப 94
▁பிரசுர 94
▁பிரமாண 94
▁பிற்பகல் 94
▁புலம்ப 94
▁பெங்களூரு 94
▁மதிய 94
▁மனத 94
▁மிஷன் 94
▁முனையம் 94
▁யாத்திரை 94
▁ராவ் 94
▁வதந்த 94
▁வரவழை 94
▁வரையறுக்க 94
▁வர்த்தகப் 94
▁வலைப்பின்ன 94
▁விடுத 94
▁விடுதல 94
▁வெடிக்க 94
1967 93
99 93
co 93
so 93
ub 93
இற 93
உற 93
க்கும்போது 93
சந்திர 93
ஜியா 93
டியால் 93
த்திரி 93
த்தைவிட 93
நம்பிக்கை 93
நெட் 93
படுத்தி 93
பண 93
ப்பாது 93
மதிப்பு 93
மின 93
மீக 93
ிப்பதோடு 93
ியானது 93
ொன்றை 93
்கீழ் 93
▁அடையாளத்தை 93
▁அண்ண 93
▁அபராதம் 93
▁அப்போதுதான் 93
▁அம்பேத்க 93
▁ஆபிரகாம் 93
▁உள்க 93
▁எடுத்துக்க 93
▁கட்டளையிட்டார் 93
▁கர்னல் 93
▁கான்ப 93
▁கிளம்ப 93
▁கீழான 93
▁குற்றவாளிகள் 93
▁கூட்டுத்தாபன 93
▁சிறந்து 93
▁செந்தில் 93
▁செய்கின்றனர் 93
▁செய்தித்த 93
▁செலாவணி 93
▁சொற்றொட 93
▁ஜோர்டான் 93
▁தங்கும் 93
▁தன்மையும் 93
▁தாமதம் 93
▁திரைப்படத் 93
▁தேடு 93
▁தேர்ச்சி 93
▁தோன்றி 93
▁தோற்க 93
▁நுழைந்து 93
▁பழி 93
▁பிரமாண்ட 93
▁பிரா 93
▁பிரான்சுவா 93
▁புதன்கிழமை 93
▁பூமியில் 93
▁பூரண 93
▁பொருள்களின் 93
▁போடும் 93
▁முதற்ப 93
▁முதல்முறையாக 93
▁மேல்த 93
▁ரிச்சர்ட் 93
▁வணிகப் 93
▁வரையற 93
▁வாடகை 93
▁வீசி 93
▁வீட்டின் 93
▁வெளியுறவுத் 93
▁ஷூ 93
▁ஸ்வீடன் 93
112 92
115 92
ik 92
ஐஎஸ் 92
ங்களாகவே 92
ச்சை 92
திருப்ப 92
த்தியை 92
ந்தன் 92
படு 92
பார்த்த 92
பிள 92
முழுவதும் 92
ம்பர் 92
ரங்கம் 92
ரப்பு 92
ர்களுக்காக 92
ர்க்கு 92
ர்ச்சிய 92
ல்லாமல் 92
வடையும் 92
வாசிகள் 92
ாதை 92
ொள்கிறது 92
ொழில்நுட்ப 92
்தி 92
▁அங்கீகரித்த 92
▁அடிப்படையிலேயே 92
▁அப்பாற்பட்ட 92
▁அமர் 92
▁அர் 92
▁அவுஸ்திரேலிய 92
▁உணவை 92
▁உதவித்தொகை 92
▁உயிர்த்த 92
▁ஓய்வுபெற்ற 92
▁கருத்துப் 92
▁கல்வியின் 92
▁சந்தாதார 92
▁சார்புடைய 92
▁சுழற்சி 92
▁செழ 92
▁சோதி 92
▁தண்ணீர 92
▁தனு 92
▁தரவ 92
▁தரவில்லை 92
▁தழுவ 92
▁தவி 92
▁நாடுகளான 92
▁நாடுகளையும் 92
▁நிமி 92
▁பங்காற்றிய 92
▁படத்திலும் 92
▁பெட்டி 92
▁மகாராஷ்டிர 92
▁மணிரத் 92
▁மனிதனின் 92
▁மறுத்துவிட்டார் 92
▁ரஷ்யாவில் 92
▁வணக்க 92
▁வரிச 92
▁வருத்தம் 92
▁விஜே 92
▁விட்டால் 92
▁வேண்டியதில்லை 92
▁வேண்டு 92
▁வேண்டுமானால் 92
▁ஹைதராபாத் 92
ank 91
rist 91
சியாவின் 91
செய்க 91
ச்சின 91
டங்க 91
டியது 91
தனை 91
பென் 91
மாக்கிய 91
மேன் 91
ருக்குள் 91
லாவில் 91
வனின் 91
விமான 91
வீதம் 91
ஹார் 91
ாக்கும் 91
ிக்கோ 91
ிடங்கள் 91
ிப்பான 91
ுக்கொள்ளும் 91
▁அதிகாலை 91
▁அறிமுகமான 91
▁ஆகஸ்டு 91
▁ஆடி 91
▁ஆதிக்கத்தை 91
▁இருத்த 91
▁உச்சநீதிமன்றம் 91
▁உடுத்த 91
▁உயர்நீதிமன்ற 91
▁எல்லைப்புற 91
▁ஒருவராக 91
▁கடமைகளை 91
▁கடலோ 91
▁கட்ச் 91
▁கண்களை 91
▁காந்தியடிகள் 91
▁கீழ்க்காணும் 91
▁கொண்டவர் 91
▁சகோதரன் 91
▁சாதிக்க 91
▁சுமையை 91
▁சூட்ட 91
▁சூழலுக்கு 91
▁தண 91
▁தலைவரை 91
▁திறனையும் 91
▁தூண்டி 91
▁தொடர்புபடுத்த 91
▁தொழில்நுட்பப் 91
▁நிர்வாண 91
▁நீதிமன்றங்கள் 91
▁நெச 91
▁நோயை 91
▁பகுதியைச் 91
▁பயணிகளை 91
▁பயன்படுத்தலாம் 91
▁பேரு 91
▁மணித்தியால 91
▁மனது 91
▁முகாமை 91
▁முன்னோக்கி 91
▁யுரேனிய 91
▁ராய 91
▁வழக்குகளை 91
▁வழங்குவதாக 91
▁ஹெக்ட 91
\ 90
eric 90
அமை 90
உள்ள 90
காப்பு 90
க்கல 90
டிகளில் 90
டிக்கப்பட்ட 90
ட்களில் 90
ட்டுமான 90
தில 90
த்தியில் 90
ந்தால் 90
படை 90
பவை 90
புல 90
ப்படுத்தப்பட்டது 90
ப்பட்டுக் 90
ப்பழ 90
ப்பிட்ட 90
முகம் 90
ர்களுக்குப் 90
ற்றல் 90
ளிக்கிறது 90
வர்களைப் 90
விலும் 90
ிக்குரிய 90
ியான் 90
ையாளர் 90
்களிலும் 90
▁அனைத்திற்கும் 90
▁அவளுக்கு 90
▁அவைகளில் 90
▁ஆட்சிக் 90
▁ஆதரவளிக்க 90
▁ஆய்வை 90
▁இழி 90
▁இவைகள் 90
▁உணவுக் 90
▁ஊடுருவ 90
▁எஸ்டேட் 90
▁கன் 90
▁காரணங்களால் 90
▁கிடைக்கின்றன 90
▁கீர்த்தி 90
▁குறைக்கப்பட்ட 90
▁கூர்மையான 90
▁கேர் 90
▁கையே 90
▁கோவில் 90
▁சட்டத்தின்படி 90
▁சாந்த 90
▁சோதனைக் 90
▁ஜான் 90
▁ஜெர்மனி 90
▁தகுதியான 90
▁தெரிவித்தன 90
▁நடத்தப்படுகிறது 90
▁நிர்வாகி 90
▁நேய 90
▁பகிர 90
▁படைப்ப 90
▁பாடலுக்கு 90
▁பாடுபட்ட 90
▁பெற்றிருக்கிறது 90
▁பெற்றிருக்கும் 90
▁பொறுத்து 90
▁மணிநேர 90
▁மண்ணில் 90
▁மதி 90
▁மனநிறை 90
▁மன் 90
▁மறுசுழற்சி 90
▁மும் 90
▁முயற்சித்த 90
▁வலியுறுத்தியது 90
▁வழிவ 90
▁விசாரணைகள் 90
▁வித்யா 90
▁விரும்பாத 90
▁விலங்குகள் 90
▁வைத்திருப்பத 90
FDP 89
கெ 89
க்கூடியதாக 89
சர 89
ணர்வை 89
ணிகளை 89
ந்தரி 89
பசு 89
பிடித்து 89
ப்பிட 89
ரன்ஸ் 89
ரியர் 89
ருவதாக 89
றிந்த 89
ழுத்த 89
வாரா 89
ாக்களும் 89
ாசி 89
ாரணமாக 89
ாரஸ் 89
ாவுடனான 89
ிகளிலிருந்து 89
ிருப்பர் 89
• 89
▁அடைவதற்கான 89
▁ஆர்வத்தை 89
▁இம்ம 89
▁இயந்திரம் 89
▁உதவியும் 89
▁எதிரே 89
▁எதுவு 89
▁ஒழுங்கை 89
▁காரணமாகவே 89
▁குறியீட்டு 89
▁கெல்லி 89
▁கொண்டதாகவும் 89
▁கௌரவ 89
▁சட்டப்பூர்வ 89
▁சந்திரசேகர் 89
▁சமூகச் 89
▁சாதனையை 89
▁சீனாவை 89
▁சூழ்நிலைகளில் 89
▁செங்கோ 89
▁செய்யவேண்டிய 89
▁தற்செய 89
▁தீயணைப்பு 89
▁தேவைக்கு 89
▁தொழில்முறை 89
▁தோற்றத்தை 89
▁நமக்குத் 89
▁நல்லுற 89
▁நாளான 89
▁நுழைவு 89
▁பகிர் 89
▁படப்பிடிப்ப 89
▁பட்டதார 89
▁பட்டயம் 89
▁பதினைந்து 89
▁பயன்பெ 89
▁பயிற்சியில் 89
▁பாடசாலை 89
▁பாப 89
▁பிரசார 89
▁பூங்கா 89
▁பொதி 89
▁மக்களவை 89
▁மரபார்ந்த 89
▁யாருக்கும் 89
▁யூகோஸ்லாவிய 89
▁லியோன் 89
▁வல்லுநர்கள் 89
▁விடவும் 89
▁வியாத 89
▁வீசிய 89
▁வெறிய 89
▁வேண்டுகோ 89
194 88
89 88
AFL 88
ஐசி 88
காத 88
ச்செய்ய 88
டின் 88
தளம் 88
தேவ் 88
த்துக்குள்ள 88
த்ம 88
ந்துகொள்ளும் 88
பாடும் 88
பார்த்து 88
ப்க 88
ப்பகுத 88
ப்பர 88
ப்பாட 88
ப்பின்பு 88
ரகம் 88
ள்ளி 88
வாயு 88
வேளை 88
ாமை 88
ாவல் 88
ிடை 88
ின்போது 88
ூட்டல் 88
்களால் 88
்க்கும் 88
▁அதிகமாய் 88
▁அதைவிட 88
▁அமைச்சரான 88
▁அம்சங்களில் 88
▁இதழில் 88
▁இரத்தக்க 88
▁இருப்பதையும் 88
▁உயர்த 88
▁உலகத்தை 88
▁ஊர்வல 88
▁எதிர்மறை 88
▁என்றோ 88
▁ஏற்படுத்தக் 88
▁கண்டம் 88
▁கனி 88
▁காண்பதற்கு 88
▁காம 88
▁குடும்பங்களின் 88
▁குழும 88
▁கேள்விகளை 88
▁சாமுவேல் 88
▁சீர் 88
▁சைப் 88
▁ஜார்கண்ட் 88
▁தாங்கினார் 88
▁தானும் 88
▁தியேட்டர் 88
▁நடப்ப 88
▁நடப்பது 88
▁நபர்களுக்கு 88
▁நாவ 88
▁நெருங்க 88
▁பதிப்பில் 88
▁பிக்க 88
▁புதை 88
▁பெயர்கள் 88
▁பெய் 88
▁பெறவேண்டும் 88
▁பொருளை 88
▁மலர் 88
▁மாநிலங்களும் 88
▁மின்சாரத்தை 88
▁மேகாலயா 88
▁மையப் 88
▁யூன 88
▁வருமானத்தில் 88
▁வலிய 88
▁வார்த்தையை 88
▁விலக்கிக் 88
▁விவசாயப் 88
▁வேண்டுமானாலும் 88
▁வேளைகளில் 88
▁வோ 88
▁ஸ்ட்ரீ 88
1981 87
1988 87
69 87
88 87
94 87
q 87
க்கணக்கில் 87
க்கப்படும் 87
சாத 87
சுக்கு 87
ச்சன் 87
ஞ்சிய 87
ண்டிய 87
தாரம் 87
துரு 87
த்தினருக்கு 87
நேரம் 87
பிலி 87
பிள் 87
ப்ட் 87
மையற்ற 87
ருக்கள் 87
வரைவு 87
வற்றின் 87
வுட 87
ாவு 87
ிச்ச 87
ிப்பதன் 87
ிற்கே 87
ிள 87
ுடனேயே 87
▁அண்ணா 87
▁அமைப்பிற்கு 87
▁ஆடியோ 87
▁இட்ட 87
▁இதைவிட 87
▁எந்தச் 87
▁ஒப்படை 87
▁ஒற்றுமையை 87
▁கடிதத்தை 87
▁கட்டிடங்கள் 87
▁கண்ணாடி 87
▁கண்ணோட்டம் 87
▁காலி 87
▁குறிப்பிடப்பட்ட 87
▁கூற்று 87
▁கேள்விக்க 87
▁கையாண்டு 87
▁கொள்கின்றனர் 87
▁சங்கத்தில் 87
▁சிட்டி 87
▁சிந்தனைகளை 87
▁சுருக்கமாக 87
▁சூறாவளி 87
▁செய்துவ 87
▁செய்வதும் 87
▁செலுத்துதல் 87
▁சேர்ந்தவர் 87
▁டென்மார்க் 87
▁தங்கியிருந்த 87
▁தனிநபர்கள் 87
▁தமிழாக்கம் 87
▁திரும்பக் 87
▁துரிதமாக 87
▁நல்க 87
▁நிலையையும் 87
▁நீட்டிக்க 87
▁நெறிமுறை 87
▁நெல் 87
▁பன்முகத் 87
▁பயிர்கள் 87
▁பஹ் 87
▁பாதாள 87
▁பார்வையிட 87
▁பிபிசி 87
▁பீம் 87
▁போராடிய 87
▁மரக்க 87
▁மறைமுகமாக 87
▁மறைவுக்கு 87
▁முக்கியத் 87
▁முக்த 87
▁முன்னறிவ 87
▁மூடு 87
▁யோகி 87
▁வங்கியில் 87
▁வடக்கே 87
▁வரைக்கும் 87
▁விண்ணப்பம் 87
▁வேகத்தை 87
▁ஹெல் 87
& 86
1956 86
96 86
IG 86
ஃபா 86
டித் 86
தானே 86
நீர் 86
நோய 86
பாட்டை 86
பாத்தில் 86
ப்பட்டதை 86
ப்பைத் 86
மைகளின் 86
ம்பேர் 86
ற்றுவ 86
லூ 86
ல்வி 86
வாவின் 86
விருந்த 86
வோன் 86
ாடுகளை 86
ிகி 86
ிண 86
ித்துச் 86
ிராஜ் 86
ிருப்பதும் 86
▁அன்னிய 86
▁அழிக்கும் 86
▁ஆங்கிலம் 86
▁ஆனந்த் 86
▁ஆர்யா 86
▁இடம்பெய 86
▁உதவு 86
▁எருசலேமில் 86
▁எளிமை 86
▁ஓரளவிற்கு 86
▁கடல 86
▁கட்சிகளில் 86
▁காப்புரிமை 86
▁காய்ச்சல் 86
▁கிரக 86
▁குத்துவ 86
▁குறிப்பில் 86
▁குற்றஞ்ச 86
▁குழுமம் 86
▁கோபி 86
▁சந்தித்தது 86
▁சமூகத்தின 86
▁சரக்க 86
▁சிகிச்சைப் 86
▁சுற்றிவ 86
▁செலுத்தப்பட்ட 86
▁சேவைகளில் 86
▁சொந்தக் 86
▁ஞாபக 86
▁டான் 86
▁தமிழகம் 86
▁தரையில் 86
▁தீர்ப்ப 86
▁நடுப்பகுதியில் 86
▁படையெடுத்த 86
▁பதன 86
▁பயணத்தின்போது 86
▁பரவி 86
▁பரு 86
▁பிடித்துக் 86
▁பிணைக்க 86
▁பின்னரே 86
▁பிரதிபலிப்ப 86
▁பிரபுக்கள் 86
▁பீட 86
▁புத்தாண்டு 86
▁பெல்ஜிய 86
▁மருத்துவச் 86
▁மருத்துவர் 86
▁ராக்க 86
▁விகிதங்கள் 86
▁விதித்த 86
▁வித்த 86
▁வியாபாரம் 86
▁வியாழக்கிழமை 86
▁விளக்கு 86
▁விளைவிக்கும் 86
▁விழுந்தது 86
▁வெறி 86
▁வேண்டியிருந்தது 86
▁வேலைகளில் 86
ec 85
ler 85
எஸ்சி 85
கத் 85
கப் 85
குத 85
க்காகவும் 85
ங்க் 85
சாய் 85
சிக்கு 85
டிவ் 85
டுவர் 85
ட்டது 85
த்திடமிருந்து 85
த்துக்கொள்ளும் 85
ன்னு 85
பக்க 85
பலி 85
ப்பாள 85
ப்புகளும் 85
ப்பூ 85
மலே 85
முண்டு 85
ற்றுக்கு 85
வைச் 85
ார்ட 85
ினையும் 85
ேயர் 85
ொல்ல 85
▁in 85
▁அளித்துள்ளார் 85
▁அழுத்தத்தின் 85
▁ஆய்வாளர் 85
▁இணைத்த 85
▁இருந்தவர்கள் 85
▁இலத்தீன் 85
▁உடன்படிக்கையில் 85
▁உத்திய 85
▁உருவாக்கு 85
▁எண்ணி 85
▁எழுபது 85
▁கலக்க 85
▁காட்டுவது 85
▁குருதி 85
▁சுரு 85
▁சூட 85
▁செல்ப 85
▁ஜப்பானில் 85
▁ஜு 85
▁ஜெட் 85
▁தகவல்களைப் 85
▁தன்னால் 85
▁தரித்த 85
▁தவிர்க்கும் 85
▁திபெத்திய 85
▁திருப்பிக் 85
▁திரைக்கு 85
▁தூர்தர் 85
▁தெரியாமல் 85
▁தொகைக்கு 85
▁தொற்றுநோய் 85
▁தோல்வியுற்ற 85
▁நகரங்களை 85
▁நகரத்தை 85
▁நகர்ந்து 85
▁நன்கொடை 85
▁நிபுணத்துவம் 85
▁நிழ 85
▁நீர்த்தேக்க 85
▁நூற்றாண்டுகளாக 85
▁நெதர்லாந்து 85
▁பகுதிகளுக்கும் 85
▁பண்டைய 85
▁பரத் 85
▁பலருக்கு 85
▁பூச்ச 85
▁பூட்ட 85
▁மேற்கொண்டனர் 85
▁ருவா 85
▁வசதிகளையும் 85
▁வளர 85
▁வளர்க்கும் 85
▁வளைகுட 85
▁வழக்கறிஞர்கள் 85
▁வாஜ்பாய் 85
▁விடுத்து 85
▁விபர 85
▁விளக்கும் 85
▁ஸ்ட் 85
CPI 84
க்கூடியது 84
ங்கிப் 84
சக 84
சென்ற 84
ச்சில் 84
ச்செல்லும் 84
ட்சியும் 84
ணத்தின் 84
த்திலோ 84
ந்துகொள்ள 84
னர்கள் 84
னையை 84
ன்களும் 84
பற்றிய 84
ப்படவும் 84
மாணம் 84
முடியாமல் 84
ரத்தின் 84
ராஜன் 84
ராவ் 84
ரிமை 84
ருகின்ற 84
ருட 84
ருமே 84
ல்கா 84
ள்ளது 84
ிஸ்ட 84
ுக்குள்ளேயே 84
ும்படி 84
ூறிய 84
ையுடைய 84
ொள்கின்றனர் 84
ொழில் 84
்ட் 84
▁அடைக்கப்பட்ட 84
▁அனுப்பியது 84
▁அவற்றைப் 84
▁இதற்கென 84
▁இத்திட்டத்தை 84
▁இத்துடன் 84
▁இருக்கக்கூடும் 84
▁இல்லாவிட்டால் 84
▁உட்கார்ந்து 84
▁உயர்நிலைப் 84
▁எரிய 84
▁எலும்ப 84
▁ஏற்பாட்ட 84
▁ஏழ்மை 84
▁கட்டுக்க 84
▁கணக்கிட 84
▁கவர்ச்சி 84
▁காணவும் 84
▁காரணங்களுக்காக 84
▁காரணங்களை 84
▁கார்கள் 84
▁குறைபாடுகள் 84
▁கொள்கைகளில் 84
▁சபைக்கு 84
▁சரக்குகளை 84
▁சாராத 84
▁சுட்டிக்காட்டி 84
▁படுக்கை 84
▁பண்பு 84
▁பதின 84
▁பரம 84
▁பரிசோதி 84
▁பாகிஸ்தானின் 84
▁பாரதிராஜா 84
▁பிணைப்பு 84
▁பிரதிநிதியாக 84
▁பெற்றவர் 84
▁பொறுப்பே 84
▁மணியளவில் 84
▁மதிப்பீட்டை 84
▁மாதாந்திர 84
▁மாநிலத் 84
▁மாறுத 84
▁ராக்கெட் 84
▁வண்ட 84
▁வரலாற்றிலேயே 84
▁வருவார்கள் 84
▁வாங்கு 84
▁வாரத்திற்கு 84
▁விட்டதாக 84
▁வித்யாலயா 84
▁விளைபொரு 84
▁விளையாட்டுகள் 84
▁வெள்ளிக்க 84
che 83
எனது 83
கிழக்கு 83
ங்கிற்கு 83
சாரம் 83
சிஸ் 83
ச்சின் 83
ஜக் 83
டந்த 83
ட்சம் 83
த்தவர்கள் 83
பரு 83
பர்ட் 83
ப்பாளர் 83
ப்பைப் 83
மாட்டார் 83
ராப் 83
லியும் 83
ல்களைப் 83
வெளியில் 83
ஸ்கள் 83
ாவுக்குப் 83
ிக்காட்ட 83
ுகொண்டார் 83
ூடாக 83
▁அடிப்படைப் 83
▁அதற்குத் 83
▁அனுப்பினார் 83
▁அவசியமாகிறது 83
▁அவ் 83
▁ஆபிர 83
▁இடத்திலும் 83
▁இணைப்புகளை 83
▁இமாச்சல 83
▁இழப்பை 83
▁இவைகளை 83
▁உடையது 83
▁உதவியாளர் 83
▁உப்பு 83
▁உற்பத்தியாளர் 83
▁உள்ளடங்கிய 83
▁கல்லூரியின் 83
▁காசநோய் 83
▁கூறின 83
▁கைதுசெய்ய 83
▁கொடுப்ப 83
▁கொண்டிருப்பதால் 83
▁கோரினார் 83
▁சான 83
▁சித்தரி 83
▁சித்திரவத 83
▁சுற்றுப் 83
▁செய்வதற்க 83
▁சேவைகளின் 83
▁ஜோஷி 83
▁தனித்துவ 83
▁தம்ம 83
▁தரவரிசை 83
▁தலைநக 83
▁தலைவ 83
▁தீமை 83
▁தெற்கில் 83
▁தொழில்களில் 83
▁நந்த 83
▁நாளொன்றுக்கு 83
▁நினைவிட 83
▁நிரூபிக்க 83
▁நிறுத்தத்தில் 83
▁நெரிச 83
▁நெறிமுறைகளை 83
▁பண்டிட் 83
▁பயந்த 83
▁பயமுறுத்த 83
▁பரவிய 83
▁பழக 83
▁பாகிஸ்தானில் 83
▁புரட்சிய 83
▁போரைத் 83
▁மகாரா 83
▁மலைவாழ் 83
▁மாட்டாது 83
▁மின்ன 83
▁முகத்தில் 83
▁மும்ப 83
▁மூலை 83
▁யாவும் 83
▁வகுக்கும் 83
▁விளம்பரம் 83
▁வீரம் 83
93 82
ail 82
ax 82
ric 82
அழக 82
இன்ன 82
ஐஏ 82
சப 82
சீனா 82
த்திரு 82
த்துவதற்கு 82
த்தொடர்ந்து 82
னியை 82
ப்பூர்வமாக 82
மெல்லாம் 82
யாக் 82
யிலில் 82
ரூப 82
ற்றதாக 82
லக் 82
லியின் 82
லோன் 82
ஸ்கார் 82
ாயுத 82
ாளம் 82
ிக்கப்படுகின்றன 82
ிதம் 82
ுடன 82
ெடுப்பது 82
்டின் 82
▁; 82
▁அகற்றப்பட்ட 82
▁அடங்க 82
▁அறிவித்தனர் 82
▁அறையில் 82
▁ஆட்டோ 82
▁ஆய்வின் 82
▁ஆளுந 82
▁ஆஸ்கார் 82
▁இப் 82
▁இரவும் 82
▁இருந்ததில்லை 82
▁இருவரையும் 82
▁இலங்க 82
▁இலாபத்தை 82
▁உளவியல் 82
▁எண்ணங்கள் 82
▁என்பவன் 82
▁எவ்வாறாயினும் 82
▁ஒருசில 82
▁கட்டமைப்பில் 82
▁கட்டுவதற்கு 82
▁கண்களில் 82
▁கண்டுபிடித்து 82
▁கத்தோலிக்க 82
▁களைய 82
▁குஜரா 82
▁குடிவ 82
▁கைவினைப் 82
▁கோல 82
▁சக்தியின் 82
▁சட்டப் 82
▁சாப 82
▁சாமி 82
▁சென்றிருந்த 82
▁தனித்தனி 82
▁தன்னிடம் 82
▁திட்டமாக 82
▁துன்புறுத்த 82
▁நர்மதா 82
▁நாட்டிய 82
▁நீட்டி 82
▁நோக்கத்தில் 82
▁பட்டின 82
▁பண்பாட்டு 82
▁பாதுகாப்பற்ற 82
▁பாபு 82
▁பிரிவுகளும் 82
▁ப்ரீ 82
▁மக்களுக்காக 82
▁மதிப்பி 82
▁மனப்பான் 82
▁யுவ 82
▁ராவ 82
▁ரிச்சார்ட் 82
▁வங்கிகளில் 82
▁வசிப்ப 82
▁வராது 82
▁வருடங்கள் 82
▁வாழ்க்கைக்கு 82
▁விஞ்ஞானி 82
▁விரும்பினார் 82
▁வேட்பு 82
▁வைத்துக்கொள்ள 82
142 81
ess 81
ங்கட 81
ங்களினால் 81
சக் 81
சிங்கம் 81
சொல்ல 81
ச்சீட்டு 81
டுவதில்லை 81
தம 81
நிர 81
பிரதேச 81
ப்பட்டதுடன் 81
மைத்து 81
ராவில் 81
றையில் 81
ற்றுக் 81
ளிய 81
வகை 81
வாண 81
வாஸ் 81
ாயும் 81
ிராம 81
ில்லாமல் 81
ுவர 81
ூரு 81
்களுடன் 81
▁ஃபோ 81
▁அந்நாட்டின் 81
▁அருமையான 81
▁அவற்றுக்கு 81
▁ஆண்டுகளை 81
▁இசைவு 81
▁இதழ் 81
▁இத்துறையில் 81
▁இலட்சக்கணக்கான 81
▁உண்டாக்கி 81
▁உதவிப் 81
▁ஊடகங்களின் 81
▁எஞ்சியுள்ள 81
▁கடற்பட 81
▁காசோ 81
▁காரணத்தை 81
▁கீத 81
▁கைக்கு 81
▁கொள்ளப்பட 81
▁சின்னம் 81
▁சிலவற்றை 81
▁சுமந்து 81
▁செயலிய 81
▁சேவைத் 81
▁சொந்தமாக 81
▁சொல்வது 81
▁சோனியா 81
▁தந்தார் 81
▁தமிழ்நாட்டின் 81
▁தலையில் 81
▁தானாகவே 81
▁துவார 81
▁தெருக்க 81
▁தேவையில் 81
▁தொடர்ந்தது 81
▁தொடர்ந்தார் 81
▁நீட்டிப்பு 81
▁நீரை 81
▁பக்கத்து 81
▁பணிபுரி 81
▁பண்பாடு 81
▁பயிலும் 81
▁பருவமழை 81
▁பழங்கள் 81
▁பாத் 81
▁போர்கள் 81
▁மக்களுக்கான 81
▁மற்றவர்களுக்கு 81
▁முப்ப 81
▁முரளி 81
▁முழுப் 81
▁மெதுவாக 81
▁வணிகர்கள் 81
▁வரப்பட்ட 81
▁வாய்ப்பும் 81
▁விளங்கிய 81
▁விழிப்புணர்வ 81
▁விஸ்வ 81
▁வெனி 81
▁வைத்திருப்பது 81
1964 80
eg 80
erv 80
och 80
uk 80
எதிர 80
கித 80
க்கப்பட்டனர் 80
க்ஸ 80
ங்களிலே 80
சாய 80
சேகர் 80
த்தினரும் 80
ன்பது 80
புறத்தில் 80
ப்பற்றிய 80
ப்போகிறது 80
மையாகக் 80
மொழி 80
லாவின் 80
ல்லாம் 80
ழ்ந்த 80
வதாகும் 80
வராகவும் 80
வியாக 80
விற்கும் 80
ஷோ 80
ாட்டுத் 80
ாயின 80
ார்டு 80
ாளர்களான 80
ாவிடில் 80
ிகாரம் 80
ியாகப் 80
ிருத்தல் 80
ிவாக 80
ுக்குள்ளும் 80
்தொ 80
▁அடிப்படைத் 80
▁அரு 80
▁அறிவாற்றல் 80
▁ஆதரவில் 80
▁ஆப்க 80
▁இயற்றப்பட்ட 80
▁ஈடுபட்டிருந்த 80
▁உரம் 80
▁உரிமைகளையும் 80
▁எல்லோருக்கும் 80
▁கடலின் 80
▁கட்டணங்கள் 80
▁கனிம 80
▁கப்பல்களை 80
▁கல்லற 80
▁காட்சிப்படுத்த 80
▁காலணி 80
▁குடிக்க 80
▁கூடு 80
▁கூட்டுத் 80
▁கொச 80
▁கொண்டாலும் 80
▁சவுத் 80
▁சாத்தியக்கூற 80
▁சாப்பிட 80
▁செயற்பாடுகள் 80
▁செவி 80
▁சைக்கிள் 80
▁சொற்ப 80
▁டெக் 80
▁தன்மையின் 80
▁தயங்க 80
▁தளங்களில் 80
▁தால 80
▁திரைய 80
▁தெரிவிக்கப்பட்ட 80
▁தொழிற்ப 80
▁நதிய 80
▁நரக 80
▁நல்லிணக்க 80
▁நிர்ணயிக்க 80
▁நிலத்தின் 80
▁நிலநடுக்க 80
▁நு 80
▁நேர்ந்த 80
▁பயணிக்க 80
▁பரிமாற்றங்கள் 80
▁பவன 80
▁பவன் 80
▁பாகிஸ்தானிய 80
▁பாசி 80
▁பாரதி 80
▁பார்த்தார் 80
▁பித 80
▁புகலிடம் 80
▁பேசிக் 80
▁போட்டியிட்ட 80
▁முறையீடு 80
▁மேலாளர் 80
▁வகைகளில் 80
▁வடிவிலான 80
▁வன்ம 80
▁வாகனங்களின் 80
▁விவரித்த 80
▁வேண்டுகோளை 80
ack 79
con 79
gel 79
ish 79
இட 79
ங்கின 79
சேர் 79
ணியின் 79
ண்டுகள் 79
தங்கள் 79
தைக்கு 79
நீங்கள் 79
னவாக 79
பாடாக 79
புறம் 79
ப்படக்கூடிய 79
ப்படுவதோடு 79
ப்பானது 79
மாவை 79
மெண்ட் 79
ம்பா 79
யோகம் 79
ய்ந்த 79
ருகே 79
ர்ட்டில் 79
வினால் 79
விளை 79
வையின் 79
ஸ்கா 79
ாங்க் 79
ாதீர்கள் 79
ாய்க் 79
ிகளுக்குத் 79
ிடமிருந்தும் 79
ிப்பதற்க 79
ுரை 79
ைகளாலும் 79
ைகளோ 79
ொல் 79
்தர 79
▁அசை 79
▁அடிமட்ட 79
▁அரங்கம் 79
▁அஹ் 79
▁இருத்தல் 79
▁இறையாண்மை 79
▁உயிர்களை 79
▁உறுதிசெய்ய 79
▁ஊக்குவித்தல் 79
▁எதிரி 79
▁ஒப்பிட 79
▁கடக்க 79
▁கட்டமைப்புகளை 79
▁கற 79
▁காரணமாகவும் 79
▁கிடைத்துள்ள 79
▁குடியேற 79
▁குடும்பத்திற்கு 79
▁கையக 79
▁கொரில்லா 79
▁கோரியது 79
▁சமயங்களில் 79
▁சர்ச்ச 79
▁சார்பான 79
▁சிரு 79
▁சீரமை 79
▁சுற்றிய 79
▁சுவர் 79
▁சேதம் 79
▁சேனா 79
▁தலைநகரில் 79
▁தில 79
▁துறைகளுக்கு 79
▁தெளிவற்ற 79
▁நடா 79
▁நடித்துள்ளார் 79
▁நபர்களை 79
▁நிலையின் 79
▁நீண்டகாலம் 79
▁நுகர்வோ 79
▁நேரடித் 79
▁பக் 79
▁பயன்படுத்தியது 79
▁பெரிதாக 79
▁பொங்க 79
▁போர்த்த 79
▁மாநகர 79
▁மாநிலங்களை 79
▁மிகை 79
▁மீன்பிடி 79
▁முக்கியமானதாக 79
▁முன்மொழி 79
▁மேரி 79
▁யூனி 79
▁யூரே 79
▁லோக் 79
▁வரிய 79
▁வரைய 79
▁விக்ர 79
▁வியட்நாமில் 79
▁விரிவா 79
▁விரும்பி 79
▁விலக்கி 79
▁வெளிப்பட்டது 79
▁வெளியேறி 79
` 78
if 78
கல 78
சீர் 78
தென்றும் 78
னியர் 78
பவர்களாக 78
பும் 78
மண 78
யாவின் 78
ரிசி 78
ரிஸ் 78
ர்களிடமிருந்து 78
லியா 78
வுக்கான 78
ஷியல் 78
ஸ்லோ 78
ாட்சிய 78
ாமலேயே 78
ிக்கொண்டிருந்த 78
ிலட 78
ுகொள்ளும் 78
ுவந்து 78
▁அப்பம் 78
▁அளவுகோ 78
▁ஆக்கிய 78
▁ஆபிரிக்கா 78
▁ஆப்பிரிக்கா 78
▁ஆறாவது 78
▁ஆறுதல் 78
▁இருப்பதற்கான 78
▁இவ்விட 78
▁உழ 78
▁ஏற்றிச் 78
▁ஒருவருக்கொருவர் 78
▁ஒளிபரப்பு 78
▁ஓடும் 78
▁கருதப்பட்டது 78
▁கார்டியன் 78
▁குலை 78
▁சமமாக 78
▁சாகச 78
▁சேமிப்புக் 78
▁ஜின் 78
▁தரத்தில் 78
▁திட்டமானது 78
▁துணிவ 78
▁தெற்க 78
▁தேனீ 78
▁தொடர்ச்ச 78
▁நற்ப 78
▁நாட்டிற்கும் 78
▁நோய்களை 78
▁பகல் 78
▁படைகளும் 78
▁படையில் 78
▁பணப் 78
▁பணிகளும் 78
▁பயிற்றுவ 78
▁பிகார் 78
▁பின்பற்று 78
▁பிரச 78
▁புட 78
▁புள்ள 78
▁பொறுப்பேற்க 78
▁போட்டோ 78
▁போதன 78
▁மலேசிய 78
▁மலேசியா 78
▁மார 78
▁மீதமுள்ள 78
▁முதலீட்டில் 78
▁மோக 78
▁மோட்டார்ஸ் 78
▁ரத் 78
▁வகித்து 78
▁வகுப்புகள் 78
▁வால் 78
▁விபரங்கள் 78
▁வைப்பதற்கு 78
1972 77
1978 77
af 77
ant 77
eral 77
land 77
les 77
ment 77
கவ 77
ங்களுள் 77
சிசி 77
சியும் 77
ச்சிய 77
ஜு 77
டில் 77
தமிழ் 77
நகர 77
நாய 77
னுக்குச் 77
மகன் 77
மற்றும் 77
மிக் 77
மையினால் 77
ருடனும் 77
ல்களுக்கான 77
ளைக் 77
வதைத் 77
விலிருந்து 77
ஷ்கர் 77
ஹெ 77
ிப்பின் 77
ிழா 77
ிவைத்து 77
ேஸ் 77
ொன்ற 77
்சின் 77
்துறையின் 77
▁அதற்குச் 77
▁ஆரவார 77
▁இன்ப 77
▁இப்படியான 77
▁இரண்டரை 77
▁இருவருமே 77
▁உத்தம 77
▁எண்ணிக்கையும் 77
▁ஏவுகண 77
▁ஒத்தி 77
▁ஒளிப்பதிவாளர் 77
▁ஓரா 77
▁கண்ம 77
▁காட்சிக்கு 77
▁காரணியாக 77
▁குட்ட 77
▁கைவிடப்பட்ட 77
▁கொள்கிறார் 77
▁சன 77
▁சமூகத்திற்கு 77
▁சிங்களத் 77
▁சூழ்நிலைகள் 77
▁சேர்ந்தது 77
▁தத்துவம் 77
▁தாகூர் 77
▁திங்கட்கிழமை 77
▁திருவிழ 77
▁தொன்மையான 77
▁நாட்களை 77
▁நிகழ 77
▁நிகழும் 77
▁நெறிப்படுத்த 77
▁பணிகளையும் 77
▁பன் 77
▁பவுண்ட 77
▁பாடம் 77
▁பாட் 77
▁பாலி 77
▁புகுந்து 77
▁பெட்டிகளில் 77
▁பெருமையை 77
▁பொம்மை 77
▁மக்களைப் 77
▁மீதிய 77
▁முதியோர் 77
▁முன்னுத 77
▁யே 77
▁லெப்டினன்ட் 77
▁வன் 77
▁வழங்கினர் 77
▁வாய்ப்புக்கள் 77
▁வாய்ப்புள்ள 77
▁விளக்குகள் 77
▁வீட 77
1987 76
IV 76
ater 76
ohn 76
ok 76
que 76
ஃபெ 76
அனைத்து 76
குறைந்த 76
க்கமும் 76
டுவதும் 76
ட்சிக்கு 76
ட்டான் 76
ண்டையில் 76
தற்குக் 76
த்திலிருந்தே 76
னேன் 76
ன்படி 76
பியின் 76
பிறகு 76
மட்டு 76
மதிய 76
மல் 76
மியின் 76
முடியவில்லை 76
முள்ளது 76
ரவி 76
ழுது 76
விடம் 76
வேறு 76
ஷ்வா 76
ஸ்த்த 76
ிகர 76
ிப்பும் 76
ிற்குட்பட்ட 76
ுட்ப 76
ைக்கொண்டு 76
▁அங்கம் 76
▁அதனைத் 76
▁அதன்மூலம் 76
▁அதிகாரபூர்வமாக 76
▁அதையும் 76
▁அயோ 76
▁அருணாச்சலப் 76
▁அளவாக 76
▁அழுக 76
▁அழைத்துவ 76
▁ஆயுர்வே 76
▁இயற்கையான 76
▁இல்லாது 76
▁இழந்தது 76
▁ஈடுபாட்ட 76
▁உத்திகள் 76
▁எழும் 76
▁ஏவுகணைகள் 76
▁ஐந்தாம் 76
▁ஒன்றைக் 76
▁கலாச்சாரத்தின் 76
▁கல்வியாளர்கள் 76
▁காந்தியடிகளின் 76
▁காவல 76
▁சகோதரி 76
▁சங்கிலி 76
▁சங்கீத 76
▁சந்தைப் 76
▁சாட்டப்பட்ட 76
▁செய்வார் 76
▁ஜன்ன 76
▁ஜால 76
▁தனியான 76
▁திரண்டு 76
▁திறனில் 76
▁துவங்கிய 76
▁தெரியுமா 76
▁தொடர்பும் 76
▁நடமாடும் 76
▁நிறைவேற்று 76
▁நிலவி 76
▁பட்டிய 76
▁பால்க 76
▁பின்ப 76
▁பின்வா 76
▁பீரங்கி 76
▁புலம்பெயர் 76
▁புழ 76
▁பெய்ய 76
▁பொறியாளர்கள் 76
▁போன்றவற்ற 76
▁போரிட 76
▁மகிழ் 76
▁மனதை 76
▁மறுத்தார் 76
▁மறுப்பு 76
▁மாவட்டங்களின் 76
▁மீளா 76
▁முழுத் 76
▁முஸ்லிம்கள் 76
▁மைதானத்தில் 76
▁மையக் 76
▁ராஜேஷ் 76
▁ராதா 76
▁லோக 76
▁வடக்க 76
▁வன்முறைகள் 76
▁வளர்வ 76
▁வாட் 76
▁விடயம் 76
▁விதைக்க 76
-0 75
:- 75
அதி 75
காலத்தில் 75
க்களுடன் 75
க்ரோ 75
ங்கில 75
சுய 75
செல் 75
ஞ்சம் 75
டனின் 75
ட்டுக்கு 75
பசிபிக் 75
படியாக 75
பழ 75
ப்பாளர்கள் 75
மத் 75
மழை 75
முக்கிய 75
யாகும் 75
யோக 75
ரசி 75
ராஸ் 75
ருகின்றனர் 75
லாய் 75
வண்ண 75
ஷ்டி 75
ஸ்டி 75
ஸ்து 75
ிப்புத் 75
ிருக்காது 75
ிலிருக்கும் 75
ுகளுக்குப் 75
ுக்கிய 75
ேஷன் 75
்தே 75
▁... 75
▁அன்றாடம் 75
▁அமர்வில் 75
▁ஆண்டிற்கான 75
▁ஆந்திரப்பிரதேச 75
▁ஆப்கானிஸ்தானின் 75
▁ஆளுக 75
▁ஆஸ்திரேலியாவின் 75
▁இடித்து 75
▁இரண்டையும் 75
▁இறை 75
▁இல்லத்தில் 75
▁ஈடுபட்டுள்ளனர் 75
▁உரத்த 75
▁உற்பத்திக்கு 75
▁உள்ளட 75
▁எதிர்ப்புப் 75
▁எத்தனால் 75
▁எறிந்து 75
▁எறிய 75
▁கடைகள் 75
▁கட்டமைப்பின் 75
▁கலைஞர் 75
▁காதல 75
▁காத்து 75
▁காலாண்டு 75
▁குளிர 75
▁குழுமத்தின் 75
▁கொல்லப்பட்டார் 75
▁சபையை 75
▁சாப்பி 75
▁சித 75
▁சிப்ப 75
▁சிறைச்சால 75
▁சிலருக்கு 75
▁சுத்தம் 75
▁செயல்களில் 75
▁செய்பவர்கள் 75
▁சேவைகளுக்கு 75
▁டச்சு 75
▁டைரக 75
▁தடவை 75
▁தண்டிக்க 75
▁தமிழகத்தில் 75
▁திறமைகளை 75
▁தோட்டக்கலை 75
▁நாற்ப 75
▁நிறுத்தப்பட்ட 75
▁நீளம் 75
▁நெஞ்ச 75
▁நெருங்கி 75
▁பசி 75
▁பரந்து 75
▁பார்ப்ப 75
▁பிறப்பு 75
▁புதுமுக 75
▁புத்தகத்தை 75
▁புரட்சிகரமான 75
▁புரட்சிக்கு 75
▁புறக்கணிக்க 75
▁புவிசார் 75
▁பொறுப்புகளை 75
▁மக்களவைத் 75
▁மறுபுறம் 75
▁மாநிலங்களவை 75
▁மிகக்குறைந்த 75
▁மிகைய 75
▁மிசோரம் 75
▁மிதி 75
▁மீட்புப் 75
▁முன்மாதிரி 75
▁முர 75
▁ரசிகர் 75
▁வசதிகளுடன் 75
▁வம்சாவளிய 75
▁வர்த்தகக் 75
▁வாக 75
▁வான்வழி 75
▁வில்லன் 75
▁விளங்கியது 75
▁வெளியீட்ட 75
▁வைக்கப்பட்டு 75
▁ஸ்பெ 75
இந்தப் 74
ங்கியது 74
சமாக 74
ஜை 74
டுகின்றது 74
டுக்கும் 74
திகளில் 74
த்திற 74
த்துள்ளார் 74
நடை 74
னியாவின் 74
பிள்ள 74
ப்ள 74
ப்ஸ் 74
மடையும் 74
மாற்று 74
மொ 74
ரங்கில் 74
ர்ந்தது 74
லாந்தில் 74
வதிலும் 74
வழிக் 74
விகித 74
ாந்த் 74
ித்தின் 74
ினைக் 74
ினைப் 74
ியுமான 74
ுன 74
ையின்றி 74
ொன்றில் 74
்துறையில் 74
▁அடிப்படையில 74
▁அடையாளங்கள் 74
▁அருக 74
▁அலன் 74
▁அளப்ப 74
▁ஆட்சிக்க 74
▁இங்கிலாந்தில் 74
▁இசையமைப்ப 74
▁இடத்துக்கு 74
▁இனை 74
▁இயற்றிய 74
▁இறையா 74
▁உடையவர்கள் 74
▁கச்ச 74
▁கத்த 74
▁கருப்பு 74
▁கிடக்கும் 74
▁கிடைத்து 74
▁கிஷ 74
▁கொய் 74
▁சட்டத் 74
▁சல 74
▁சிக் 74
▁சிறப்பம்ச 74
▁செல்க 74
▁சொல்க 74
▁தன்மையுடைய 74
▁தரப்படும் 74
▁தருக 74
▁தலைநகர 74
▁தலையின் 74
▁தவறாகப் 74
▁தொலைவ 74
▁நகரங்களின் 74
▁நகர்வ 74
▁நிரூபித்த 74
▁நிறுத்திக் 74
▁நேர்மறையான 74
▁நோக்கிச் 74
▁படைகளால் 74
▁பணிபுரிந்த 74
▁பதவிகளை 74
▁பனி 74
▁பயணித்த 74
▁பரிணாம 74
▁பழிவாங்க 74
▁பிரச்சினையாக 74
▁பெயரால் 74
▁பொருத்தமாக 74
▁மட்டுப்படுத்த 74
▁மனிதர்களின் 74
▁மற்றவர்கள 74
▁முன்னின்று 74
▁முற்று 74
▁மேற்கண்ட 74
▁வழிவகுக்க 74
▁வாக்கெடுப்பில் 74
▁விதிமுறை 74
▁வேகமான 74
▁வைத்தல் 74
ary 73
ha 73
pe 73
உட 73
கக் 73
க்கெ 73
சபை 73
சிப்ப 73
ஜெய 73
ணத்தை 73
த்தரம் 73
நூற்று 73
நெருக்க 73
னமாக 73
னிக்க 73
பாவ 73
புரம் 73
மாவின் 73
ரியோ 73
லரின் 73
ஷனின் 73
ஸ்கர் 73
ாயி 73
ிகன் 73
ிகரமான 73
ிவின் 73
ுவதாகக் 73
ுவிட்டால் 73
ூடம் 73
▁அடைவது 73
▁அதிகாரத்தின் 73
▁அபக 73
▁ஆதாயம் 73
▁ஆளில் 73
▁இசையில் 73
▁இடங்கள 73
▁இயலவில்லை 73
▁இராம 73
▁இருவருக்கும் 73
▁இழுத்த 73
▁உக்ரை 73
▁உக்ரைன் 73
▁உறுப்பினர்களில் 73
▁எடி 73
▁ஏய் 73
▁ஒருங்கிணைக்கும் 73
▁ஒரேயொரு 73
▁கடினம் 73
▁கண்ணோட்டத்தில் 73
▁கமிட்ட 73
▁கற்பித்தல் 73
▁கல்லூரிகளில் 73
▁காணப்பட 73
▁காணப்படுகின்றன 73
▁கில 73
▁குறியீ 73
▁குறும்பட 73
▁கொடுத்தல் 73
▁சந்தைக்கு 73
▁சந்தைப்படுத்த 73
▁சிறுத 73
▁சூழ் 73
▁சேர்க்கை 73
▁டிவி 73
▁தாக்கு 73
▁துட 73
▁தென்மேற்கு 73
▁தேவைகளையும் 73
▁தொல்லியல் 73
▁தோமஸ் 73
▁தோற்கடிக்க 73
▁நாட்டைப் 73
▁நின 73
▁நிர்வாகத் 73
▁நிறைவடைந்த 73
▁பங்களாதே 73
▁படைக்கும் 73
▁பன்ன 73
▁பாதுகாப்பதற்காக 73
▁பாய்ச்ச 73
▁பிரசா 73
▁புத்தர் 73
▁புரோ 73
▁பூஜா 73
▁பொறுப்பேற்றார் 73
▁மண்டப 73
▁மதிப்பிட்ட 73
▁மலையாளத்தில் 73
▁மாலும 73
▁மாவட்டத்தின் 73
▁மிரு 73
▁முதன்மைச் 73
▁வளர்ச்சிக் 73
▁வளைய 73
▁விட்டுச் 73
▁வீச்சு 73
▁வெல் 73
▁வெல்ல 73
▁ஹைட்ரோ 73
ele 72
ute 72
க்கின்றன 72
டெக் 72
ண்டல் 72
ண்மையை 72
நாயகி 72
படம் 72
பணிய 72
பெரு 72
பொருள் 72
போடு 72
மாதம் 72
மையிலும் 72
ராவின் 72
ர்மன் 72
லாளர் 72
ல்களுடன் 72
வலை 72
வானி 72
ஸ்ஸல் 72
ார்களா 72
ாவிற்கான 72
ித்தோ 72
ீத் 72
ைகளுக்குள் 72
ோருக்கான 72
்கால 72
▁ஃ 72
▁அனுப்பப்படும் 72
▁அரசிடம் 72
▁அலைய 72
▁அழிவை 72
▁அழுது 72
▁இடம்பெயர்ந்த 72
▁இலங்கைக்கு 72
▁உருவாக்கப்பட 72
▁உள்ளதால் 72
▁உள்ளூராட்சி 72
▁எழுதும் 72
▁ஏற்றுக்கொண்டு 72
▁ஒளிபர 72
▁ஒழிக்க 72
▁ஓல் 72
▁கருத்தைக் 72
▁கல்யாண 72
▁கழிவுகளை 72
▁கவனித்த 72
▁கவிழ 72
▁காட்டப்பட்டது 72
▁குழுவான 72
▁கூறலாம் 72
▁கேட்ஸ் 72
▁கேப்டன் 72
▁கோது 72
▁செப்டெம்பர் 72
▁சொல்லிக் 72
▁ஜவஹர்லால் 72
▁தனித்து 72
▁தரிசனம் 72
▁தளவாடங்கள் 72
▁தாக்கியது 72
▁திரட்டி 72
▁திருத்தி 72
▁துப்பாக்கிச் 72
▁தொகுப்பின் 72
▁நடனம் 72
▁நிகழ்வுகளில் 72
▁நிஷ 72
▁நீரின் 72
▁படமான 72
▁பத்திரிக்கை 72
▁பரந்துபட்ட 72
▁பின்த 72
▁பின்னணிய 72
▁பின்பற்றும் 72
▁பிரான்சு 72
▁பிளவ 72
▁புகைப்படங்கள் 72
▁பூகம்ப 72
▁பெத் 72
▁பொருளாக 72
▁போகலாம் 72
▁போக்கும் 72
▁போன்றது 72
▁மாட்டேன் 72
▁மீன்பிட 72
▁முதலிடம் 72
▁முயலும் 72
▁முழுவதுமாக 72
▁யாருக்கு 72
▁யுவன் 72
▁வந்ததும் 72
▁வந்தே 72
▁விசாகப்பட்டினம் 72
▁விடக் 72
▁விதிகளின் 72
▁வெளிப்படும் 72
1982 71
ETA 71
ois 71
ress 71
அப் 71
உத்த 71
கட 71
குமார் 71
க்கிழ 71
சிறப்பு 71
த்தினுடைய 71
த்தியும் 71
த்திற்கே 71
த்தேன் 71
புலி 71
முதலில் 71
மைகளுக்கு 71
மையாகும் 71
ம்ப் 71
யால் 71
ய்ட 71
விட்டர் 71
வெங்க 71
வெல் 71
ாக்குதல் 71
ிருக்கக்கூடும் 71
ுகளே 71
ுதலையும் 71
ைகொண்ட 71
ைகோ 71
ொழில 71
▁அடக்கி 71
▁அணிவ 71
▁அமைத்தது 71
▁அரசாண்ட 71
▁அருகிலுள்ள 71
▁அறுபது 71
▁அலைவரிச 71
▁ஆசியாவிலும் 71
▁ஆச்ச 71
▁இணக்கம் 71
▁இப்போதுள்ள 71
▁இறுக்க 71
▁இவற்றுடன் 71
▁இவ்வாறான 71
▁ஈடாக 71
▁உடல 71
▁உற்பத்திச் 71
▁எபிர 71
▁ஒன்றுக்கொன்று 71
▁ஒலிபர 71
▁ஓக 71
▁கடத்தி 71
▁கணக்கெடுப்ப 71
▁கவனிப்பு 71
▁கிராமங்களை 71
▁குடும்பத்த 71
▁குழுவுடன் 71
▁கூறுகிறார்கள் 71
▁கைகோ 71
▁சந்தியா 71
▁சர்க்க 71
▁சூடு 71
▁சோத 71
▁தரிச 71
▁தற்ப 71
▁தாது 71
▁தேசபக்த 71
▁தேவா 71
▁தொழிலதிபர்கள் 71
▁நடுவ 71
▁நாகாலாந்து 71
▁நாட்டையும் 71
▁நாளன்று 71
▁நேரிட்ட 71
▁பகுதியும் 71
▁பணியாளர்களை 71
▁பதிப்பு 71
▁பாதிப்புக்கு 71
▁பான் 71
▁பாம் 71
▁பாஷ 71
▁பிடிவ 71
▁பிரஸ் 71
▁பிளாக் 71
▁பெருந்தொக 71
▁பெறுகின்றன 71
▁பொருந்த 71
▁போன்றவர்கள் 71
▁போபால் 71
▁மாறியது 71
▁முஸ்லீம 71
▁மையத்திற்கு 71
▁மொழிகளிலும் 71
▁யூனியனின் 71
▁ராஜ்யம் 71
▁வகைய 71
▁வணிகத் 71
▁வயல் 71
▁வருவார் 71
▁வாழ்க்கைச் 71
▁விடுபட்ட 71
▁விமர்சகர்கள் 71
▁விளக்கிக் 71
▁வீதமான 71
G2 70
har 70
ib 70
ll 70
stit 70
அன்று 70
இன்று 70
கடு 70
குமாரன் 70
சிக 70
சிறு 70
ச்சட்ட 70
ச்சந்த 70
ச்சான் 70
ச்சினை 70
ஞ்சு 70
ட்சமாக 70
ணியாக 70
த்தெ 70
த்தொடர் 70
நவீன 70
நோய் 70
னிக்கு 70
ன்களுக்கும் 70
மாக்கல் 70
மூன்று 70
ரின 70
ரோவின் 70
ர்களிலும் 70
ற்கால 70
லாலும் 70
லித் 70
ிப்பதுடன் 70
ிப்பதும் 70
ியாகி 70
ியிடம் 70
ுகு 70
ெயர் 70
ோகன் 70
்ய 70
▁width 70
▁அணிந்து 70
▁அண்ணன் 70
▁அநீ 70
▁அப்துல்லா 70
▁அமர்ந்து 70
▁அமைதிப் 70
▁ஆக்கும் 70
▁ஆணையாளர் 70
▁ஆண்டுகள 70
▁ஆதரவளிக்கும் 70
▁ஆய்வறிக்க 70
▁இடைத்த 70
▁இன்டர் 70
▁இருந்திருக்க 70
▁இலக்கிய 70
▁இல்லாவிட்டாலும் 70
▁இவ்விரு 70
▁உடனேயே 70
▁உடைந்து 70
▁எலிய 70
▁கடற்ப 70
▁காம் 70
▁கிளர்ச்சிய 70
▁கீழும் 70
▁கும்பல் 70
▁குறிக்க 70
▁குறியீட்ட 70
▁குவா 70
▁கொடுமை 70
▁சந்திப்பில் 70
▁சவூதி 70
▁சான்றிதழ்க 70
▁சாம் 70
▁சார்பற்ற 70
▁சிந்தனைய 70
▁சுட்டுக் 70
▁செல்லவும் 70
▁சேர்ந்தார் 70
▁டாக 70
▁தங்கப் 70
▁தலைமைத்துவ 70
▁துவக்கத்தில் 70
▁தேன் 70
▁நடந்துகொண்ட 70
▁நாணயம் 70
▁நாளாக 70
▁நிறுவனத்தால் 70
▁நிறுவப்பட்டது 70
▁நிலையும் 70
▁நேபாளத்தில் 70
▁நேரடிப் 70
▁பணிகளுக்காக 70
▁பணியமர்த்த 70
▁பரிவு 70
▁பழுத 70
▁பவுல் 70
▁பார்த்திபன் 70
▁பிராங்க் 70
▁பிரெஞ்ச 70
▁பேரரசு 70
▁மதிவ 70
▁மனோஜ் 70
▁மறியல் 70
▁மாறு 70
▁மாறுதல் 70
▁முதலான 70
▁முன்னறிவிப்பு 70
▁முற்பகுதியில் 70
▁மூட்ட 70
▁யாத்திர 70
▁வட்டங்களில் 70
▁வட்டாரங்களில் 70
▁வல்லுனர் 70
▁வளாகங்கள் 70
▁விளிம்பில் 70
▁விளைந்த 70
▁விஸ்த 70
▁வென்று 70
▁ஹொ 70
135 69
ere 69
ix 69
we 69
yn 69
கரு 69
ச்செல்ல 69
ஜின 69
டுகளிலும் 69
தொட 69
த்துவிட்ட 69
னாலும் 69
னாவ 69
புத் 69
ப்பட்டவர் 69
முறைகளை 69
ரியாவில் 69
ருகின்றன 69
ர்களாகவும் 69
லியில் 69
விதி 69
வென்றால் 69
ிட்டி 69
ிரியை 69
ுக்கிடையிலான 69
ுறுதி 69
ைக்குக் 69
▁) 69
▁அணிந்த 69
▁அதற்குள் 69
▁அதிகாரத்தைக் 69
▁அனுபவித்து 69
▁அமைச்சரும் 69
▁அமைப்புடன் 69
▁அரசுகள 69
▁அவல 69
▁ஆண்டாக 69
▁ஆற்றின் 69
▁இசையமைத்த 69
▁இளைப்பாற 69
▁ஈட்டிய 69
▁ஊனமுற்ற 69
▁எக் 69
▁என்க 69
▁என்பதின் 69
▁எப்போ 69
▁எல்லைகளில் 69
▁ஏற்றம் 69
▁ஐந்தில் 69
▁கட்டுப்பாட்டுப் 69
▁கருத்தியல் 69
▁களி 69
▁காய்கறிகள் 69
▁கியூப 69
▁குறிப்புக்கள் 69
▁குவை 69
▁கொம்ப 69
▁சாதனங்களை 69
▁சிலையை 69
▁சீரமைக்க 69
▁சேகர் 69
▁தன்மைக்கு 69
▁தமிழர்களுக்கு 69
▁துருக்க 69
▁தொகுதியில் 69
▁தொகைகள் 69
▁நடைபெறுகின்றன 69
▁நன்ன 69
▁நம்பகமான 69
▁நம்பிக்கையின் 69
▁நேராக 69
▁பறவ 69
▁பாதிப்புக்குள்ள 69
▁பார்ப்பது 69
▁பிரிவுகளுக்கு 69
▁பிரிவைச் 69
▁புல்ல 69
▁புளோரிட 69
▁பெட 69
▁பெறுவர் 69
▁பேரவை 69
▁மகிழ்ச்சியுடன் 69
▁மரம் 69
▁மாத்திரம் 69
▁முயற்சிக்கும் 69
▁முழுமைய 69
▁மேலாள 69
▁ரக் 69
▁வடிவத்தை 69
▁வருடங்களில் 69
▁வளர்த்து 69
▁வழிப்ப 69
▁விசை 69
▁விழுமிய 69
▁ஸ்பானிய 69
ubl 68
ug 68
அவ 68
காம 68
சிற 68
சோன் 68
ச்செய்து 68
ந்திரம் 68
ந்திருந்த 68
பரப்பு 68
பிக் 68
பியூ 68
ப்படுபவை 68
ப்பதற்காகவும் 68
ப்புகளுக்கு 68
மன்ற 68
மயம் 68
மில்ல 68
மொழிகள் 68
ர்களுடனும் 68
ர்கான் 68
ர்டன் 68
லைன் 68
வரோ 68
விழாவில் 68
ஹாம் 68
ாவினால் 68
ிகளாகவும் 68
ிச 68
ின்க 68
ிலு 68
ிவுகள் 68
ீட்டுத் 68
ீது 68
ுகளோடு 68
ேடு 68
்சன் 68
▁sr 68
▁அடுத்தடுத்து 68
▁அந்நாட்டில் 68
▁அமைந்திருக்கும் 68
▁அமைப்புகளுடன் 68
▁அளவும் 68
▁அளிக்கின்றன 68
▁அவர்களுக்கும் 68
▁ஆகிறது 68
▁ஆய்வுக்கு 68
▁ஆழ்ந்து 68
▁இடையூறு 68
▁இந்தோனேசியா 68
▁இனத்த 68
▁உத்திகளை 68
▁உரிமைகளைப் 68
▁உள்ளிட்டவை 68
▁ஊரான 68
▁எதிரிகளை 68
▁எதிரிகள் 68
▁எதிரொ 68
▁எதுவுமே 68
▁என்றது 68
▁எமிரே 68
▁எழுப்பி 68
▁ஏடி 68
▁ஏந்திய 68
▁ஏற்படவில்லை 68
▁ஐஎஸ் 68
▁ஓட்டுந 68
▁கட் 68
▁கண்டறி 68
▁கபூர் 68
▁காண் 68
▁கான்பூர் 68
▁குடிசை 68
▁குறுக்கே 68
▁குவைத் 68
▁கூட்டி 68
▁க்க 68
▁சகோதரரும் 68
▁சம் 68
▁சிக்கல்கள் 68
▁சிறுவர்கள் 68
▁சீனப் 68
▁செயல்பட்டது 68
▁சேர்த்துக்கொள்ள 68
▁டெல் 68
▁தயாராகும் 68
▁தயாரிப்பது 68
▁திறப்பு 68
▁தேடும் 68
▁தேஷ் 68
▁தொடங்கினர் 68
▁நகராட்சி 68
▁நகரான 68
▁நகர்வு 68
▁நாராயணன் 68
▁நால 68
▁நிக்கோபார் 68
▁நினைவூட்ட 68
▁நூலை 68
▁பசிய 68
▁படங்களும் 68
▁பலதர 68
▁பலதரப்பட்ட 68
▁பாடி 68
▁பாண்டே 68
▁பாரம்பரியமாக 68
▁பின்னடைவு 68
▁பெயர்களை 68
▁பெற்றுள்ளார் 68
▁போனார் 68
▁போர்க்கால 68
▁போர்ட்ட 68
▁மதிப்புடைய 68
▁மறுப 68
▁மறுவா 68
▁மலைய 68
▁மலையின் 68
▁மார்ச்சில் 68
▁முகவ 68
▁முக்க 68
▁முக்கியமானவை 68
▁மூளை 68
▁ரணில் 68
▁வர்மா 68
▁வளைந்து 68
▁வாரியாக 68
▁விசாக 68
▁விமர்சனங்கள் 68
▁வீராங்க 68
▁ஹாங்காங் 68
1945 67
1977 67
1984 67
79 67
FBI 67
கிறிஸ்த 67
க்கூறு 67
சாவில் 67
சென் 67
டுவதோடு 67
ணர் 67
தளத்தில் 67
துறை 67
தையடுத்து 67
பாதை 67
பெட் 67
ப்படியான 67
ம்பை 67
ம்மா 67
ரிம 67
ரீட் 67
வடிக்க 67
வையாகவும் 67
வொரு 67
வோரின் 67
ஸ்டோ 67
ாஜி 67
ாயினும் 67
ாரன் 67
ிக்குக் 67
ித்தொக 67
ிப்பார்கள் 67
ிரியும் 67
ுதியை 67
ுப்ப 67
ுவுக்கு 67
ெழுந்த 67
ையாடி 67
– 67
▁ஃபெ 67
▁அட்டவண 67
▁அந்நா 67
▁அமைப்பின 67
▁அரா 67
▁அலுவலகங்களில் 67
▁அஸ்ஸாம் 67
▁ஆகி 67
▁ஆண்டிற்குள் 67
▁ஆளாக 67
▁ஆஸ்திரேலியாவில் 67
▁இக் 67
▁இணைப்புத் 67
▁இதேபோல 67
▁இப்பகுதி 67
▁இயல்பாக 67
▁இளவரசர் 67
▁உட்பட்டது 67
▁உண்டாக 67
▁உலகுக்கு 67
▁உள்ளவர்களுக்கு 67
▁எண்ணை 67
▁ஏஞ்சல்ஸ் 67
▁ஏதாவதொரு 67
▁ஐபி 67
▁ஐஸ் 67
▁ஒற்ற 67
▁ஓடிவ 67
▁ஓர 67
▁கிரீன் 67
▁குடிமகன் 67
▁குழுவுக்கு 67
▁கொண்டுவந்தது 67
▁சமா 67
▁சிந்து 67
▁சுற்றுலாத்துறை 67
▁செய்தவர்கள் 67
▁செய்யும்போது 67
▁ஞாயிற்றுக் 67
▁தகவல்களையும் 67
▁தடம் 67
▁தடைசெய்ய 67
▁தனியே 67
▁தன்ம 67
▁தற்காப்பு 67
▁திச 67
▁திரட்டும் 67
▁திறனும் 67
▁துறைகளை 67
▁தேங்காய் 67
▁தொழிலக 67
▁நட்சத்திரங்கள் 67
▁நிதிகள் 67
▁நிலையங்களின் 67
▁நெறி 67
▁பங்கும் 67
▁படையெடுத்து 67
▁பட்டா 67
▁பணிவ 67
▁பயோ 67
▁பலி 67
▁பாகுபாடு 67
▁பாதிக்கப்படும் 67
▁பிரார்த்தனை 67
▁புலம்பெய 67
▁பெற்றிருந்தது 67
▁மக்கள்தொகை 67
▁மண்டபத்தில் 67
▁மண்டலத்தின் 67
▁மறுக்கும் 67
▁மிய 67
▁மீண்ட 67
▁யூகோ 67
▁லாக 67
▁வகுப்பினர் 67
▁வசூலிக்க 67
▁வடக்குப் 67
▁வடமேற்கு 67
▁வஸ்த 67
▁வாங்கிக் 67
▁விதிக்கப்படும் 67
▁வியட்நாம 67
▁விளையும் 67
▁வீற்ற 67
▁வெளிவர 67
▁வேண்டுமென்றால் 67
▁வேவு 67
▁வைக்கிறது 67
CPE 66
ence 66
ite 66
ive 66
rance 66
ult 66
ஃபி 66
ஒரே 66
கர்கள் 66
காலம் 66
க்கல்ல 66
சனை 66
சாத் 66
ச்செய்யும் 66
ஜான் 66
டாது 66
ட்டுச் 66
ணும் 66
நாயக் 66
நிலைப் 66
னன் 66
னையையும் 66
பிரா 66
புர் 66
மேயானால் 66
ரிச 66
ர்கின்றன 66
லியன் 66
வைத்த 66
வைத்து 66
ஸன் 66
ாகு 66
ாவிட 66
ிவார 66
ுடையதாக 66
ுறும் 66
ெரிக்க 66
▁அகர்வால் 66
▁அசைக்க 66
▁அடைவதற்காக 66
▁அணுகும 66
▁அதன்பின் 66
▁அமைக்கவும் 66
▁அரசியலமைப்பின் 66
▁ஆண்டுகளின் 66
▁ஆர்வமாக 66
▁இயக்கங்களின் 66
▁இயல்பாகவே 66
▁உயர்கல் 66
▁உருவாக்கப் 66
▁ஓட்டம் 66
▁கண்டத்தில் 66
▁கதையில் 66
▁கருணாநிதி 66
▁கலந்தா 66
▁காதுக 66
▁காப்பாற்றும் 66
▁காஸ்ட்ரோ 66
▁கிடக்க 66
▁குறைகள் 66
▁குழுக்களில் 66
▁கொள்கைகளையும் 66
▁கொள்வோம் 66
▁கோட்பாடுகளை 66
▁சார்ந்தவர்கள் 66
▁சிக்கிக் 66
▁சிங்கப்பூ 66
▁டிடி 66
▁தடுப்பூ 66
▁தனிப் 66
▁தன்னம்பிக்க 66
▁துப்பாக்க 66
▁துருக்கியின் 66
▁தோள் 66
▁நடிப்பில் 66
▁நம்பிக்கையும் 66
▁நாட்டிலேயே 66
▁நாட்டுப் 66
▁நிமிடங்கள் 66
▁நிறுவனங்களையும் 66
▁நிலைமைகளில் 66
▁நீர்மின் 66
▁நீர்மூழ்க 66
▁பங்குதாரர்கள் 66
▁பயிரிட 66
▁பலவற்றை 66
▁பழக்கம் 66
▁பாதிப்புகளை 66
▁பாதிப்புகள் 66
▁பார்க்கலாம் 66
▁பிந்திய 66
▁பிரசவ 66
▁பெருமைக்குரிய 66
▁பெறுவ 66
▁பொழுதுபோக்கு 66
▁போதனைகள் 66
▁முடித்துக் 66
▁முடிவெடுக்கும் 66
▁முதிர்ந்த 66
▁முறைப்படுத்த 66
▁ராணி 66
▁வணிகக் 66
▁வரலாம் 66
▁வரையும் 66
▁வாசிக்க 66
▁வாழ்கின்றனர் 66
▁விடப்பட்ட 66
▁விழும் 66
▁வெளியாகி 66
▁வெளியேற்றப்பட்ட 66
▁வைத்துள்ளார் 66
0" 65
G8 65
ign 65
iz 65
og 65
குடிய 65
க்குவாத 65
ஞ்சலி 65
டைன் 65
ட்டுக்கள் 65
தியா 65
தொழி 65
த்தல 65
ந்திரிய 65
பல் 65
பிரான் 65
பிற 65
ப்பக 65
ப்படுத்தப்பட்டு 65
ப்பாகும் 65
ப்பூரில் 65
ப்ர 65
முடன் 65
ம்பட்ட 65
யமான 65
ல்களிலும் 65
ல்துறை 65
ழகம் 65
வர்களான 65
ஹர் 65
ிட்டான் 65
ினாமா 65
ியாவில் 65
ுமானால் 65
ையாகப் 65
ொடர் 65
▁அஜய் 65
▁அத்துமீ 65
▁அனுபவித்த 65
▁அப்போதைய 65
▁அமலா 65
▁அமைச்சரவையில் 65
▁அம்சமாகும் 65
▁அழைப்பின் 65
▁அவசியமானது 65
▁அவரைச் 65
▁ஆபிரிக்காவில் 65
▁ஆலயத்தில் 65
▁ஆளும 65
▁இந்தியாவிலேயே 65
▁இயக்குநர்கள் 65
▁இவரும் 65
▁எருசலேம் 65
▁எல்லைக் 65
▁ஐந்தாண்டு 65
▁ஒப்பீட்டளவில் 65
▁ஓய் 65
▁கனடாவின் 65
▁கமி 65
▁கவனித்துக் 65
▁கவுர் 65
▁காது 65
▁காலக் 65
▁கிடங்க 65
▁கிடந்த 65
▁கிரேக்கம் 65
▁குறைப்பதற்கான 65
▁குழாய்கள் 65
▁கூறினார்கள் 65
▁கொண்டாடப்படும் 65
▁கொள்ளக் 65
▁கொள்ளத் 65
▁கோட்பாடு 65
▁கோவில 65
▁கௌதம் 65
▁சித்தாந்த 65
▁சிறுபான்மையின 65
▁சுற்றுவட்ட 65
▁சூழ்ந்த 65
▁செயலில் 65
▁செயல்கள 65
▁செல்லும்போது 65
▁செல்வக் 65
▁ஜாதி 65
▁தகுதியை 65
▁தலைவர்களில் 65
▁தாமதமாக 65
▁துல்லிய 65
▁தோள 65
▁நம்புகின்றனர் 65
▁நரே 65
▁நிரூபிக்கப்பட்ட 65
▁நிலங்கள் 65
▁நுணுக்க 65
▁நேர்ந்தது 65
▁படித்து 65
▁படிய 65
▁பணிந்து 65
▁பயிற்சிகளை 65
▁பயிற்சிக் 65
▁பலவகையான 65
▁பாட்னா 65
▁பிரிவும் 65
▁பொருட்களையும் 65
▁போடோ 65
▁போட்டித் 65
▁போவது 65
▁மற்றவை 65
▁மாற்றப்படும் 65
▁மாலையில் 65
▁மீதி 65
▁முகர்ஜி 65
▁முயன்றார் 65
▁முரண 65
▁மெக்சிகோ 65
▁மோகன்லால் 65
▁யாக 65
▁வந்துள்ளார் 65
▁வலய 65
▁வாய்ப்புள்ளது 65
▁வித்தியாசம் 65
▁விருதுக்கு 65
▁விளையாட்டுக்கள் 65
▁வேறுபாடுகள 65
ASEAN 64
PASOK 64
ited 64
க்கரு 64
க்களைக் 64
சந்த் 64
சமா 64
ச்சீட்ட 64
நிலைக் 64
னாவின் 64
னாவில் 64
ன்முறை 64
பத்து 64
ப்பாடுகளை 64
மைப்பின் 64
மொன்றில் 64
ம்சம் 64
ராச 64
ருக்கே 64
ரேஷன் 64
ரையின் 64
ர்சி 64
றியும் 64
றுகள் 64
ற்துறை 64
ல்லிய 64
ளித்தனர் 64
ளுக்கும் 64
ஸ்ட்டில் 64
ாமலே 64
ாமில் 64
ாலில் 64
ாளின் 64
ிடையில் 64
ியுற்ற 64
ிலியன் 64
ிலுமே 64
ையாகத் 64
ோப 64
்ல் 64
▁அதற்கேற்ப 64
▁அரசில் 64
▁அவையில் 64
▁ஆகக் 64
▁ஆக்கிரமித்த 64
▁ஆசிரியர்களும் 64
▁ஆரம்பித்தது 64
▁ஆலோ 64
▁இக்கட்சி 64
▁இங்கிலாந்தின் 64
▁இணைந்துள்ள 64
▁இப்பிராந்திய 64
▁இருந்துள்ளது 64
▁உகாண்டா 64
▁உயர்தர 64
▁உயிர்ப்ப 64
▁உரிமையாளர் 64
▁உள்ளாக 64
▁எதிர்நோக்க 64
▁கடற்படைத் 64
▁கற்றுக்கொள்ள 64
▁காட்டியுள்ளார் 64
▁கார்ப்பரேஷன் 64
▁கால்நட 64
▁கிடங்கு 64
▁குழப்பத்தை 64
▁கூறப்பட்டுள்ள 64
▁கேள்விய 64
▁சதா 64
▁சலா 64
▁சார்ந்து 64
▁சிறும 64
▁சீயோன் 64
▁செலுத்தப்பட்டது 64
▁தடுத்தல் 64
▁தத்துவார்த்த 64
▁தனித்தனியாக 64
▁தமிழ்நாட்ட 64
▁தரவுகள் 64
▁தலைமைக் 64
▁தலைவன 64
▁தாக்கப்பட்ட 64
▁துப்பு 64
▁துறைமுகங்களில் 64
▁தெரியவந்தது 64
▁தெலுங்க 64
▁தேவைப்படுகின்றன 64
▁தொடர்க 64
▁தொழிற்துற 64
▁நதியின் 64
▁நன்கொட 64
▁நிறுவனங்களால் 64
▁நீக்கி 64
▁நீர்மூழ்கிக் 64
▁நேரி 64
▁பதிவிறக்கம் 64
▁பயனாக 64
▁பாக்த 64
▁பிரபலமாக 64
▁பிராக 64
▁பிரிவான 64
▁புரித 64
▁புவனே 64
▁பூங்காக்கள் 64
▁பெறுவதற்கும் 64
▁ப்ள 64
▁மனப்பான்மை 64
▁முட்டாள 64
▁முறையாகும் 64
▁வகுப்பில் 64
▁வடக்குக் 64
▁வந்தவர் 64
▁வலுவிழ 64
▁வில்லியம் 64
▁வீதி 64
▁ஷே 64
▁ஹங்கே 64
>< 63
PSOE 63
ck 63
ies 63
ins 63
ke 63
ki 63
ord 63
ott 63
uel 63
அரசு 63
சத்தை 63
சீஸ் 63
டாக்க 63
டையச் 63
த்தகுந்த 63
த்துகள் 63
நாளும் 63
ன்மிக்க 63
பாடுகளில் 63
பிரிவ 63
ப்பணிகள் 63
ப்பிலிருந்து 63
ரத்த 63
ர்கன் 63
ர்களது 63
வர்களிடையே 63
வெள்ள 63
ாளராகவும் 63
ிகொ 63
ிக்கி 63
ியல 63
ிருந்ததாக 63
ுகின்றார் 63
ுமாக 63
ுவான 63
ுவைத் 63
ேப் 63
ைக்குள் 63
▁அசோ 63
▁அண்ட 63
▁அம்சங்களையும் 63
▁அருள 63
▁அவு 63
▁ஆட்சியாளர்கள் 63
▁ஆய்வுகளை 63
▁ஆற்றும் 63
▁இங்க 63
▁இடைவெளியில் 63
▁இத்தாக்க 63
▁இத்திட்டத்தில் 63
▁இருக 63
▁உபரி 63
▁உலகப்போ 63
▁உள்ளடக்கியதாக 63
▁எடுத்தார் 63
▁என்கிறது 63
▁ஏது 63
▁ஒடு 63
▁ஒளிய 63
▁கணக்கை 63
▁கனவுகள் 63
▁கரி 63
▁கருதப்பட்டு 63
▁கருத்திற்க 63
▁கலிஃபோர் 63
▁கள் 63
▁காம்ப 63
▁கீழ்த்த 63
▁குரலை 63
▁குழுத் 63
▁கென்னடி 63
▁கொலம்பிய 63
▁சாட்சியாக 63
▁சாஸ்திரி 63
▁சுட்டு 63
▁சுயாட்சி 63
▁செயல்திற 63
▁செய்தாலும் 63
▁செலுத்தியது 63
▁சோதிக்க 63
▁டிகிரி 63
▁தக்கவைத்துக் 63
▁தட்டி 63
▁தண்டனையை 63
▁தனக்குக் 63
▁தன்னிச்சையாக 63
▁தயாரிக்கப்பட்டு 63
▁தருமாறு 63
▁தரைமட்ட 63
▁திகழ 63
▁தொழிலுக்கு 63
▁தோற்றுவிக்க 63
▁நமக்குக் 63
▁நம்பத்தகுந்த 63
▁நெறிய 63
▁பகுதியிலிருந்து 63
▁பட்டினி 63
▁பணியாற்றினார் 63
▁பறவைகள் 63
▁பவுண்டுகள் 63
▁பார்வையி 63
▁பாலிவுட் 63
▁புட்ட 63
▁பூமியை 63
▁போதுமானதாக 63
▁போலும் 63
▁மதிப்பீடுகளை 63
▁மாதிரிகளை 63
▁மாநிலத்திலும் 63
▁மாறான 63
▁மின்னஞ்ச 63
▁முடிவடையும் 63
▁மையக்கரு 63
▁யாரோ 63
▁யோவான 63
▁ராஜாக்கள் 63
▁வடிவமைத்த 63
▁வழக்கறிஞ 63
▁விக்ரம 63
▁விதத்திலும் 63
▁விழாக்க 63
▁வெளியிட்டனர் 63
▁வேற்று 63
!! 62
+ 62
1953 62
PDS 62
ade 62
aire 62
ef 62
iv 62
orn 62
எம்எஸ் 62
ஐக்கிய 62
ஐரோ 62
கலா 62
ங்கான 62
சத் 62
சம்ப 62
ச்செய் 62
டுக்கி 62
னத்தை 62
பட்டது 62
பாடுகளின் 62
ப்படுவதும் 62
ப்பவர் 62
ப்புகளின் 62
மண்டல 62
மானின் 62
மெங்கும் 62
மென்றும் 62
மையோடு 62
ராகப் 62
றையின் 62
லண்ட் 62
லுக்க 62
ல்வே 62
ழாய் 62
ழ்வு 62
வய 62
வீர் 62
வேக 62
ாய்த் 62
ிகித 62
ிட்டால் 62
ிப்பி 62
ில்கள் 62
ீஷ் 62
ுதியாக 62
ேஷ்வ 62
ைக்குப் 62
்டன் 62
▁style 62
▁அகாட 62
▁அங்கா 62
▁அதிகரிப்பதற்கு 62
▁அறிகுறி 62
▁அல்ஜீ 62
▁அழிப்பு 62
▁ஆகியவற்றிலும் 62
▁இக்கரு 62
▁இடத்திலிருந்து 62
▁இணைச் 62
▁இதிலிருந்து 62
▁இதுவாகும் 62
▁இந்தியர்களுக்கு 62
▁இரண்டிலும் 62
▁இருந்திருக்கும் 62
▁உடல்நலம் 62
▁உண்மைகளை 62
▁உள்ளடங்க 62
▁உள்ளதா 62
▁உழைப்பின் 62
▁எழுப்பினார் 62
▁எழுப்பும் 62
▁ஐம்ப 62
▁ஐரோப்பாவிலும் 62
▁ஒல 62
▁காசநோய 62
▁காற்றழுத்த 62
▁கியூபா 62
▁கேட 62
▁கொண்டாட்டம் 62
▁கொல்கத்தாவில் 62
▁சங்கர் 62
▁சரித்திர 62
▁சீர்த்த 62
▁செயல்திறனை 62
▁செய்யக்கூடிய 62
▁செல்வதற்காக 62
▁சேனை 62
▁சொத்துரிமை 62
▁சொல்கிறார் 62
▁ஜாக 62
▁ஜிம் 62
▁டொமின 62
▁தனித்தன்மை 62
▁தன்னைத் 62
▁தாஸ் 62
▁தியான 62
▁திரும்பிச் 62
▁தீர்க்கும் 62
▁தெற்கே 62
▁தொழிற்சாலைகளில் 62
▁நாட்டுத் 62
▁நாயக் 62
▁நிச்சயமற்ற 62
▁நிறுவுதல் 62
▁நிலையிலேயே 62
▁பகலும் 62
▁பதிவே 62
▁பறக்கும் 62
▁பாகங்கள் 62
▁புதுதில் 62
▁புத்தாண்ட 62
▁புரட்ட 62
▁பெருமைய 62
▁பேசுவது 62
▁பேற 62
▁போட்டிகளை 62
▁மணிநேரம் 62
▁மணிப்ப 62
▁மனநல 62
▁மனநிலை 62
▁மனைவ 62
▁முரண்பாடு 62
▁வசதியும் 62
▁வசித்து 62
▁வத 62
▁வியாபாரிகள் 62
▁விற்கும் 62
▁வீடாக 62
▁வீட்டிலேயே 62
▁வீழ்த்த 62
▁வெங்கடேஷ் 62
▁வெடித்தது 62
▁வேதன 62
▁வைத்துப் 62
▁ஹிட்லர் 62
1962 61
MMA 61
PPP 61
amp 61
anka 61
ho 61
mer 61
old 61
oy 61
கட்டு 61
க்கட்டு 61
க்களைப் 61
செல்ல 61
ச்சாவ 61
டுவதால் 61
டூ 61
டையாக 61
தன்ன 61
தள 61
தாக் 61
தேசம் 61
த்யா 61
நேரத்தில் 61
னவு 61
னிங் 61
படியான 61
புரத்தில் 61
ப்படுத 61
ப்பொருள 61
மாகிறது 61
யத்தை 61
ய்யும் 61
ரீதியில் 61
ர்களைச் 61
ர்ச்சி 61
றல் 61
ளிலும் 61
ளுடன் 61
ள்கள் 61
வசதி 61
வர்களாவர் 61
விள 61
ஸ்பியன் 61
ாதவர்கள் 61
ாளருமான 61
ிற்காகவும் 61
ீனம் 61
ுறுத்த 61
ையடுத்து 61
்சிங் 61
▁p 61
▁அடைக்கல 61
▁அட்டைகளை 61
▁அதிகாலையில் 61
▁அதிலுள்ள 61
▁அனுபவிக்க 61
▁அமிதாப் 61
▁அயர்லாந்து 61
▁அறிக 61
▁அலைகள் 61
▁அள்ள 61
▁அவர்களோடு 61
▁ஆகியவையே 61
▁ஆடம்பர 61
▁ஆந்திராவில் 61
▁ஆளான 61
▁இணைக்கப்படும் 61
▁இருக்குமானால் 61
▁இருண்ட 61
▁இவற்றைப் 61
▁ஈடுபடுத்திக் 61
▁உடற்பயிற்சி 61
▁உடலில் 61
▁எதிர்நோ 61
▁எரிபொரு 61
▁எரிபொருள 61
▁எல்லாமே 61
▁எல்லைக்கு 61
▁எழுப்பப்பட்ட 61
▁ஏற்படுவது 61
▁ஒன் 61
▁ஒருமைப்பாடு 61
▁ஓவர் 61
▁கட்டுதல் 61
▁கட்டுரையாளர் 61
▁கணி 61
▁கண்டார் 61
▁கதாநாயகியாக 61
▁கரியமில 61
▁கலிபோர்னியா 61
▁கல்விக்கு 61
▁காலப் 61
▁கிராமங்களின் 61
▁குழுவால் 61
▁கொடுத்தால் 61
▁கொளுத்த 61
▁சால் 61
▁சிகிச்சைக்கு 61
▁சிதம்பரம் 61
▁சீட்ட 61
▁சும் 61
▁சுவார 61
▁சேவையின் 61
▁டெல்ல 61
▁தலைமையக 61
▁தானியங்களை 61
▁திருட்டு 61
▁திருவ 61
▁திறந்துவை 61
▁தீங்க 61
▁தீர்மானிக்க 61
▁துறைகளும் 61
▁நடாத்திய 61
▁நம்பிக்கைகள் 61
▁நாகரீ 61
▁நிகழ்வை 61
▁நியூசிலாந்து 61
▁நிறைந்தது 61
▁நிலப்பரப்பில் 61
▁நிலையைக் 61
▁நீர 61
▁நுண்ணறிவ 61
▁படைகள 61
▁பரிசாக 61
▁பற்றாக்க 61
▁பாய 61
▁பாவம் 61
▁பிரசித்த 61
▁பிரத்தியேக 61
▁புகைப்படம் 61
▁புத்தகங்கள் 61
▁பெட் 61
▁பேரின் 61
▁பொட்டல 61
▁போதக 61
▁போன் 61
▁மரங்கள் 61
▁மறுத்தது 61
▁மாநாடுகள் 61
▁மால் 61
▁மின்னணுவியல் 61
▁முன்பாகவே 61
▁முஸ்லிம 61
▁மெல்ல 61
▁யான 61
▁யாழ்ப்பாணக் 61
▁ராஜபக்ச 61
▁ராஜஸ்தானில் 61
▁வந்திற 61
▁வயதிற்கு 61
▁வரவேற்பை 61
▁விதைகள் 61
▁விளக்கி 61
▁விவசாயத்தை 61
▁வெளிநாட்டுப் 61
▁வொ 61
▁ஷெல் 61
▁ஸ்லோ 61
▁ஸ்வா 61
▁ஹாங்கா 61
▁ஹாட் 61
▁ஹுசைன் 61
1986 60
="0" 60
ina 60
ly 60
ock 60
olf 60
unt 60
uss 60
ஆல 60
க்கூட்ட 60
க்கூறுகள் 60
ங்களுக்க 60
ங்காட்ட 60
சாகர் 60
சாம 60
சிகள் 60
சுர 60
ண்மையில் 60
திகளும் 60
த்தன்ம 60
னியார் 60
பாஸ் 60
ப்பாடுகள் 60
ப்பாற்ற 60
ப்பைச் 60
மாக்ஸ் 60
மிடையில் 60
மையைத் 60
ர்கா 60
வரிடமும் 60
வாயில் 60
வினைக் 60
வையில் 60
ாவிலேயே 60
ாவுக்கான 60
ின்று 60
ியாகத் 60
ிறு 60
ென்ட் 60
ேற்றம் 60
ையாகிய 60
ோமா 60
்தல் 60
▁அடுத்தபடியாக 60
▁அதிகபட்சமாக 60
▁அவருக்குக் 60
▁ஆக்கிரமிப்ப 60
▁ஆசிரியர்களுக்கு 60
▁ஆரா 60
▁ஆராயும் 60
▁இம்மாத 60
▁இயக்கங்களை 60
▁இயற்கைப் 60
▁இருந்ததுடன் 60
▁இருப்பதும் 60
▁உதாரணமாகும் 60
▁உயர்நிலைக் 60
▁உருவாக்குகிறது 60
▁உள்நாட்டுக் 60
▁என்பதற்க 60
▁எரிச்ச 60
▁ஏராளமாக 60
▁ஒப்படைத்த 60
▁கஞ்ச 60
▁கட்டப்பட்டு 60
▁கணக்குத் 60
▁கரம் 60
▁கருத்தா 60
▁காத்துக் 60
▁காபூ 60
▁காலப்பகுதியில் 60
▁கீர்த்த 60
▁கூறும்போது 60
▁கென் 60
▁கைகள் 60
▁கோட் 60
▁சாந்தி 60
▁சிற்ப 60
▁சிவா 60
▁சேமித்து 60
▁சேவைக்கு 60
▁சொட்டு 60
▁டாடா 60
▁தங்கு 60
▁தன்னிறைவு 60
▁தம்பி 60
▁தாயார் 60
▁திருநாள் 60
▁திருப்பதி 60
▁திரும்பச் 60
▁தூய 60
▁தூய்மைப்படுத்த 60
▁நடந்தன 60
▁நிகழ்வாக 60
▁நிகோ 60
▁நிலா 60
▁நிலைநிறு 60
▁நூலக 60
▁நோக்கத்திற்காக 60
▁பங்குத 60
▁பட்டப்படிப்பு 60
▁பதக்க 60
▁பயிற்சிப் 60
▁பல்வகை 60
▁பாதிக்கப்பட்டு 60
▁பாதுகாத்தல் 60
▁பாலங்கள் 60
▁பெற்றுத் 60
▁பேச்சாளர்கள் 60
▁பொருளாகும் 60
▁போரினால் 60
▁போரின்போது 60
▁போலவும் 60
▁மகிழ்ச்சியான 60
▁மங்கள 60
▁மண்டலங்கள் 60
▁மரணத்திற்கு 60
▁மாட 60
▁மான் 60
▁மில் 60
▁முடியும 60
▁முழுமையாகப் 60
▁வகைப்பட்ட 60
▁வயதை 60
▁வயிற்ற 60
▁வரையறு 60
▁வளைகுடாவில் 60
▁வாக்குறுதி 60
▁வாட்ட 60
▁வார்த்தையின் 60
▁விடுவிக்கப்பட்ட 60
▁விமர்சனங்களை 60
▁விளக்கத்தை 60
▁விளைச்சல் 60
▁வீரர்களும் 60
▁வெங்காயம் 60
▁வெடிக்கும் 60
▁வெளியீ 60
▁வேலூர் 60
▁வைத்தான் 60
▁ஷர்மா 60
1949 59
PTCL 59
han 59
அப 59
ஆண்ட 59
எரி 59
ஒய் 59
சூரிய 59
ட்சர் 59
ட்சியில் 59
ண்ம 59
தனி 59
த்தம்ப 59
த்தார்கள் 59
த்தொழில 59
ந்தே 59
னுக்காக 59
ன்னி 59
ன்பெ 59
படுத்தப்பட்ட 59
பள்ள 59
பின்ன 59
பிரகாஷ் 59
போய 59
ப்புகளில் 59
மட்டத்தில் 59
யத்தின் 59
யில்லை 59
லோடு 59
வாக்கிய 59
வாய்ப்பு 59
ஷெ 59
ாகம 59
ானாக 59
ிக்கிறார்கள் 59
ினால 59
ேயு 59
▁அதிகப்படியான 59
▁அபே 59
▁அமைப்புச் 59
▁அரிஸ்ட 59
▁அழைத்துக் 59
▁அவையின் 59
▁ஆத்ம 59
▁ஆன்ம 59
▁ஆராய்ச்சியில் 59
▁ஆரோக்கியமாக 59
▁இடையிலும் 59
▁இதழ 59
▁இந்நிறுவனம் 59
▁இனிமேல் 59
▁இழுத்து 59
▁உடனுக்குடன் 59
▁உடைக்க 59
▁உருக்கு 59
▁எதிரானது 59
▁எல்லோ 59
▁ஏந்தி 59
▁ஏரோ 59
▁ஒருமுக 59
▁ஓவிய 59
▁கட்டுப்படுத்தி 59
▁கண்டுபிடிக்கும் 59
▁கமிட்டி 59
▁கருவியை 59
▁கலாம் 59
▁கலிலேய 59
▁காணப்படவில்லை 59
▁காலக்கட்ட 59
▁கிரை 59
▁குறைகளை 59
▁குறைவாகும் 59
▁குழந்தையை 59
▁குழி 59
▁கைப்பற்றி 59
▁கொலம்பியா 59
▁சகோதரர்கள் 59
▁சரவணன் 59
▁சுரங்கம் 59
▁சுரே 59
▁சென்றன 59
▁செயலா 59
▁செயலாகும் 59
▁செயலாளராக 59
▁ஜாக்க 59
▁ஜாம 59
▁தலைவராகவும் 59
▁தானம் 59
▁தாமே 59
▁திமோர் 59
▁தீவை 59
▁தூண்டிய 59
▁தூரத்திற்கு 59
▁தெருவ 59
▁தொழிலதிப 59
▁நகை 59
▁நட் 59
▁நாக்பூர் 59
▁நாடகம் 59
▁நிவ 59
▁நெருப்பு 59
▁பகதூர் 59
▁பத்திரிகைகளில் 59
▁பயிர்களை 59
▁பவ 59
▁பாக்யராஜ் 59
▁பின்னி 59
▁பிரகாசமான 59
▁பிராங் 59
▁பிரிந்த 59
▁பிறக்கும் 59
▁புத்தகத்தில் 59
▁பூட்டான் 59
▁பூர்வமான 59
▁பெருநகர 59
▁பொறி 59
▁மறுஆ 59
▁மற்றுமொரு 59
▁முதலமைச்சராக 59
▁முனைப்பு 59
▁மொழிகள் 59
▁மோது 59
▁ரைன் 59
▁வளர்ச்சியையும் 59
▁விடுவது 59
▁விருப்பத்திற்கு 59
▁விற்பனையை 59
▁விவசாயக் 59
▁விஷ்ணுவ 59
▁வெற்றிகள் 59
▁வேட்ட 59
1314 58
arn 58
ear 58
ham 58
mail 58
ren 58
இத்த 58
குறிப்பாக 58
ங்களில 58
ச்சாரம் 58
டித்துக் 58
த்தக 58
நாடுகளில் 58
நிற 58
ன்முற 58
பத்திர 58
பீல்ட் 58
புது 58
ப்படவேண்டிய 58
ப்படைத் 58
மதா 58
மாதிரி 58
மேய 58
மைகளையும் 58
ர்க்கின் 58
வரிட 58
விட்டால் 58
விரும்ப 58
ஷூ 58
ாண்ட் 58
ிதழ் 58
ிருப்பதைக் 58
ுகளாலும் 58
ுதலாக 58
ுவதற்குப் 58
ுவும் 58
ெல 58
ைக்குரிய 58
ொன்றும் 58
்க்கான 58
▁border 58
▁அடிமைத்த 58
▁அதிகமானோர் 58
▁அபாயத்தை 58
▁அறிஞர்கள் 58
▁அவதான 58
▁ஆர்ய 58
▁ஆழ் 58
▁இசைக் 58
▁இருபத்து 58
▁இருப்பதைக் 58
▁இளையராஜா 58
▁உண்ணாவிரத 58
▁உருளைக்கிழங்கு 58
▁உள்ளான 58
▁எண்ணத்தை 58
▁எல்பி 58
▁எல்லைக்குள் 58
▁எழுந்தது 58
▁ஒன்றைத் 58
▁கடைப்பிடி 58
▁கட்டளைகளை 58
▁கண்காணிப்பில் 58
▁கப்பலை 58
▁கருவுற்ற 58
▁கலந்துகொண்டார் 58
▁கல்விக்கழக 58
▁காணப்பட்டு 58
▁காப்பீட்ட 58
▁காப்புறுதி 58
▁கார்த்திக் 58
▁கிண 58
▁கிம் 58
▁கிழக்கே 58
▁குடும்பத்தை 58
▁குப்தா 58
▁குறிப்பிடத் 58
▁குழந்தைகளுக்கான 58
▁கூட்டை 58
▁கெள 58
▁கொடியை 58
▁கொண்டாடப்பட்டது 58
▁கோவை 58
▁சாலைகளில் 58
▁சிட்ட 58
▁சீராக 58
▁சூற 58
▁செயலை 58
▁செய்தபோது 58
▁செலுத்தினர் 58
▁செல்லப்பட்ட 58
▁சேர்க்கப்படும் 58
▁சேர்ப்ப 58
▁சேவைகளையும் 58
▁சோதனைகளை 58
▁ஜென் 58
▁டைட்ட 58
▁தயாரிப்பதற்கான 58
▁தாங்கும் 58
▁திகழ்கின்றன 58
▁தினந்தோறும் 58
▁தினமாக 58
▁திபெத் 58
▁திய 58
▁தீவிரம் 58
▁துணைக்கண்ட 58
▁தூக்கிய 58
▁தூங்க 58
▁நகர்புற 58
▁நகைச்சுவை 58
▁நடமா 58
▁நம்பப்படுகிறது 58
▁நாண 58
▁நிகழ்ந்தது 58
▁நிமித்தம் 58
▁நிறுவும் 58
▁நோக்கங்களுக்காக 58
▁பக்தர்கள் 58
▁பதிலீடு 58
▁பயன்படுத்தவும் 58
▁பயிற்சியின் 58
▁பலமாக 58
▁பலரை 58
▁பாங்க 58
▁பாலிவு 58
▁பின்பற்றிய 58
▁பிரசன்ன 58
▁புகுத்த 58
▁புரிதல் 58
▁புறத்தில் 58
▁புறம்ப 58
▁பெறுகின்ற 58
▁பேசுகிறார் 58
▁பேட் 58
▁போட்டியின் 58
▁போதுமானது 58
▁மனிதர்களை 58
▁மனை 58
▁மரணதண்டனை 58
▁மாதிரிய 58
▁மாநா 58
▁மாறுதல்கள் 58
▁முக்கியக் 58
▁லத்தீன் 58
▁லிட்டர் 58
▁வகுத்து 58
▁வன்னி 58
▁வருந்த 58
▁வரைபட 58
▁வரையான 58
▁வாய்ப்பைப் 58
▁விதிப்ப 58
▁விளக்குகிறது 58
▁விளைவை 58
▁வேட்டையா 58
▁ஹோட்டலில் 58
ABC 57
ark 57
ey 57
ille 57
ocratic 57
அல் 57
ஆப்கான 57
இரண்டு 57
கந்த 57
க்கடை 57
ங்களுடனும் 57
சஸ் 57
ஜிக் 57
டியிலிருந்து 57
ட்டையில் 57
ட்ரி 57
துகளின் 57
நாயுடு 57
நாவின் 57
ப்படுகையில் 57
மால் 57
முகி 57
ய்வுத் 57
ளிப்பது 57
வர்களுக்காக 57
வழிப் 57
வுகளும் 57
ஸால் 57
ஸ்டை 57
ாகிறது 57
ாவைத் 57
ிடையேயான 57
ிறுக்க 57
ுதியில் 57
ுதும் 57
ுற்ற 57
ைகளையே 57
ைகிறது 57
்காலத்தில் 57
▁\ 57
▁அடங்கியுள்ளன 57
▁அணியில் 57
▁அதிகரிக்கிறது 57
▁அதுவரை 57
▁அரவணை 57
▁ஆசிரியர்களின் 57
▁ஆண்டவன் 57
▁ஆஸ்த 57
▁இத்தாலியில் 57
▁இலங்கையிலும் 57
▁இவ்விழாவில் 57
▁உண்மைகள் 57
▁உயரத்தில் 57
▁உயர்த்தப்பட்ட 57
▁உறவில் 57
▁உலகப்போர் 57
▁உள்ளடக்கம் 57
▁ஊர்வலத்தில் 57
▁எத்த 57
▁ஏற்பட்டன 57
▁ஏற்றுக்கொண்டார் 57
▁கடைசிய 57
▁கட்டிடத்தில் 57
▁கலந்துகொள் 57
▁கழிவுகள் 57
▁கிடைக்கப் 57
▁கிடைக்காமல் 57
▁கிரீ 57
▁குடும்பங்களில் 57
▁குரூப் 57
▁குறிப்பிடவில்லை 57
▁குறிவைத்து 57
▁கூட்டாண்மை 57
▁கெம்ப 57
▁கேட்டது 57
▁கைத்தொழில் 57
▁கொள்ளாத 57
▁கோழ 57
▁சய 57
▁சாசனம் 57
▁சாட்சிகள் 57
▁சாதாரணமான 57
▁சுற்றுப்பயணம் 57
▁சுவிஸ் 57
▁சூரத் 57
▁செய்திப் 57
▁ஜெனீவா 57
▁தாவர 57
▁திருப்புமுன 57
▁தொகுப்புகள் 57
▁நினைவாக 57
▁நிம்ம 57
▁நீச்சல் 57
▁பகிர்ந்துகொள்ள 57
▁பகுதிகளும் 57
▁பங்கே 57
▁பஞ்சம் 57
▁படைவீர 57
▁பதவிகளில் 57
▁பயனை 57
▁பரப்பில் 57
▁பரா 57
▁பரிந்துரைக்க 57
▁பர்வ 57
▁பாய்ந்து 57
▁பாலாஜி 57
▁பிடிக்கப்பட்ட 57
▁புத்தா 57
▁புனர 57
▁புறக்கணிப்பு 57
▁பெங்களூருவில் 57
▁பெட்டிய 57
▁பெறுகிறார்கள் 57
▁பொங்கல் 57
▁மாற்றமும் 57
▁மீட்டு 57
▁முகவர்கள் 57
▁முண்ட 57
▁முதலமைச்சர்கள் 57
▁மூவர் 57
▁மேற்கூறிய 57
▁யாழ்ப்பாணத்தில் 57
▁வலைய 57
▁வழிகாட்டியாக 57
▁வவு 57
▁வாய்க்க 57
▁வீதத்தில் 57
▁வெளிவந்தது 57
1975 56
225 56
@ 56
ancial 56
ft 56
net 56
oh 56
sh 56
ux 56
ä 56
அக 56
ஆட்சி 56
உற்பத்தி 56
கட்சி 56
கும் 56
குற்ற 56
கூடிய 56
க்காலத்தில் 56
க்கால் 56
ங்களுமே 56
ங்காவ 56
சைப் 56
ட்டியில் 56
ட்பு 56
ண்டல 56
தற்போது 56
த்ன 56
நாயக்க 56
ன்களாக 56
புல் 56
போஸ் 56
ப்புள்ள 56
ப்புழ 56
முகமாக 56
ர்வாக 56
ள்களில் 56
வராவார் 56
வற 56
விலை 56
வுகளின் 56
ஷன்ஸ் 56
ஸ்வரன் 56
ாடாகும் 56
ானும் 56
ாமே 56
ாய்ப் 56
ார்ட்ஸ் 56
ார்வ 56
ாளும் 56
ாவற்ற 56
ித்திறன் 56
ினே 56
ிப்பதிலும் 56
ிப்புக் 56
ியாங் 56
ிரும் 56
ிறதோ 56
ுக்கொண்டிருந்த 56
ுடிய 56
ென்ப 56
ைகார 56
ையினை 56
▁00 56
▁அதன்பிறகு 56
▁அருணாச்சல 56
▁அழுத்தத்திற்கு 56
▁ஆக்சிஜன் 56
▁ஆடுகளை 56
▁இயக்கமும் 56
▁இயல் 56
▁இருட்ட 56
▁இருந்ததாகவும் 56
▁இறுதிக் 56
▁இளநிலை 56
▁உட்பிர 56
▁உதி 56
▁உதிரி 56
▁உயரம் 56
▁உயிர்கள் 56
▁உறுதுணையாக 56
▁உள்ளடக்கியது 56
▁உள்ளதை 56
▁எடுத்துக்காட்டு 56
▁கடத்தப்பட்ட 56
▁கடுங்கோ 56
▁கடைப்பிடித்து 56
▁கட்டுவது 56
▁கணக்குகளை 56
▁கதாநாயகன் 56
▁காலகட்டம் 56
▁குக 56
▁குத்து 56
▁குறிப்பான 56
▁கொடுக்கின்றன 56
▁கோள் 56
▁கௌ 56
▁சட்டங்களின் 56
▁சிகர 56
▁சித்தரிக்க 56
▁சிறப்பாகச் 56
▁சோதனைக்கு 56
▁ஞாயிற்றுக்கிழமை 56
▁டிக் 56
▁டில் 56
▁தங்கத்தை 56
▁தன்னம்பிக்கை 56
▁தயாரித்தல் 56
▁தயாரிப்பதற்கு 56
▁தலைகீழாக 56
▁தாக்கங்கள் 56
▁தில்லிய 56
▁தீவுகளின் 56
▁துறையாக 56
▁தொகுத்து 56
▁தொகையாக 56
▁தொகையின் 56
▁தொந்தரவு 56
▁நலிவ 56
▁நாசர் 56
▁நாள்தோறும் 56
▁நினைக்கும் 56
▁நிர்வாகப் 56
▁நிறைவடைந்தது 56
▁நிலையாக 56
▁பகுதிகளைச் 56
▁பசுபதி 56
▁பள்ளத்தாக்கு 56
▁பாதுகாப்பின் 56
▁பிரச் 56
▁பிரதேசத்தை 56
▁பீகாரில் 56
▁புத்திசால 56
▁புறக்கணித்து 56
▁பெற்றால் 56
▁பொருந்திய 56
▁போதே 56
▁போர்வீர 56
▁மக்களுக்குப் 56
▁மதிப்பிடப்பட்ட 56
▁மதியம் 56
▁மாதமும் 56
▁மாதிரியாக 56
▁மாவட்டங்களிலும் 56
▁முதி 56
▁வண்டி 56
▁வாதிட்டார் 56
▁விழித்த 56
▁வீட்டுக் 56
▁வீரவ 56
▁வெளிநாடுகளிலும் 56
▁வெளிப்பாட்ட 56
▁வேடங்களில் 56
)- 55
182 55
PP 55
X 55
ance 55
ood 55
rand 55
ss 55
ton 55
uth 55
அனு 55
ஆர்பி 55
எல்ல 55
குதி 55
க்கச் 55
ங்காக 55
டாத 55
ட்டிகள் 55
தவ 55
தாகச் 55
திக்கப்பட்ட 55
த்திலிருந்தும் 55
த்துக்குரிய 55
னால்ட் 55
னுக்குத் 55
பவராக 55
பாரதி 55
பாலா 55
பாவின் 55
ப்பகுதிய 55
ப்படியே 55
ப்படுத்தப்படும் 55
மட 55
மரு 55
மருத்துவ 55
மாக்கியது 55
மீர் 55
யிலை 55
ரானில் 55
லாகவும் 55
லிக 55
லிங் 55
ஸ்சி 55
ாக்களுக்கு 55
ினரால் 55
ிவந்து 55
ுட்பட்ட 55
ுதிர 55
ூறு 55
ேசிய 55
ேயோ 55
ைகுறை 55
்கான் 55
்கே 55
்ரீ 55
▁அடங்கியுள்ளது 55
▁அதையே 55
▁அத்தியாய 55
▁அந்ந 55
▁அமிதா 55
▁அமைப்புகள 55
▁அவசியமில்லை 55
▁ஆண்டுவ 55
▁ஆய்வுக்க 55
▁இடுக்க 55
▁இணையப் 55
▁இராது 55
▁இருப்பர் 55
▁இலக்கியம் 55
▁இலையுதிர 55
▁இவர்களே 55
▁உடலை 55
▁உணர்வும் 55
▁உயிரின 55
▁என்னென்ன 55
▁என்பதைவிட 55
▁எஸ்த 55
▁ஒன்றே 55
▁ஓடிய 55
▁கட்டப்படும் 55
▁கனேடிய 55
▁கருத்தரங்குகள் 55
▁கிறிஸ்துவின் 55
▁குறிப்பிடுவது 55
▁கொள்வதன் 55
▁சித் 55
▁சீக்கிய 55
▁சுலப 55
▁செய்ததாக 55
▁செய்யப்படாத 55
▁சேகரித்து 55
▁சேலம் 55
▁ஜாம்ப 55
▁ஜெயின் 55
▁தரப்பினர் 55
▁தலைமறை 55
▁தளர்வ 55
▁தானியம் 55
▁தாழ்ந்த 55
▁துறையால் 55
▁தேயிலை 55
▁தொண்டர்கள் 55
▁நகரத்திற்கு 55
▁நாட்டிலிருந்து 55
▁நாயர் 55
▁நிகழ்த்தினார் 55
▁நினைவக 55
▁நிறுவனத்துக்கு 55
▁நிறுவி 55
▁நுழையும் 55
▁நெட்வொர்க் 55
▁நெரிசல் 55
▁நேரடியாகப் 55
▁நோக்கிப் 55
▁நோய்வாய் 55
▁பங்குபற்ற 55
▁படிப்பை 55
▁படுகின்றன 55
▁பதவிக் 55
▁பத்தாண்டுகளில் 55
▁பயணங்கள் 55
▁பயன்படுகிறது 55
▁பாடிய 55
▁பாத்தி 55
▁பாரம்பரியமான 55
▁பிரகா 55
▁பிரதிபலிப்பு 55
▁பிரீ 55
▁பிற்பகுதியில் 55
▁புரட்சியில் 55
▁பெண்களுக்கான 55
▁பெருக்கம் 55
▁பெருக்கிக் 55
▁பெருந்திர 55
▁பெற்றதாக 55
▁போரும் 55
▁மன்ச 55
▁மருந்தை 55
▁மாநிலமாக 55
▁மாவட்டத்திலும் 55
▁முகவரி 55
▁முடிவெடுக்க 55
▁முத்து 55
▁முறையைக் 55
▁மேடைய 55
▁வழக்குத் 55
▁வழிம 55
▁விசால 55
▁வியாழன் 55
▁விரைவாகவும் 55
▁விற்பனையாள 55
▁விற்பனையாளர்கள் 55
▁விளையாட்டில் 55
▁விளையாட்டை 55
▁வீடுகளும் 55
▁வீதிகளில் 55
▁வென் 55
▁வைக்கவும் 55
▁ஸ்டேட் 55
▁ஹைதராபா 55
0% 54
1961 54
1973 54
ind 54
ire 54
uc 54
ure 54
இந்தியாவின் 54
காந்த 54
ங்காது 54
சுக்க 54
சுத 54
ச்சட்டம் 54
ட்டால் 54
ட்டிற்கு 54
ண்ணை 54
தற்குத் 54
த்தையோ 54
ந்திரநாத் 54
படுகிறது 54
பேசி 54
ப்பட்டதால் 54
ப்பீ 54
முறைப் 54
மைகளில் 54
லஸ் 54
ழிப்ப 54
வரில் 54
வாட் 54
விவ 54
வ்வ 54
ஹன் 54
ாத்த 54
ாலுக்கு 54
ாலை 54
ிகளினால் 54
ிருப்பவர் 54
ீரன் 54
ுக்கிட 54
ைகளுக்குக் 54
ையாட 54
ையுண்ட 54
ொள்கின்றன 54
்கி 54
▁a 54
▁he 54
▁அகமதா 54
▁அங்கிருந்த 54
▁அசோசிய 54
▁அடைந்தனர் 54
▁அனுமான 54
▁அரசாக 54
▁அற்று 54
▁அஸ்வ 54
▁ஆகியவற்றுக்காக 54
▁ஆச்சார் 54
▁ஆடிய 54
▁இதுவொரு 54
▁இந்நா 54
▁இரக்கம் 54
▁ஈட்டும் 54
▁உருவாவ 54
▁ஊச 54
▁ஊர்வலம் 54
▁எதிர்பா 54
▁எத்தியோப்பிய 54
▁என்பதற்கும் 54
▁என்றெல்லாம் 54
▁ஏபி 54
▁கடந்தகால 54
▁கடுமையாகப் 54
▁கற்பிக்க 54
▁காணமுடியும் 54
▁காப் 54
▁கார்ல் 54
▁காற்றாலை 54
▁கால்பந்து 54
▁கூட்டுச் 54
▁கூறுகள் 54
▁கோரக் 54
▁சாத் 54
▁சீர்த 54
▁சுருங்க 54
▁சென்றுவிட்ட 54
▁செழிப்பு 54
▁செவிலியர் 54
▁சைக்கி 54
▁தரக் 54
▁தாழ்வு 54
▁திரும்பினார் 54
▁தெரிந்தது 54
▁தெருவில் 54
▁தேவதூ 54
▁தொடங்கப்பட்டு 54
▁தொடரு 54
▁தொடர்புள்ள 54
▁தொலைதொடர்பு 54
▁தொழிற்சாலையில் 54
▁நகர்த்த 54
▁நன்மைகள் 54
▁நாக் 54
▁நாளேடு 54
▁நிற்பது 54
▁நோயைக் 54
▁படகுகள் 54
▁படமாக்கப்பட்டது 54
▁படிவம் 54
▁பணவீ 54
▁பதவிகள் 54
▁பழமை 54
▁பாலசந்தர் 54
▁பிசை 54
▁புகு 54
▁புத்தரின் 54
▁பெரியார் 54
▁பெல்ஜியம் 54
▁போக்குவரத்தில் 54
▁போட்டித்த 54
▁போரிடும் 54
▁போர்க்க 54
▁மனோகர் 54
▁மறுத 54
▁மற்றவர்களை 54
▁மல்லிகா 54
▁மாநகராட்சி 54
▁மிஞ்ச 54
▁முதலாக 54
▁முயல் 54
▁முஸ்லீம்கள் 54
▁மொராக்கோ 54
▁வசிக்க 54
▁வளர்ப்ப 54
▁வழங்குவதன் 54
▁வாரி 54
▁வாழ்கின்ற 54
▁வெடிகுண்ட 54
OECD 53
ct 53
int 53
per 53
rial 53
to 53
அதிகார 53
கள 53
க்ச 53
சபா 53
சிர 53
டித்தல் 53
டுகளிலிருந்து 53
ணிக்க 53
தரன் 53
த்திற்குட்பட்ட 53
நல்ல 53
நாக 53
ந்துரை 53
னுமான 53
ன்களுடன் 53
பக்த 53
பவர்களும் 53
புவ 53
ப்படுத்துகின்றன 53
ப்பதற்குப் 53
ப்பள்ள 53
ப்பொருள் 53
மன்ன 53
மல்லாமல் 53
முடிய 53
முமே 53
மையைச் 53
யோகி 53
ரங்கள் 53
ரில்லா 53
லிலிருந்து 53
லையின் 53
ாணும் 53
ானவை 53
ானியத் 53
ித்தன் 53
ிருஷ்ண 53
ுகூ 53
ுக்களால் 53
ூல் 53
▁ஃபா 53
▁அக்கட்சி 53
▁அன்றே 53
▁அரசர் 53
▁அலுவல் 53
▁ஆப்பிரிக்காவில் 53
▁ஆயில் 53
▁இதயம் 53
▁இந்நிலை 53
▁இனிய 53
▁இருப்பவர் 53
▁இறுதிப் 53
▁இல்லையென்றால் 53
▁இவர்களுடன் 53
▁உடைகள் 53
▁உத்திரப் 53
▁உருவாக்குவதன் 53
▁உள்ளடக்கி 53
▁உள்ளேயும் 53
▁ஊடுருவல் 53
▁ஒத்திசை 53
▁ஓட்டுநர் 53
▁ஓப்ப 53
▁கட்டப்பட்டுள்ளன 53
▁கப்பற்படை 53
▁கர்ப்பி 53
▁கல்வியறிவு 53
▁கவரும் 53
▁காலில் 53
▁கிணற 53
▁குறிகாட்ட 53
▁குற்றம்ச 53
▁கையேடு 53
▁சதவீதத்தினர் 53
▁சாதனைய 53
▁சிகிச்சைக்காக 53
▁சுற்றுச்சூழலை 53
▁செந்த 53
▁சென்றபோது 53
▁செயலாளரும் 53
▁செய்வதிலும் 53
▁சேவைகளும் 53
▁சொல்லப்பட்ட 53
▁தகவல்களும் 53
▁தகவல்களைத் 53
▁தன்னைக் 53
▁தயாரான 53
▁தலைவருக்கு 53
▁தூண்டுதல் 53
▁தேர்வில் 53
▁தேவைப்பட்டால் 53
▁தேவையைப் 53
▁தோண்ட 53
▁நகல் 53
▁நடமாட்ட 53
▁நடுக்க 53
▁நடுநிலை 53
▁நன்மைகளை 53
▁நிலைகொண்ட 53
▁நிலைக்க 53
▁நிலையைப் 53
▁நேர்மறை 53
▁நோபல் 53
▁பகுத்தறிவ 53
▁படைவீரர்கள் 53
▁பணிமன 53
▁பயணிக்கும் 53
▁பயன்பாட்டில் 53
▁பல்கேரிய 53
▁பாதுகாத்துக் 53
▁பாப்பு 53
▁பாலமாக 53
▁பிடியில் 53
▁பிடு 53
▁பிரபாகரன் 53
▁பிரிவிலும் 53
▁பிளா 53
▁பிள்ளைகளும் 53
▁பீரங்க 53
▁புகழ்ந்து 53
▁புதல் 53
▁புதிதாகத் 53
▁பெண்ட 53
▁பொய்யான 53
▁மாகாணத்தின் 53
▁மாற்றப்பட 53
▁மிச்சிகன் 53
▁முன்மாத 53
▁முற்றாக 53
▁மெய் 53
▁யாருடைய 53
▁ரூஸ் 53
▁வங்காளம் 53
▁வணிகத்தை 53
▁வாராந்திர 53
▁வால 53
▁வாழ்வதற்கு 53
▁விந்த 53
▁விரித்து 53
▁விருப்பு 53
▁விளிம்பு 53
▁விளைச்ச 53
▁விழாக்கள் 53
▁விவசாயத்தில் 53
▁விவே 53
▁வீட்டிலும் 53
▁வெளிப்புற 53
▁வெஸ்ட் 53
▁வேரூ 53
▁ஹாக்கி 53
▁ஹோட்டல் 53
1976 52
PT 52
TM 52
iss 52
ys 52
அடுத்த 52
என்ற 52
காண்ட 52
க்கிங் 52
ங்கிக் 52
ஞ்சக 52
டுவதையும் 52
ணிப் 52
திப்பது 52
த்தகாத 52
த்தைந்து 52
நிறுவனம் 52
னாள் 52
னோம் 52
ன்பட்ட 52
பத் 52
ப்பகுதிகள் 52
ப்படிய 52
மம் 52
மாக் 52
மான்கள் 52
முடி 52
மேனிய 52
ராகும் 52
ரிப் 52
ருக்களின் 52
ருதி 52
ரையா 52
லாந்த 52
லுக்குள் 52
ளப் 52
ஷ்மி 52
ஷ்யா 52
ாக்கி 52
ாட்சிகள் 52
ாயே 52
ாலய 52
ாலியா 52
ாளர்களுக்கான 52
ாவுக்குக் 52
ிகம் 52
ிகளுக்குக் 52
ிகளுக்குள் 52
ிரண்டு 52
ிராப்பள்ளி 52
ிறதா 52
ிவரு 52
ீழ 52
ுக்கார 52
ூட் 52
ெல்லா 52
்செ 52
▁des 52
▁அண்ட் 52
▁அதிர்வ 52
▁அநு 52
▁அனுப்பப்பட்டது 52
▁அயல்நாட்டு 52
▁அறைகள் 52
▁அல்ப 52
▁ஆறாம் 52
▁இந்தியர் 52
▁இன்றுவரை 52
▁இயற்பியல் 52
▁இல்லா 52
▁இல்லாமலும் 52
▁இளமை 52
▁இவர்களது 52
▁இவர்தான் 52
▁உருவா 52
▁உறைவிட 52
▁உல் 52
▁எடுத்துக்கொள் 52
▁ஏடு 52
▁ஏற்படாமல் 52
▁ஏற்படுகின்ற 52
▁ஏற்படுத்தின 52
▁ஒன்றோடொன்று 52
▁ஒப் 52
▁ஒப்பிட்டு 52
▁கடைசிப் 52
▁கணின 52
▁கண்டறியப்பட்ட 52
▁கம்யூனி 52
▁கருத்துக்களைப் 52
▁கலகம் 52
▁காய்கற 52
▁கிளைகள் 52
▁கீழ்ச 52
▁கையகப்படுத்த 52
▁கொள 52
▁கோல்ட் 52
▁சச்ச 52
▁சத்தியாக 52
▁சந்த் 52
▁சமிக்க 52
▁சிதைந்த 52
▁சிறித 52
▁சிறைத் 52
▁சுனில் 52
▁சூடான 52
▁செயற்படும் 52
▁செயற்பாட்ட 52
▁செயல்பாட்டிற்கு 52
▁செய்ததன் 52
▁செல்லுபடிய 52
▁சேகரிக்கும் 52
▁ஜாஸ் 52
▁தண்ணீரில் 52
▁தன்னைத்தானே 52
▁தாள 52
▁திருட 52
▁திறமைகள் 52
▁துணைத்தலை 52
▁துறையைச் 52
▁தெளிவாகிறது 52
▁தேர்ந்த 52
▁தேவைகளுக்காக 52
▁தோய 52
▁நடித்துக் 52
▁நபர்களின் 52
▁நழுவ 52
▁நாகரீக 52
▁நாட்களிலும் 52
▁நாட்டைக் 52
▁நிகோபார் 52
▁நீரில் 52
▁நுழைவுத் 52
▁பகி 52
▁பகுதிகளையும் 52
▁பணிக்காக 52
▁பயணித்து 52
▁பள 52
▁பழங்குடியினரின் 52
▁பாவன 52
▁பியர் 52
▁பிரச்ன 52
▁பிரம்மாண்ட 52
▁பிலிப் 52
▁புறப்படும் 52
▁பூர்வமாக 52
▁பெங்களூரில் 52
▁பெரியது 52
▁பெரும்பகுதியை 52
▁பொருட்களும் 52
▁போட்டியாளர்கள் 52
▁போர்ட 52
▁மனப்பா 52
▁மரணத்தை 52
▁மறுதல 52
▁மாகாணங்களில் 52
▁முடிக்கும் 52
▁முந் 52
▁முரட்டு 52
▁முற்போக்குக் 52
▁மூன்றாவதாக 52
▁மூலக்கூறு 52
▁மென் 52
▁மேலாண்மைக் 52
▁மேலோ 52
▁யாரையும் 52
▁ரேடியோ 52
▁லார 52
▁லிபிய 52
▁வடிவமைத்து 52
▁வந்ததாக 52
▁வழக்கின் 52
▁வாயில் 52
▁வார்ட 52
▁விடுபட 52
▁விதிகளின்படி 52
▁விதிவிலக்கு 52
▁விமானத்தை 52
▁வெளிப்படுகிறது 52
▁ஸ்வீ 52
1985 51
aj 51
back 51
di 51
enn 51
hr 51
ierre 51
jpg 51
lo 51
me 51
ner 51
rd 51
soci 51
top 51
ç 51
ஆல் 51
ங்கக் 51
சென்னை 51
சேவை 51
ச்சார்பற்ற 51
டீ 51
டுகளைப் 51
டைகள் 51
ட்டமைப்பு 51
ண்டாக 51
தனு 51
நிர் 51
நீல 51
னோன் 51
ப்பணிய 51
ப்ரா 51
மாக்குதல் 51
ரசம் 51
ரையே 51
வங்க 51
வட்ட 51
வனான 51
வர்தன 51
ஷல் 51
ஸூ 51
ஸ்வர் 51
ாகர் 51
ாட்சியின் 51
ிகளாகும் 51
ினியின் 51
ில்க 51
ேசி 51
ைக்குள்ள 51
▁அகாடமி 51
▁அசி 51
▁அசோக் 51
▁அண்மைக்கால 51
▁அவி 51
▁ஆசாத் 51
▁ஆண்டுக் 51
▁ஆராய்ச்சிப் 51
▁இணையும் 51
▁இந்தியச் 51
▁இருக்கக்கூடாது 51
▁இற்கும் 51
▁ஈழ 51
▁உதவுகின்றன 51
▁உரிமைகளும் 51
▁உலை 51
▁எடுப்ப 51
▁எதிராகத் 51
▁ஐதராபாத் 51
▁ஒன்றிணைக்க 51
▁ஒன்றிணைந்த 51
▁ஒருவரைய 51
▁ஒழு 51
▁கடம 51
▁கடவு 51
▁கட்டங்களில் 51
▁கட்டமைப்புகள் 51
▁கட்டிடத்தின் 51
▁கன்ற 51
▁கரையில் 51
▁கரோ 51
▁கறு 51
▁கல்வ 51
▁களஞ்சிய 51
▁காங்கிரச 51
▁காட்டப்பட்ட 51
▁காரணத்திற்காக 51
▁காஷ்மீரின் 51
▁கிராமங்களும் 51
▁கிறிஸ் 51
▁குப்பை 51
▁குறிப்பிடும் 51
▁குறுகியகால 51
▁குழந்தைகளையும் 51
▁கோட்பாடுகள் 51
▁கோப்பை 51
▁சந்தோஷ் 51
▁சபா 51
▁சர்வதேசத் 51
▁சிதைக்க 51
▁சிய 51
▁சிறுநீரக 51
▁சென்றால் 51
▁சேவைப் 51
▁ஜெனர 51
▁ஜெர்மன் 51
▁ட்ரை 51
▁தஞ்ச 51
▁தத்துவத்தை 51
▁தரப்பட்டது 51
▁தரவரிசையில் 51
▁தாமாகவே 51
▁திருவிழாக்கள் 51
▁துள 51
▁தெய்வீக 51
▁தெலுங்கானா 51
▁தொகு 51
▁தொகுதிகளில் 51
▁தொலைநோக்க 51
▁நகரை 51
▁நாகரிக 51
▁நிதியின் 51
▁நிற்கின்றன 51
▁நீதிமன்றத் 51
▁நேர்முக 51
▁பஞ்சு 51
▁பணியா 51
▁பத்தாம் 51
▁பத்தில் 51
▁பலவிதமான 51
▁பலா 51
▁பியோ 51
▁பிரசித்தி 51
▁பெறத் 51
▁பெறாமல் 51
▁மந்திரத்தை 51
▁மறைவு 51
▁மற்றொன்று 51
▁மாற்றியமைத்த 51
▁மிகச்சிற 51
▁முடித்தார் 51
▁முறையைப் 51
▁முழக்கம் 51
▁மூடும் 51
▁ராஜ்குமார் 51
▁வணிகச் 51
▁வருவாயில் 51
▁வளர்ச்சியும் 51
▁வளர்ச்சியைக் 51
▁வழங்குகிறார் 51
▁வாசன 51
▁வாய்ந்ததாக 51
▁விதியை 51
▁விற்பனையில் 51
▁விளைவிக்க 51
▁வெளிப்பட்டு 51
▁வேட்டை 51
▁வேதியியல் 51
▁வேரூன்ற 51
▁ஹெச் 51
'', 50
/0 50
1917 50
1938 50
HIV 50
eter 50
ial 50
ng 50
oman 50
tre 50
அடி 50
அல்லது 50
உய 50
எங்கள் 50
கோடி 50
க்காலம் 50
க்குரல் 50
க்கூடு 50
க்கூட்டம் 50
டன 50
தரி 50
நீண்ட 50
ப்படைய 50
ம்மை 50
ராகத் 50
ர்கர் 50
ர்களாகிய 50
ற்பட்டு 50
லின்போது 50
ழுக்கள் 50
வரியில் 50
வரையில் 50
விசை 50
வியில் 50
வுக்க 50
ஷேக் 50
ஸோ 50
ஸ்ஸி 50
ஹை 50
ாக்கத்தில் 50
ிக்கொண்டனர் 50
ிடையேயும் 50
ீடம் 50
ுவதைப் 50
ுவருகின்றன 50
ேஜ் 50
ையிடும் 50
்கிர 50
▁அகதி 50
▁அமைச்சரவையின் 50
▁அரோ 50
▁அறக்கட்ட 50
▁ஆகியவற்றைச் 50
▁ஆரம்பம் 50
▁ஆஸ்திரிய 50
▁இருக்குமாறு 50
▁உதிர 50
▁உள்ளா 50
▁எட்டாம் 50
▁எட்டியது 50
▁எம்ம 50
▁எரிந்து 50
▁எழுத்த 50
▁ஐதராபாத்தில் 50
▁ஒளிப்பதிவ 50
▁கட்டுவ 50
▁கதவு 50
▁கமல்ஹாசன் 50
▁கரா 50
▁கருத்தையும் 50
▁கிரா 50
▁கிரியே 50
▁குறித்துக் 50
▁குற்றவாளி 50
▁குவாண்ட 50
▁கேபிள் 50
▁கொரியாவின் 50
▁சந்தர்ப்பம் 50
▁சரிபார்க்க 50
▁சாகர் 50
▁சிக்கி 50
▁சிரமம் 50
▁சிரியாவின் 50
▁செட் 50
▁செயலாற்றி 50
▁செயல்களுக்கு 50
▁செயின்ட் 50
▁செரு 50
▁ஜெய்ப்பூர் 50
▁தங்கியிருக்கும் 50
▁தடுப்புச் 50
▁தவறி 50
▁தாத 50
▁தாய்லாந்தில் 50
▁திசையை 50
▁திருகோணமலை 50
▁திரைப்படத்தை 50
▁துணையாக 50
▁துப்பாக்கிகள் 50
▁தேர்ந்தெடுத்து 50
▁தேர்வை 50
▁தோற்றுவிக்கும் 50
▁நாட்களின் 50
▁நிகழ்வின் 50
▁நிறுவனர் 50
▁நேர்மை 50
▁நேஷனல் 50
▁நொறு 50
▁நோய்த்தொற்று 50
▁பங்காற்றி 50
▁பண் 50
▁பத்தி 50
▁பயக்கும் 50
▁பரப்பளவில் 50
▁பலனாக 50
▁பாதுகாவ 50
▁பாதுகாவல 50
▁பிட் 50
▁பிரம்ம 50
▁பிராண்ட 50
▁பெண்ணின் 50
▁பெரும்பாலானவை 50
▁பெறமுடியும் 50
▁பொருட்களைக் 50
▁போர்த்துக்கல் 50
▁மந்திரம் 50
▁மனைவியும் 50
▁மனைவியை 50
▁மாட்சி 50
▁மாணவர்களுக்கும் 50
▁மாணவர்களுடன் 50
▁மாநிலத்தை 50
▁முடிவடைந்தது 50
▁முன்வைத்தார் 50
▁முறையையும் 50
▁மூலப் 50
▁மூலமாகவோ 50
▁மேஜ 50
▁மைதான 50
▁ராஜ்க 50
▁ராயல் 50
▁லக்ஷ் 50
▁லட்சுமி 50
▁லாரன்ஸ் 50
▁லீக் 50
▁லென 50
▁வகைகளை 50
▁வாசகர்கள் 50
▁விமர்சக 50
▁வியக்க 50
▁வீட்டிலிருந்து 50
▁வீதத்தை 50
▁வெளிவந்து 50
▁வைத்துள்ளனர் 50
# 49
.0 49
111 49
127 49
1969 49
CFDT 49
fer 49
sch 49
son 49
ver 49
கோதர 49
க்கர 49
சனின் 49
ட்டரி 49
ணன் 49
ணிகளில் 49
நம்ம 49
நலம் 49
ந்திரன் 49
ந்திரி 49
ந்திருக்கும் 49
ன்மூலம் 49
பந்து 49
பாபா 49
பித்த 49
பிரெஞ்சு 49
மார்க் 49
மைச்ச 49
ரசின் 49
ரிகள் 49
ருகின்றது 49
ருவி 49
ல்கார 49
ளால் 49
விஜய் 49
வியுடன் 49
ஷில் 49
ாகோ 49
ிலுமுள்ள 49
ுறையாக 49
ென்பது 49
ையினாலும் 49
ோனிய 49
ோர 49
ோர்கள் 49
▁ஃபி 49
▁அசைவ 49
▁அதன 49
▁அதிகபட்சம் 49
▁அதிகாரியின் 49
▁அமர்வு 49
▁அரவிந்த் 49
▁அரியானா 49
▁அளவில 49
▁ஆண்டுகளுக்குள் 49
▁ஆன்டி 49
▁ஆர்வமுள்ள 49
▁ஆற்றி 49
▁ஆல்ப 49
▁இடம்பெற்றது 49
▁இணைந்துள்ளது 49
▁இலங்கைப் 49
▁உருவாக்கினார் 49
▁உலோக 49
▁உழைப்ப 49
▁உவ 49
▁ஊழலுக்கு 49
▁எட் 49
▁என்றனர் 49
▁ஏதுமில்லை 49
▁ஒப்பிட்டுப் 49
▁கண்டனர் 49
▁கதர் 49
▁கம்போடியா 49
▁கல்வித்துறை 49
▁கவர்ச்ச 49
▁காரணத்தினால் 49
▁காலத்திலிருந்து 49
▁கிராமத்து 49
▁கிறிஸ்துமஸ் 49
▁குடியரசில் 49
▁குறிப்புகள் 49
▁குறியீட்டில் 49
▁குழந்தையின் 49
▁கையால் 49
▁கோவிலில் 49
▁சட்டமன்றம் 49
▁சிங்கப்பூரில் 49
▁சித்தரிக்கும் 49
▁சிறப்பாகப் 49
▁சிறுபான் 49
▁சுருக்கம் 49
▁சுழ 49
▁சூறையாட 49
▁தளபதியாக 49
▁தவறுகள் 49
▁தவிர்ப்பதற்காக 49
▁தாய்வ 49
▁தாவரங்கள் 49
▁திருத்தச் 49
▁திறனுடன் 49
▁திறனைக் 49
▁தீர்மானிக்கும் 49
▁தொடரின் 49
▁நன்கொடைய 49
▁நம்பிக்கைக்கு 49
▁நியூயார்க் 49
▁நிரம்ப 49
▁நிர்ணயிக்கும் 49
▁நிலைக்குத் 49
▁நிழல் 49
▁நீதிமன்றங்களில் 49
▁நீரோ 49
▁பகுதிகளாக 49
▁பகுதியையும் 49
▁படத்திற்காக 49
▁பட்டியலிட 49
▁பணியாக 49
▁பத்திரம் 49
▁பயன்படுத்தக் 49
▁பரிந்து 49
▁பர்ம 49
▁பறி 49
▁பறைசாற்ற 49
▁பல்வேறுபட்ட 49
▁பழக்கத்தை 49
▁பாடகர் 49
▁பாதுகாப்பும் 49
▁பிள்ளைகளை 49
▁புகலிட 49
▁பேரி 49
▁பொதுப்பண 49
▁போரிட்ட 49
▁போர்ச்ச 49
▁மகப்பேறு 49
▁மதுபான 49
▁மரணமடைந்த 49
▁மாணவர்களிடையே 49
▁மாணவர்களுக்கான 49
▁மாஸ்கோவில் 49
▁மிக் 49
▁முடிவும் 49
▁முதற்கட்ட 49
▁முறியடித்த 49
▁ரத்னா 49
▁ரப்பர் 49
▁ரூட் 49
▁வகிக்கின்றன 49
▁வசதியுடன் 49
▁வரிக்க 49
▁வருகையில் 49
▁வளங்களையும் 49
▁வழங்கத் 49
[...]
